/**
  ******************************************************************************
  * @file    network_data_params.c
  * @author  AST Embedded Analytics Research Platform
  * @date    Tue Feb 18 16:33:36 2025
  * @brief   AI Tool Automatic Code Generator for Embedded NN computing
  ******************************************************************************
  * Copyright (c) 2025 STMicroelectronics.
  * All rights reserved.
  *
  * This software is licensed under terms that can be found in the LICENSE file
  * in the root directory of this software component.
  * If no LICENSE file comes with this software, it is provided AS-IS.
  ******************************************************************************
  */

#include "network_data_params.h"


/**  Activations Section  ****************************************************/
ai_handle g_network_activations_table[1 + 2] = {
  AI_HANDLE_PTR(AI_MAGIC_MARKER),
  AI_HANDLE_PTR(NULL),
  AI_HANDLE_PTR(AI_MAGIC_MARKER),
};




/**  Weights Section  ********************************************************/
AI_ALIGNED(32)
const ai_u64 s_network_weights_array_u64[44477] = {
  0xd240e250ecdf8f4U, 0xf70eb5e7f9c6ee0bU, 0xbd2ff5303ed9c304U, 0x13e7ddcfb8fdb751U,
  0xfa3940bab8dbb610U, 0xb5172218062a14deU, 0xdb0d252afd0f52b2U, 0x10e14be1ae324d2U,
  0x37f4e71fcb1dd70aU, 0x10d91306b31a4e1cU, 0xe92dded3f9e1e1beU, 0xdde90dc7c3221ff2U,
  0x12bc16cde6c51b11U, 0xfcc5c7effd24e00cU, 0x21d1fdea3c3f0c0fU, 0xf7d30f18b9cfee47U,
  0x37b944d89ccbd5f6U, 0xeaf0c52eecd6cd04U, 0x1a23f0fe163f0b34U, 0xdae7e20eebe9db3dU,
  0xea37eb0ce4f32a1bU, 0x4e242a1a221b01d8U, 0xc431160ae01d2c07U, 0xe023d7c728363b1bU,
  0xefac10dd7e8fcb5U, 0xd40a44d5dd242106U, 0x5fd15dfd32fb609U, 0xeecef3cc0ac2d203U,
  0x17ef051adddcc119U, 0x40f59dee3927d6dcU, 0xcff0d8d6d6b32dU, 0x284fd90c491ae6b3U,
  0xe205cbdafad50200U, 0xedf920e2c8d2eb3eU, 0x3ccea1c7f6c3d3feU, 0x1dbf21e5d403b7deU,
  0xed08c10205c01bccU, 0x10e1decbc2d1da18U, 0xc7ef3ab92c14d6d3U, 0xc8be1db9dfe5e8e6U,
  0x10fe155501c01840U, 0xdfdb2cb9c5f7e5d4U, 0x1b1d1427f60f280aU, 0xf2f225d7ead1e924U,
  0xd4dde4081dd2ffefU, 0xd3060f3000f51dedU, 0x42fcc602f9ccbf3aU, 0xbf0b071f1c35d643U,
  0x234e1bcca29d627U, 0x13e5e7e6fd00f7f5U, 0x36ea20e5eaeef227U, 0x2209d618c54b2ed7U,
  0xce51d250c21cf71aU, 0x8f2c1ff0c23043cU, 0xc40047240013e818U, 0xe91c210a07ec08e6U,
  0xebe9cfa3eeb1fac9U, 0xc9c0f6ffe52f14e1U, 0xe9d0faf408f3cb16U, 0x65d76dc910f8fdefU,
  0xfe5effbaee2600c7U, 0x46f2401fc3f2ddd0U, 0xf73603d7381c2b13U, 0xf3bedaaa2522e80cU,
  0x32e11be3e8de3219U, 0xfcded9171de5dd0aU, 0xdfd7d2d4fa36fc2aU, 0xf0f1fc04cef4d107U,
  0xed4af4c0340feae1U, 0x19ede1cbcb2e2220U, 0x4d45de1b13b8f0ddU, 0x9d2f05cdb0e8f945U,
  0xc72539f0d610fa19U, 0xf6d7ecf309e62b0bU, 0x460df114101d3e17U, 0x3ee2152ddd154abfU,
  0xf92fe5ddf0e5fbf2U, 0xe41d0de5d4bdc3efU, 0x3229db08ed33d5e5U, 0xd30fe54f2f0ac8daU,
  0xc8e806a0c2bee4fdU, 0x34fb0cd3b726fb0dU, 0xeea0ecf9e0e550d1U, 0xcdaacfc108a3bcc2U,
  0xcef6dcdfefb9dbd3U, 0xdaf010f0d8ea0822U, 0x32e0d5d9edde11faU, 0x44ff32e2ed190b0bU,
  0xb072005f8ed29b9U, 0x1e4137cd2e0acc0fU, 0x6027b9d21023f5d1U, 0xdbdc0c2c17310b37U,
  0xef022fdae5d91fe5U, 0xc8d8d52842b3f315U, 0x363b0d13f344eb30U, 0xd1dbcee135d71acaU,
  0x15ca480f4500fb15U, 0xd31cfce6ca281ccaU, 0xedd71b011400e9cfU, 0x31b43955e0bbecb4U,
  0x35c921d6dc1c43ccU, 0x252520febcb7ff05U, 0x60bc30b2f0f2b2aU, 0x100104f3c5ebffe7U,
  0xf9b521f7b3ce2ac0U, 0x244f1c16c2040632U, 0xddcc23d89401c2bcU, 0xf7aaf1efce25efd6U,
  0x2efa001e15f21c39U, 0x39b31fe9feea00e8U, 0xc1d1ede710cb48f1U, 0xfac5c4beea2f3acbU,
  0xeb041ad8f51c35efU, 0x115bd8be3616342dU, 0xe10edcf02c41fb2U, 0xb4e9f222dd4317e9U,
  0xdaf1c2d028032be5U, 0x322b173ce4abbb0cU, 0xbb33da0b3ff40cd9U, 0x2f181dd3f6d405f5U,
  0xf4ae081449313e36U, 0x27e0292d3dc8c0ffU, 0x18b6c02ad9c0251bU, 0xe039f32a3817fe13U,
  0x40e0c4c8d8f31030U, 0xcdf2140f32e6f31eU, 0x2ad9c4f7d2f6c94aU, 0xf3c5faeffcb910efU,
  0xf236ff19e81d052bU, 0x2ad7fd01e310fc04U, 0x101270afee3fdd7U, 0xfa1223d90a2a1316U,
  0x27f70f0bc407f343U, 0xd4ed1f0cf6d126f4U, 0x331b0f2304f104d5U, 0xf6fc3d00d8e64020U,
  0x32c929b7e7c039f0U, 0xc71feeeddce1fc28U, 0xbbebfe0b1d24deU, 0x19f6fb2bc9e119faU,
  0x2e7d0c1c1edd9e4U, 0xfdcce9fdd92727U, 0xc3efcd06e41118d2U, 0x20d1e4e3b6cabfd0U,
  0xdfe7100ff9ef2bdcU, 0xd4fdb82c101319f1U, 0xc2f2112ffbd8df2aU, 0x3402fb0dd9391656U,
  0x2426d70ada07eaf9U, 0xa0625f9ccee0fedU, 0xeef0ee04c9d63321U, 0x3327fccafc231e14U,
  0xe3523c35fd19071cU, 0xd6dbb72a0edad00eU, 0x1e2040f3dd040718U, 0xe6df26ee3132342aU,
  0xcf5fcc2d02afdb8U, 0xaf116cad6dc2ae2U, 0xddd6e2450d28bdeaU, 0x5dc8bb06e02ee9e0U,
  0x3fbfcbe1d10fe430U, 0x1e5e906d3e31be9U, 0x4218b9810f5604f3U, 0x41170fe7effeb7b2U,
  0xd6d6fec433f62fd5U, 0xb611003e20ed1138U, 0xe8ff1000022a2023U, 0x210fecfccb27f848U,
  0x3ddcd252eaa93909U, 0xe925dcf3d1160fd9U, 0xde2a2af9e62bc9daU, 0xddca081ff4dbf1d9U,
  0xf105d8b530fce4ddU, 0xd00afeb01d9966e1U, 0x28e3e8b8e1e5e01fU, 0xc9513226073a3f25U,
  0x17d50cb3f6df27cdU, 0xfbfdc4e8fd030ef4U, 0xfc07e042dabc29ecU, 0x15bff0c0ea4be40bU,
  0x322a1224d8f2e629U, 0x200a2b28f02dc732U, 0xe2e8d12428253027U, 0x1e19bde1cff4ea3fU,
  0xda0edce5f6f5ed30U, 0x53bc1219d8b49302U, 0xdfcee6e711b934e7U, 0xbd5410e60bd4de21U,
  0x350aec2341aa13fbU, 0xe7f50ae5df3911c5U, 0x17c9f8e3e11ec7fdU, 0x48023bddeec11f30U,
  0x17011b51fc34ff01U, 0xf726b6345319d0c2U, 0xddb6b30900eafe3eU, 0x2e30341a222e1e33U,
  0xe3fe1b5dddf5d233U, 0xbdf9e8c92914d8U, 0x1502fce6f128bdf8U, 0x1e1409c31be9f90cU,
  0xefecefef4f1d00b5U, 0x34a80e1aded3829cU, 0x13d1dbfa390214b7U, 0x31330e1ecc3311ffU,
  0xe7fbd2d4fcfdc6ecU, 0x7018c0c8e1dbedcbU, 0xd3c9c8be03d63b2cU, 0xd4cd7e81136cbf4U,
  0xed3bfbbe08bf59cdU, 0xf50a17dee1d6db3dU, 0xc4c71804b9aed3dcU, 0xb7c817eabee0e9d8U,
  0x2029fe5ad60ff330U, 0xe60ecef00efc2be5U, 0x9343d54fecb0cffU, 0x43aec033e07d93fU,
  0xda1e1700d52b1ff6U, 0x9efdf0ff5d01e16U, 0xd70e1068ddefea1cU, 0x2df4ea0728340e40U,
  0x490c2ee9d529e574U, 0xc5c1aef1016c923U, 0xb12bc8cdd918342eU, 0x51bb2607ea210832U,
  0xe5f2c9f83ad1b5eeU, 0x2830f8ea15c10cd1U, 0xeb0703b9e60bdbf4U, 0xd1fce23ef50ef2d8U,
  0xecaf3004a52b3f5U, 0xe43c22eec63106ebU, 0xbace4f36d9f9c51dU, 0x15dfc2cf273b40b4U,
  0xc206f0160ac408d7U, 0xfbf3e334d1d3f132U, 0xe6342b33eb4a0ef5U, 0x28f9ccfa1ef7e30fU,
  0xb1ac28ece3f33cbaU, 0xf1c4114c0f22f407U, 0xb5e71c21a042eae9U, 0xe7be111c93081c2fU,
  0xc13dbcac501e834U, 0x2154fcc7e704fd39U, 0xa93043e5d1abdf27U, 0xd2052f2ef8530cdaU,
  0xe01dedd1dbeeb01eU, 0x10dcf8f619041622U, 0x1ce834dbcbe72b23U, 0xd7c218d0de0f13f8U,
  0xe1cd80c4e00eac5U, 0xd8f5bd201ac7c818U, 0x9b902114ac6f1d6U, 0x31e2da3ce5fa08caU,
  0xdefbffd71236241bU, 0xda35340c37082ed3U, 0xe2eafffc150d1b2eU, 0xc6d702ff01cff3dbU,
  0x144000006a3U, 0x480000005e0U, 0xfffff68d0000053dU, 0x60600000a76U,
  0x10d500000fa0U, 0x249ffffffe2U, 0xfffffc6b0000016cU, 0xd600000af9U,
  0x3620000053dU, 0x683fffff96aU, 0x8a80000155dU, 0x2e0fffffa4dU,
  0xffffff9d00000278U, 0x3b900000c60U, 0x2c4ffffff40U, 0x6cefffffa79U,
  0xfffffc2dfffffbfaU, 0x123c000004c6U, 0xffffffc3fffffecdU, 0x914fffff8baU,
  0xfffffc2f0000066eU, 0x40f000005f5U, 0xfffff94400000865U, 0x440000092dU,
  0x3a0fffff7c5U, 0x9ba0000058fU, 0xfffff66f00001050U, 0xfffff67bfffffabcU,
  0x12c0000091cU, 0x75b00000099U, 0x5aa000000faU, 0xfffffe60000005e3U,
  0xf1f91dfc1ad7d801U, 0xedf201001727f4d4U, 0xecedd6d013ef2104U, 0x4210f03ece026e7U,
  0x4031aff16d9f6e6U, 0xe1e726d509cc3909U, 0x162e2feb1eda1d41U, 0x37e9d3ebf30ce004U,
  0xdde8fa0525021cf4U, 0x218f7f6051af7e8U, 0xdf1026f2230c33e5U, 0xf41f0124e5f5fdedU,
  0x50901fdf3cef422U, 0x4701fdd62a121008U, 0x7d52b03dfee3e17U, 0xf2f228ece3df04edU,
  0xf0f20ff71a25f0ceU, 0x123319111d2be5f1U, 0xc3d6e41be3d1f7ddU, 0x25e5e7f5ff1619e3U,
  0x7171307cee63a16U, 0x1cf415d51814f6ecU, 0xfad53ecf15f143ffU, 0x15deffd8cdf023c9U,
  0xebf827d426f21a1eU, 0xe6191e28f31af2e2U, 0xd030f1f0e013f908U, 0x2eef39fffe290cU,
  0xa140f13ceea2701U, 0xe30edff41bf7e8e9U, 0x1ce209b9daf81421U, 0x2b1e0d2000d719f9U,
  0xb9fff7fd0521f507U, 0x1203e3db1b48c0ebU, 0xd92003c7ef06cad7U, 0x27feda082219301aU,
  0x801efd7c70b4026U, 0x2eebe9f629f0e1edU, 0xae421c5e8e4ee2eU, 0x14d3fafb21da19f5U,
  0xd1f0060ffe050e1cU, 0x34ea0101210cec1aU, 0xda08eaed1d17ded7U, 0xfaf7e8f0ff1326U,
  0xcfc5f808f5ff27f9U, 0xfb0023f5effe11d2U, 0x430d07ebedd11c11U, 0x41eaf3f7cad810e0U,
  0xd6f5d3dfe4dadbd8U, 0x21f510f4e5bd0b0eU, 0xe61df1dff4f4dbe0U, 0xe6070b4adb0df209U,
  0x6dedb1e06101018U, 0x3d3ecef181003d3U, 0x626da051d270426U, 0xe2f80830eb1dd7f4U,
  0xded21af6041ceae8U, 0x2c0305f01508f5e6U, 0xc32228d50d20120eU, 0xefbe4042a071009U,
  0xfee0e7f9dd26f5f9U, 0x7fe0ccf18e916d8U, 0xff0f2daef0fe6f4U, 0xb2813f10bf51b04U,
  0xf01e4200505f10aU, 0xf5f308d221cedbf5U, 0xcf05def2eee4fde3U, 0xeaef11de09e11e08U,
  0x5e1fc1fe6f50d05U, 0xec172ce7d0d4fd02U, 0xfd0ae4e110e9d3e3U, 0xf30eefe1130ada18U,
  0xf10cf0f7f2fb1feeU, 0x1c1e1bffe6081efeU, 0x20ebfce7f3eef420U, 0x10edf5eb13160decU,
  0x21c10f0f00f1b16U, 0x61a14edeff10422U, 0xfe13dbeef7f727f9U, 0xf9f02a0b0dde170cU,
  0xf8150ae2060d02ddU, 0x110df6f8e2050d17U, 0x4dc310adf00f215U, 0x1b00130b1a1ae50cU,
  0x1314fd11051204U, 0x290b00fd0d1a001dU, 0x100d0222ef1a1207U, 0x110a0f2f1e0f270cU,
  0xf919060ef6f025e0U, 0x152a30fa18090e1aU, 0x16e9faf0f9ff271cU, 0x2cf818ebf32002ffU,
  0xed08f709e0ebf80cU, 0x15000cfe01191116U, 0x181a14f8022efff2U, 0x8261d090ceb09dfU,
  0x12ff10e30de6061eU, 0x1305051c0823f913U, 0x15fdfe06dcef10f6U, 0x271bf9eee9021e1dU,
  0x2c0bf1fded1d0506U, 0x10df00f2100514dbU, 0xee0df512ff2414efU, 0x1d1f0a1a1613fcfeU,
  0x1afe1e2e00fe1c04U, 0x1808240f0a152f1eU, 0x17f3e521f0f9121aU, 0x1bfc2410f83af713U,
  0x1210f127fa1ffd03U, 0x2cf0f31bdd153cffU, 0x1bf80323f9191212U, 0xcefec15360e1fd5U,
  0xea242222f6fd2c14U, 0x1103fcedfcfc24faU, 0x6f4f505070ef1fcU, 0xeb0610f308fd1ef0U,
  0xf6181c0809ff1e1fU, 0x14e30e21f02113ffU, 0x1a0e1513f9101a0fU, 0x22e705f131fdf0d7U,
  0x17011a0c1517faeeU, 0xd8080efd290506feU, 0xfce7e0ef06f21003U, 0x20e1cd90ae6ec15U,
  0x71c0633e8010f15U, 0x1a0cfe0bfe051cffU, 0x102227220508f315U, 0xef1bdb041105fe15U,
  0x29fa03271ff11d03U, 0xfc0920ecf91a1affU, 0xbed1bfcf5fd122eU, 0xfa37391d0ff41a06U,
  0xfe23052afe03062bU, 0x4f9020deb1c3fdfU, 0x71e19ee3c291cU, 0xb28e3f11b0f14ecU,
  0x10ee28fc1eea1920U, 0xe5fd38fa1923f415U, 0xee1115e2faf43c0bU, 0xff26e6e1df0422U,
  0xfb240f2ffbed190dU, 0x2508180af100290bU, 0x6103aeee9131a35U, 0x11280cf5eef51710U,
  0xf2070ed6e637ddd1U, 0x1eae0ec09fd4d53U, 0xd4d70714dff3f026U, 0xdb011fddfcfe1c06U,
  0xe6f00df218e8e8cfU, 0xfdd4faf1e6eb10f6U, 0x1cdee43ff00015f7U, 0xf2f3eefae8e707daU,
  0xf92aca2526ddd803U, 0x207b1f0e3f5221bU, 0xed07e54c0bdb06ebU, 0xe013f300f6f40d12U,
  0xc5df08e6fe1800b2U, 0xf7ef00e9d8072629U, 0xf6d7f90710edd3e6U, 0xd8efd512f9f7e023U,
  0x23ece80bf3dfd6U, 0xd8e1ecfee4fe1819U, 0xf10243ea0b0929cbU, 0xcdc0e2ddc32f8ddU,
  0x130deba0b0efa02U, 0xf117efd1f41ed3e5U, 0x21dc191ef30e2cd5U, 0xdccbe402c2f3d3d5U,
  0x1307180ae824da0fU, 0xcdfa1ede0bece3ecU, 0xe22304e9dabddd0eU, 0xfe0a2cf83508f32cU,
  0x21ef19303d05fcf7U, 0xff00f426e2cb13deU, 0x16e715f606110d2eU, 0x1c39e314ead71001U,
  0xecefd51313eecb0fU, 0x190ae6fa04de0f19U, 0x2f32cf8fae5e42fU, 0xea1c0521fbeafb01U,
  0x27fb2201efd8e606U, 0xd62c1d28d1fc1c01U, 0x11b08fcfe15e4e5U, 0x7f2e7e43ef7ebfaU,
  0x6db41dfd719dee5U, 0x18ee0f3aec1af6faU, 0xc2ed1dd7e31208ccU, 0xb72414070de20eecU,
  0xf333010f1d6ec13U, 0xe81feb2fda04f00dU, 0xea4329214f42ec2bU, 0xdae3f8f2f90cff0cU,
  0x370edddc18fb2c09U, 0x72c03d508e5e7eeU, 0x48ee201730ce2529U, 0x24eddbc824ccddf8U,
  0xf2ed0ce11f1122faU, 0x28e8f81905dafae7U, 0x161a2f0ef1eff40bU, 0xd40be8eb131312e2U,
  0xd4d0cfd8edf6ff14U, 0xd845250b2516f413U, 0xf8e14af0d60c07daU, 0x8e3e4d4f0c1cfdeU,
  0xf023090434f033faU, 0x23e5fd2c25da0b05U, 0x1d4a2c1bcbdd1720U, 0xaf0905d31d30ecf4U,
  0xf6e1f9cd012bde12U, 0xe62205e1c41e241dU, 0xe1d126010106f409U, 0xeaebd9f719c910f5U,
  0xe3fff5f900deeceeU, 0x7fefd24f439d10bU, 0xd9203cffd4f82403U, 0xf6e3faf1e733ec01U,
  0x40aee23f600d218U, 0x815d40416d702f8U, 0xf219eddcdde6fd0bU, 0x1102eeeae7f20bf8U,
  0x16ebd8fceffcf6e4U, 0xf6f41f0927f806d3U, 0x2fbf623ea15e507U, 0x50cdcf80aece3e8U,
  0xea1ee6d600e00129U, 0xe41dd9e7de10de16U, 0xea1b1a11eae9d0eeU, 0xfe0312070a020cd9U,
  0x8f0f613cd04eae8U, 0x824e5100206e5f2U, 0xd21080cf8000f1bU, 0xe101dc01fcf5ebf0U,
  0xfe0bff0d0414d716U, 0xdbdffdf814f9f0dfU, 0xece3ef06f4c8fa1bU, 0x1508fde4e6ec02fcU,
  0x11d2eaefdf15e6ffU, 0xf7f6fe05f2d90702U, 0x414faf5ebf00211U, 0x1706c6d6f9e912cfU,
  0x9e9f9012213f2f3U, 0xf6320de605010ce5U, 0x26e506e3dc050319U, 0x16d3e4ef0a20e30cU,
  0xb290b1eef27f403U, 0x19e21200f6070bffU, 0xe23d11e9d0f0f91cU, 0x513f8173301e5e8U,
  0xe8f7dde418f8d212U, 0xdb3015181115d606U, 0xf9030ddbf922e9f6U, 0xf9e6c9e61dfaeaf3U,
  0xe622ec4ee9f40af0U, 0xcf2100eff1500c4U, 0xf32e15fdd4c81202U, 0x5fe1e15280afbc9U,
  0xd713fe071dff1429U, 0x40423190c09def1U, 0xf3f915ddf6f6fde1U, 0xdf18d60df6bff323U,
  0x1c05fc15fff4de11U, 0xffd0deaf9ed0203U, 0x51f48f7dfe7f404U, 0xfe1c03d32c16f101U,
  0xd5eafc0122f4ed05U, 0xe1fce2e80b0b0318U, 0x1ffaf80cedf405fdU, 0xda0dde14e9f1f3f5U,
  0xe5eaf7f40c08f1e3U, 0xf05eeea0ae1efe6U, 0xebf2e0e7e5f9ede4U, 0xef0e09c712f3d001U,
  0xdfc8eb01e5e4ef21U, 0xd3e6cce5dde9f0e8U, 0xec090ae1101a0905U, 0x1de06e303f6e8d3U,
  0xec0ee92a0ef506cfU, 0x4fad825dde622e7U, 0xdb19f608dcd8f7e4U, 0x3ddecbb0ddfcee0U,
  0xacaf90a06f40eddU, 0xde0e0ce8f2f8061cU, 0xe3de01fff00f08e5U, 0x604fdf9fed7e5f4U,
  0xf8dbd8f6f3e5df03U, 0xf611fb0af70d16fdU, 0xe0e3ec10ef0fd800U, 0xe30bcf04ef05fadcU,
  0xf4dbf820f2030bdfU, 0x1012e50fe9260c17U, 0xec1c21e70a18ed06U, 0x43f1e8f3341cf9e6U,
  0xebd42df4f3291deaU, 0xc2705e5fa21233dU, 0x42eecff125e20cffU, 0x29f7e125c2d604f9U,
  0x3d5d0102113e21cU, 0x1906e0cfe0eb3119U, 0xa1b10251cf8c82fU, 0xe8ff1f1614eee809U,
  0xfaf0efce340af204U, 0x9141010e601f51cU, 0x1bcdeadff1e0e20aU, 0xe537d9ecd516e5f9U,
  0xed03e41a00e0e101U, 0xf6e3f7c009f910e6U, 0xf4e1f52f0ad608e3U, 0xefe00be01fd4e1fdU,
  0xfbd006eafb2efed1U, 0xcf7e5331bea11fbU, 0xd8fbf3eee6fdf1e4U, 0x2e00efce08fc0d1aU,
  0xf2010935122ffadbU, 0xfd3ce0f1d7fa1434U, 0xecbd48140335c213U, 0x28f820eb33e216dcU,
  0xdc0724160ede35daU, 0xf94140db08182234U, 0x2d0b0b02fcf1e30fU, 0x22d8280f16f413f0U,
  0x1bfad82520e92322U, 0xafcffe011e820e3U, 0xf0dde507f3d8d80aU, 0xfbe040f53de3e51fU,
  0x19e60af23302f9cfU, 0xd5080909fc13db0bU, 0x6e9d6030d11d317U, 0xeaf611e7c2eef5e1U,
  0xdbd813ece2fc2027U, 0x1c060acef1ef3001U, 0xead8d109f5e8e8faU, 0xf7162e05e709dc19U,
  0x12dffcdf3530cedfU, 0xf4fadf00111c13e4U, 0xccea160f110dd1e1U, 0xfe31f4efe0eedc00U,
  0xb251117ec32f8d0U, 0xe311e371c021032U, 0xf10539fbdbfee40dU, 0x21e206d10603fce2U,
  0x12f331de35d93e0fU, 0x19280bf1f70ee51eU, 0x8f5fed724f1f7e3U, 0xf2d11227e80614d4U,
  0xf70efb1a15e133efU, 0xfc2623111726fae0U, 0xebc325fd00f1b025U, 0x1601dff945d507fcU,
  0xfbf730e81210e6f0U, 0xf72afc2ad9e2f216U, 0x10d02ed513051deaU, 0xe2f8ffebcff6fc0dU,
  0x1eed010418c604e9U, 0x281330e9c6f911f2U, 0xf9e7f7152312c31fU, 0xffe23e20f0be8e8U,
  0xb1b00d0fff8fa19U, 0xed2808f2fcedcfc8U, 0xdb171ee712f6d9f7U, 0x18050c190015de15U,
  0x31f7dd16eb10d50cU, 0xf8fde8e9f302220cU, 0x290ee4d7f11c040aU, 0x2418eeed1adceb1eU,
  0x219ed3bddf10a16U, 0xe2e00d0705112d27U, 0x1ae6dfe4e607022bU, 0x1c2dec11e6eff929U,
  0xe1e1ddf9092e12e4U, 0xfe02f910e927e4ffU, 0xef0925f1e52303e3U, 0xe51201d70debce00U,
  0x316242507df2af8U, 0xc182e0e04cfef2fU, 0xdc1a19dae614f0f3U, 0x5f4280104fce318U,
  0xde15dc110ef90aeaU, 0x11030cf91afc060fU, 0xe5b30afa12e3cccbU, 0x25ead2eb2df2cde7U,
  0xe5ed07e3fdcff914U, 0x1ae8e5181d02dc24U, 0xed1505f114d625d6U, 0x72fe2ff14ecdfU,
  0xe3ea11cee50aed1aU, 0xfbda5530e3de01d8U, 0xf631f2e50f01e7ddU, 0xf1e2b3ffdedff25U,
  0x5400b09e2e5f040U, 0xdfc1dfcf42adfdbU, 0x311e11ea3a11fa39U, 0xe0b2b2216dc3e25U,
  0xe10cfacff3fbf7efU, 0x13f6002ceaf3fbffU, 0xf107f9caec2418d3U, 0x16def42401f4e432U,
  0x71535e6d7f0091eU, 0xe122b1cf3e3ec0fU, 0xfb1d0ce704f1f007U, 0x220c0f1df120ff1fU,
  0xd3f60102f102e015U, 0x30cf15f0011b0709U, 0xdeffe2eb1bec020eU, 0x4fdf6f81afee005U,
  0xec0aedca0acf1fe0U, 0xee20f60bf503f1f1U, 0xf201ff27ebd5dcU, 0x4e91df511ea11e1U,
  0x1b05f9f1fd1c0be8U, 0xf4f81211f4f22bfcU, 0x605e8f22c0cfbf2U, 0xc0fed2060319e0f6U,
  0xe514faf0d902eb3bU, 0xd0dfdef1e5f80a0eU, 0x119f0d41cdd09f8U, 0x8f3fd52f7081afeU,
  0xf4ed0df3f4e6260bU, 0xfef612f9e6241c09U, 0xfa0d020f19322bbdU, 0xe9e8fdfbf7ebeb21U,
  0xd9081603dd0b2c24U, 0xec2823dde5db052bU, 0x1900e7ed311803e6U, 0xcdf10f2fdf17122eU,
  0xfef210f2dedbd71dU, 0x15fce00ee9fde8d6U, 0xf6e3040815f6d709U, 0xff19fcf10cdf0cf8U,
  0x3ffeee00b0bf51fU, 0x10fd1b08d7f60cf5U, 0xf0d114f2fb00fcfaU, 0x1f7f700d1f1c316U,
  0xd004f8f804ec14e3U, 0x23ef02f2e41723f9U, 0x1ae6e11fdef8ebeeU, 0x2bf0fcf72be8fd26U,
  0x20e204ce17170003U, 0x20815fad12f130bU, 0xd0f1915ece828efU, 0x28f2fef3fd022df2U,
  0xd62efdfb1ff0f335U, 0x13f6eac1ecfa24dfU, 0x10e3fb2ff0e3120fU, 0xe7bd230b001509f4U,
  0xf8e2e9080bf2d6e4U, 0x32d011802ffd91dU, 0x18d41b2414d3ddbbU, 0x17fbd9ecf226e4fcU,
  0xf0050822f8dae90fU, 0x15e2dce8f0e14a10U, 0x435ea0e0a1e2becU, 0xd4fc073ce0221a14U,
  0xf0cd0c002808ffceU, 0xf8dec600182b0612U, 0xc8040042f7fbdbe9U, 0xf0cc3f4f207da20U,
  0x11df2ae2fef52b23U, 0xf5ea1bcd082b2106U, 0xe2eae70ff9eef0f5U, 0xee29dfe9de00f628U,
  0xf201e6c5e7e9f914U, 0x1024efe407f70728U, 0xf502fc0e0cedf010U, 0xf72df7fdfb12df05U,
  0x15e60ef101dc2a1bU, 0xdf0409fdf51801dcU, 0xf5e9c83d11d310fbU, 0x191722ed030f251eU,
  0xf7d106bf36eefb16U, 0xf826f8c90bfdde15U, 0x1ddf2ec50ffeffdU, 0xf611f110f3ef1a2fU,
  0x4dfd2ef8f200dbffU, 0xfbd8ee2925f507e6U, 0xe4ed0ee519f7171dU, 0x93d2a0e05080111U,
  0xf10a2502fef4e521U, 0x1233d8df2febdb22U, 0xeee506f7331c0e11U, 0xec2e1221d808173bU,
  0x90813e9fd250306U, 0xff0cf92927351e16U, 0xdbedf50709e037ebU, 0x263826f91fdcec0dU,
  0xe8fb2402d4f81d16U, 0x3430e7ca1222071aU, 0x1f2235f1230c1913U, 0x28231e2d01120b19U,
  0x182636e0de33fd01U, 0xf9042a031726d12dU, 0xdb10f9f4e224fbf7U, 0x3837190b0c0cf932U,
  0xaed16e1f0d4152aU, 0x17221bf31632d91aU, 0x2c18fe1549fcfd11U, 0xeb121c20d2df2e03U,
  0x1e18f306280408faU, 0xff0f30a0d04fcfcU, 0xe7081b0f0cd51a19U, 0x2a2ee1e7f313d5ecU,
  0x1d07021ce5022e07U, 0x7f0f0fe25192c09U, 0xa1a15fc02e9fd34U, 0x70b232130ccff3aU,
  0x710dadc13e0d6dbU, 0xf3fffbd1fff3e0f5U, 0xe14e9e2f4e201fbU, 0x8fcf80bca12f413U,
  0xe0c8f6ec110704e5U, 0x1102fcfcdc10e2dbU, 0xf3e3e916e0030becU, 0x4eb01d525fbf802U,
  0xd82a1ce8dc2201daU, 0xe40bf6051f07d1e4U, 0xf40dece3d5d0eed7U, 0xd05e119160cfa1eU,
  0x1fd804fcdae9e20bU, 0x13e60014e712e005U, 0xdbf726fedfeb12fcU, 0x40be709e8ff0710U,
  0x151701eded1fdc12U, 0xce900fd051ce6dbU, 0xd70ae114f2fb1804U, 0xf5fdf2f2e1df09e8U,
  0x25d0fffa1207e2daU, 0x8f10bece618d318U, 0xdef20dfae7effae6U, 0xf2eff1e116eefbf2U,
  0x190d20f2130f0e16U, 0x2b130e0100f1ecfcU, 0xf516e10ce6f02618U, 0x715f02e07012301U,
  0x6fe0b2cd8eff4dcU, 0x4f5f3f6f4fe330bU, 0x4d40510d01bf016U, 0x2618f8f938e81211U,
  0xdb1e28cde91ff403U, 0xee130d28e102dbdaU, 0xd206f7fa03f318daU, 0xff0f4fafbf2e6faU,
  0xff132909c6d13029U, 0x1efff1f6132ad302U, 0x1c0510e2050a19f3U, 0x9fff725f00921e1U,
  0xe9f1e705e022f5f4U, 0xe5f217e7040cf7d8U, 0xe808d1e3dff304e5U, 0x1b011810f3e00407U,
  0xf2050f0ad5eafdf1U, 0x2be7dbecd707d5ecU, 0x15160cf9e0dd0dfbU, 0xbdde4fc0d0327ecU,
  0xa00f917131014e7U, 0xfc14de12ee0cda0fU, 0xf20c0a06fcdbdb19U, 0xec2f29def2ed2206U,
  0x5fee630deeadde4U, 0x21023090dfb3ae9U, 0xdaedeb0515121eU, 0xe2106111cf0fc18U,
  0x27fa0ddd0508e9f6U, 0x1afc06fc142707deU, 0xc3f1fb11f908e3e8U, 0xe2ed0ed5ec080e16U,
  0xe4070015f8ee2cfaU, 0x2d04e0fafafafc15U, 0x80afdfced080903U, 0xf3ea0412ef022fe7U,
  0xf11dfbe81d0f1b08U, 0xf1fb1704102006e0U, 0xdfe3e4d20ddcf0efU, 0xf503ed0517f9f3deU,
  0xff28f8f6fc10ee10U, 0x8fbe9d80bf019e4U, 0xe7ed17d1e111141dU, 0x616171216e921e4U,
  0xe6fc0e2e14ddf4e6U, 0x1118fc0eef26d1dfU, 0x132bee04ea09d902U, 0x19121400e9f111e3U,
  0xc14f702cf26091fU, 0xfbda1a1a02101b0bU, 0x2d050ee4bffdf62aU, 0xfbcf07fe2f17efddU,
  0xf90c0af832f50ff4U, 0x231c2225fe0afdebU, 0x3d1706e2fc3c0605U, 0xec3c202224db2d01U,
  0xf7391201cefa1d3aU, 0xf5ff00f4e115f521U, 0x3a220818e721f91cU, 0x303f5fe0becdbe1U,
  0xf5d1effcf72028fdU, 0xeb12e92d0620f410U, 0xe2e4e6fb081a190bU, 0xf809e6153dfc1110U,
  0x71d0c0ae9fd1804U, 0x13f80d0dd009e702U, 0x8d7f3eaff08ea15U, 0xd7140e0414dddce7U,
  0xfae0083a2de20cdfU, 0x141410ec02f6ea09U, 0x1511eafe2408fafcU, 0xe6fa0625f507f1f4U,
  0xe229f00fdb0409e9U, 0xa123410f50b200cU, 0x352b110af71408faU, 0x16d008fe162201e6U,
  0x906f724fa060eU, 0xf802061e0c1ad802U, 0xa2e0dd4f1340c29U, 0x1517e814090c01ebU,
  0xf92d3316eb403b12U, 0xf4eb38fb1b02161fU, 0x2d2613f1e12cd410U, 0x13ff120d000c1cdfU,
  0xc3ff1f01090407faU, 0x25ec021ae320f8e8U, 0x1d10f41603fefafaU, 0x2f5e616ff2733e0U,
  0x171b2dee1f2d0708U, 0x1c14fa1af1f709fdU, 0x3c100213f3f2f806U, 0x1efef9f306fefdd8U,
  0xfaed37dadbf132f1U, 0xf603f516e1c70cddU, 0xf81f14d60317e5e5U, 0xea0ceb1ade2b25ebU,
  0xef382ad5ec13e111U, 0xdb2228e2ece911ffU, 0x330a17260a0403faU, 0xe13193ee5ed0502U,
  0x2213261701e922d8U, 0xe7ddf8240fd71414U, 0x1633d5d9350207e8U, 0xe01aeef710230d17U,
  0xa3c18ebdd18e4f0U, 0xe3eef914e604d60fU, 0x80af3061a07da23U, 0x130208340ceb3026U,
  0x822e7f4020f2ad3U, 0xf9fff001e30c0b0cU, 0xe1030d121417080eU, 0xfc2c132ce3100901U,
  0x1cef0306e818e5f0U, 0xfef5110c11fbf4edU, 0x24d50b15d924f922U, 0x514060915e42336U,
  0xf3f00e1e0eecf6f2U, 0xf4eae504edfdd9f5U, 0xf10fcb01eacef319U, 0x1507fe1b0b0d2306U,
  0x170d0406f0e4e306U, 0x15e600d2e5e00dfdU, 0x7d1140304d1ef0aU, 0x1ce9e6040401ff1dU,
  0x52cebcd0f17e7deU, 0x231ff904100af319U, 0xf30fe00efbe0f2f4U, 0x1ef4f11717eee30fU,
  0xdef714e3cb051d0bU, 0xb11ea0215fbfd06U, 0x12e9fae106dd06f1U, 0x5ea0ce6ed050508U,
  0xd812df0105dce8daU, 0x14f6e8f80e201aebU, 0xd8e8011400eef801U, 0x1bc713fdfbe0effeU,
  0x3dcd9ef0de8e404U, 0x6ff130c16300b1aU, 0xdcddf1dddb0b11e6U, 0x3f6fcdcf6000af9U,
  0x270b1727fb161de8U, 0x60afb15e428e9ddU, 0x410d111ed11dc1aU, 0x28e8fa0013f2fb12U,
  0xeade05e5e7f9251dU, 0xf442000beaeff726U, 0x1f306e3f9f4100aU, 0x1814e608fb0b00e4U,
  0x16fc06141e2424f8U, 0xf7f817020835f00cU, 0xf6f007d8eff501f6U, 0xfdf4e5daf002dbd5U,
  0xcce8f2ebe6ef021aU, 0x13f9f7d3e81ad202U, 0xfbf3f1e9cc011be9U, 0xe5c7ee10e31205efU,
  0xf40634d6f70823edU, 0x19fd05170d2206d2U, 0xcb04e7f7eafa0ef9U, 0x10d902dc080b1611U,
  0xfb2523ded7e8fcffU, 0x2d2800eadef8dcfaU, 0xfbe4f9ebf4ed1210U, 0xdbf4f91cde0210edU,
  0xf0ecf52824fbcf0dU, 0x29e6efc903dce6f4U, 0x1a0de301e9ddcf03U, 0xfcea1a1707fa18d8U,
  0xe5f6ec24021be1eeU, 0xd40021fde8f238feU, 0x2cdfbcfa1c1103f4U, 0x13fb05e909eae2e6U,
  0xf3c4e3f2ee12ffd8U, 0x1dcdfee5090112eeU, 0xc08daf0020ee01dU, 0xd70927eefdf40ec9U,
  0xded9d5d3c8e7fa01U, 0xfee301dceedf37f6U, 0x1408f00addf5df00U, 0xf2eff81303f60bf7U,
  0xeafc2604de0e08e9U, 0x26ef2c16d10fe5e2U, 0xdc27f6ec020adcf7U, 0xd4f8ec080c0626d3U,
  0x208e2e7e024e7f0U, 0xd7d8e703d1e5f215U, 0xdcf8061cd823f4ddU, 0x11dc17f505030bffU,
  0xf5e8fe0bfe11d31eU, 0xf823f614f2e90545U, 0xf10130d724392e0fU, 0xf50d17210c102416U,
  0x261431e31afb2520U, 0xdc30341c37fe0c28U, 0x452604f23af0f919U, 0xde1e0417fae90023U,
  0xc01daecd7f2d904U, 0x81c190ce5f13700U, 0x11fc0dea32edcaf0U, 0xcf8f1fdf6fa19f6U,
  0x29fcf1020400e6e8U, 0xe3fa1ae807fde217U, 0x6eb010c25d405daU, 0xea050d2cd70af4efU,
  0x3506f601fef3d119U, 0x11e0818f8b21201U, 0x144010eb0c27fb0eU, 0xe8db1d0dd01b1004U,
  0x1ff2fff3f307fdf3U, 0xedcff3064bfe0fffU, 0x30f4e60e18f3e4e2U, 0xee18ebffd6da1c17U,
  0xf4e5e70c08f9fcf5U, 0x2a0b25f226e90a2bU, 0x2e043bf9ee2421e5U, 0xf2f912d9df1700dcU,
  0xe71cecf820f21816U, 0x1a02fed2f9f1ed18U, 0xf4e725f0d3d916dbU, 0x6de11fcde12f6e9U,
  0xe504f5ffcfd01606U, 0xf5e01010f718fdecU, 0x2414f7f32621def7U, 0xffc6cfcc11e0e6e0U,
  0xcb35f3e3f4cc1b16U, 0xdbecd7e5ef17e305U, 0xb6f14d09ed0a08d6U, 0xcec9e1e7c3fbbfdeU,
  0xf40820f0d00713e7U, 0xfb061c2a11f31fU, 0x301d001d0b4a21eaU, 0xe9e2060ef5f0d9deU,
  0x131b10ea08e90612U, 0xf301070021f6c706U, 0xf3f23011f1e924dcU, 0xcf0fe7d7bc17e4ecU,
  0x701fde30ed30aU, 0xb1fe714eaf9ee31U, 0xff2fae807151fe7U, 0xddd815f52fe1260aU,
  0xe6141ae0fbf3040eU, 0x9e9172b3bfae517U, 0x1afcf50aecd615ddU, 0xdaf129e5cc00e224U,
  0xdcfdf90bffe5ebf9U, 0x1ed921f9de26d5e2U, 0xefd111d1e17f0d9U, 0x8d20cec08f3fee8U,
  0xd3ee0ccd0dca18f5U, 0x150ffce5f0e8000cU, 0xf3131bfaeafcff03U, 0xd6d5e8fbc900ef1bU,
  0xc7ea0d00ec20270bU, 0xf41f0d301d03f613U, 0x423140a311941b6U, 0xec13e90922fceb1aU,
  0x29f1ddfae8061df7U, 0xebfcd8de1c0eec3cU, 0xf6f1f9effe0822d3U, 0xefeb1be5c6f41730U,
  0xf809eff0e703eff4U, 0xf8edf0ffd8fe0beaU, 0xe8f9f9efff0a03d5U, 0xd7e317eb06edU,
  0xf1ece4f5faf21afeU, 0xfe04ec0001faebfaU, 0x7e2df02020b18edU, 0x2d5f314d5150e19U,
  0xf2ecdedadae7e2d8U, 0xdcf0ea14ee0818eeU, 0x12fff804e4f214efU, 0xececeef5fed0070fU,
  0xf90102fae1fc1c01U, 0xfeaee02070ef918U, 0xea07feddfa12f2e2U, 0xe20bfcf7e5f3f8f4U,
  0x1f81011ecf30c01U, 0xfddb05e7e0e501deU, 0xf6e205110dfddb02U, 0xec02f3fceed900e2U,
  0xf90ce303f6f6f3feU, 0xd90d11de0bf604e0U, 0x3d8e9dfe603f006U, 0xef0d0df4f001fa0dU,
  0xfef0020f0eec04e5U, 0xfe05080000f514f8U, 0xee04e3eb16ebfbffU, 0xebe91808f2090cf6U,
  0xea0ff7f2e8e50410U, 0xf50a08e911090dU, 0xa0d0c04f4f526f9U, 0xefeef207e4f4ed01U,
  0xe0a0c061011fd0cU, 0x23fe120eee1bfe15U, 0xa0914000c04f2d6U, 0xf7e702ef12ec1b03U,
  0x412faf0ecd61cfbU, 0xef1af2090515e011U, 0xbfffff7e1f019f3U, 0x1c021a11f80bf815U,
  0xfaf803dff70413U, 0x8f2f3fbe81b07f6U, 0xe00eebfa1ee101daU, 0xf0100002fbf610ecU,
  0xdf3f8fbf2fde0f6U, 0xe4fee80805f2dbf6U, 0xff0f4e7f0f2f3e3U, 0x17dcec09dbe8eae6U,
  0xf3090c16f10012e0U, 0xfaf112fcea0adfd9U, 0x11fe03f70bef18faU, 0xf8e8f90af201e300U,
  0xf21de2e208e9ec0fU, 0x11f4f607e7f6fd07U, 0xfde322dd10de0ef9U, 0xdbf408e601fe180dU,
  0x201f4fd0109e401U, 0xe6d80a0eef0fe8fdU, 0xebfaecedf6fee2fdU, 0x11eae500e1f10d10U,
  0xfafde1ececfcf60aU, 0xf6edfc03ef15010aU, 0xecf91afc09fa0ce8U, 0xfed0c0f0e1218f2U,
  0x5f3f309e0da1314U, 0x9d608ea0cede7d8U, 0xf1e1deeaf1ffd608U, 0xeae8fbeb09ddecd9U,
  0xecf0e8fbebe20dedU, 0xf3e3f3f6e20e11fcU, 0xedf21ee9f60c12faU, 0xb010d03f7ee14f1U,
  0xfcdc13031fe2110dU, 0x414d8ef32f5fafaU, 0x130d1af1e0efef24U, 0x2904d9e0fbe41509U,
  0xd8f60c0903ef09f2U, 0x1803e9e50925f0f1U, 0xf9e60bdac7e0041dU, 0xfc0f0e18f5e2ded1U,
  0x1c02e924e8fe0418U, 0x130ffadefcf01c16U, 0xf90316e7db1531U, 0x1ae2e4e31401e901U,
  0xf303f4fb100428fdU, 0xefb15e4fe01df0bU, 0x1807e2c7e011eef8U, 0x170708d91200d200U,
  0xfa08f8ef05ea2709U, 0xe117ff130517fbdfU, 0xde009e50e0d0814U, 0x9e2f8e8e2faf805U,
  0xddef3e9ed050319U, 0x200fee12ee1a1930U, 0x28e630f4da203208U, 0xfe0fe32815f4f3f5U,
  0x18faec1f06e0e3eaU, 0xef01c8dc1b30f821U, 0x330efddf141eee14U, 0x3018fcf60c20ed1bU,
  0xf0fe01e7fe2517ddU, 0x4def01f04f4f815U, 0x2cd0e06f1041aecU, 0xf5f415cb2907fc07U,
  0xf1f21f0efa0001f1U, 0xcb1feb0c141df204U, 0xe6fe11f8f80aeff9U, 0x2ffef9f115f31202U,
  0xf62ff217dcfc060dU, 0xfff21c22ff0fda1eU, 0xf9eaf9ebdd12fc0bU, 0xd8f62dd51002d5e5U,
  0x2c0d2524050e361eU, 0xe50f0d1de105e11eU, 0xeebf231ddf9e3faU, 0x2f0120e071914ddU,
  0xef12ecf32b08f605U, 0x182d02fce7191533U, 0x24f7f01d07191cfaU, 0x11db0d08112fe6eaU,
  0x2ec9e738ed1712f3U, 0xe011dfe613dfe430U, 0xb172e010f151efeU, 0xdf91618e401fd01U,
  0xde02f61b11ffe016U, 0xdef70f342ce3e6e7U, 0xfb13290cdaeef312U, 0xffece0edf9f2ceedU,
  0xde90cdbf9f3fff4U, 0xf0392e302a09e627U, 0xff1f1d00ec010800U, 0xf422f51e222d1215U,
  0xdaf8f124e01a0d35U, 0x212b160b0d02d511U, 0x1f2743f1f8132affU, 0xf0043b32331e1af9U,
  0x2827ee0b121831deU, 0xefeff716ff05083cU, 0xf091e0b054008f6U, 0xd0be8e21d15fe24U,
  0x160d091f2a292236U, 0xf21017ef05f8f90dU, 0x50ff001f9e4070fU, 0xfdfb012e33fa1febU,
  0xcc14e729142c28efU, 0xfff9f10e113f0327U, 0xe4fc041aca101b36U, 0x121026e12ffb15f2U,
  0x1506ff1e030d0507U, 0x312b142e07f52427U, 0x6dfefff0a15eee3U, 0xe5e2f81714defbcdU,
  0xc9eacde110ead321U, 0xd3df13bf0524e8efU, 0xde0107f2ccf506dcU, 0xc9d5e50dece0d4c7U,
  0xef0c0bf424fd0debU, 0x111eca0b11e0e3bcU, 0xfe18381bfad9e3eeU, 0x60cdbefebf1cce2U,
  0xc7f8c727f521df28U, 0xf0ec08edfbe3d4ecU, 0x111829e915f312f5U, 0x120edeef05c716efU,
  0x1b1111011a200502U, 0x2401ed032dd21a0bU, 0xce3d04fcdafeef05U, 0xa28e2d611fbff0dU,
  0x290b12fffd1a32c6U, 0x211fda310e30fd43U, 0xc4f64e29e51bf309U, 0xa14250033f7221cU,
  0xd9df08c11f092e25U, 0xf92451f8f9f4df56U, 0x3bb5d6f42d261604U, 0xf00c340bcd15dbf2U,
  0xfbff020de9e60101U, 0xedb15e2dfedf1e9U, 0xf8fa1d0e14f7ef01U, 0xfb0e001912b917eaU,
  0xf4c407e630c9e7deU, 0x4cf120f1e6ce1cU, 0xdff923c936ea0d26U, 0xbcf316d8ef04f515U,
  0x32f5d501e4dfd8f6U, 0xfffc1ef82bebf5fdU, 0xe712211a170d0615U, 0xcf1ee02223fd1416U,
  0x2e1ada09062cfa00U, 0xc8e8251a350ed303U, 0xd810f302f827fbedU, 0xeb21c9d4e3f1062aU,
  0xd0330b402e1b2eeeU, 0x36ea16dbee2ee224U, 0xea0c24170924f1efU, 0x2c0814fc2c170918U,
  0xcbfcd90d07d41bdaU, 0xfd193adf2cfde11fU, 0x2fb5d2f8e2ecfb08U, 0xfbe51b15f218030cU,
  0x1e1a1f13170909fcU, 0x1de9f3e0f624e311U, 0x202d43113dbdae7U, 0xd413e324d614ede9U,
  0xbdfbe7c616c0d408U, 0xd31308f4f029ccd6U, 0xf60a49fef1d3ebeeU, 0xf9e3db1f1a32dde5U,
  0x8f1e100e4f8e307U, 0x14f0080729edf0e1U, 0x1a05ebddf9ea2707U, 0x7f50400d3ef22d0U,
  0x3dff9f3eb25d9e1U, 0x1cfd910fd1be1f8U, 0xc60606090906d92cU, 0xf100f4dcff1cd3f2U,
  0xe0fd18f533eb0721U, 0xed0fe8f10929150bU, 0xfb04cd0d08081906U, 0x11f2f6e5f3fd0407U,
  0xd8e3e3e9dfef1c1cU, 0x151af3030a24fbe7U, 0xf300fde5dd0021d5U, 0x12f318f50821d5deU,
  0xee01fa12052415f9U, 0xee08f3e6f109d71dU, 0xe10ae2e2f6e80df3U, 0x2edd2ef0f060b11U,
  0xec1409ecd8121910U, 0xf4e5ea05e81be80fU, 0x5f5ece5fbf42af5U, 0x2fa08ede30d13e2U,
  0xf27131af8ee040aU, 0xf4f009ea0f1a0e05U, 0xf1f206f5ebea04f6U, 0x1f505eef01c0013U,
  0xeadfef0e23001d1dU, 0x230c04f9f304db23U, 0xee07eaf5d7e909f6U, 0xe0e711f40000eedeU,
  0xee150e0b00f013d7U, 0x1e0c2406df1b0af1U, 0x15ee080cdff0f40dU, 0x70a15132219f5f8U,
  0xf733fdf405eb022aU, 0xf093118dc2117daU, 0xff0b19fa131efce4U, 0xf7f5fdfefa06f8e7U,
  0xe2fffc1e0f192fe3U, 0x11ff152cee010915U, 0xdfd1d0fe0240a0bU, 0x3f1e3191a0c1fefU,
  0x190f1ddff0220d2fU, 0xeff10ec0f010605U, 0xf30b13ec08eef7d9U, 0xb1425f32a0c10fdU,
  0x140a070a14ef0c0cU, 0xff0adafae7140e01U, 0xf02070ce5120d41U, 0x2905ebea3a140904U,
  0xfae4092114080e16U, 0x10f82e320b180d26U, 0x2409dfe9df200de3U, 0xe91f26f42dfae911U,
  0x21e032f6dcdf10f9U, 0xf6f8112aee131ef7U, 0xf0ff020ef118de1aU, 0xe50140f918142714U,
  0x1421fff8e313051aU, 0xf2c182003f7f010U, 0x1f12eb0f2922120bU, 0xf007fe1ceef21b08U,
  0x12e70c14ef040dfeU, 0xe9fe161d06f0e80aU, 0xfc0719eb0b14e508U, 0xa1f0c0120f1392aU,
  0x33fb10fd072df204U, 0x31df503f6050603U, 0x2f22e5f7393ada02U, 0x12fe0b1605f52affU,
  0xf1e1f2071e21e5f3U, 0x1e0a050f0519f6eaU, 0xd1223ee10ff093bU, 0x70b300724fe2e0eU,
  0xe07042e150ff8ebU, 0x1d13191c0e0d2100U, 0x32fde8f7fd23fe38U, 0xf91d10f92bf1e927U,
  0x1e1df6f107f1fdfaU, 0x519dbef06e70705U, 0xe7fffdebd7fdf71aU, 0xf7eefe1cf30ff4feU,
  0xefeeee42002edeeU, 0x14e6cd11e3f400e2U, 0xdff91b15ef04d9cbU, 0xe72afd060e06d7f0U,
  0xf8f90817fdef161fU, 0xb18e4fcfa32f9U, 0xb0201381fea2028U, 0xee09fbf9cc051ae7U,
  0xf703d9dc102e1e0fU, 0x2fdebe9022ef4f3U, 0xe01cf100e0f4f8f5U, 0xff11f0ecfff0e7e0U,
  0xf229faf905f11af6U, 0x19ea17f2ee03371bU, 0xf516d8effd0019f5U, 0xf5f80717d835211fU,
  0xf6f3edd716180300U, 0xeb1003ebd507e5e4U, 0x1713033a12dadfecU, 0x3e3fbfd131df7f1U,
  0x2ff0d6f307ded002U, 0xfbe8f3cffb060e20U, 0xf014d6f105c41b22U, 0xf9021a1adf120f21U,
  0x2c504f9f33711d2U, 0xf8dedfdffc0e16e5U, 0xfd1608f8f31de0fdU, 0xa46f821f10206eeU,
  0x1af0d1252c0a0223U, 0xdefce9d9f90e3f3aU, 0xf9fee10413d9133aU, 0x1a0b030ee6001111U,
  0xbd3fdf2fe320eedU, 0x1feff011eee16fcU, 0xfbe4191324092117U, 0xe41cfcec15ea0229U,
  0x300bed060ae5e22dU, 0xe4e718e322f835f9U, 0x1313fefe07d71629U, 0xf1121a2ad9100b33U,
  0xf1f5edf2df1eea18U, 0xfaf9d91f1b14ebebU, 0xf9f8ff151e0c0603U, 0xf626fe24f618152fU,
  0x21803cbecd4ed14U, 0xefda06d81efff7e0U, 0xd6e2fff112e6f504U, 0xb0204f5d1d30de7U,
  0xf4f206dbe5140beeU, 0xfbd2c4dc261bdaf0U, 0xe4f742f0f2f8130dU, 0x2b24eb16cf0414ecU,
  0x1be61ee81af2dbeeU, 0xe10105eb140efa24U, 0x21ede8e608ed020fU, 0x290ae7100be1151dU,
  0xe314e6e5121511e6U, 0xf7fbdbe72a15cb16U, 0xf11d3725fd18fd18U, 0xb17e6dae213f204U,
  0xe9031cc720d3f9eeU, 0xfad400f0f403151dU, 0xe5eeea020d0a200cU, 0xed16e11de1f5170eU,
  0xfe03d7e007fbf10eU, 0xee708eff43100dfU, 0xd71240191bf411fbU, 0xc16f6f6ef06fb20U,
  0x5f319f5cb09fa18U, 0xe8df04e70fe90af2U, 0xdbe3c21d17e304ffU, 0xe7e0020ce2f9fff0U,
  0x4fcf2dd07ecebd7U, 0xcd06f90af3fb0dd9U, 0x305ffeb06ccfc0cU, 0xe7cffa0a0ffe1814U,
  0x101a1cdecc2800ffU, 0x9d3ef0ceaeaca06U, 0xbefef4ebefedfd07U, 0xf1ffd624191101f1U,
  0xd813301cefff040dU, 0x3f305eb0ed115e2U, 0x60207ebeb0af7U, 0xf5eb0631e6e02aceU,
  0xee01eaebf911e51fU, 0xd2f5f507ddd501cbU, 0xf2f0f504e4decf00U, 0xc90718dbd40b07e1U,
  0x15de161f0610e0cbU, 0xe1fe1420dc02fee3U, 0xdb1ceef00c07d4e2U, 0x4d4f1e60be634caU,
  0xdf081fffd51a040fU, 0x19fc032aedca2707U, 0xce17110febeafdfeU, 0xfb062c2409311df0U,
  0xe61608ddf9232310U, 0x12d6f403f0220907U, 0xf90ee6faeafef1ffU, 0xf12d254d13da0c25U,
  0xc4fffd14f745f011U, 0x1403080e0ee7fa33U, 0xe5e1fbfbdef81002U, 0x1c06ed19fe3631f6U,
  0x21f0d02340a2a0dU, 0xe0dee0fb0ce7f419U, 0x21130208ef0e05e0U, 0xf32c19f3eddc2dd9U,
  0xd3f4ecf101e8f51cU, 0x23ddf6cdf311e9ecU, 0xf6f7dc08100c20f5U, 0x15f206f702ec19ecU,
  0x9b7f1f91617eccfU, 0xfb03f801ee0cf50fU, 0x17d3fb10e6f0f3e8U, 0x5e40de1e80b15c0U,
  0x17ec0604001610f0U, 0xe4110e2115ea0a06U, 0xd729db181dfbf2ffU, 0xfa18133d10202336U,
  0xf111180a2d2b1d20U, 0x21dc25260e2dd81dU, 0x10f6e72b06daecd1U, 0x70efe15fbf81114U,
  0x27e9db0c3f2cd80cU, 0x18f4f30afce92d37U, 0x13fe350ae7dc132cU, 0x23fb061ded352e0eU,
  0x2001fd242e3c1bd1U, 0xebfef91f19150e22U, 0x1000d932132d100fU, 0x28400cf10ef327f5U,
  0x16e91917e3140928U, 0x18f009fadccb20feU, 0xcd09091117e5f0edU, 0xf3123620def5ef19U,
  0x13e4f10f1f0bddf7U, 0xcf01000cf218fff3U, 0xe4eb2bfdf50becf0U, 0xf6faf0f5de1de619U,
  0xe82fd614d512e707U, 0xff45e008160ce533U, 0xfb0825240b0ae120U, 0x26ed0def26453d1eU,
  0x36be191d4d3105e0U, 0xa261d12241f2300U, 0x14dec31f120314e8U, 0xf7191f12c2d84412U,
  0x13081521e3121211U, 0xf8cf1b11f7c9142cU, 0x1a0a3b25030b09e0U, 0xcbd7f9160fea10cbU,
  0xf6bd16f12a26e2f9U, 0xc8d91a2af60303feU, 0x1dfd1200fddee403U, 0x8f7f715ef2fe307U,
  0xd0f6a9db1119c31dU, 0xfe03cae826e0c220U, 0xd70b18f0ed2debdeU, 0xd0e00b06150921d6U,
  0x1aeed2f8fe202fcbU, 0xe7c9014e07df2302U, 0xfe1ff0e2c21ded08U, 0x2320c0f429ece1d8U,
  0x2a050e1fe1dd04eaU, 0x53d04e2ed230a21U, 0xcffe2a4bcede0718U, 0x1fdbeff5fc001efcU,
  0xefc104c81c18f1e5U, 0x212401e4efefd425U, 0xe7aeb1f805fd2122U, 0x5f50414c31cd40eU,
  0x3e0111fbe4ec16ebU, 0xd302250ae4ea3c28U, 0xf2d90e0c12fdf4d5U, 0xeb1c28f9f903eae4U,
  0xb021eaffe3e9d9f7U, 0xee01dcef18f1170eU, 0xfab905202218eb03U, 0xf40b06e1d728c8faU,
  0xeee1f5fef711f4faU, 0xf4f617f80127f816U, 0xeaf6feb4cf150bd8U, 0xd1f60613f521cdbfU,
  0xee4605f80b0e2e10U, 0xf4dcb6d8340c0f09U, 0xc41f1213cc0a12e7U, 0xc7f4ecea0406d3e8U,
  0x15ed0ed0e1111bc7U, 0x4f9de191923f912U, 0xf0cd18f1ea1af8efU, 0xecfbeffefe11daU,
  0xe0de32fa03d5ff2dU, 0x212f0e171104f800U, 0xf6f30bdc46f92c01U, 0x9cc2cf7f9f81313U,
  0x20710f506e00ae1U, 0x3012bece4282007U, 0xd8e5f0160109fc09U, 0x1100f8e2f2facbdeU,
  0xfafd0bdcddebff0eU, 0x4fb18201a19d31cU, 0xd93133ee1b141d16U, 0xe1fc0707e4fbd30eU,
  0x13e32d00e20b2e13U, 0x14c016f103f3fed5U, 0xe900100bd523fcd6U, 0xc21b0ad4e708edbbU,
  0x317fee9fcee13fdU, 0x20f8230f0ae9f7ffU, 0xd44130eef6d5f0d7U, 0xe3cb1d2f0705facfU,
  0xe50ae00623de01f9U, 0x2607f0f7f008261eU, 0x263408152efb26f8U, 0x1bfaf23affeee837U,
  0xf612ebf2f623effdU, 0xd916d70cf210ffe8U, 0x10b150c12c515e3U, 0x32dafa0a1c240115U,
  0x13fff1d800deff03U, 0x11d3f32d0120fff1U, 0x805de0536f311d6U, 0x13eaeb2bc91c0419U,
  0xfc171af6d4f108e7U, 0xf7dffc0edb2adc1fU, 0xf3fafe16e7d609f1U, 0x170e26f813fb112eU,
  0x1d0becd8e80bcde9U, 0xe1f40bf6fe0edfe9U, 0xf320e4fb08ffd1e3U, 0xfdedeee508f601ffU,
  0x2515f9e2fc0808ffU, 0xdcd8c7cdfe06d21dU, 0x2f71108cad7f909U, 0xde50ff20b02fef9U,
  0x27d1ecfef8e10715U, 0x2bee0e1719d9e5e9U, 0xfa25e5240be7110fU, 0xe2feff18f504ff14U,
  0xea14f6cfee07ebffU, 0xe908dfe017d0f12dU, 0xfec6e9fb0606ecedU, 0xe628f4e4ecfddb1eU,
  0xfe1206e30be403cdU, 0x19f1fedbee05d90cU, 0x142bd8061fe7211eU, 0xe01a2109cede2df5U,
  0xed08e2f0c1c4e3dbU, 0x4161ffaf31001feU, 0xe5d2ddd81f19fb27U, 0xe6d6f406ffd1f838U,
  0x1fdad4edd21e16daU, 0xf3202ffc09ebc3eeU, 0xecec19c60337f6c6U, 0x12ecd10507c0ea11U,
  0xa24df0ccfe7161dU, 0xe9f7f4dbf2ddc932U, 0xe3d904ecee1d2bdcU, 0xf6fa02f4f506ff1fU,
  0x28df02ebdf1416e7U, 0x2f10ee11fbf110fcU, 0xa06f9f5f21429fdU, 0x1b15202123e32e2aU,
  0xa1a061102d80029U, 0xde2708fb340af10fU, 0x2f0c0add1110fbfaU, 0xf01a27f007eb2511U,
  0xdd4b07f90ee4f8U, 0x21dc0b150a04ff14U, 0xe9f7d2ff1d10330fU, 0xe3012ceb0b100ce0U,
  0x16e627daf4f6f8fdU, 0xe22c28d50508e505U, 0x4fe10ed4042e02cU, 0xf8f5f21218111f2cU,
  0x1f10fdcdd927dcc5U, 0x24d204fbeedfedfdU, 0xdc18dfd0270e01eaU, 0xe1e3180afe1411e8U,
  0xf2e904c9efd50004U, 0xfd0a0efade1a0514U, 0xe4dbe7e9ec16e613U, 0xf71522281e122028U,
  0xfc0ed807fc08df26U, 0xe716ecfd28fe143cU, 0xf0233b27eef91606U, 0x518e838f0e81af8U,
  0x35fbdd0f2a2cf0f3U, 0x24dbfc24ed04e001U, 0xdf04090601fe1e20U, 0x102f17ff0708eeeaU,
  0xd3eae5dbf23606fdU, 0x1007f51031260330U, 0xf5ee1d01093e28f4U, 0x1de033cf6eef7f4U,
  0x100d05fd343a28fbU, 0x2df2ed0616d9ef12U, 0x2313c7f0c60ff6e8U, 0xea1d1effeb0bfcf2U,
  0x11fcf004e51cf0e9U, 0x1ef01e02fd23eafaU, 0xf7eefe26fff1e30aU, 0x22f4f81530321d03U,
  0xe20e05de08f310deU, 0x51a33f7f7f6130aU, 0x19f8d708f303e117U, 0x21f5ff28eef0ed0cU,
  0xf8ebddff21efe502U, 0xeb04f01a1af4f10bU, 0xff0d4cf6e721e72fU, 0xfd0be123fdf10401U,
  0x27eee91d01f218e8U, 0x2606db320a19ee32U, 0xece90701de21effdU, 0xc1b1fe8f605dd08U,
  0xe7dae4110a0b2917U, 0xec2d050419effe13U, 0xfefd3906e71ce9e3U, 0x1d220dfb3ee60610U,
  0xf605281a14092feaU, 0x13f5143023201216U, 0x31e9e215e80308e1U, 0xf0cf0ddfe0028ebU,
  0xc11050c110aeaf6U, 0xec0dd0bef8e7fcf3U, 0xdaf81a1c0f010114U, 0xf4000de6150e10f2U,
  0xeff2eadc360efff7U, 0xea0ff608e505da05U, 0x3401f00a080ae909U, 0x17190e09f2f5eb1bU,
  0xf4f9fe1a13fc1117U, 0xde04f415f32c0f11U, 0xf9e00be0f239e90eU, 0xf9fcf0dc0bec05ffU,
  0xf703fafb15081b02U, 0xfee9f2000803fb2cU, 0x71efcfbfb08f103U, 0xe1040cdb1eedd40eU,
  0xfde40de319340702U, 0x1c05f924fd0fdd18U, 0xe1052df5fe29d804U, 0xf5ecdae2340a04edU,
  0x1b1c20f9f9062016U, 0x2309f71513faea06U, 0x22e7e4e4f5da25e1U, 0xe2ec02dee5080bceU,
  0xfefb17edf600f9e6U, 0x1afdf0d7e4e1d4deU, 0xe5cae911e51cf9feU, 0x805fb0f3516d7ecU,
  0xfd216d309e608dfU, 0xd32426e4fdd0181eU, 0x1bf418f020dce8f8U, 0xf5fbf000d60e11f6U,
  0x40de5d6f4e70a44U, 0xeb00eff9111c0b08U, 0xe1ece924ebe7eaf8U, 0xe605330d00eafb0fU,
  0xf2d7373c12bada1eU, 0xbe31eb291ee006f2U, 0xed25240125dd0421U, 0xef14041503210a3eU,
  0x47cbf5a7b91df223U, 0xedff80a03f73de1U, 0xcef2f117f9c8f9efU, 0xc90edf0917deedefU,
  0xd20040acaebe3U, 0x10cf21efd17cbf3U, 0xfa3c04025321e3ffU, 0xbff1eb05d002f162U,
  0x59ed25f4d6e8e6efU, 0xc5dce32bf9fe0604U, 0xe9d4ebd61d10dc1aU, 0xb52de71334f5d0dbU,
  0x11e620e016af040cU, 0xd433e4ee4021cde7U, 0xc8322fdd6615de00U, 0xfb25002de724fd6fU,
  0xff2cf2ccc60711ffU, 0xe0f20efbe2f7dde3U, 0xc4131232e0dfdbbbU, 0xf3f207d1100ced0bU,
  0x1ae333ec3cd2fc10U, 0x2720e716f9f60ff3U, 0x1f46fa1926e91f03U, 0x23efe604db152a01U,
  0x8edd0eff83aff00U, 0xf120e1f823e2fd00U, 0xfb08214713f3051aU, 0xf6f0f1f43538fee0U,
  0x22fdfcf0670a23deU, 0xe1ede63701d2f70fU, 0xbecfdf80ae6e7f4U, 0x32733e2db162326U,
  0xdc11dff6d646e9eaU, 0xfa2e1f152bde0314U, 0xb6e01c040c0713e4U, 0x1eb0705ecfcdb09U,
  0x920eb2651d7f6f5U, 0xdc1eb718ffed23dbU, 0xc3160e2c0df20cc4U, 0xe604f103ee06db38U,
  0x2e1a0f00f23c0adfU, 0xdde545e5f458c6ebU, 0x6d1d5e123f806eeU, 0xe2ede01011e81401U,
  0x805ecf9e31035deU, 0xfd307da01faf31dU, 0xce9e7f9fbce2304U, 0xf04d61734fb381fU,
  0x27fbe8f9334ae5d4U, 0xfcfb03f4ed23f427U, 0xe1f7e5fb09fbff49U, 0x2e06f5122401240dU,
  0x1ffee8110bf713f0U, 0x302bf20630fd4010U, 0xf9e7ce28d8f0070cU, 0xfa0717ec31cb13f0U,
  0xfafedc1249e91deeU, 0xe016d9092a073a2eU, 0xd7df143720081039U, 0x2b1bf2180bdfe12dU,
  0xec2b1ef6171cdfe2U, 0xe5e61c2d15f83c23U, 0xf7fdf600232c341dU, 0xfc3508e919fce227U,
  0x43f27fef3ecf2ecU, 0xbff1efbf809eee5U, 0xf9db01fb0bed0addU, 0xebec16f1c60efaedU,
  0x50bf8de24ee0af4U, 0xeae31b14fb2df20fU, 0xf5080518dadd01ecU, 0x2d3df141bfef2daU,
  0x1920f1e1e2102a05U, 0xf50c260415200bffU, 0x4ec01f8e1eb10dbU, 0xdd08e2f9cc1efad7U,
  0xdcd9e2c83907e006U, 0x1a1a0f09fbfad913U, 0xe5140b2ee7e32ce6U, 0xe4f9e905090830efU,
  0xf41f01dbfafff10cU, 0x81607e1eaf30529U, 0x20210100bc82008U, 0xf10ae1eff30fe2f5U,
  0xe4daea071cf70bedU, 0x14fce70e0a03f121U, 0xd08081b1c030cd9U, 0xe9ea18f008130ee1U,
  0x8f9f6f51f071207U, 0xe1260ddb00e8410dU, 0xf013f200110e1b09U, 0x28f2f32ae90630fbU,
  0x31ea02ff182bf40bU, 0xfcf0f50f120ce306U, 0xf8162320131ef7fdU, 0xe3cea260cef1d25U,
  0xfc01d61012efd728U, 0xefa14cc02fa2e4dU, 0x1922f9fb1ceb22faU, 0x3152240ec060b29U,
  0xedd7fafe23301bf3U, 0xf1f4d324181a10e2U, 0x3170b43ee12d5d6U, 0xa07e83518dce1e8U,
  0xeaf4080a0f20f729U, 0x18102fd614defb1dU, 0xdc03e80ce7e03427U, 0x16f2f930f1132320U,
  0x13eedd084134e0ffU, 0xdff2ebfef20df51aU, 0x101afe0def11161bU, 0x1b04171cdffbfb0bU,
  0x39ff07c809d8e601U, 0xd70f22cd05f61c11U, 0x7dcc5f7fed4d404U, 0xf30f1b16f1e8e5faU,
  0xfefacbdb1724f5f6U, 0xeecd30819f2e2daU, 0xcfdf19f2fe2b0313U, 0xf61ee209d8e6de01U,
  0x9ebd2f109ebde0eU, 0xd001d3e726e11d2aU, 0xd20c00f4e6c61b0dU, 0xf7050d0ecffd10fcU,
  0xf7dded0218fcf1d0U, 0xec1cf2d5f90d2618U, 0xdaf60621f918e7e4U, 0xd3ee5eb15d3dc12U,
  0x230ee8fdf907f016U, 0xd210d6e101091b0cU, 0xf503f3eb0efc0a28U, 0xc08d91de5ee0f30U,
  0x4fbddd5e331edfeU, 0xf7f3f00c0ef319edU, 0xf6ce1e102a211e11U, 0x53af5ebccec061bU,
  0x15dcfef52b091fecU, 0x1efddff10b08f603U, 0xed40a1201f6d6faU, 0xd1a2ce72bf708e8U,
  0x2521331eebfb2f2aU, 0xf915340ff0091334U, 0x3626f808fafcdb1fU, 0xe5f4230317201316U,
  0x9e619f2e8e9f907U, 0xe202e71bf6efd1edU, 0xf0f109dfe5f3eef5U, 0xf91321ef0f1e0715U,
  0xf405333a04f3e8fdU, 0xff6fc2906f1150eU, 0x6f106e4fd14f5f7U, 0xed1806f4000319e1U,
  0x17001434091df7ceU, 0xd003fa230ff2dbf2U, 0x190a1efdf013150bU, 0xfd0f01fd0902ed1aU,
  0xf6092401fae4311aU, 0xf5ed05f9fd18391aU, 0x3213d5e3f8ed0e08U, 0xf5e7f9fb1ce92110U,
  0xcc19171ef1f83612U, 0x37eb1f20f5071320U, 0xfc05f3f5ecf30510U, 0xf5d51bd6f30818ccU,
  0x13383a0b25120d29U, 0xcf129f2dcfaf72cU, 0x18fb1f2f140b13dbU, 0xecf443e50f250702U,
  0xf52ef7d4e3f625e7U, 0x27f54bf2cfdf1cf5U, 0x1fdfcedcfb16f4bfU, 0xdffe0dd8f1f203ceU,
  0x1a1eef08fefadb24U, 0x214f8f7dadd03e2U, 0xdc3afe2212da1a0cU, 0xcfd615201c0701f8U,
  0xf01c21e7e7093b04U, 0x12ed0645f0f4f71aU, 0x2514f3f42de611U, 0xe5d71700d302df15U,
  0x30051122ff0c002dU, 0x18faf21bf9eaee2aU, 0x11270b13f2ff0905U, 0xd9f43613300134efU,
  0xda1d05e9e2f2f228U, 0x1d17140f00da1a07U, 0x5090e20f1ed2800U, 0x24e32a0bf70bf518U,
  0x13300eea0fe3cf0fU, 0xe8ed1b0ae202ff02U, 0xe307f92802e111ddU, 0xdce9191c1a1f1b01U,
  0x926e605fe250114U, 0x35d530e403ecfcf1U, 0x2a06f10c0af619f5U, 0xf051bf9fc20d6f9U,
  0x1610d804040ccf21U, 0xd803eaf8e6fd15f8U, 0xe31dfc16e0080bf1U, 0xef018210d0be202U,
  0x6f4d102e40e201eU, 0xe5ece92a2803100bU, 0x27e60aff12da12e7U, 0x1ff51e21f0251802U,
  0xe1a1219f80ae5f8U, 0x5e3dde4fc1cf3f2U, 0xfefe60f041c140aU, 0x11ff92412f803faU,
  0x240114da12011a13U, 0x1fe10e41d9102b28U, 0xd3e5e6f910f2f8e8U, 0xdcd314d4122fd503U,
  0xf1d6fdcaf4f4cd22U, 0xfc11ebefd322f8f2U, 0xdbf3cf03560cdf04U, 0xeef82b0f23ff0419U,
  0x25f90cd2f2dac9f4U, 0xe9eef92fef12351bU, 0xf802e7fde2c217c5U, 0xd0d3f7eaececfbfaU,
  0xd4fbfbdfd0c9edfbU, 0x1224cb2ad701ffceU, 0xfffbd92e3508dc05U, 0xf4f50a0afa1ae709U,
  0xe218fae0f00a09d5U, 0x151a122ffa1739e2U, 0xd9ebf5da08dae0f3U, 0xfed8f2fff9fef60eU,
  0xf2de07eff417fd25U, 0xf24d5e20904d4e8U, 0xdb1606ff0bfdfff2U, 0xd214421b14fb1b25U,
  0x150af012def0dc06U, 0xefd70e0fe11a182aU, 0xee07f334f9e403ffU, 0xebece104130707ffU,
  0xede714d4f1e60700U, 0xfe1e0afdd71b1434U, 0xdedae72429e90fe5U, 0xead60afd1bf6ee05U,
  0xd07ece9090813ccU, 0xe6fe06030036210cU, 0xeed80af4ded6f0f7U, 0x6d5fa030316f5c7U,
  0x9f504fbd9fe2224U, 0x102efee0e014f81dU, 0xe2e10b0421d50cddU, 0xefc30e02f4d8e908U,
  0x229e9d215f42abeU, 0x271a0e1ec84135ecU, 0xcbe2bd0313cb2617U, 0xe8e21004ed3fdfe8U,
  0xf6fb1ed1deedfa04U, 0x2c18e9d7be02d923U, 0x1ec6ce28f0dd01fcU, 0x10d9501d22151ae1U,
  0x19e1000feb1aeee3U, 0x1fe411f3ec060e01U, 0x240409d1f3e8f7f6U, 0xf9e3ec02d60f1ef1U,
  0xe11d1913e702e227U, 0x1d1e2116ff0b0cdfU, 0xff9ebe91bdd0bfbU, 0x21fef02928dde0eaU,
  0x15ddf31ae80d160cU, 0xe5cc05fa172ad2e9U, 0x932dc1802020ceeU, 0xa0f1cfe1ee902dfU,
  0x1df6f1ebf9ff05dcU, 0xf70d03d4d60e0efcU, 0xf31613f2e3ef1a08U, 0x15e101daeafde6f1U,
  0xf90beff5f7e406f7U, 0x503f105e519fbf9U, 0xf6fbd1190317fd26U, 0x2e1bfcf5f0f5550eU,
  0x2b03ddeb0430d31bU, 0xe019390406031e0cU, 0x2afad502f8ff1c2aU, 0xe807f4f208d6fadfU,
  0x14f9fff33b00ce0aU, 0xe40e150fdbd42711U, 0x23ae4d000e3051cU, 0xee30f62c0129fc16U,
  0xebff2d091608e1deU, 0xf9060e052ae60407U, 0x2f1fd290323ca32U, 0xed0af4411833db27U,
  0x20d0d04f60bfc09U, 0x1c45151accf006U, 0xf93af5f533f739d8U, 0x272033f0db00e7U,
  0x12e801ca1601050aU, 0xffd0223f22cd2ebU, 0xf1c1831e226dddaU, 0xed820fccd1cfe2cU,
  0x2e2123a00eb0ad7U, 0xd60011f405f71b26U, 0x2213ebf442f9dc23U, 0xb111f14d4e507e2U,
  0x1507e6eaeb3e21ecU, 0xec221b071a120907U, 0xe7fa271ddf0dfa28U, 0x1c22fc09e4121212U,
  0x8f8faeccbff1ce5U, 0x904050eceffdcd9U, 0xf6f3cddd001e0e0fU, 0xde09180aea12e1d7U,
  0xcf261b0a20beed23U, 0x292af6fbfaee1fefU, 0x24f440d213cfedd0U, 0x7d5e6111114e33bU,
  0xd1f10ec6b6ed00e5U, 0x38ca35051ef6180cU, 0xeef1dfd5eceef4daU, 0x13f82b17f1ebdceaU,
  0xc917edadcdce3c3dU, 0x9ede2d7eb0ccf29U, 0x11fe39eae207e4f1U, 0x2cee0006e8fa0c0aU,
  0xf7fd29d4f4f720bdU, 0x3cc51c1ae9021dd4U, 0x16f508b10e0c10caU, 0xe7ec1cd8ef12d021U,
  0x34607f2dcca491bU, 0xec2503f01e3e14fdU, 0xea2a27f5f5cffe2bU, 0x7dd1a22dfd82419U,
  0xd5cedec4f4f2d9e5U, 0x29f9cf20f5f4ede7U, 0x2f6200c0d3815ebU, 0xf6d220141fd3fc01U,
  0xf4210e1bf6d5220fU, 0x4facdfc27c4dce8U, 0x18ea071dffd815ddU, 0xf5f8131ce3070006U,
  0xcbb510c40e0c08feU, 0x3dfde618ec0bd928U, 0xf1fee2d2fe1ff6e2U, 0xe2003a220c1df7dfU,
  0x40cf60ce6101521U, 0xd0f9030e2dc1f5e0U, 0xf703e9e4e406cbfbU, 0x38f123f61fd41d0dU,
  0xd1f9f1e60229f81bU, 0xc21e1f918d5040dU, 0xc215dcd9fe38f6eeU, 0xd9ef16382f2a30ddU,
  0x2b3238f9de0808ebU, 0x1b1218182e01ececU, 0x231ee501f2f308f6U, 0x2cf10a0411e8061dU,
  0x1407f0eff3feecfcU, 0xfee6f20befd6db1eU, 0x1a1b1808e513f9fdU, 0x11d20afef6e1da09U,
  0xc02ec01ebe6e60eU, 0x2df1ee70ed50e02U, 0x22f601f11bf40115U, 0x7fce908f0ed1411U,
  0xf9f8d6fbf7f301edU, 0xfcf90ce2d900ddf8U, 0x90905030e0408f4U, 0xbfdf1e0f6e204edU,
  0xe0de7db0fee15e3U, 0xffef11d80de119fdU, 0xa000ae7e5dee6dfU, 0xf1f20beee4eaf1f8U,
  0x20ef1fae0f1f304U, 0xf20af108090edef0U, 0xfa160bcee2f7e8f8U, 0xeef200e1da03ef08U,
  0x1f09ff11190900ffU, 0xe1f0d8dc0008e501U, 0xe912fadddb000317U, 0x1506ef08e9f20de4U,
  0xf80323f5f41806d4U, 0x370ee80c1b17fb03U, 0xe7f4ededf20f0013U, 0x9f0fd0c02e714f7U,
  0xd93201d3d4e933feU, 0xcf9e9e5f925cce5U, 0xfffff8f101102207U, 0xeed817e0d307ecf9U,
  0xe9fe110813e80edaU, 0x26f7f2f8f233f2f0U, 0x252a0ae203e6fd11U, 0x1cee03f4f1fa2401U,
  0xf72cf6e5d6fe0927U, 0x1df4f6e20ff8f2fdU, 0x2c020fdff0d923e4U, 0xdde13ee1412fb01U,
  0xfb0e120feedf13ecU, 0x18dc17ebe824e6e3U, 0x11de09e6ff01df07U, 0xecf112fe0cde0bf1U,
  0x30ceae2ced3201fU, 0x7d9e6fafd260024U, 0xfbe02901c8e63409U, 0x1d100d9e800f8ecU,
  0xedf9f614f10000f0U, 0x22fa16e10aefedfbU, 0xfaff1ff3262f04f3U, 0x16fe0ff8eff31bd0U,
  0xde200efafffefa0fU, 0x1cf10df2d8141de9U, 0xf10a0fe4dfd6e718U, 0xe90ef60a050d00e0U,
  0x30ae82a171cfaffU, 0x2e003f704e9def8U, 0x2105f3ff1af4f103U, 0xf4efe4f81bf0f8ffU,
  0x914ff0bef1bf407U, 0x1ae919f9e1ea0815U, 0x20021700dc0ef4eeU, 0xe1e105dcde1fe0e4U,
  0xf8edfefbe6f31315U, 0x1e4f2d9ebfddcf6U, 0xfc2713f41a05e906U, 0xf9f2f0d5e3f6dc01U,
  0xfa05f5f2030ff10bU, 0xe00deeec080af8edU, 0xe905f9f3d0ff0600U, 0xadf1cdee114f116U,
  0xe8ebfdc8f2f3ea1fU, 0xe100ead402c80015U, 0xf8e702fb13f314e0U, 0xf903ed1de20b0104U,
  0x1cede92d1c0bf7f8U, 0xd1cde916130b0bdeU, 0x436d80decf6dbc7U, 0x5e9e0fc071013f2U,
  0xf91704abc41a1e02U, 0xe00511eae6e8dafeU, 0xecf726f8fd23e5c4U, 0xf2daee0cfa12e2f0U,
  0x3ed9ecfe01dc1006U, 0xf1e0f70beef2efefU, 0xfe3af61104ece504U, 0xebf00e1bf6e101ecU,
  0x13d4deed2717dfU, 0xddfafcfbf0efe1e1U, 0xcd0cfae3f31006d5U, 0xfbe9fa05ea13fa17U,
  0xfeee1c0c2f16120bU, 0x4db0b14f9df22feU, 0xeb200fedfad5d50eU, 0x2503fc1cea033b04U,
  0xdae8c4e7ec11d30fU, 0xfff6e7e1eae90405U, 0xfbe32000f61de7faU, 0x81b074111000d11U,
  0x2cdcfc2a2c20cdc4U, 0xddd60f3b32fd1008U, 0xe8fcbd1d11f9c8d6U, 0x1423e8f6ed0bd932U,
  0x8f4f7e8c2f1f90fU, 0x724e2e8f3ccfd18U, 0xe9fa17f4da19e2f5U, 0xfc01ea310b0de909U,
  0x30e8e41049eff108U, 0xe9cff91703fb0f07U, 0x1012eb16f0fbd10aU, 0x1f071d1510f4ec2cU,
  0x1f4f7e5eeecf71cU, 0xb1ddb14f3d5e515U, 0xf010dd1924faf9ecU, 0x171dea0e09e62a2bU,
  0x20c61de306f4ecd8U, 0xf9f5091602f5e3f0U, 0x1be9e52f17f9d108U, 0xf612e105e3fafa15U,
  0xee00d8ddeff7f809U, 0xbf9eae6e6cf0301U, 0xd4fb14fe010ee214U, 0xf004e605222e13feU,
  0xe5e4011c4126f9eaU, 0xe0f1162e2bf9ea26U, 0x21dacef61eda06e5U, 0xf2f3f3fa1bfedcf6U,
  0xf4e1eedbdf0605d3U, 0xee00dd20dce4fb17U, 0xe9d61a03d7dc0007U, 0x15fd131015fc0efaU,
  0x35e701055313e3cdU, 0xf0ced311afcf6f3U, 0xfb05c0f71cdb06f5U, 0x13290f15160ae5f8U,
  0xf923dc060a04f8dfU, 0xf5f9fe290605112cU, 0xe903eeeae1e0fa11U, 0xebe813060a210d09U,
  0x12fc08d319180dedU, 0xebdddd1212cb0702U, 0x409e521f0d8e010U, 0x1d2201f612f6092fU,
  0xee24140c0f20f7fbU, 0xd134d07eaec05bdU, 0xbd7dbee240dd014U, 0x40defffc935fcbbU,
  0x30d1e09f0ef2319U, 0xe2f4030c020c1409U, 0xdcfc16f3e9dbf104U, 0xccdd43253400d4U,
  0xfbef44fbc7f71109U, 0xdafa36fad12207c9U, 0xfedad5fc09dd02f7U, 0xfdf7dff8de2206d5U,
  0xe5182e18cfea0009U, 0xdc02f0cdea19f8f2U, 0xf00e18c9fd111ffdU, 0xd3c30319301f1df4U,
  0x210c47151fe01adcU, 0xf2e6370dcf0fe1daU, 0x1ed7bef5041cf4e8U, 0x1e231ed5f3ede8e8U,
  0x53622fac1ec1d18U, 0xfc4326fa0c070af4U, 0xdef31ee5221204f9U, 0xf9c21e080f08fed0U,
  0xd0c12170c2e2603U, 0xf026e60df3f0efd2U, 0x804f104f3fe073aU, 0x11ffebf7f718f3e8U,
  0x1ceefcf639191e07U, 0x1dd232f51209e410U, 0x392a31e4d4efedf4U, 0x14fa080404e723e3U,
  0xc4dce8350f320de3U, 0x20ae4fcd919181cU, 0xdce419fae218fd23U, 0x19c90e0a100c2ee9U,
  0xf81cfa13251328e0U, 0x30ea1523fefb120bU, 0xffdefdcdd1df2U, 0xfd0d0d000716edd8U,
  0xe4060036fc2e131eU, 0x1a25f7fce905ec15U, 0xff14efe6f01ef003U, 0x2f8040bf70d2a0aU,
  0x140ee60c08070321U, 0x5eb100dfe04fa34U, 0x210f34ccc5d7f6eaU, 0xe9081a03e3f3e1b8U,
  0xf9e3fb481fdfff1aU, 0xf00d17db13d90a17U, 0x24f1ff18e848U, 0xffef321fe21519f0U,
  0x14f8ddf3192b31caU, 0xeff80c101a222410U, 0xffefc11e8f4d4fdU, 0x73fda0bf20b1a18U,
  0xdedee060ccde40cU, 0xeaeef1e8cee0fe19U, 0x13261c1b150be4f2U, 0x15f6131eef120a11U,
  0xf7e3df14164310f9U, 0x9f10a0cea000cd1U, 0x27f3db0ffa06dad5U, 0xf4fa090d26f704f5U,
  0xf01af935fff0e711U, 0x36dd29060fe8ff0aU, 0xf3f706df03ff02e9U, 0xeffd37e6101936ffU,
  0xef322e508f9e40cU, 0x5e0fcf22118fd0aU, 0x2de9160b0bf107e4U, 0xfe22ee09fb261908U,
  0xfe16090dcf12e810U, 0xed1bfe25d2102b28U, 0xefd30c07eae8f1fcU, 0xfaf5eaed060907ebU,
  0xfcebfec12be3ff03U, 0xe606e0d6120aef13U, 0xd1e800012b1c35f4U, 0xd10f06f8b6f1fae3U,
  0x8f2171ddb01e404U, 0xb08feffe9e42934U, 0xe41832ffe8e905U, 0xbe507f728fee9d8U,
  0xeb13f7bb20ec07eaU, 0xf220ddf3ebfed632U, 0xfddbde0f33e512e1U, 0xdcfef512da03ef04U,
  0x62f18ede710c906U, 0x220214ecf8f41008U, 0xea1514ecfed6faf2U, 0xf4e418fe0cdeea0cU,
  0xd1e213f3fdeacb0fU, 0xe9f90410e33dddf5U, 0xeafcfc35fc160dd1U, 0xed081500fe29e30dU,
  0xb20fd10ff211e03U, 0xef0b2f19150d07f8U, 0xfcdaf0df0efa10efU, 0x2ceb0fdc0af6ef00U,
  0x2e3525101701170bU, 0x17e1ee07160504f1U, 0x101f1cfdd6f61422U, 0xe808fceefa1c0909U,
  0x70203f20126fc0aU, 0xdf17d32c201c133cU, 0xf0013bf5f4dfdf34U, 0xf17f0ff2120dc05U,
  0xeef7281118fd1220U, 0x16fef71fe7023820U, 0x1413d42cddef0918U, 0xec0000f7e9eee6eaU,
  0x1e0a31f00e180df7U, 0xee253913152312faU, 0xef04eef7f2012901U, 0x1bed16ff24d30809U,
  0xff1a1715e1e50425U, 0x262d32edfc0d16f9U, 0x202f2ee40ee91a0aU, 0x3d01d0ff7f0f1eeU,
  0x130ad72603211715U, 0xd7320be0e21bf7f0U, 0x3cd6e6f905f8d63aU, 0x2b1805fceef71020U,
  0x1c25eaff2f2b2cf2U, 0x17f5d4f5eae90ffbU, 0xf8ebf0f7e8e71208U, 0xf60b0f0008ebe6f0U,
  0xead0d626151905ffU, 0xe552edf3fd18f310U, 0x1fb2e0704e5132eU, 0x59fe16f717f41e00U,
  0x41812413105fff2U, 0x1ddc1725f6f24913U, 0x390c011edefb13f9U, 0xeb1309e92807eacdU,
  0xf718f9152dffee27U, 0x191b2cec10fbfbe5U, 0x380518daf4d51a2cU, 0x2300ffe5e1f62401U,
  0xe32102fd0e1d1113U, 0x5fa1408dd2b290cU, 0x2922250ddae30121U, 0xe1ecde231836dfc9U,
  0xf20ffcd709e305eaU, 0xcffeaddf30d01ceU, 0xfd070bfde2df08d6U, 0xf7ffd9ddf6d2fee9U,
  0x4e9e7e7e2e6f806U, 0xf911e6fdef1fcfe3U, 0x522e5d2efdc0c07U, 0xfafe06e9d4e3faedU,
  0x20e01e41bf8ddefU, 0x13dbfff8f0e532edU, 0x15fec8deec05cfe3U, 0x1ae403140cfc01ecU,
  0xe6d8ed0709e7cbeeU, 0x1ce5e6fef323ebe3U, 0x12dad50aeafd0805U, 0xf80ff2fb020a14f1U,
  0x24020ef4f0dbdc17U, 0x26031ffcf0081cffU, 0xf1bd50f0af7fff0U, 0x1b09fdf31ceeed00U,
  0xdf1314edece9eee2U, 0xafa20eee9f4fbe8U, 0x208caf12b18d3e5U, 0xfdf4f8010f16211fU,
  0xfbf50dd7d3e005efU, 0x21e5eff0050c03e0U, 0xe3deeae6e2f602d4U, 0xcfce0de3ede6ffe9U,
  0x100918f202d8eaf5U, 0xf8f0e5e0000bce13U, 0xed1b1ae1f6f509e9U, 0xd904f7d7eeede6f2U,
  0xfeebfbfeffecf800U, 0x24f702f1d713fe05U, 0x614ea080fecdcfeU, 0x2103e4fc1e1007e7U,
  0xf1f6d806cde0e1e3U, 0x2902f205ee10ea10U, 0x3cefb09e912f3f0U, 0xf50adbd3f7fff7faU,
  0x13e403f226131715U, 0x6191703e80c14daU, 0x6e2d9021515ddfcU, 0xf8ec12e0f1f30fd4U,
  0xfcf8d5fce2df1014U, 0x2b0fe711ddf8111bU, 0xddeadce406e71ee5U, 0xebdcf8f6f31412f6U,
  0xf904f7e2001400ebU, 0xf11ce9ebebe6c5d3U, 0xdd01e9f0f5070fe8U, 0x5ef2003fbe703e8U,
  0x1911e21af0eb150bU, 0xe1030305e9edf612U, 0x17ebfdf614f208e4U, 0xf7e2e60e011e1ae3U,
  0xfcf007f11eeafe07U, 0xfdf3da221a0de6f9U, 0xeefc17fa1619fd18U, 0xffeae8f9e3f10adfU,
  0xecfadb01f0120607U, 0xe903f204edd5f4f9U, 0x152412e5e6efdde0U, 0x1df2e20a15daeff2U,
  0xf30513fd151807d8U, 0x1bfbfafee0ede7eaU, 0xe7e2f9faea28eb11U, 0xecdefef928f3f211U,
  0x38fdedf0f01efd0dU, 0xeed7190d100bfc1dU, 0x7f7cef51821e604U, 0x2f0deebf1020021U,
  0xf4eacbf5daf7171fU, 0xe723fbec1cd22d15U, 0xede4ea05f832d8f4U, 0xcbe90adaf80be211U,
  0x3c300c45021bfddeU, 0xe8d1cf2d162c33faU, 0xda0a371acc00c20aU, 0xce0e06e10b2af2f7U,
  0xd5f3dd0bd6fa121dU, 0xbd49df21ecda2d29U, 0xd9f617ec07300cf9U, 0xc1080bf03a14ed39U,
  0x1f1722095010e0fdU, 0xe4ecd7423dd008daU, 0xfb3a02fee643c326U, 0x105d3bf20d3632fbU,
  0xf6ce24eadd070939U, 0xf5f01e1724fc1cc8U, 0xe2c7fd06f82e17ffU, 0xd72017f01523d726U,
  0x223b42f509baf531U, 0xfb0a380a272cf11eU, 0xec00e2202e32f71fU, 0x10293d3511350e02U,
  0x42eb3d02d41d1bd1U, 0xe62a0418e9eeea02U, 0xeaba1a12d318d0f7U, 0xcfe1dee9172ddde4U,
  0xfbe52debffb431f0U, 0x336efe0040ec81aU, 0xfce9dcf408241422U, 0xefe110fad5f52034U,
  0x631b042ad5f239dfU, 0xef31f9fe1429f639U, 0xfafb3f34fe1be21aU, 0xfa141703e8eacc31U,
  0xe60aeaeffde10319U, 0x210ffffe3307e60fU, 0x30dfece310f54603U, 0x19030d3201e7f41fU,
  0x2cf9ec26e3092117U, 0xe1a100afa2b571aU, 0x2311ed3134fa10eeU, 0xf4a8dbf6e0fdbf08U,
  0xd1e8e705db0e1ce6U, 0xf2f9fbe90749d31dU, 0xe04f82f00c1fad9U, 0x3c7015dea2dd4f4U,
  0xbfde84febe1e0faU, 0x22eceaf0fc09270fU, 0xebdf2bf6e9bde630U, 0x27f4e619d51af900U,
  0x3ccd03e4242fc0e7U, 0x8dd1013d6151f2aU, 0xfc0ecc2bdff31403U, 0xd7f71b4d2bf6d9cdU,
  0xde26c50b01eb08f8U, 0xf306cce220221913U, 0xf0f545f80cc624fbU, 0x19f5fcd70732ede2U,
  0xf9fcf6e50e28e6e2U, 0x20beff06d8c7d603U, 0x1be0031be1fd01caU, 0xe5e313ef1128fd06U,
  0xee120262400ccd00U, 0x1adcfad6fe05264bU, 0xf6f416f3de052102U, 0xfae40015df1a1de5U,
  0x14f5eb0c2308e9f6U, 0x2e8c90df62cd02aU, 0x19e1ec330232ec0eU, 0xd1104d025e1aa03U,
  0xfe19e4e707f90a0aU, 0xf1131921ece628ffU, 0xe7e715edf10911faU, 0x80e001bf42c1afbU,
  0xfd031704f80b0eU, 0xd002f3f906090af8U, 0x1ffce5f81ce4f3ebU, 0x19f7f70cf301e705U,
  0xece7ef0b1704e2f4U, 0xf7fbf6feefd610fcU, 0x80d1b180d0a0624U, 0xe21f2d1f262119U,
  0xf918fa100b390211U, 0xdbfaeb0a16ee1618U, 0xfbfcc720fa06f308U, 0xef1c051223f51111U,
  0x1dfaf2fc141fec05U, 0x19070ffdeeff3204U, 0xf7efe81b1309e724U, 0xdc121d230c220430U,
  0x1f60ffe12290b11U, 0xd9f42215fd010c12U, 0xfea082d1d19e5f5U, 0x260328281906fc1dU,
  0x10307f7fcde04ddU, 0xe6cb1f07f1f00f0cU, 0x5d7cd2011f4f5faU, 0x40e0002d2070ee2U,
  0xe10d07f2fb0ae905U, 0xf7f2fce0e909e7ffU, 0xf7e41e1d09150b0dU, 0xed1bf614d2fcfc0eU,
  0x330ff6e2d8fc01deU, 0x8e4f704ededf9faU, 0xe1f3dde81526fadfU, 0xd60d04f5edff10ffU,
  0xfd1115e6e4f6fefdU, 0xea02fef81d0fec19U, 0xdee1a29281807feU, 0xf80511f6030ef818U,
  0x3610efec09ebe9ecU, 0xf5012a1cecf5220aU, 0xe2f80f151603eefbU, 0xf4021bebe406f504U,
  0xdc2521f2e20aee1aU, 0xf16dec4161af52dU, 0xa081e0439260c16U, 0xea15fc1efff0eb1cU,
  0xfaebfbeee7f601ebU, 0x13ce0915db070401U, 0xe7f9ed121f0e10e2U, 0xdef801fade070ff8U,
  0xf6e6fbd4f0cff7ffU, 0xe7ef07e10e12e50bU, 0x401f4fbfe061a03U, 0xdefdfaedcdf30f01U,
  0xf0e60cdfe504eff8U, 0xf7eb1b15dd2409e2U, 0xf60adae9fff206dbU, 0xf501ece70cec1203U,
  0xec00ef01d7f02621U, 0x519f0f21b00f1fdU, 0xe62127f2250314f5U, 0xe1e20516ceebfbe4U,
  0x142102d0fbee0d01U, 0xe5f31917fb25f50fU, 0xecfcfc01f0f71bd5U, 0xf0df0ee5e615db09U,
  0xed261603cd000310U, 0x6160dd2e92bcb04U, 0xeff1090e150f2bf2U, 0xcddf603ede617feU,
  0x231a1109150f1316U, 0xfc171e0d170114d6U, 0x18fdcecfde12f009U, 0x102723fa1f2016f4U,
  0x1a1b021bd60a0effU, 0xf416f808ff1ec2U, 0xf82b360c1d2a242fU, 0xfc14ed0221290af9U,
  0xfbef45121d05131eU, 0x1bfd1bf30720ece7U, 0x150e060bd6f4261fU, 0x110c2b10fd1d14e2U,
  0x201c0c2ef6df1401U, 0x1e081200e4f51acbU, 0x162f041dea0e300bU, 0xe51fdf0a0d2b06fdU,
  0xc153019f3f9ff24U, 0x8d5f5ee02071bf8U, 0x709f7fbf5020736U, 0x21f34f7f72b0cf3U,
  0xc01ec04eb06f7eaU, 0xf4dcec28d4f032fdU, 0x1b220a000fee0b0cU, 0xf3f20918eff118fcU,
  0xbfb2bf7f7f3f014U, 0x120831020df2cfc3U, 0xfbfce9bcfd01e118U, 0xf12af9ff1908ed1dU,
  0x909f248f6da11feU, 0x30b250f0b0815dbU, 0x91125ce0a13e61aU, 0x3fdd2f3250021f1U,
  0xdff3250fe11f2216U, 0x4fc121df70ccadfU, 0x40c1dd00f1bedfaU, 0x9070005211c2501U,
  0x280b2e3110e1011fU, 0xe7e22d0ef1e82cfaU, 0x41551dd2f5291b20U, 0x5f9e610fbf01af4U,
  0x18d9fa1017e304e6U, 0xe9deebf10fd1ebd5U, 0xf4f6d2d71d0fe43cU, 0x110809e826f51b0cU,
  0x25e5f538f716ebd6U, 0xd1f2edf303f50fccU, 0x61fe7ea0916e633U, 0xfdd0e5ffe8fc09U,
  0x10d24e805202dfaU, 0x1ff9fd0ae9f4e9faU, 0x9f1df08f6e70412U, 0xf1df14d82201f8daU,
  0xfe11150de1e413f2U, 0x5edf7f1fbfdfc02U, 0x519f7dae8d102e0U, 0xeffde41b0d0e0b08U,
  0xec2703fddc112810U, 0x1a2b1eeaf31302e6U, 0x15f7fcf901f9dae4U, 0xcf501f5f710f3f9U,
  0xf13061606f30c0dU, 0x40713100d0d01e9U, 0x300d18cdcd0200ddU, 0xfc05dbffef0b2f07U,
  0xce19faf8f2e2f3fbU, 0xc11e5fbf3eb0701U, 0x13dfda0b0af5f720U, 0x1908fc0515040112U,
  0xf3d200f815ed0401U, 0xe0fcecdce10df7e5U, 0xb050bd60cf60b00U, 0xf2d3ebf70b0718feU,
  0x2f2ff41fc429f327U, 0xfbf717240817f1f4U, 0xe3efdde3e9151ff0U, 0x18e42b1bf53e0006U,
  0xd916eee2d4dee241U, 0x9f8eff61ae4ebf7U, 0x21ea2505390b06e0U, 0x27033129d11305f5U,
  0xe0fe1018f7e9f40fU, 0x24da13ef1707ea04U, 0xeee7bc3908edfbfdU, 0xe4ec1be2f508fdd8U,
  0xe6fe0fe5e90611feU, 0x8262022c704f7dbU, 0xf5e512d619070fe8U, 0xe4f614330d31ebf6U,
  0x326150dd2cfd32fU, 0xe8f3d9c6001b2fd2U, 0x2515e2022fbdfe19U, 0xd5f9f202c408ecdcU,
  0x10d6f5c00d1cc1feU, 0x1d7e808dc1a09e6U, 0x7ddee0fccd113bcU, 0xf6fe09e5c703d2e2U,
  0xe6fb3d3302370716U, 0xfee6f510e72a0709U, 0x28f3f813e612e4eeU, 0x15f8e4113b22d213U,
  0xde200cfeef04fc29U, 0x22ffbfb101e01faU, 0x9e21401fcdd12feU, 0xd0ecf41419df34e3U,
  0xfc140e02e71d10d5U, 0x1a070c0aef01e4f4U, 0xfedb1f3df61bfa01U, 0x21e226eb0608eb10U,
  0xf90bfdf90b18ec03U, 0x3012300e3eb030cU, 0xfeae7e3480d3bddU, 0xd10ef415e22c0f21U,
  0xfe1210509c2ce25U, 0x19d5c2c726e3ff11U, 0x2e02b8e708c6f9f5U, 0xeafe20141bf00b10U,
  0xf6d8ce0e243008d8U, 0xc9f80d0ae6eb13efU, 0xdcdd1523f82be5e8U, 0x22ffd5fed7f7f01cU,
  0xd8e8cee40e25ebf7U, 0xcdee06e91033fd41U, 0xfafaf30304ec1808U, 0x18f0e5fd1407ddfaU,
  0xeb08dd0bceec3ef2U, 0x200bf7f920f6ea07U, 0xf3d40adafeff26eaU, 0xdff505f506fe07fbU,
  0xfd0ddf1a0103ee20U, 0x1ef3eefb0b19e408U, 0xaf708160cf302ffU, 0x25f913fce8ce1bf8U,
  0xd02dad5f3eb3d10U, 0xff2811dfe126f53aU, 0xe8f8ed0d021706dbU, 0xd231dda08f106ebU,
  0x23df001d2bea0d0eU, 0xf4e7bcf8effed1dcU, 0xa1df12406c9f836U, 0x2cf6f601f61e0107U,
  0xc8c5dce803d906c1U, 0xd9121e1d25ca0cf7U, 0x16ea08e012d7d70bU, 0xf8d004fee103f6ffU,
  0xe11711df0f18fbe1U, 0xfd7fbfcc9090d0cU, 0xf6d7e31d0cdad4f1U, 0xdcd9f8ff102115d7U,
  0x15e5d920dfd3e8e5U, 0xf2ea0a07c2f313e0U, 0x17e5ffd30fc7faecU, 0xcac1ddeb2fe6e7c3U,
  0x2f90e03f91d2ae2U, 0x10fe231a0af6e4d6U, 0xeaece808ded629fbU, 0xdfc6e2d50112e8ffU,
  0x1815de1e2cfdf3e5U, 0xe7071e20d32920faU, 0xd7151b0af801100fU, 0xf2e5faea0b0feedcU,
  0xf52b15e9eb012a14U, 0x191e1cebed17ee0aU, 0xf61f12190603ebf5U, 0xce41a08e4eddb11U,
  0x1ae1140b0ff3f7fdU, 0xf917d208f81e0401U, 0x4261cf1f50bf411U, 0xe1f2e62a1613f0e6U,
  0xf0d4df2327f9252aU, 0x10e9b510ff0bc6f4U, 0xe8ff0de1d02b09fdU, 0xd80d11f90e1435d4U,
  0xfde8032ffcf41ac8U, 0xfad1f12b03e422f9U, 0x10ffd0f810eff508U, 0xc4e50bd21be0e4e9U,
  0xe1f7c11afce2eaebU, 0x10fdf8d6020dff1cU, 0x151614f3e720ddedU, 0xd9eb2223f1003429U,
  0xfbea05ef20200ac4U, 0xfbf8e517deca1c35U, 0xfdf9b80e05f105ccU, 0xb2b24f40f05e102U,
  0xe9dcc52a1bf51af2U, 0xebefc822cfdc1407U, 0x8dd11451f2fdde9U, 0xe609190afd09fbffU,
  0x24c9e7130b0ae0dcU, 0xd70c0901f0e91228U, 0x2a04fc02e3f6d3d7U, 0x13fe2a0d2003edf0U,
  0x1c3ff03e8f40ef8U, 0x12dc032fdfc4f70bU, 0x70f1431d7121ffeU, 0xcd091ade31e212f7U,
  0xf7e11dcee608d703U, 0xde1706100af20c23U, 0x2107c2e9321fff07U, 0xed093c3b0f040d11U,
  0x1a12fa04d9130ae0U, 0x10142415d6c7f10fU, 0x15ea1822072cfcd1U, 0xcafe461011001f2fU,
  0xfe05f100101e0506U, 0xcd2207f9fdf2fa23U, 0xf51dcd0b4b2d12e5U, 0xee1f2331fd26e921U,
  0x18fbe1dde43df7d9U, 0xfc051538f3c7fe08U, 0xe2193b06271028fbU, 0xbd26f7fe3df1e0f6U,
  0x32ea37f623e3eb27U, 0xf22ee62200e01b3bU, 0x130dce043939f510U, 0xf31902ffdc12f920U,
  0xef2e0310dbfce10dU, 0xf6fc24e712c91405U, 0x23ebaef7e8ddf2c5U, 0x2dee07f41aed1ed2U,
  0xd81fdbe2d4fa01f5U, 0xe63727fcf115e21bU, 0x2af0cf13f712cc08U, 0x3516f743dc31002eU,
  0x320b1322ec1ce21aU, 0x6153a10ef132902U, 0x330ce6d1e0e5ed0dU, 0x3035d8381b16e8U,
  0xc2e1bcbb8d9f3fdU, 0xd21b23fa0036dde8U, 0x180a09084b1fe4f5U, 0xe6330a13e938502eU,
  0x314e5e50cf102f9U, 0x33f00d161ace35f6U, 0xafed21434db1023U, 0xc2e61c2001241039U,
  0xcfaf2ee23ddeb00U, 0xfeca03f0fc2c0a19U, 0xe924dc0b1328e215U, 0x42f5dd12201d293aU,
  0xeb1e160701210e03U, 0x15eb12de0713f300U, 0xec10d8cefcd4f7dcU, 0x2ebf00ecf9f8cefaU,
  0xe7f1fbf7c90ddb24U, 0xeffd1dc1c7ff2926U, 0xf6f800fcd1e8f6d7U, 0xfc01625211f02ddU,
  0x29f9f734eb0417d8U, 0x16fcdd03d2432112U, 0x2aed1cffc822201fU, 0x1dd8bdb7f8c7cbdaU,
  0xdcdce505bfb3f3f6U, 0x30eb071ace3cac16U, 0xdcd8f0d8febf24e2U, 0xddd0fef9cb1012c2U,
  0x2ad4c5052c271be2U, 0xe9fa01d5d7162cfeU, 0x16d936f6d0e1f22aU, 0x3ec5fe0f15dd071aU,
  0x14011905351efde1U, 0xe9c6d2f6bf192011U, 0xeda090812d42c0aU, 0xf22810b333dbe1bdU,
  0xf4d103e41e2dda2bU, 0xfde2f60bf8e4d719U, 0x13e0eabf01e034ffU, 0x2803d9e1dcd40a0bU,
  0xf7def410faf304e9U, 0x4ee13d11fc52427U, 0xf2fd00c9c8c7d827U, 0xf81f071de00707f4U,
  0x22f111db2dec0d06U, 0xea20f0f2edece60fU, 0x22e91a08cf07fddeU, 0xf703e0b115c0d7ddU,
  0xc4fed6d2bbfb1c21U, 0xf8f30bd3d5e8e90eU, 0x26eefae0bee53fd4U, 0xf820ed17e813d7d0U,
  0xbf8e03c152df205U, 0xe736071df4f0ef19U, 0xf70d1b2ecf30e601U, 0xee6d6e7e1f125fcU,
  0x1d1e091822ecf4e5U, 0xedae221c3011a29U, 0x6131a0305fe30d6U, 0xd7ef2ce9211e17f3U,
  0x160eddeb24fd1605U, 0xf5e72b26d5c6ce09U, 0xfaf5de3f3cec07e4U, 0xe51b0416de11e307U,
  0x1d05e3d40130e0ceU, 0xf4fce02a04d91808U, 0xd6052615feff1cf7U, 0xf3ff061e111f10faU,
  0xacdfbeee5e0f4d4U, 0xf00c021a03f5f2e0U, 0x22de2de9fbdf2b00U, 0xe3080d17151dfa01U,
  0xfad6260913f5f2fcU, 0x11f8131727d62ee1U, 0x5ff00d3f9e6021bU, 0xf4131ae6e0ddfcf7U,
  0xf5fc1e26ecd100d7U, 0xfe06e504d9efddf2U, 0x3f226f6fd1408deU, 0x4dcfe1ef0f3e00bU,
  0x1aede33b080fb8fcU, 0xf7e6ff05d00516d5U, 0x9f906e30ce8020cU, 0xf4fae5e7f5f115cdU,
  0xc11ce6e5fbf4151cU, 0xf4f806eb17d432e6U, 0xef0ecdf0171513f7U, 0x272d1d52f3fe1818U,
  0x19dcf0eadbf403efU, 0xf6d5c4e6f62610feU, 0xf1e2f818131ae8e4U, 0x174ee7292ae11f26U,
  0xe82515d5c2250df2U, 0x1210f424021315ebU, 0xc03b2106104a1af1U, 0xf17335902dd3412U,
  0x11d910fa04293e29U, 0xe209fd0207be0a18U, 0x13ed300416ead1bcU, 0x1731151ff5cf3c11U,
  0xdff40cf9ec1b02e8U, 0xcdbeeeafbafd20cU, 0xe7dfbadde8f10ee9U, 0x6dc2b1af50f170dU,
  0x1abb09f4182fca06U, 0xc6ddff0cd21126f5U, 0x34dbeb08fbd6caf1U, 0x2219f5fbf01dfb23U,
  0x1d1628e006fedfU, 0x160cf822fbda3318U, 0xfb19d1e2e6e82af8U, 0x1f1321e9d61aed1eU,
  0xd05d80cf60bc0eeU, 0xe5f1e8051632fbe1U, 0x5031dfb1cf6fa50U, 0xf21cf619eee302f6U,
  0xe32f040c0a23fd22U, 0xff061f101d2af43aU, 0xfbe4de0f49002f18U, 0x3a1ee638051737f6U,
  0xf3eed1d028201dd8U, 0xedeee1003530f901U, 0xfd0ce2810c4dc1aU, 0x192a1f0d28002f29U,
  0x2b37d0ee07d7e218U, 0xf3f0dfc80beeececU, 0xfb0beed2110f2be6U, 0xf617011cbe0ffce8U,
  0xd1dee0e828ed0dd3U, 0x15d30dcbf111f502U, 0xea01ed06e1b00f1aU, 0x1603fae60dd80b0bU,
  0x1325efcb0b06d606U, 0x22e246e209107602U, 0xc41e032710bed7dcU, 0xf4c133e0b2401628U,
  0xebfb09c5f8f1d6e3U, 0xc900fb0b110ec3ffU, 0xda00fb310c01d6f1U, 0xc9f4ea51c631fd42U,
  0xff3ad7bc18f9c4d8U, 0x2db080ee2ea2de8U, 0xef6e0d528ee1c09U, 0xfaf21adcc3f500fcU,
  0xebfa08f7d8fce2dcU, 0xf2d3e11e0cf717efU, 0xd7ecd61bffe4e3ecU, 0xe1d81034dbdaf93eU,
  0x4e0debb9c202e5e6U, 0x2f254411da334e08U, 0xe9f003f7102024d9U, 0x818d6f720431008U,
  0xe311e3efbdeeee2fU, 0xa33f10c1f4119d7U, 0xdc320c1523d2fde7U, 0x1b165955c93e4649U,
  0xffcdefdb1a19f415U, 0x15dbc2fbfbc7f5e8U, 0xf2ecfff239d0c017U, 0xc8f1e8d3e6ebf7faU,
  0xfde105f83c1bf9ebU, 0xe125ee22d300e9c4U, 0xe3b8ab132df2d7d3U, 0xb0dbd9d7fbe5c6f4U,
  0x203e51d17f4e315U, 0xece0fec7f1d9dae1U, 0x1504f7e111e2f21dU, 0xde6e605100bdbc6U,
  0x16dec21803ed0a1bU, 0x16e11122fe0bcbe4U, 0xbbfedbdff2deef26U, 0xbac113f91fdeed09U,
  0xbf331021b281414U, 0x22ecf50a230cf7f6U, 0x1dd01a1a13c2071cU, 0x1aea0d02010cfec1U,
  0xd0eaedfddc112202U, 0xf1d805e32222d2caU, 0xdbbae9f307e8d8U, 0xc9e4d3f1430b12f2U,
  0xbff9e90016331ee6U, 0x1af3eb030af51b2cU, 0xff0909391eff30edU, 0xccfa2206ff0520e2U,
  0x6e503412d14080cU, 0xf015060800cdfbf1U, 0xf60be4220cfcc0cfU, 0xde0d40253819f4c2U,
  0xccf410f21f14071bU, 0xe50adb09bf20011bU, 0xb6d421f913ff1003U, 0xd313d7c11b0c12f5U,
  0xfefa3753e1060be4U, 0x2f7fb23c42415e0U, 0xf11ce8cc03281208U, 0xea0813201bd904cbU,
  0xbe19e6d519fe4d16U, 0xdeefd42ef92604eaU, 0xd10c1b13e43efee0U, 0xc7e5fefc360e08f7U,
  0x1f6f938fbe236f6U, 0xfbd811220bd52006U, 0xee09dfe302111800U, 0x1af5e6063902e6d3U,
  0xe5ea090c1313f8efU, 0xf3e711d6fe221ce3U, 0xf71317fb06f614f4U, 0x1c0ddef4fd0218f6U,
  0x190de5152f23edf8U, 0xe6e5db10ed191cfbU, 0xf0921fef0cb190cU, 0xf5e1e4f8fa063f12U,
  0xe910f410de2ae6e3U, 0x231821062be4030dU, 0xe716fcff1a070506U, 0x21df06141dfeff00U,
  0x1303eb04fbf91e0aU, 0xe6cf04fe0fe703f1U, 0x2380814f3e106eaU, 0x4e8ec00d80406fcU,
  0xf6ecdff7fcff0fc7U, 0xc7f6001623e30a24U, 0x7eb2a1bff03050fU, 0xe6f4e105dae9e9f4U,
  0xed21fa0b03fcfefcU, 0xf8e1ddf700f50819U, 0xe31a21f0e4bc0ae5U, 0x1083204ce1102U,
  0xe2fbd00bec0de517U, 0x1a04e7fd0edf0d28U, 0x16f2f71709f5ec22U, 0x1de103e90bd91c0aU,
  0xf5ecf4fc371321c1U, 0xdafe190c12dbf610U, 0x20f40306d9cee508U, 0x130a05e5d70e2efaU,
  0xc30cb915f6e800e6U, 0xf3f0b5f6fae3ee18U, 0xf20135111a28edd4U, 0x14fd072b0704f70aU,
  0xcf7fdf42d1905bfU, 0x4eeca2beff50320U, 0xd6eec108c8d1c502U, 0xfa11f6e7100110f8U,
  0xe2e6c2f522ec00d9U, 0xd3f4c1d926f80cffU, 0xf7e013220210f91bU, 0x24e1111e050cf715U,
  0x2f1f9122a05e3f5U, 0xe1dadd1d25180a15U, 0xfde0daeb01d7f509U, 0x405ece2efdc17f8U,
  0x1f0ef215de18180cU, 0x302c609e2f2ed40U, 0xff13180beffdee25U, 0xfde2f4f817ef13faU,
  0x14d5e8ed2c160710U, 0xd9002023d8f01216U, 0x28e4b6202aead20aU, 0xf40d330ad0f3dd06U,
  0x6e001f4fcfef1eaU, 0xcd07bdfde5cd1f2bU, 0x71d1df91cfbddceU, 0xdf200c360b04fe04U,
  0xf9de21f4261e0be1U, 0xf91905190204f60bU, 0x610b0f2f2fe0adfU, 0xf40b0f2a03eef70cU,
  0xbd708f60c0a14ceU, 0xf612b3f803e92801U, 0xe2091efbde03ece8U, 0x8e41b11f000f809U,
  0x2501ed21151a18d4U, 0x71c0116f6d51418U, 0x22e4b60df42ddf22U, 0xce0fed1905cd2008U,
  0x2d022722f0fce6dbU, 0x2e020415e3e2e7fbU, 0x7dbf512fff825f3U, 0x1113160bcc4cf334U,
  0x16f30bd4cc041334U, 0x2f2b13d80cffe513U, 0x11dc162e470ced17U, 0x2520f70f3d020c32U,
  0x9fc0715f5050413U, 0xf71fd7d4e2d925ffU, 0x14fb0918070300e4U, 0xcef53818d415ee12U,
  0x1afc2218ef05e2e5U, 0xe60e0ae5181ef30fU, 0xe90adb2f163606e6U, 0x1fffce2f2e9cc26U,
  0xd7f5cbe0f8f6bf1cU, 0xc6e7ead61df805c9U, 0xf004e7d8301a12e0U, 0x9fd0709def505d9U,
  0x7ec11efff12d0f3U, 0x270cf2d710e3e324U, 0xf403e0d4fbf81c2aU, 0xfd1ad2f0e0cbe4faU,
  0xfc363ad5240cf6faU, 0xe5d720dff426e5f0U, 0xd3c7ed23efe927f2U, 0xd1ed07d10721dc17U,
  0xfef0e5c1d6cdef3cU, 0x170933c2e83c1b24U, 0x4f22ad614e018daU, 0xd2ebf704ddde250dU,
  0xf703e5eccff509caU, 0xddf8330fd0f8ccf9U, 0xeffcd8e60df02bccU, 0xebcad1e0e51ef7d1U,
  0xe1f21fc1e2131f29U, 0x1ecd07d8eb08ce17U, 0xe0c4f3faeefb08fcU, 0xffe51b0df7e11cecU,
  0x10f6e9fce9f807e0U, 0x6e5fd0700f3e4d7U, 0xe6f6ddfe001c1000U, 0xf6ced5c5d402ccfaU,
  0xe0eae6c7f4d5fd06U, 0x14e5f8d6e51ad607U, 0xffcf06c4adc2f61fU, 0xa0a0c05f4f2ebffU,
  0xd113606071ffe13U, 0x330a1906d5f701e2U, 0xc07fbd70a30fb18U, 0xeae21b0a344a321eU,
  0x111333fc0831ee28U, 0xdfff0df7d9002008U, 0x4812270eed130816U, 0xdc110f211319311eU,
  0xf2ee02312d37e510U, 0xf903d9f7fddcfaf3U, 0x20f17e5d40f013dU, 0x61d100825084b21U,
  0xeff109f72cfc0fecU, 0x18ff1d2dfcd8093fU, 0x1707fa1bfb3a131cU, 0x2800eecd37d6ede3U,
  0xce60b362ae4d416U, 0x11e5bdf5ebeb1d1fU, 0x1d11ef11dbea0065U, 0xa2b20f606180ffcU,
  0x140e11f1ee01eec9U, 0xc6dd1c0709f041fcU, 0x390ad9ea161fd9ecU, 0xe53dda052febf4e0U,
  0xffeef4fd12fdefe7U, 0x28f1f9112ce9f9f4U, 0xe1fed70ee700fc0cU, 0xe9f808ecf2f3e30eU,
  0x1fdfe50610d3c21aU, 0x3e6fdecf605fafeU, 0xce240fdd220924edU, 0xcddc0309e31d1ef5U,
  0x1b2b0600e30f1de9U, 0xf21c0706e52003fcU, 0xfce9e7ebe50efc14U, 0xf81b191f2008e3edU,
  0xeff50915060df42dU, 0xa0bd9e5e8fdf010U, 0x150c1c091d212306U, 0xd40ce50b0c0d2120U,
  0xd0720f013fffc04U, 0x22f2f9e0f9ecf1efU, 0xc002e301cdeb21deU, 0x14fa15f508f8f6e7U,
  0xf6d4e51cf913fd04U, 0x30d6ec24f5f1e8cfU, 0xe5f900110eef1cdfU, 0xfb17e4d50dd225d9U,
  0x110d0c10160b20ecU, 0xd532e1daf346e5f0U, 0x1ddf707cfe10cf8U, 0x2eacdd7d9d3dd0aU,
  0x19f60e04e82031f0U, 0x24def6fefbf4d02aU, 0x130ae3d7ebec37deU, 0xcce20cecd3fbcdd9U,
  0xb28ffff1a1f23f1U, 0xd94e03090652e7f3U, 0xe7eaef12bd0be8e4U, 0xfdddefedea20021cU,
  0xe9e8fb161ceb2411U, 0x131020e81217e12bU, 0x20d8ed00debb3bd5U, 0xddceede3fbdfeecdU,
  0xcc0ee1f30bf73115U, 0x5fad6cfed34d5f7U, 0xccb7140fe7ea0801U, 0x1fd0cbcc0e0f1bf9U,
  0xf5af0c0bf412f7f0U, 0x6f42201f5eef014U, 0x11c602c4ffc42a01U, 0xfe0df5f4e1d404c6U,
  0x14e4e4081dfdf417U, 0x16d0d9f405d226U, 0xe416faecf6edf0f0U, 0xf80eff1e16092bfaU,
  0xeff7d8f8de122609U, 0xafd1df3f7eb15fcU, 0xfbf0f1e104fc1b15U, 0xf7030a08e306df0bU,
  0x140c0efa1120f7feU, 0xbefc805ee1c0ef1U, 0xeff91010e7d6d905U, 0xfe1c2dee00f8f51bU,
  0x1fb0a0aec13f9daU, 0x2c1eeb1bf9f3e4ffU, 0xf8c2dd15d50a23d5U, 0xe5f4f2f32412e804U,
  0x419c219fff208f8U, 0xe0ad1f9d7011df4U, 0x1307f43aeddef132U, 0x1715f0ed1b341527U,
  0xd9c1cbdf172e08c3U, 0xfcf113e606e8eb02U, 0x1dd0beefdd0bf803U, 0xdefeffee12f40febU,
  0x152021f013152104U, 0xedf11e02d91111fdU, 0xfbd20414eb0b20c7U, 0xfbf6f202e204e2ecU,
  0xf208f2ec05d726f6U, 0xe90103ebf5001414U, 0xf9270e19030afcebU, 0xf9ef2f130ff2fdf0U,
  0xe90122ec0dfc09edU, 0xecf10ef9ec05040dU, 0xd8fcf91c01f61fe3U, 0xd21314e7dce9e5eaU,
  0xf01625dff2e32b22U, 0xfd13f0fbfaf807ffU, 0x402faf018fb14ffU, 0xd50526001bed17e1U,
  0x3081ffee0ed1ffaU, 0x5e80407e7091becU, 0xdf50328190a25d9U, 0xf9e2e6eff5f7cff3U,
  0xeb142400d6e71e0aU, 0x212ebd409f2dc02U, 0xf909fff100090b15U, 0xfd0efc1f0715131dU,
  0xe72d2d12f2042919U, 0x17121b100a141af8U, 0xef0dfb1bfa1f13efU, 0x13f2f62b192b14dcU,
  0xec17160f0310fa0bU, 0x1feff204ffeff806U, 0x22101b09180506f3U, 0xf8ef380d31140601U,
  0xe5070407eb2428f6U, 0x1ce9ecf8dd0b101aU, 0x171210f7040e0af8U, 0xfd4fff5123015f9U,
  0xd2328fa050afb1fU, 0x16f70709e704daefU, 0x11131d1b08f6fde4U, 0xcef2719f4051309U,
  0xc2f230504241b00U, 0x16050602071a04fbU, 0xf712daf00ed21104U, 0x21e9e6ff032c0bf3U,
  0xee0e1ef8fa06fb00U, 0x20e703db212addf9U, 0x404fd08f80b04dcU, 0xfc14f70a130c21fbU,
  0x1c27ef0726e1050fU, 0x1f1224e2e40a4525U, 0x13f7f11b1ce91f21U, 0x13f0371703151911U,
  0xf0f6dbfb2b37e6eaU, 0x1904000f0e0e22f5U, 0xe9eff918f6211a0bU, 0xee40e3182b1a181aU,
  0xf1308230c010e22U, 0x22ef030feae50b1eU, 0x826fa1e22f42915U, 0xf8d51c37d52a1809U,
  0x11bdfe1052c03edU, 0xf1e70eeef427170aU, 0xef15250c1a10f010U, 0xb0ee3fcfd01ea17U,
  0x281c0cffffec1ae3U, 0xf6ea0ee32006071dU, 0x1efa20e508e418f6U, 0xf020a1de6f61113U,
  0xf90bfe14f1f7fef9U, 0xf406130af123ef1bU, 0x140c171617d42207U, 0x1103f01402e5010fU,
  0x3e112af6dee0f9e7U, 0x12dc103c11010729U, 0x25c6efe30fc7e507U, 0x29fd2915ef151016U,
  0xd0f313fb24070223U, 0xfb0323d1e9e4fb03U, 0xf2715f92223fc2eU, 0xf6042e0af4e1d7f4U,
  0x202f32f7dcf908ecU, 0x405d9e9050c042aU, 0xdf0320141bcee925U, 0x524271c321c0829U,
  0x6f111d8f41a16f3U, 0xd30a000e130e2144U, 0x11d10afa132e14e9U, 0xc4f01b03f5020b07U,
  0xdbf323fd0e1cf6e1U, 0xd4cbea1bd7db1d2eU, 0xfd1fff1b26dff813U, 0xd708fa0a01f1efebU,
  0xc504e4c60fd0ddf3U, 0xdd33e3db17f31806U, 0x26c6e2fc36241306U, 0xdeae0eacbe6050cU,
  0x2a1c02c2cc00e70dU, 0xe0470227ff1a3fefU, 0x5dcd7e1d7db0616U, 0xfded0fff2af1050dU,
  0x11fd0625270a1efbU, 0x17d3bef801391ae3U, 0x19242d2be5f52819U, 0x3100223180f2ae2U,
  0xdf25eafceae725faU, 0xe41818fc2b23340bU, 0xe6e9170518dbf317U, 0x2203feefe1f105f8U,
  0x2bda05f112f4dcecU, 0xf5e4e206422f1c0cU, 0xe009e749f3e91a02U, 0x17e0f026df0aebU,
  0xe3270426f1d9e2f6U, 0xdff8e50c0b0c0135U, 0xe91809f8eedfe63dU, 0x13ccdf12f81d02d8U,
  0xc4f61c3304f8e5feU, 0xede7e91318fee8d7U, 0xfafdf122e6f2f2feU, 0xfaf6341816e0fff3U,
  0xb0d0bed0cddfe3dU, 0xe60824ed22063702U, 0x8e8c8e5eed8dd1fU, 0x5f3251f06e4f13eU,
  0x52fdd341309f32dU, 0x33f2cc230b20feecU, 0xb81b4029cefc0735U, 0xff2fcbf90639ea1dU,
  0x1914062006cb1504U, 0xe1511dd71cde2c09U, 0x4f20f82ee8f4dc48U, 0x2d3e15f2f419d902U,
  0xe7daf05be807e309U, 0x3802d028f20b4fd8U, 0xfdfe363bdcf31b1bU, 0x2718ebc9453518edU,
  0x1ee0183839c80e2aU, 0x17e2f7eb16f609f5U, 0x3015f70801ed0051U, 0x32e6fb111c0ffbd0U,
  0x8161b09f616e217U, 0xfe0039b6f128dcU, 0x2a00f712dbf71828U, 0x8f1d4e50922d7bdU,
  0x5e1dfe4e2ff2020U, 0xd630b4f016f4f61bU, 0xdffb1afa11d7eb20U, 0x19fef4fafc060bfbU,
  0xfef3fcde21faf6eaU, 0xd12f81615fddd14U, 0x17e80af0fb0f080dU, 0x1a1422ddfdf80427U,
  0xfc04fb13e8fdf5fcU, 0xfd40f4d6e2f71ffaU, 0x144cfce514131bU, 0xe8da17f503e5fef1U,
  0xf1ead8df1937320fU, 0x23c2f8f646c60500U, 0xd8d1e3f1fc13e3ecU, 0xe1f501e9cdf31016U,
  0xf2eaeef72036e7f0U, 0xef4beb210014f620U, 0xe2f83e12da30fbe6U, 0xf001fc0f23000e0cU,
  0x241f0700fcec17dfU, 0xfee0e2e2340c0103U, 0xeff5d1ef11ea250eU, 0x2efe2a1c0eeafcf6U,
  0x22ddfcf7e8fa21d6U, 0xfa27d918eb36ecfbU, 0xaebfaf90e08ca0eU, 0x3d9fd1626ed060eU,
  0x2e0e0e004d31f1dU, 0x19240dfc02ebde10U, 0xe00f0ed81006c2U, 0xf3c7fd27d3e21e02U,
  0x20f90e04150811c6U, 0xdfcfcf4fe0adbdaU, 0xeaf50924faedf90eU, 0x21d2c9ff20f5d2e2U,
  0xbe707fce7d51b26U, 0x25e500140de8e8efU, 0xf8c6f1ef321bf210U, 0xf8f838efd0f82a0dU,
  0xfe1b081c0d3f1ec7U, 0x31ff1048240bcce4U, 0xfedb17f5e53d050aU, 0xf4fbd9ee17d903e4U,
  0xe8ee23ff14ed4d1fU, 0x3ffef9d700200203U, 0x1bcbf6e213171df0U, 0xedeffe12cbcb20f6U,
  0x241bf80f28e106f8U, 0x17eccbfe0effe01bU, 0xf7e2ec0eeaf2f2e5U, 0xddf4c4e60af4f6e6U,
  0x9ffe404eff70a0eU, 0xf600f22aec1fc90aU, 0xf6fdccd6d1fdf7ffU, 0xcce0150fe2f2f6dfU,
  0x60bdd18121718edU, 0x1e806d1e416ff17U, 0x161a050fe8e1d905U, 0xede6d91cefd4cf0cU,
  0xf5f8ccfe25fef2fcU, 0x20e5eee01627dc17U, 0xf10fec0ae9c133faU, 0xc4f703dbfbdde817U,
  0xc24db15ec362decU, 0xe8edf1100d33eefeU, 0xf11d292320fa19ebU, 0x9ff1003f412ea23U,
  0x1cf9e5e92df0341aU, 0x8ecfbdef6120015U, 0x27c60ac6fc0114e3U, 0xaeafbe6e415f601U,
  0xfdf700e9f91dfc10U, 0xee0be707ebf7d4e0U, 0xe920e9feff14f4ebU, 0xf8f5fe12da021deeU,
  0x1deb17e0eddb0af8U, 0xf5f609e7f106e4f6U, 0xe9ef03061a0aff04U, 0x25e207e5d7f110e9U,
  0xec11e2fc16ff00fcU, 0xe80ee0e8ef26fe0dU, 0xea23fb090f191511U, 0x311a11fedff731fbU,
  0x3f4e8f108f607fbU, 0x1e06ec0407ee12f5U, 0xf4ca0501dbf815f8U, 0x2fe617def8d3eceaU,
  0xfc0114cce02c03e4U, 0xe8d8d2151d0cec16U, 0xeeef1404110c1dd9U, 0xf00bd8fb12d70d0aU,
  0xf10e14dedbfb2022U, 0x2deedbdd0d10dbfbU, 0xf10e14d71ada17f6U, 0xeed71af0cff918e4U,
  0x812fcf4e723f3d3U, 0x211cdf0626f6ebefU, 0xedebdff8eeef04daU, 0xf0ed0deedde61aU,
  0xf610e806d7050223U, 0x905dce9fe12f9f5U, 0xe2d8f8e016f41c0aU, 0xfcdbf3ecefe10f0eU,
  0x5204127260839ddU, 0x8e20d330c2202ddU, 0xeb13f4e7ef14272eU, 0xd09ea00ece733fdU,
  0x11002ce4faed1e06U, 0x263200f1fdfdf915U, 0x19fa12091123140dU, 0x2ddfb08f3d1151aU,
  0x11002af20c220609U, 0xede70ce61220f7fbU, 0xb915e4ee151413eeU, 0x2af605f3ead610fcU,
  0xfd1112d50b0f0f2cU, 0x1f1522ebde250ef3U, 0xbdf08fce4fb2816U, 0xf8c713e4f8eb1c13U,
  0x21ecf80d110f0bfaU, 0xbf605140bf4dbedU, 0xe40905f6d4f0f007U, 0x61bef22ebfa02eeU,
  0xffefe9dfd512f5e8U, 0x17e6f6f31011fcf2U, 0x1df001da09040222U, 0xc010f1de4fbf0e9U,
  0xfe210fcf31f19f6U, 0x35ff05d7f5fced01U, 0xf009ddf8eecceffdU, 0x1b151713e80bfb23U,
  0xe9e914fcde271608U, 0x4e20ce9fa1c0217U, 0x2f3fcd5e6e9db0eU, 0x1beee3261b0afd12U,
  0xdd0214ddf10bf3dcU, 0xefdd22e81f1ffff3U, 0xf4ebfa02e5f9e0edU, 0x919100ff9dcfa1fU,
  0xdd07e0e7d8eddff1U, 0x9fc15d9d31c190aU, 0xf6fcfcf8e9f5d1ddU, 0x29ed171ff60b1717U,
  0x300fb2d290707faU, 0xee3509e1fdf04a41U, 0xd1221f8e9120306U, 0x6ea1d01e90b0827U,
  0xfb300cfd01270027U, 0x16f53312fd0cf00eU, 0xf2fcdc17dcfcd900U, 0x7f4f60d0d1f0413U,
  0xff1bf8141ee60d36U, 0x1ee30ccfef0f24f9U, 0x617f6db36dae3e9U, 0x1f160af0f1180518U,
  0xc11df1f9eb0bbce2U, 0xfbec32d3d83418f7U, 0x3090efce6dfd8ffU, 0xdfedd622061acff3U,
  0xf00e0508db0418e2U, 0xe7fa2805010d281aU, 0x361ed9f638e7fff6U, 0xe0f519eafb121145U,
  0xeb23c2e60704e620U, 0xe1db03f7df13c0d9U, 0x512fc170fd3ffdaU, 0xf0ddcceef5102114U,
  0x1aeb06e3e4120cffU, 0x2725e3f6ebec3420U, 0xf50d0b32e8102726U, 0xf41401d3fa091427U,
  0x2811e0030c08fc02U, 0x700f5010cec14d8U, 0xf80beffad93913e9U, 0xf51cf005e5fee92cU,
  0xe4ee14efdfd1ed10U, 0xded1fe700f3fbfdU, 0x1911e2f8fdeecbefU, 0xfff0eeca101100f8U,
  0xee210839d9fee9e7U, 0xeedff31ee2e9fdc1U, 0xcef1f6ebc804f0f1U, 0xffe3f2e70b1307f6U,
  0x2601f910f7ed33f6U, 0xf5e307dac7e9f3f9U, 0x3409ce291208e2dfU, 0xf9f303ed16080719U,
  0xedf7d5e0e328fc13U, 0x522f9fd04eec2deU, 0xe90cfc2b00edf60aU, 0xf0f3cbf2e10d0cfeU,
  0x18000ff224fb1a25U, 0xe361dfc201ddff7U, 0xff013cfb2c1544d5U, 0xd206f7130020ca03U,
  0x5fe143c17f2232fU, 0xf8f8121dea0913fcU, 0x13292e21d8f10512U, 0xefeb120b1406f8f1U,
  0xdaf02827efe7ff41U, 0xf92d171ee40ae1d3U, 0x1f7e9ce23ecf1faU, 0xd9050bebf401dfe3U,
  0x291b3310f5d4e727U, 0x3ed123fe2f616cbU, 0xec321ed8cc28dd1dU, 0xd5deff074e0a04eaU,
  0xed211adcea1510f8U, 0x536feff05fbd7d5U, 0xe7d407dbf429e8caU, 0x7e821cefdd40608U,
  0x46f5f2100ee81e2aU, 0x522eb1acde61cedU, 0xe3fe37e0e4ebecd5U, 0x9e6f1f2e60ff4e2U,
  0xffe7233106e9feU, 0xfc25e629ee03f3f3U, 0xd91913f7e21a0104U, 0x290b2f0b371b13e8U,
  0x1161003092cfc15U, 0x142337fc05eaf207U, 0x21ff07d3f809e10dU, 0xcf4000a13dd1be7U,
  0xfc1bd3263902d61fU, 0xc06f1ee15f7ed1fU, 0xffe30c06e229f9feU, 0x33e63be8191f3e17U,
  0x613e61c3501eed5U, 0xe200f400142b0fd3U, 0x151ed72b021301d9U, 0xf1f121023c34f1f0U,
  0xedbd81700e1f6fdU, 0x27efe1fb0bda1d15U, 0xe524f2ee0507e601U, 0xf322241e2e320d23U,
  0x37e8ed371f3e16dfU, 0xd6e3131a07140a12U, 0xeb06e6fe2627c8e8U, 0x310f10fa44f7140fU,
  0x2f110d4dddde80eU, 0xf6e7fe18ecf70711U, 0xfdd5e4e0cd0f04feU, 0x3140a060e0cfbcbU,
  0xec2dfeda0b0df2daU, 0x30f6f0cfe8fce118U, 0x7fd30f21ede1ee5U, 0xe70cdaedfbe8dbeaU,
  0x2ff507caff02fb0bU, 0xd80416141615160cU, 0xf1d2dff0dcf5f2e3U, 0x12213bbd6e1e8e3U,
  0xe4f1efdc05e305f0U, 0xf71216d1daea0906U, 0xd7fc36250df9202dU, 0xac03e1e5eb16ffeeU,
  0x30f8d5e5e5dce5fbU, 0xd6021c112cf715feU, 0xffe7fe12e004fd01U, 0xda2113e6eeeeeafaU,
  0x13903e3171ff610U, 0x10ef0023c00eef2U, 0xe1d0091148262605U, 0xd116022cf715ed0cU,
  0xfdf418f9cef013f5U, 0xf3d7e40bf435f6f6U, 0xd90be6dbfc25e5e8U, 0xeff6d219fede29fbU,
  0xf20cfdb70b132720U, 0xe5d911ef1eedfa0aU, 0xce919cd17da0cd4U, 0xe8c5f7dfc5f50c19U,
  0xb6f0e5b905170cf7U, 0x2c01627fc31da02U, 0xfee4e106153cebe4U, 0xedf721dae907e6c7U,
  0xf8291dbc16db3231U, 0x2bfbd50cfb28cd2bU, 0x52d3de4d2cf15f3U, 0xde002422c020e3f9U,
  0xd12505d4f7d6fee7U, 0x1ee7f3deeffef91aU, 0xd17e117ec30e4f3U, 0x180df326de100cfaU,
  0xf0210f61a25e7U, 0x14e3e6e2e307ef15U, 0x12e71f1a0d01ffe3U, 0xde5e703ecf623eeU,
  0x15e5e9b3e207e7d6U, 0xd70f0cfa27e71107U, 0xdee5ff1b0b13f8f2U, 0xcedff2d70bf2dbd4U,
  0xf30ceb18ead9fb20U, 0xebeafd1127cc08fcU, 0xe0ffcfd1eee810ebU, 0xd80af42d02f92be3U,
  0xd81711f0c40debd3U, 0x101affd6f81beaeeU, 0xfb02f50c15ece2f9U, 0xc90af1ea100c0300U,
  0x16070521ffd322f0U, 0xef09eaded7e10009U, 0xc9d90ed622fc17ffU, 0x1c03d6f0e6f5f201U,
  0xe51be0f0f522f5cdU, 0xebed1414c216f210U, 0xf3c6fc38f0e4c3d3U, 0xf8c4eeeaf7f5051bU,
  0xd5031ad729d82307U, 0xc03d810de13ca0fU, 0xe614f8ced6fdd5cdU, 0xf01ed9daebd0d9dcU,
  0xf51cd52c1530ed06U, 0xf3ffe517140b0e20U, 0xf52f0c0bf1fed90dU, 0xed09ce0a0dfaea01U,
  0x1fce273fd3d1e5daU, 0xe405f3ebfdf9f2d5U, 0xfafb03030516d7dcU, 0xdd29d4fe1b07e505U,
  0xecf3da02e5d7dd1dU, 0xe2de508de1f160bU, 0xe7e42304e907d1d8U, 0xcdfae5e502e3f207U,
  0x44c2e226ebc709ceU, 0x18c1f517f6faf9e0U, 0xf827080af31e1207U, 0xa0ed118d121d8f5U,
  0xf527d007f6edee02U, 0xc8e8cf0702dffcfcU, 0xd0e6220ada26ba01U, 0xe1daf4d6e2f90f31U,
  0x27c9e1032c1cfcf5U, 0xd1eec6f811f203dbU, 0xda15f600fb0a02e2U, 0xd6fcf8faee210912U,
  0x316ee18f4161628U, 0x2805e435eddfeafdU, 0xd0def717e610efd4U, 0xc91a17171711f2e6U,
  0x1913320d230fc908U, 0xe8ee070f13e231d8U, 0xd7ee1b201830dbd8U, 0xe10092824030cecU,
  0xece3fbd5dbf600eeU, 0x1e1fe72a09f2ce02U, 0x5ddf5fcfb2acfc7U, 0xf8d42c001015e508U,
  0x2bfc1a2cfde3f4d9U, 0xd9ea1e24fafb090bU, 0x13f628e11e131eccU, 0xfb07e9f6f20bebdfU,
  0xc00e00d4ede6d9edU, 0x135c0f610f6e3f6U, 0xdbfd080ce40600ecU, 0xc9d9fe2af4e3d4eeU,
  0x18eff1ff2fe4e1f7U, 0xdf20ce2f070321daU, 0xef11b52b2f01eefdU, 0xfa34ffd0dbfb0cf3U,
  0x2f10ee1d12140b0eU, 0x60612f52722fc0fU, 0x132413f0d415feedU, 0x10fd6f91de5da0fU,
  0x3318d73ce71dfdfeU, 0x25d4ca1cf9ed2cc4U, 0xedf2110ee4d6fe0fU, 0xed14df02eb1805fdU,
  0x1d092a0af607fe2bU, 0xf72317e2cc3a2bf2U, 0x3e4d4ee0205eb10U, 0x1af214d7cfd82dU,
  0xef2f317efeeef02U, 0x721e5ee01e808cfU, 0xe6072bfff60a2b13U, 0xecebfa1cf2123108U,
  0xed092a0713f217d8U, 0x171505e6d2230010U, 0xbe9f9def6df14f0U, 0xecfee2d8ee01ee29U,
  0x3701120c18f51015U, 0x2cdfdd141ce70df3U, 0x2610d7f0e4191e08U, 0x1f1df30213eb2bd2U,
  0xfc17dffa21d5022cU, 0x1c0ad2020908cec7U, 0xcf207dd10191cedU, 0xc50fd0d8def1d7ddU,
  0xda0e173ccf33d4f1U, 0x1cca0ce9221617f0U, 0x12d14dfd5071ae7U, 0xe5eddbd3350dedbfU,
  0xc30937fa0de84315U, 0xc4d1f5ddc630d4d0U, 0xd030908e00cd1d5U, 0xe4e4e6dc1ad5edd8U,
  0xe717281cf60bef29U, 0x1903f902be36e8d3U, 0xf61402fdead1fce0U, 0xe7e3ef02010b24e5U,
  0xcdefdbf825e330f5U, 0xed0ff0e1c920f1eeU, 0xfafef61edc16061bU, 0xe6f622dc03d92f0eU,
  0x35f8e3fe2829f706U, 0x3f624deced7e1feU, 0x21320e5eef5dbd2U, 0xcffd051cd9faedU,
  0xf616f019f1e51e27U, 0x31f806ed05001b11U, 0x1f0afa0ee7ecec30U, 0xdc0ceadff9152909U,
  0xfb0dd8031812d9eaU, 0xf0f91214faff1af4U, 0xae9ed0cecedfedbU, 0xfa0dfee1020406faU,
  0xeb2cfc0923dbf7f3U, 0x7c611f7e017daf2U, 0xad3e30117e5e4faU, 0xd3fff802e4e5cfd0U,
  0xf006db09e5f2140aU, 0xfa1df2e3f0f503cbU, 0xf70735e2dcf30311U, 0x1cec050f05161800U,
  0x5fd1ce4fdf3feeaU, 0x4d8fdd8ecec05dcU, 0xe7e0f019f40ee1c9U, 0xda08e324fe1903dcU,
  0xefc614f2f720e7e7U, 0xeddadbe215edf6fbU, 0xe9e0f71716eccecdU, 0xfb26d00fdf0507e6U,
  0xdfeffa0bf3ffe115U, 0xee1cdb2bf1f21418U, 0x10fb141e171900eaU, 0xae909241904f8edU,
  0xf00fe193400dc12U, 0x20e2f414f6e8f820U, 0xe406e020e42aebe3U, 0xe3fcf7daf709ffddU,
  0xd10df807dffafef5U, 0xf0708fde1001f19U, 0xbea08e5fdf0fc18U, 0xf81002f5eee8d600U,
  0x10dc25120907e222U, 0x9063c2a08f8192fU, 0x12fd050bf70cf7f4U, 0xa120718f0321215U,
  0x10f30acafd15f914U, 0xece12efee118e8daU, 0xfeefe7f1fc07fcfbU, 0xfbe812dbf0e8f722U,
  0x1900f7e719eed710U, 0x140e17d0d9fdd9ffU, 0x3251b0bf91111cbU, 0xe1dafe11fff8e907U,
  0xd03f8d21cfcda24U, 0xdd0dd9f5fbed1f07U, 0x131bec05140703f0U, 0xf01219200b27050aU,
  0x3407ea3319290503U, 0x10e9d1311ae31dfeU, 0x12eacf390d24d912U, 0xfc19f3fa21e41519U,
  0xe3140206edf4da2dU, 0xff2e2808edff04feU, 0xee1b07d6080a1e22U, 0xf2fe010df312dcf1U,
  0xf9e7014c05f1e609U, 0xfd09f329141125cfU, 0x1244f20afbff08f1U, 0xf42c2103f6241c0cU,
  0xa010ebdd2141ee5U, 0xe0eb0b0ebb19fdfaU, 0xdeca0bd4daffeed4U, 0xe0eaead7f009f0e3U,
  0xde200cf917d5e22eU, 0xf60112f2e81acad2U, 0x44140f9011411f0U, 0xf0ebfb000a1b24e2U,
  0x26eec0e5100fff0dU, 0x52218e8fff0ef16U, 0x1bef2605f1f4102bU, 0x20dea130be1e701U,
  0x3f80f0f32261cecU, 0x14f1fc1917053ac5U, 0xff0ffdfce0241013U, 0x1423e0e6f016da00U,
  0xff9ea01150ff623U, 0xf911ef132de4fa1bU, 0x4e52af000fb0b19U, 0xfef018000bf2fcf5U,
  0x31e17410e1705f7U, 0x191c0137eef729fcU, 0x4081d1adb1c0b23U, 0x1f1c0dfa0c01dddaU,
  0xd9ff1cd5d50ae91fU, 0xeacb32e5f1eef6f4U, 0xd7c5f4dc07f8e7dcU, 0xe711f8e1fae50000U,
  0xfc0d0de6ddea2af4U, 0xf4e2f8e10008cae6U, 0xe22a16e5d8eb1b02U, 0xd90af5ead9e0f7feU,
  0xea13ec14f10f030cU, 0xdee40e1efcf8f603U, 0xe20b0f0af7f502dcU, 0x23fdf1e2cb10f507U,
  0xf30ee6f3e9cff2f4U, 0x17f2f3dae904da2bU, 0xdcf22ad3d3ba1bd3U, 0xffd113d8fbe512bdU,
  0xda011a0dfa061c16U, 0x9fafe0f11f9ea16U, 0xe9e50f16ecdf20f9U, 0xf01f5fad7eed800U,
  0x38deebe331fb05e2U, 0x80f11dd27030a36U, 0x3eb0207f7ef0ee5U, 0x18f8e8020fbb29deU,
  0xfe360e12fd07350cU, 0x12fef8ec09e11205U, 0x9000d33f3fe2c08U, 0xfed822e6e8ef26ccU,
  0x3ddcf6170925e7fcU, 0xf6f603f42bf909U, 0x51f1ff8f8f20e1cU, 0xae0ffed0f0a3a0cU,
  0xe011fbdff5fbe406U, 0x1703ebcc0c25192bU, 0xf2e11de5fdef0ff9U, 0xd8fae1e8f7f10fe3U,
  0xfcc80cf71ffe02d2U, 0xfef8ebfee51cec19U, 0xeb062123ebf6ec04U, 0xe50a13f3e007eceeU,
  0xd12ec805f4f8e91aU, 0xf0f6d6152700f936U, 0x14f92d10111926ecU, 0xcc8dd0ef2ed0523U,
  0x27faed181827e9fbU, 0x16edbcff3efa0108U, 0xd0eb0e15c3f61a07U, 0xc1a0edc01eb2f0eU,
  0xcfee8102f0d290cU, 0xfc32152038fb033dU, 0x31171c00f40a36U, 0x4e3dc1f0a130df2U,
  0x2f01d18173b0c10U, 0x6f71d2112091c19U, 0x10f00cf71cea300dU, 0x160f2ff1d9c20dd6U,
  0x1cd331fd0f02fd03U, 0xe305f4201bd80bf4U, 0xf512f7fdf8000dfaU, 0x3292d0af2fe13ffU,
  0xef03f72fe229fb02U, 0x514e71deef01ee0U, 0x10fd10fa38331813U, 0x32703080b101bfaU,
  0xf011fdf26e2d1f1U, 0xfb0df74733dd35f8U, 0xd522e2f90de0080cU, 0xf2343129ff1805f8U,
  0x3e0bfc0ff4141cefU, 0x2203df070ee12000U, 0xdddbfd293e56e320U, 0xe412e1f05f51a2dU,
  0xf7061603281801e9U, 0x14fddc08fe3131ffU, 0xfae90414d6dc0806U, 0xfd0d2230e227ec26U,
  0x2022201b2510fb13U, 0x283de0232f1a1e08U, 0xf070829fe251d26U, 0x9f60bf424f103f1U,
  0xe2f5f7232acdf41eU, 0x2808efdbfce7190fU, 0x2514e607181cd91dU, 0x2a11faf2f10804ffU,
  0x1ecf02cef62debdfU, 0x705f7fbedf507dbU, 0x400b15e10711e0eeU, 0xdfff2eded050109U,
  0xe10ff50d09d2141dU, 0xfffcd2f8feeef70cU, 0x2a0f191b1317f312U, 0xfed9e116f9e505edU,
  0xbfef5dd082a0feaU, 0xe6dbec0b02fccee0U, 0xfef8e2f5ced8decdU, 0x910d8ddea15d013U,
  0xe3fdeef928e7d412U, 0xfcf8f0d105edf00cU, 0x1ed08ebfa0d231dU, 0x90bd1fbf111f703U,
  0x1e0ec0a21fae809U, 0xccede8ef2d030fefU, 0xae8d810cbccfdf0U, 0x11fef90609cfcc0cU,
  0x30e8f02cf1fc10f1U, 0xf7d6e2e8f2022cf6U, 0x3ebc4fb1dfa1207U, 0x182c0fe5de030d08U,
  0xe1eddef6eb1a0203U, 0xe7f2ebdc0218fb12U, 0xdfd5fb0f1b0c0219U, 0xec2aec020815ce16U,
  0x25e00017f9ffd9f9U, 0xebdb080731ee12fcU, 0x1b11f5e239df26feU, 0x8051026e8d506feU,
  0xc6edc9ccf71cf3e6U, 0xddf1fdf811ede9f9U, 0xd5da011bfc0aceffU, 0xe29d101ef01e84dU,
  0x25f4e1fe0a0aecdfU, 0xefdcdb0e2a0ffe0fU, 0xf2173ace11161a11U, 0xeaf5f40cd520f5ddU,
  0xdc0713e403112c04U, 0x26d1edd648ec1821U, 0x17deeee603effd19U, 0xe22b030bd9ea0a3cU,
  0xfe04f80ddcdc0f17U, 0x2fec1d0a17f0001bU, 0xe3fdeae50ddd0ff9U, 0xeaef1319d3100601U,
  0xf6f1e2eaf5fbf600U, 0xc71dddf8e3190c10U, 0xe3032de1ff21ee14U, 0xf91fe0f9cde70405U,
  0xfe06f3e80df6e3d0U, 0xe5d2de2d2419d323U, 0x51914e9fb151cefU, 0x1df1f5df08f0e9f7U,
  0xea140de5dcda0010U, 0x101a0c0215e1f6f9U, 0xec1e31f1e8f3e009U, 0xe00607f4d0ecfc0dU,
  0xe4dae2db09fb06f2U, 0xf3d8e5193527f4f1U, 0xf1ebe2fe0a1fe9fcU, 0xbf0d6f508f5dcd0U,
  0x202dee1a0afa0715U, 0xe170de72917e103U, 0xf42306e1f008f118U, 0xf0cf20d4d9e2f807U,
  0xdf00eeae5211113U, 0xf12b2c3c372d0a06U, 0xfe200929d30d33adU, 0xd19fad70110c51dU,
  0xe907f1f9f40cfb1bU, 0x1526d703100a1823U, 0x21fd2f16421df2eeU, 0x416403f20e51ffaU,
  0xdf172eeaf1f1d9d3U, 0x2f202e4ded1707fbU, 0xbe0cd9ea0ae22418U, 0xefdafcd61f4f08f3U,
  0x1d2142f0c2f8324fU, 0x111752e8d5fff8efU, 0x1a2b4afa4f0af122U, 0xae8482341ef3107U,
  0xc6e4bf01f8ef0a26U, 0xefe800f1d21108f4U, 0xec17190807180dc4U, 0xfb14e6fb01f10de0U,
  0xfe120634f7ea1810U, 0xd2f9d228dd23f90eU, 0xd4ebe700f5140111U, 0x9faf4fdf619eeedU,
  0x1527d91e0700ddf3U, 0xdfebeaf72cd6f615U, 0x4ea1d02cafa12d0U, 0xe8ba26bef32317b9U,
  0x1b1ef0d6f90d1fe2U, 0x2bcffefb10e31ae0U, 0xff2ce825e00cdefbU, 0xbfc7ee19ea0f06c2U,
  0xefbea332f28ee32U, 0xfcdbf62a012ff72fU, 0xe618222a0409220bU, 0x2bcdef04f30803d9U,
  0xc534e7cacd141b23U, 0xf8e500de1d33e805U, 0x2acaea10fcfb0fd6U, 0xdc12010930ef2bc4U,
  0xd506c931f61c2721U, 0xd8bdfc00f7f401deU, 0x9140edee12002caU, 0x10ebc6f0dee4caf4U,
  0x3cddd3eb1bdfcd17U, 0xfdf3fa16f4151f1aU, 0xbe12f720ede03811U, 0xe4f3e3c2fcfb0db0U,
  0x6df0cf620121c1bU, 0xf609f70606d6151aU, 0x1713442aff504ee6U, 0x4f416f41bf9f2f0U,
  0x1d0512f3f30ad410U, 0x1b1c352c3dd332f2U, 0xe0c03f318f8d4feU, 0xe511ed260d25db2dU,
  0xff72d4c3ddd10eaU, 0x1dc90609c3073e03U, 0xf61d11f90fddf70eU, 0x31fd130fe40ceef2U,
  0x1bf90f0fcf33eff3U, 0xc09222eff2be222U, 0xc36f128121e0d20U, 0xd909e3001049081dU,
  0xdfd20efc06120929U, 0x280f05ea2c16f417U, 0x1c1e2fcd0d4826bbU, 0xe0fefe6effae3f2U,
  0xf26f90d01e0f80bU, 0xe3fb07ebf6fa2f0bU, 0xc43c43e4fbea1707U, 0xf420e5f2fe393330U,
  0xf84a0ae5f3f51108U, 0x1915250903f901d8U, 0xe503dd0105fb2404U, 0x11f4d0de0509fafeU,
  0xeb180cc7dfe3f2f3U, 0xfcdd0af610fad004U, 0xd3fee8ec04f6fdf8U, 0x606f3030c233410U,
  0xf94e2ecad4e2edf2U, 0xff82ffdff23f901U, 0xdafaeef4e2e416cbU, 0xf6cbd4f7e00acb16U,
  0xc6fbecc50001dd05U, 0x2c201ef80123eed9U, 0x6fcde19eec9160cU, 0x17ca262308d023edU,
  0xd726f407f300f9f0U, 0xe7100f0ffdfb01c9U, 0x4e5d128f9f017d6U, 0x35feceffeefd1d20U,
  0xdffceebf040febebU, 0xf2ded8d10d3cd10bU, 0xeedcf924c9ecdbf7U, 0x22010b0701fef701U,
  0x1b1c1efc22e70d09U, 0x24d2fff9d7d71cf1U, 0x1805e0091ff402e8U, 0x17cb0efce9e6fcf4U,
  0xf82cbfd5d4eff509U, 0x27cf0ddd0f21e50fU, 0x11e2fa1cfb101ad2U, 0x221304d2d7fc04e9U,
  0x250f0a071a173cdfU, 0x2e0a210bce001a04U, 0x190df0262316ee20U, 0xfdfd06220ee8faeeU,
  0x9252110d0d4ed2aU, 0xf4dfedc6130fdefeU, 0x10e3f4e4ddd628eeU, 0x4f703f5f7dd07efU,
  0x1104fc1d18ec06e9U, 0xc090be9d50ed4e4U, 0x26eff10bf2ecdefcU, 0x61105dbe4e4dfd4U,
  0xe50f1cfee21cdc1aU, 0xf3130bfcda24fdedU, 0xfef4d6e6cde8f2e0U, 0x1608c6e0ed1ae708U,
  0x1000001003d2d00fU, 0x2612d2d0d9e611f9U, 0x2c05e4d2f6f30edfU, 0xd2002eeaeae7f705U,
  0xefebe017f636b6dbU, 0x6fd051ad4f80ec0U, 0xf0fdf50c0536dbddU, 0x511b1eb3004c41dU,
  0x2b19e50bff12d8f2U, 0x31d5eadef30e15eaU, 0x1e15e7cf1827fb3cU, 0x16dae518191d0c07U,
  0xf614f8ebd914d0f7U, 0xe704ed11f81b32efU, 0xf209101b0de9030dU, 0x222af5053710e7f1U,
  0xf91de904ddece6faU, 0xfe0422e1edef04f2U, 0x1ff0dbdfec0003f5U, 0x6cedbcf000e04d5U,
  0xfde7060a0024faf9U, 0x110d1ff90d00e70cU, 0xd9f9f1dafb0d0201U, 0x1118f5d221fd11e2U,
  0xe1031dd2ed2127U, 0x22f4e0edf70b06f0U, 0x4e91818e612dfebU, 0xf4fa15e905f505e0U,
  0xe40906001503e809U, 0x2e6da1e1ae7d418U, 0xe70c1cfef509f202U, 0xe8f1f6ddc3fff7ecU,
  0xfcd805130de4fe12U, 0xea08c8f523e114feU, 0x2eb0a1bf2dfeb0fU, 0x22f71a03ff040cdfU,
  0xe01ad3ef391bdeffU, 0xf0fdf3fb1bd8f102U, 0x5e2dd1507f313e5U, 0xdfa0bd3d0ebed17U,
  0x2dee8120af30dfaU, 0xe0e107010208fc13U, 0xf5f128082505ffdeU, 0xe6f21c1ae8c2e80bU,
  0xe82202f7060afcfcU, 0xf018f41508eae31fU, 0xe40b24efed2820e5U, 0xecf8f0eeecf5e90fU,
  0xbf10508ddf9ecf4U, 0x15f9e510ddee1b11U, 0xfc030f0ee71af3f6U, 0x60dfff412f70402U,
  0xa14efec0e1a0905U, 0x903fc0f1b13ef2dU, 0x1111f0f21ffdff0eU, 0xeff70bd9fafbfff4U,
  0xf7e608282321020bU, 0xbfaee1212eb05feU, 0xebf0211eda21f20bU, 0x292c0e1410f0f40bU,
  0xeded16262b1521feU, 0xfbefee14140803fcU, 0xf6e9fc020ffc0631U, 0xf2f2001404d9ffffU,
  0x70024f90a31f600U, 0xa351419fbff2631U, 0xfe122f0ff52b3013U, 0x1e1bfaf402daedfbU,
  0xfe7f226f9fd0021U, 0x2c2919eb0d0e0209U, 0x24d80d0319f52223U, 0xf8f11d1800d2e3eeU,
  0x34f6fb1810141715U, 0xe732f020f707f4e7U, 0x1af51202d412ff27U, 0xc07ebf0fd05fe1dU,
  0x31c14f731e30b01U, 0x10d09f10319ee2aU, 0x1fd19e3dfed350bU, 0xfb091bf0f40c2e01U,
  0x4e605132e1e181cU, 0xe953e10d1f0f0003U, 0xf6e513e5eff9eb13U, 0x360205d21cd8f9efU,
  0x200d0e102b0033f1U, 0x2ef22b102d1d0d12U, 0x2aded9d4d3e3ff28U, 0xe7f82df90c050ef3U,
  0x2009f2fc2a2e0011U, 0xee27f8f0f2411304U, 0x21e514e5e615df2cU, 0x2f0adefd1def1428U,
  0xbf30b1912021e22U, 0x3f1f23f82325e70aU, 0xe1f2d8e7e50e26U, 0xe1ff1af509f8e7f2U,
  0xdb1113cdfd2e0c07U, 0x1ee5083c1904f103U, 0xe917ea2016060bf1U, 0xe609fe0913fcfad2U,
  0xfbf30132ebe4f3efU, 0xff2fd9040debddddU, 0xf2f3cc11f62ace06U, 0xfafa13f4f731e7f6U,
  0xd8fafde5f71ad923U, 0xee0d001ed1ef11eaU, 0xeefbf4f117f7fce0U, 0xbcd2ddde0518ea02U,
  0xff05f710e9f90929U, 0xe8e6d716f704fbefU, 0xfa2ae336df06fc07U, 0xc8e5080e2bfc1e23U,
  0x13f8d3c1d91c1509U, 0xeaf0fe0de0f30dd8U, 0x6ced72dee0e24f4U, 0x21ed607d801e7ebU,
  0x47f3fe0a3ccfe50eU, 0xe6d5b322d513fdd8U, 0xc113df280222f1ecU, 0x2cf7f01c100be92fU,
  0xd3e2e7f2f3f81c15U, 0xdbc7e937f8d9e519U, 0xd5d5f30001f108feU, 0xb4102609242108ebU,
  0x33f0e9d819d60ed3U, 0xde20daf91915f7f3U, 0xca3fbffce902e3daU, 0x43d0ef92919110cU,
  0xdadaf2eff6fbe826U, 0xf204de41e3ec03e7U, 0xe5cf1d1a0efa00f3U, 0xc9fae10904fac9feU,
  0x39d82e0f21d712e9U, 0xebdec73fe511f5c4U, 0xf118fef4120dd508U, 0xe8071deef016e947U,
  0xeefbfcd5e611fbf6U, 0xee1d0a102ac7e415U, 0xdef61d111402f2f1U, 0xc424f90b1d0908eeU,
  0x36d600242fd610f3U, 0xe811dc3d1af804ffU, 0xed49b3e4071ed614U, 0x242ff0ed4819e60cU,
  0x9d20723ed1edfdeU, 0xdd109f113200e0fU, 0xcaeff6f0eef1cdf5U, 0xdbf5fbe207ebfdf3U,
  0xfce310f038fde9ecU, 0x6091aece402ea31U, 0xdfdc3f1271a27e5U, 0xc71f26df13240839U,
  0xfab8c3df27ff17U, 0xd5f0021a2b03f614U, 0xd6c5eb0cd60fe818U, 0xf2f7c6f5ff09f2ebU,
  0x4dfafdee44e8f80fU, 0xf5e7f72839eef4eeU, 0xe62dd9f807ddece0U, 0xbde06d7061f07f8U,
  0x206c9d80418d7fbU, 0xfc2a05f1f3e801f9U, 0xf5051801f8ee19e5U, 0xaeadc200e25fc25U,
  0x22e5253e1af11fd7U, 0xfae9f1262d03edefU, 0xcffff52516ddf5e2U, 0xf82b1f120101ed09U,
  0xf3f910faf7092b10U, 0x7fa2afdf23512f8U, 0xfdc1d9eb1a0b12ffU, 0xf60610dfeafc02e8U,
  0x17302ad110e0194dU, 0xf3091bd9d6f7e20dU, 0xef1f1ff726ff3d10U, 0x1420e7f8cb12131fU,
  0xadbf8fdfa0317e3U, 0xf5f1dbf9ed2013f1U, 0x17e5f6f3ff170724U, 0x80305ec2ddbfef3U,
  0x41dff0e04ebe50eU, 0xaeed19f7e5000a11U, 0xff020f29181d1e1aU, 0x2311620d8f2db1bU,
  0xfceff0191b0f0cf6U, 0xf8f7180a01e81933U, 0xe70e2c3013e7f420U, 0x108201fe7fdc8cfU,
  0xcd1b06dfe208db00U, 0xfe2f10e41706da1cU, 0xdcccebfff8e9f3e5U, 0xf619ff1ac9e1f2f5U,
  0xe0444ddc408faffU, 0xd2917090c1c21d2U, 0xe8d0ca081a17d5f5U, 0xf41524f212d0e02dU,
  0xf4381e220de81520U, 0xeb1d0007e629cf01U, 0xce33421418341afbU, 0xf8ebea1bf6fe181aU,
  0x13ede410000ef52aU, 0xee09f011fa081af4U, 0x18070d312e1bd50fU, 0xfe0b002727f1342fU,
  0x38ea1a1c292cf6f4U, 0x13100936011011ebU, 0x25ff0b1406261bfaU, 0x1e0bf0ebf3db140eU,
  0xefd32048fee6d7edU, 0x2a0a120f0bef40f9U, 0x230aeb0312d62252U, 0x19240e48f4f2f4e0U,
  0xdcf1e7f0f0f6ee0fU, 0x4e90a1fff202f0dU, 0x19e3033008fae130U, 0xf5e5fc1ee7dfebfeU,
  0x241603faf8231ff0U, 0xea304bf3d504db04U, 0xfdda0ade0dff1813U, 0xce3d2fde3ddcb01U,
  0x3b11e1ffedeb2637U, 0x2616f601f219f5f2U, 0x1b0b3901daf23b1fU, 0xed00e41ee8f51609U,
  0xee1cffb241230f3U, 0xe2ee4db0bf4d30cU, 0x3fff3eb0620e835U, 0x4af3da040af7e421U,
  0xdf912fb3d211e0fU, 0xed3ecf822fb18f6U, 0xfbd4d7e8e6e21205U, 0x2219180af6de00d9U,
  0x26fa055319e71711U, 0xeb25ded923fff31fU, 0x13242cf9dce31c7fU, 0x2efef60b2b0405ecU,
  0xd001e947f80ff315U, 0x706ff04e5db4f1bU, 0x1401f5f91b32ed24U, 0x18edfbdc1914d7dcU,
  0x9f1ed03fbd91217U, 0x45f80ef2051204daU, 0xf510cf0c04c90103U, 0x141231ddf8d733fcU,
  0xfdd5d706e0e0d802U, 0xd5e70c24fce4cdfbU, 0xe10016ef1b1425f4U, 0x3504e1e620de27e7U,
  0xeb0d05131a20f90fU, 0x2200d4c0eef6fbecU, 0xcce505fbe9fbe3fdU, 0x1fddfce5f51b34fdU,
  0x35ead2173ce7debfU, 0x10e0fff9e30bed22U, 0x3d3d7dc1217dcfaU, 0x72305b336e31108U,
  0xf9dcf61b151ad908U, 0xfdffff317d627d0U, 0x13e4e61904f4ec05U, 0xf6054636e40107f2U,
  0x19ac0af53948e2c2U, 0xe815ca20e302f5eaU, 0xedc00420fd0ddaf1U, 0x3c1de9e3f3fb0e27U,
  0xe1000f5eb1624e7U, 0xdcc7000e180fc014U, 0xfadefb21d0e40df7U, 0x431f3e0fed1eb0bU,
  0xd53116d0cbd21301U, 0xf6ec06b702f5f734U, 0xe92350cd0adf3bffU, 0xddcf50d00fc0200U,
  0x51fbe0ddea2a23d8U, 0xf8daf628e944d814U, 0xdffdfbf9ebdc0408U, 0x1afcd8cde4fbe306U,
  0xd809fd00cf071ef4U, 0xf60fff0cfef00cU, 0x1adc13e508221443U, 0x27e4e6cddee43422U,
  0x19ddf9f4eafb01f0U, 0xd1edddf000f4f4e0U, 0xdac90bedcdd20308U, 0xc18d40bebd217eeU,
  0xe9190c26f1e920f5U, 0x14ded1ff2aff07f4U, 0xe9d4e916320e134bU, 0x3150ad5c0c9022bU,
  0xe42f41e41aef1fecU, 0x28f0f2fcf64dc809U, 0xe1fbedee190607d3U, 0x17f1f4ebf5031ef5U,
  0xdf09ffaa0d041221U, 0x2d110cfd162ae31aU, 0x2702420ffb160123U, 0xf40afee9c61cf611U,
  0xc51ff90ee8302610U, 0xecf026d7eb37b202U, 0xf8ee1124f71f13ddU, 0x39e6f8040c13e3ecU,
  0xffee09fc0e0c2005U, 0xa0ef6eb2f38ed0dU, 0x1bf030dfdfc3260cU, 0x3dbf02af9d1ecf6U,
  0xdee2f3e6f30c14ffU, 0x1df1e2f806140bfcU, 0x5ebeee3ee02fcebU, 0x2affd53021e302e0U,
  0xf802f6ec18062e1eU, 0x2c7fffa3a221ef2U, 0x30182be3f5f4020cU, 0x311301310dd3000U,
  0xf301ecf4fbdade05U, 0x1cfbd40219c4fbfeU, 0xe713f3060521f91aU, 0xf301ef17dc012d10U,
  0x10d4102a2b051506U, 0xe8f1011a1cd931ffU, 0x111bfbe711fcd5e8U, 0x16ee05f9f32104f2U,
  0x5f0f607002608fdU, 0x8f4f70514cdef06U, 0x231110061e093beaU, 0x3fb0025ef1c02ceU,
  0x1c13e225250a0ffcU, 0x2dee1273cf02cfdU, 0xf2320df80bf5f9dcU, 0xc0b1a03ff1b07f4U,
  0xf7c4ccda08f60703U, 0xcbe9e713fa08eeecU, 0xef1620ed1e230fe8U, 0x2f60619fe051b03U,
  0xffb1d06fae01614U, 0x2f3d90018d60e15U, 0xcb11f2e2dceadaffU, 0xe0fb1fe3fa0f040eU,
  0xe505d41dfde8efe9U, 0xfdac7f7f4e50b2aU, 0xf90b180b20f70125U, 0x1f083401f9011200U,
  0xe1eb17fc0c10e2f5U, 0xd3e7052aefe1fb18U, 0x21efd1f527febe03U, 0x262ee804eee2f7ffU,
  0x1003dd04fb05e001U, 0xe2ecd1f31cec2a15U, 0x2405ff140f1b1319U, 0x191307eefc15290eU,
  0xe5e90713fb391ce2U, 0xfeeeea0928ea1703U, 0xd91cd9fb1123e40cU, 0x1230ebfaed18ce28U,
  0xf2f3e80e12f1f913U, 0xfee9fbfa38daf9f4U, 0x161501030b360127U, 0xf9f3ee22f1f7f5fdU,
  0x181d1d1dfe070c10U, 0xbd7f3013bdf0e03U, 0x5f7f21902150104U, 0xf50a0edee4e3fc08U,
  0xf3f3f200f9ee0c09U, 0xece9d2ff140bea0fU, 0x150ef1091e00e905U, 0xef06fa06e7f920e8U,
  0xd1fef8d02323eaefU, 0xa100f0516eef311U, 0x8e70cf7080f1106U, 0x2ef910fefb17c410U,
  0xeee7f909eeffd8e5U, 0xe80fd1f315250a05U, 0xe130f1fe2ff22ebU, 0xf9f3f6eedcdaf626U,
  0xdb01f2dbfdf606dfU, 0xf2fcfd180de1f511U, 0xf9d606f11cfe07fbU, 0xe10a10f6f80ae429U,
  0x19d0e400fcf3f8faU, 0xf811dc061409dd06U, 0x21f04e61a291e1eU, 0xe933ddf6e7e20e17U,
  0xf50cefe2fb030ce6U, 0x724020d32e6f322U, 0xf9d5e0ef11110804U, 0x1df2edf2f3ede4f9U,
  0xae211e5f912fbd4U, 0xfd0d2323fbf0f2f4U, 0xcb0c1dd8f11b2ebfU, 0xf030f6e7d3f7b5d4U,
  0xbd81eeff9e9d204U, 0x913fcfc07f9f1dcU, 0xd61026d205192610U, 0x6ffee04e123f63dU,
  0x16c7fce3e0f8e5dfU, 0xddfedc2c10db08ddU, 0xcf0b29e922fb05e2U, 0xbf1ffddad9d2c7f9U,
  0x90605fa11e7df14U, 0x1e0304fa0519d9f1U, 0xd919e71033fd1d21U, 0xeef6fe1dc207ef19U,
  0xf2f3f7c9ebf8fc12U, 0x15021bfa10eaf2dbU, 0xc60722e903ec18b5U, 0xc6040beaf1d2dc1dU,
  0x35081d18dbcef600U, 0xe6e6ce25f6f0cae2U, 0xfb1e16081708ec0eU, 0xeb00f2ebddfd0d03U,
  0x1a320d13dc20001aU, 0xbf102182ae812fcU, 0xfd1fe9f1fe16f714U, 0x15e12ff12238daebU,
  0x1b173de1f8dddf00U, 0x1041fe210a371614U, 0x31fa03064cf8fe09U, 0xf6f519562b201c3cU,
  0x81c0ad8ba19cb10U, 0x1bf31f3311fa1e23U, 0xaf3f118210cdef8U, 0xdb1330f5db2bcbd0U,
  0xdff32a17e1c6d3f3U, 0xc7f9fc3017ed05caU, 0x2b03f05423efe7U, 0xf1fcf210160a0c3dU,
  0x2ef0fedee404ff09U, 0xfac70af420d72709U, 0xe00906e7f21cce05U, 0xd6fe14dd2514f7e9U,
  0xee0ff513010c2029U, 0xf0f4eee42c17eaecU, 0xff0f5030e1c150fU, 0xa13f0261e3dfe02U,
  0x17e603230ce7e22cU, 0xf906f1e51bf80e24U, 0xf416f2fd21ec244cU, 0xec23fe081b3e31dfU,
  0xfa02e708eb030bfcU, 0xfa0b2932111d251dU, 0xf204ed3b051cfaffU, 0xd203f2e9f4f413efU,
