/**
  ******************************************************************************
  * @file    network_data_params.c
  * @author  AST Embedded Analytics Research Platform
  * @date    Tue Feb 18 17:15:07 2025
  * @brief   AI Tool Automatic Code Generator for Embedded NN computing
  ******************************************************************************
  * Copyright (c) 2025 STMicroelectronics.
  * All rights reserved.
  *
  * This software is licensed under terms that can be found in the LICENSE file
  * in the root directory of this software component.
  * If no LICENSE file comes with this software, it is provided AS-IS.
  ******************************************************************************
  */

#include "network_data_params.h"


/**  Activations Section  ****************************************************/
ai_handle g_network_activations_table[1 + 2] = {
  AI_HANDLE_PTR(AI_MAGIC_MARKER),
  AI_HANDLE_PTR(NULL),
  AI_HANDLE_PTR(AI_MAGIC_MARKER),
};




/**  Weights Section  ********************************************************/
AI_ALIGNED(32)
const ai_u64 s_network_weights_array_u64[5260] = {
  0xfffeda1dffff5401U, 0xffff0bbcfffdee19U, 0xbf9c00005f13U, 0xa038ffff0afdU,
  0xffff56fd0001690fU, 0xfffe04310000e2ffU, 0xffffed920000883cU, 0xf3a50001674bU,
  0xb2e776962d1eb75aU, 0xa58295e15022f81U, 0x78bfd093673dff71U, 0xd90e2f0aa85c28dU,
  0x3be8a2d4b47cc1b3U, 0xe27ed5812cd5936eU, 0xb6aa905417c83450U, 0x56e3f9d73688467fU,
  0xace2b1a3b2b25b78U, 0xf323e7444840c277U, 0x80b1d3967b6cb90U, 0x935d636d2e1ed509U,
  0xdc642839f38550edU, 0x36eb593ebd3960adU, 0x3922d197e5b92229U, 0x50143f8aa6dd64b6U,
  0x28545e9608afaba9U, 0x83773c12b87a067eU, 0x26154638b09d41c5U, 0xd4d0a8226a1ac6bbU,
  0xee11024a9754c64eU, 0xfe3b4ee3e7169859U, 0xac9bc4ccaa6b694aU, 0x36a45c3df71a9debU,
  0xebbaa4218cd68c32U, 0x564ef38470391788U, 0xeaa7a701ca9f3618U, 0x2cb10794ff4385a6U,
  0xbebf3a4484d0f247U, 0x465bc9bd699c90aeU, 0x6bdc0d4f9b67ac4bU, 0x25cba784afb38cdfU,
  0x2e8ef00022e21U, 0xfffd4219ffffb3afU, 0x219d20000018aU, 0x1554efffe39e4U,
  0xa087ffffdb04U, 0xfffe45bf000357a6U, 0xfffdc7c900015d86U, 0xfffcc1f40001c1c5U,
  0xf2fe3b9966536f7bU, 0x41a9ac216b21e687U, 0xc38276fe4a61f6f6U, 0x7a3a1eb8916eb6aeU,
  0xde4e824fdf8f81f9U, 0x1f717c7d15dd0454U, 0xc0f6dc6bbe721d46U, 0xde8b9a456e820b8dU,
  0x6c03c6a539a20cdeU, 0xc3007d9e7142e04eU, 0xa1740383c3cfa70dU, 0xfb578495c764a8c3U,
  0xef13dd636eb5cc45U, 0x46f162b4659acdd8U, 0xb257e2d73a81dbecU, 0x9b6d77090729f2b5U,
  0xecb49ccd655df000U, 0x9e107db63d8b17beU, 0xe969b584efd03c6bU, 0xf66d9c0d479ef70dU,
  0x525750deadad61c5U, 0xc3fca51c8e6c296aU, 0x31f20c884bc693b2U, 0xb0e4d90e4641bfcU,
  0x1453dffffd24eU, 0xffffe1deffffb172U, 0xea59000032c6U, 0xfffebd2b0000747eU,
  0xfffeae1effffd088U, 0xfffe72ecfffef790U, 0xf8c436c80b7a9ff0U, 0x959e5e3e5187b5e2U,
  0xd42b7c901ff6496fU, 0xd47186dfa08f3e29U, 0x6c5ad38e59569594U, 0xb75d8ca78c1ec4f1U,
  0x15c601c2f197c187U, 0xb8f0f2867aae4310U, 0xbc30fd9603a41ab6U, 0xfb5a36e905fad312U,
  0x3573d43d086909f6U, 0x2fa3023b127b9de6U, 0xf82a462f649cf4f7U, 0x74e4d5f6701f2b21U,
  0xc9c2294497deb6b0U, 0x17ec9540c4bd76fbU, 0xf913a08aca5a3b57U, 0x547e5c114176284dU,
  0xea0d5c5e7e7038d8U, 0xe6fe3451cce897e0U, 0xa3db6fb24a12e3f8U, 0xdf7739cd7c17bf91U,
  0x75423f26c4c2d4fbU, 0xe7ab64aad73069f2U, 0xddaa0b0165751ff2U, 0xcd05c24a9446be5U,
  0x3899db968f7854c4U, 0x2de7a46e09e125cbU, 0xd4b900ce042c3e64U, 0x8499cbc93e8e605dU,
  0x325b6ba32cff25d0U, 0x9deba3b5a1ef38a0U, 0x4b7396332cdd234U, 0xabf67de9ace3f7aeU,
  0x32420c3c6be33018U, 0x350cdea4421beb09U, 0xf607a4d5c8299acaU, 0xa2c6b6667a16aed6U,
  0x93c5a595071e8969U, 0x64300ed08f4b6b3fU, 0x3e791f2022908ce7U, 0x8a0c35500f05267bU,
  0xc8e64f8355f165caU, 0x64624620a91c163U, 0xb0c437724b9f32cfU, 0x1f8fa63399ef5829U,
  0x689cf48d81b2968eU, 0xfda4b9c470c131c5U, 0x171ad47859a4f509U, 0x758e6490ed54c549U,
  0x8dc52929d533c6cdU, 0x59ccf95cb82eee55U, 0x330ff72f1b7f5ea5U, 0x48fff223522d4654U,
  0x0U, 0x0U, 0x0U, 0x0U,
  0x0U, 0x0U, 0x0U, 0x0U,
  0xe6ca12c986e9498U, 0xb8b832c10699d74fU, 0xeb04b26cd2676ce1U, 0x7e01893dc665d4b0U,
  0xa3b4da77dffe6cf4U, 0x8d3e861c895c7c6bU, 0xe52c473426205188U, 0x492bcbadba8a8314U,
  0x10bc554f73bf78ceU, 0x43fe2a7f2e7c3717U, 0x89bd13596d4fc5d8U, 0x5e4fde0f20d69dfbU,
  0x5318ec771af0a23eU, 0xa704192fce9302dfU, 0x5f0749b1198d2353U, 0xb933f62fdb3f5042U,
  0x389a9e71849f069fU, 0x9cc123022b539df9U, 0x19e25f43a162ccf4U, 0x393643aa237192f8U,
  0xaab85fdec8c06400U, 0x7b1dca7313f7b759U, 0xde16afd9f923ae6aU, 0xd26c96e68c9dfbd1U,
  0x34520a9202541c5cU, 0xe6c42bd70d4adcf8U, 0xf43037d5bf1e03a9U, 0x2876f7988f7dd7b3U,
  0x8ac951402073c924U, 0x60cb97aa2727e8e4U, 0xf1f6a4125cd584e1U, 0xba9782604296a4a2U,
  0xf80ccb83068da941U, 0x3330740255c59d88U, 0xf1fac6662d45aebfU, 0x4521ade990f9cf92U,
  0x7090a6bdd74a2309U, 0x6c0eb6f8623d7b39U, 0x203613112c3cbb8bU, 0x1d8a8b3212fd281dU,
  0x3bf622fefb2728a1U, 0x52fb1a04828deb54U, 0xfa8a09b70849b564U, 0xe620097c27fe0d68U,
  0xf2a3b0d95e8fec3aU, 0x90b1ce7ed05c7630U, 0x1b65dd522e04af21U, 0xd777c559350b4983U,
  0x3b17e9466d72ba08U, 0xa478930351e05057U, 0xd9e6cc05d05eeac8U, 0x8fdbd6acd9851586U,
  0xf0940bfe14a04e51U, 0x7b6f0a4e57fed8b1U, 0xf5f44677c512868fU, 0x31799bc2e4190850U,
  0xc154c43acb832f1aU, 0x4973a9517da1c536U, 0xd04daa8986c0340dU, 0x566921101f9401d3U,
  0x22e317bd070f39d3U, 0xba36f07914981f98U, 0x8d5115072a6fc068U, 0x6f373295505e3a89U,
  0xb44f6298479704aU, 0x95f99b15deee02adU, 0xaec2857e0616328U, 0xa07645ab680a4a44U,
  0x23d93dbc01aec167U, 0x75b613e56bee9bb9U, 0xba013a200acd35cbU, 0x2e6faf1c017731cbU,
  0x7c59cbe725055800U, 0xbe7b300376975d99U, 0xb03f97c1fe74e195U, 0x9bedfc21fc22ebbbU,
  0x6759e467de08a981U, 0x86fa4307d4433482U, 0x9788a0beef830a85U, 0x5de35c0e58bc6942U,
  0x2560352ab1b5fe21U, 0xd310f1692243b78aU, 0x9588aa2242b1ed16U, 0xa9f0a02f5a42ac42U,
  0xdf6dc9c6496adefU, 0xacd5f55908ef8270U, 0x1bbffb89d327bb23U, 0x43c98cc30dfa5ca6U,
  0xfa6ea697d0d1ca77U, 0xba0cf5337b23172fU, 0xf644c0ca377abf21U, 0xf1a7994d00c726cdU,
  0x20cc95c0d363bcbfU, 0x37549f427852e690U, 0x2f43f8541fce4c7eU, 0x7332687bc14b23a1U,
  0xcd91bb3384a212b7U, 0xd194a335938101b4U, 0xa1d2d866049b060bU, 0x200db423ffde8cbfU,
  0x832473ee45e3ecbU, 0xd6fb7042c4330e3fU, 0xfd1c8ae62e7205eeU, 0x4bf9195c4b993047U,
  0x60dacd384fd806a4U, 0x3dcb5501af5c120eU, 0xd9658eb4c405207dU, 0xb63dddafc858bcd5U,
  0x5db76bc213cd995dU, 0x48f0c7657f6779c2U, 0xf6de38f03dc75754U, 0x227307c9e65e2fa3U,
  0x97af8f4440d708bbU, 0x1fbb67d03b22da20U, 0x3e0200743cb478a2U, 0xe0bb4fa1534a886cU,
  0x92e8caa77e48c311U, 0xbc4541e1dd5a65d4U, 0x6cb9f3f8b6bbc2d0U, 0x8bb9a8a3856c965dU,
  0x860814fc98d63f64U, 0x3408077d863a60edU, 0x886ad0c07dd7a1ddU, 0x4e8a48adcb2370d5U,
  0x189fc6eef185b52bU, 0x85db1cf6db9967d5U, 0x83b14768c4904dccU, 0xe806977259a34c4dU,
  0x51b97d928d630200U, 0x4ac02f296737499bU, 0x787bd49f2500d902U, 0xecb5ebc36fdd7fd5U,
  0x4f1cdb92185d0527U, 0xc2de45f6c9c171b8U, 0x81ff1345472f4238U, 0x2cbce3d4b7ad3153U,
  0xc57a7516fb73f81eU, 0x61d66a8925014a6fU, 0x8a9b27335303063aU, 0x1bc80200b76aeba7U,
  0x8b1cb9f9fed7acf0U, 0x29fbc24cc7b1daa5U, 0x14ebe2bbaaeeb4d4U, 0x5c1660a55790c63fU,
  0x5b4aa147bbb8e6e6U, 0xc6b3c2175f7750dcU, 0xbb303db18db3be54U, 0x107d335fd33f8f73U,
  0x159a7a859341a49bU, 0xbee368ae49eec5faU, 0xa496eaf76b34ed3bU, 0x36fff7547d76a253U,
  0x83dee700f2ca6b41U, 0x19280af10df8bc25U, 0x9dbd4b90effe5309U, 0x50a840869d98b9d6U,
  0xab1b03a0c5a985faU, 0xf13779fdebf5b5dbU, 0x4d99c823eba672f0U, 0x69c44611ad2e0ff1U,
  0x3dd7e65450d26492U, 0xba2e60a9e716f52U, 0xdebdaabe5e9b158cU, 0x30ce145889a47843U,
  0xdc9076ee27fd9effU, 0x7641710044cb50c3U, 0x66d996231e2cb743U, 0x941f58687e5ecfc2U,
  0x2f54646c34e26e30U, 0x96621b2975ad004cU, 0x6c71c01eecf1fb1eU, 0x9cee59cc6996bf42U,
  0xa612665aae60de32U, 0x3f79b578f61d1f3cU, 0xa46458dc195e6a1cU, 0xb43e28556c344502U,
  0x3e00533a083bef86U, 0xf1c1c5ce1c700a46U, 0x49d61fb7c39753f0U, 0x82dc85c482ca2108U,
  0x92f8266b89462302U, 0xf47140d68cdbd3fdU, 0x5230b9a48a27f9d5U, 0x7919818a7f327785U,
  0x598e3f0556cbd7aeU, 0x884901ed23f11385U, 0x4308c52578b31863U, 0xde1f994d073f00b2U,
  0xb9064f0bf61d9ac8U, 0xf261c7e08bd42611U, 0x5bcfb120f38bda06U, 0xba6020eef683e0feU,
  0x2dcc09990eadc45eU, 0xd19fa152d4da942cU, 0x3fabaacaae94e7a3U, 0xa0518d12cc3552a6U,
  0x8a27fcafabd45affU, 0x1e92323facfdcf47U, 0x86535ff2b74fd487U, 0x94d143da354139d1U,
  0x72cf573f354177a1U, 0x2ab13b95955cb801U, 0xfc3926daf19c0064U, 0x6ecb60c61a4eb552U,
  0xb6365b17bad67cbbU, 0xa2daf40f1fadb41eU, 0x75d52838e14309e3U, 0x13a5da2d58e9f1f8U,
  0x5bcc2eccdaf232a6U, 0xe8c61c1f22e9294U, 0xacea8bf9f65be9ebU, 0x7b35c41934e9a4cbU,
  0x9925d5eab0defe49U, 0x84277acab8a4dd19U, 0xe11a3ba7ec9fce6dU, 0x6d23e48b69396ee1U,
  0xe799fab100db0b12U, 0xd6fece44d4b77623U, 0x4b443ab62dbcb547U, 0x79682eefe508baa7U,
  0x432e4636ba9acf00U, 0x513c041eb424ed5dU, 0xcef082c917a85e7eU, 0x9b47d974c18c4e64U,
  0xdb43860ea45c76f4U, 0xa0d752bedc1320eaU, 0xbc232fef331660abU, 0x21b793fe32b1823bU,
  0xa8c64f7b77ee47b0U, 0x3edf21c88f3039c7U, 0x8551a3e50c92bb0fU, 0x3d3c7de8135fac2cU,
  0xb4adfe16a5a0d165U, 0xd13f827b6d34e22eU, 0x7b19f1ecc6e1ee25U, 0x67dd3aff9e278df9U,
  0x475c712da22db03U, 0x6d7a99a19be6aa40U, 0xd0d0e3c4156aa2beU, 0xb7fa8a01cbfc9b88U,
  0xba202915771cf303U, 0x10ff398cd72c3a6aU, 0xd53040f235a91e9fU, 0x4d66bb1724efddd2U,
  0x7cee0242d73e9190U, 0x86f9bed5259eaaadU, 0x5b356055b63405bbU, 0x655f74183728e7a1U,
  0xfc2b7ad0160b5d4cU, 0x20b2c0f8ea0cbc64U, 0x4c310549ae690b58U, 0xae83ee5f8a650ca9U,
  0x65f686387bdce294U, 0xa545ef0c9b9e5a13U, 0x32ed3a7b2e2f3aecU, 0xaf1df7f80e088104U,
  0x72e7b66e20834fcdU, 0xb091b14d662feb83U, 0x9628914b1c594793U, 0xd4b1e325f9d39537U,
  0x226e986dc671f314U, 0x1f7b0537a5bf10c3U, 0xd2e3645f2ef88ec7U, 0x7c5f18dbe0344bf4U,
  0x4029d8ee319c4cbeU, 0x882b8bf852d77edeU, 0xb9294043f224f2ceU, 0xadfb75f88b471d08U,
  0x223e938dc52412bdU, 0xdf4e262c602991a7U, 0xd7829ccf1696193bU, 0x241a335b35783b15U,
  0x5d9070758bbfc7edU, 0xd89e6d2d47d4887eU, 0x31d8d369cae1f02U, 0x301d39f32eba8f09U,
  0xb9da5ae5fe3fa1a7U, 0x3b47d509fc55a55fU, 0x104dd57977c5f176U, 0x18affeb52ab6f7ffU,
  0xcae3055cf5f96c3dU, 0xa9311a93d1025ea1U, 0x27a3374f225e3d02U, 0x828685bde54d19ccU,
  0xf7a753a553e93e25U, 0xc89c7d1c32f53eb5U, 0xb543aa22c2a89274U, 0xc5e993876b223b50U,
  0x0U, 0x0U, 0x0U, 0x0U,
  0x0U, 0x0U, 0x0U, 0x0U,
  0xf45974b02b70c37U, 0xc6482b082578ab87U, 0xd1642e6c50ada98fU, 0x6846051a7092087aU,
  0x2942daba793f2b45U, 0x833c5a6130b8addaU, 0xe6844c3c9674d559U, 0x127473bf0c3c77ddU,
  0xcf81673fd601adc6U, 0x42bbe43173f2bbb9U, 0x93a722ee872a0854U, 0x6de831258f798384U,
  0xc225d28ce8632941U, 0x2d5e39e16f221784U, 0x77660d685ec10193U, 0xacc6b6fd26b833a2U,
  0x48398c89e99123f9U, 0x8a08be261bf3f8c9U, 0x3c244984dade3801U, 0x2fbafb3ce9550017U,
  0x6a57da50260857b6U, 0xd24dfcf588873fdU, 0x951f03b4743a6e59U, 0x5d566613ff248221U,
  0xefe69ab2ac7cb752U, 0x369aa03534ec074cU, 0x54d365fe7fb887dbU, 0x86facd22abb6b340U,
  0x4b4e92034b6b663dU, 0x8800e074dcc8fdbcU, 0x913dabf42d1be36bU, 0xc5216aad345dd215U,
  0x0U, 0x0U, 0x0U, 0x0U,
  0x0U, 0x0U, 0x0U, 0x0U,
  0x903696630113e80fU, 0xf8122535281cdee3U, 0x187af4e9da4d82c5U, 0x1688cf0fc6c7bc1U,
  0x25e374b7543f5cbcU, 0x6ff267b1e3bc1f78U, 0x2e68b3b3153b7acaU, 0x30e131bbdcf8fb61U,
  0x772b4ed825c21da0U, 0xc9c653351dee92f4U, 0xc1f1b3ef1c70a0ceU, 0xef8d38539afa2b21U,
  0xa045e871cd9d1752U, 0x5a5f177d91737332U, 0x7a44c66107ab12aaU, 0xc3dc474cfdb52394U,
  0xf2610ae429f9cf81U, 0xbe2c3c1564004683U, 0xb25839de9a8336b1U, 0xeabd33b5ad33b28dU,
  0x685875ac5a5a190aU, 0xb5859ea5013ccfddU, 0x6ca3a88442385d7cU, 0x9762e823935d5153U,
  0x79aeb99ad45f3e2dU, 0xbddf2234d282409cU, 0x72ab16f5267c3d8U, 0x1b7736e16f5f8840U,
  0xcae7452f6a7dff4eU, 0x6705a5887463f164U, 0xa7610bb2b09f0c51U, 0x58b81287d8021954U,
  0x9eb46aaf671f8124U, 0x9c84c41f5f424a66U, 0x1cbd5117d14ca36eU, 0xfe75e3b75eaf40abU,
  0x7b62901dd89e331U, 0x2ed4eb73cff42beaU, 0x86f63af0b8538809U, 0x985b4a61f895d278U,
  0x4e43b5d371f2edeeU, 0x6d6a705967f4ef07U, 0x2a7bc0a7a536fc19U, 0x913690b40cd7546aU,
  0xb289838977ff2e27U, 0x5d3ad64ab49eccd6U, 0x58babe329fcd9c03U, 0xfbf36c05fa991945U,
  0xde766447e2313884U, 0x187d426ed08ea708U, 0xdf1856a54b5922adU, 0xef7c88be4101cafeU,
  0x4e518fa555e9dcbcU, 0x58f4f2bad76630U, 0x363a042e6a2e7a56U, 0x2d0790181765a25dU,
  0xae4407d0ddf1b087U, 0x2628f570dd115215U, 0xaa40f8ed4d4d4a18U, 0xb6048ada4d423d97U,
  0x60708600f887ee28U, 0xf11bd8efe45e9ea2U, 0x24f18f3093548e16U, 0x3f408c50a651838dU,
  0xf3878ad6b801541dU, 0xab89ef44929a53c7U, 0x2a47bff9bfe4e0e0U, 0xa405351b0ec6165U,
  0xa021a4f0c713e38aU, 0xe2cbadb502b5fefbU, 0x11c8b131d9f285acU, 0xb59470d4281c9cdeU,
  0xa10a3f91d4903e94U, 0xe674478eefa6f4a1U, 0xdf6adace2ac93446U, 0x3766abc4001e9bbbU,
  0x6af08e645b0bb898U, 0x964b63c3df00a2a2U, 0xe76d647b36c1e600U, 0x6ff866c56ef296eU,
  0xfcb4a66e1f467500U, 0x9c240e4fff97a9e3U, 0x76acd7445cfc741aU, 0xebbb3e21f76669e1U,
  0xb31ba45a7dc412d4U, 0xe10c4a8bf5bac8aaU, 0x81ab01373d312399U, 0x3786419d75edce2bU,
  0xf4c0f7f66b266469U, 0xd01815a927898c48U, 0xedcf01acd5f090d0U, 0x25159e325f93c91aU,
  0x34f8ed195e6c19d5U, 0x306dbdda45e78b1dU, 0x474668e1563117e2U, 0x9dcba01c9ebccb43U,
  0xf747754acd183b0bU, 0x895a67bfaf46403U, 0x4eb9d7cc90cf1677U, 0xfd9d2f1284625928U,
  0x107e7914dcfc9323U, 0x6149099bd00323b3U, 0x72412e3f1a91ee95U, 0x56e856bc39b2826cU,
  0xf6190814b210070fU, 0x9bb3bcfcc6b100e8U, 0x981f02561ddd384dU, 0x49baeea735908afdU,
  0xd9b3b8474395abc6U, 0x354d3f0b090c3a9U, 0xd85110abb31b1fd2U, 0xbd9b010054c54abeU,
  0x75f2982cf8f4a51eU, 0x72f54d4bd817faaaU, 0xcdacc0205d3218b6U, 0x4eab8ad0ae2c6ec9U,
  0x206d499abfd80086U, 0xeec0a589a306c668U, 0x5367d03304d81d44U, 0x37ffaa5c2d8d251bU,
  0xe2979c01d09d4c20U, 0x377de82bc3f393feU, 0x2261888ae3b349a4U, 0xcaabda4dbb82ffd2U,
  0xf897ad46161d003aU, 0x70ca2248adcc9aeaU, 0xeaea09c5a985e89bU, 0x26c28196499227fU,
  0x23fbf93e203f084aU, 0xde3ca112780825d0U, 0x2727b8a71cb9d34eU, 0x688bf4c1b60ba1d1U,
  0x1c86078389549033U, 0x6e23380a6574c270U, 0xe1a2f87cc361b9b1U, 0x24cddd2ba2788775U,
  0xe04e5aef0b14f97bU, 0x9f63c9196b7bfbfaU, 0x2d9fa3b949c25358U, 0xf6b058b1a04dbb34U,
  0x254b720ae39706cU, 0xa53940c7b1c054daU, 0x240945c6367843ebU, 0xc7c2e5704a7ae96fU,
  0x3d7d7773f7edf8dfU, 0x51d07596e98367afU, 0xc0c5e62a671405eU, 0x996f0fe6ebac9e6U,
  0xc910c63df32ff89cU, 0xb2a831da7e0fc229U, 0xe4657547745d6575U, 0xea5922397c5c0469U,
  0xe182b4e29f646945U, 0x2b9dc6360c14f26aU, 0xbb3c3f9cc591c42eU, 0xe0c4c3e5dfd85c1bU,
  0x4ac33d73dca216f2U, 0x91408a4e7cea0c7aU, 0xdadb77d48b61d3cbU, 0x3d289d11b0ec872fU,
  0xe8467467f17f5362U, 0x96a87459dbe18f6dU, 0x1758d217fa5c0fb0U, 0xfadbc5f29603918dU,
  0xafe14abda70e5096U, 0xce901dc513953205U, 0xf5b49fc7c9e7ef41U, 0x9248ba18ac869583U,
  0x3c84e8ecb9f86184U, 0x6bb82a46e956d256U, 0x8a62b4318fcdd9e7U, 0xe7c3c4d9a3422503U,
  0xe540f216658ec619U, 0x5f794c8998aed41bU, 0xab4f67a460c80d8eU, 0x22bed2066b30f6b9U,
  0xb185824e3eada1eU, 0x35dc8ba5a567db9U, 0x920fed8e766ec785U, 0x64745d5520b19835U,
  0xb0dc8eebff126239U, 0x88a0196f2b6dc724U, 0xeab1ace16ae018bcU, 0xfe042103626df9d1U,
  0xd403c1267aaa509fU, 0x19cf3616f2c0d91eU, 0x5247cdbfc933dd04U, 0x94c460f1beef408U,
  0xc6b5eecd16e27852U, 0x715e28c44e1dbd2dU, 0xfc0d9acab94d9bbbU, 0x2b463f94f8d2eadcU,
  0x61c3b38f782f83e0U, 0x1474ebe816aac57aU, 0xc06df5dbd88553f8U, 0xca8c34d4a41b91daU,
  0x1cbf559f60ea2818U, 0x319d7000efd36246U, 0xc213fdbdb9ecbd74U, 0x9efb842de3e7a5e7U,
  0x4547e2a657727f74U, 0x2a3a1fe964a8dcb3U, 0x3d9b43dcee62cfcfU, 0x749eb1338962ab5dU,
  0x798c11b74f39a15aU, 0x92d16d83e3a6fb70U, 0x63fb401f10b7f10aU, 0x565fe63f931c8818U,
  0x1b31e3336060bb8U, 0xf46705ee1b284414U, 0xa5c8ed2235cfb2a4U, 0x248739428b6c63aeU,
  0xaca2a3a1599e978dU, 0xe672bdd65feb9b9eU, 0xd6b2c5c2b5034257U, 0x95c23cbd191723abU,
  0x6679bfd42103433aU, 0xe80ed0eaef287836U, 0x34c7d6de21112f6U, 0x39557a092625ddaU,
  0x4cf88e0acc43d03fU, 0xe028008d8c24d969U, 0xed445803cd7e8e19U, 0x4f2ea310a758c06U,
  0x7e93c7db69f50731U, 0x8bd5716dcfb9202cU, 0x4e7f86b3485783f2U, 0x47631c2b3be6fd76U,
  0xc38aceda4a83c441U, 0xc2af277dbba306beU, 0x96986c9f7f13900cU, 0x72ecc0579847051aU,
  0x7cee0ef2584dde1U, 0x26fdf7d13415c53aU, 0x60df496dcb746ee5U, 0x35928b0ffaf8b898U,
  0x6705b2228544a2f8U, 0x2bca010c28581171U, 0x239676d13c2ad704U, 0xf71b9b27ba3d7648U,
  0x57b7a53e9ff57376U, 0x663604cae6e5a78fU, 0x22b6329719ab5dafU, 0x3aa4fab67204b1d7U,
  0xd3132dfa49526e9bU, 0xb8b67d586313eaa8U, 0xaf097969cd6527f2U, 0x3bb05e28c6cbf523U,
  0x223a3660eb1fafa7U, 0xa8b35eb8bed61c47U, 0x86b5fdca23c31624U, 0x586b2b505e4d11b8U,
  0x8b0843e438f3faa6U, 0x4fa0505387eab240U, 0xf0fdd08516a10273U, 0xd04faad2bb035d47U,
  0x1b0902e6f2f83054U, 0x26ffac710038ac72U, 0x45b5a8e52b84c8dbU, 0xbd519db7068615a2U,
  0x1f82a7b41be1ba39U, 0x8a4d6e921bc78672U, 0x2f7223a4a1a5312dU, 0x14fe2e72a9938a5eU,
  0x49bb906649f12a85U, 0x9be2536e7b59d0aeU, 0x74fd012c9f2cc24eU, 0x42f9032289e8f5cfU,
  0x34f37aaa08afae0U, 0x23e6e25ffd54e84cU, 0xd4799f2f9b7a5653U, 0x42ed574fdbce740bU,
  0xcb775bafe50c8bd1U, 0x63ffba954829b852U, 0x9db9f6100f5f6d0bU, 0xba77be8d014cab45U,
  0x4728baf1922097e2U, 0x5a5e44f68bd37d16U, 0x16088d7900787784U, 0x26b1af5b0a1afe72U,
  0x8f71d0701962ec71U, 0xc4ae22bcbb668e8aU, 0x4f96ee7a9e19bd5U, 0x4e918d8a42c81bcfU,
  0xa316e3230e0aeef4U, 0x44eb14d45b5570e4U, 0x69fc82e510e642ceU, 0xadd2449c12343e84U,
  0xa941eb4efdbaf9afU, 0xc902caaf9eb5c5b5U, 0x437ef942bfbd8d3U, 0xf21eb547f1a48ad1U,
  0x43fb112ef91a6c7aU, 0x6f24cc3b515cf836U, 0x312b3e6228a4ce1cU, 0xd788b4be8dce6d79U,
  0x62ba6f83f8b0570bU, 0x23bc3690b2a86d72U, 0x6d1437816f26027dU, 0xccbd00a1038cfee2U,
  0x1ee6b96db7cbdfdeU, 0xba1e975731abf1d7U, 0x6d06fb0a3ec622beU, 0x4f17a438d18c3a1bU,
  0x23b3c2cf74e8c4bfU, 0x8ed1a2a4a3415768U, 0x888f7acd6475c0adU, 0xe811465d1339d529U,
  0xe5d0460237f5f401U, 0xa37a0c3ade8b4789U, 0xb85942b37ac7aa9eU, 0xbcc5602a0583087cU,
  0x3ff9686736b662f6U, 0xddd59c02fffa0a97U, 0xf415f944dce8f156U, 0xc90b88fd6c4c653eU,
  0x8360110956f7b84U, 0x37ecbefbbf7ad0cdU, 0x61c06ea2cbdf2276U, 0x623f893fee597158U,
  0xda014c961ce560d9U, 0xb0490ff6b4fb7d06U, 0x57b998d8323d0f39U, 0x3036701133515c42U,
  0x3a4f5a206f4498f3U, 0x9fb664df5552ff5bU, 0x78033c71e5eea6e1U, 0x22b1b8469366e0bdU,
  0xfa1560d10e79f03eU, 0x6040429ff9bf2881U, 0xb340b2d13548dedbU, 0x33355bfe3ba5cbb8U,
  0x2fb37bbfcaf9ad5cU, 0x33c34e759b2b467eU, 0xee9a5f72221e24e6U, 0xbc135ffffe9f381eU,
  0xd0f6c5d39f3e127bU, 0xdf431e3ddba753b6U, 0xa884574630cc98a2U, 0x2b48eee9058bf5daU,
  0x3d9c11da38dcf613U, 0x8d99b783df102559U, 0x6b91019741f95b35U, 0xb2f1bc6f9da2f369U,
  0x29e3b4ce9cb777b0U, 0x1bd82b212ae5c639U, 0xc1d7651cb30c151fU, 0x8ce6210060c69efU,
  0xa91b23294dc60aedU, 0x7762205b31740ce3U, 0x9acfe3f7f7507bd2U, 0xacf539ccd9e072b2U,
  0x77fc94bac03ca74bU, 0xd310a8d6365040efU, 0x4d93c11bb944dc97U, 0x380ef8614594d7c3U,
  0x5f61921bff6758f5U, 0x67e5b106b29db4b9U, 0x8395c6c415a25266U, 0x4e57adb888011a9fU,
  0x7ac03063e02a687U, 0xfae7a531d80e9c6dU, 0x9956cf5a5ffc831U, 0x128d2c1f4342b4daU,
  0xbd607e1d88932d0dU, 0x1163074f7c53a4f3U, 0xba6fd5c363c94025U, 0xbfc78cfeddc8a305U,
  0xb0068502819b44d9U, 0x83f18be334b11ecU, 0x89e7860a99e27baeU, 0x6fe4b68baab0b8fU,
  0x6e69cef5f1cee937U, 0x491525a95da0201U, 0xf31f400ad8db266bU, 0xf325c9a4e71cd36dU,
  0x6b949b38d8525305U, 0xa0185a4bdf43b25eU, 0x2deb0f2eb438b915U, 0x2beaf2f6ee0c658cU,
  0xfd99c38f55c1f9a6U, 0xf91901cb41a4df4eU, 0xa1b212a7457de0a7U, 0xf5523f202c19879fU,
  0xddf1de3c12ebfcd6U, 0xde7fc995b26a1324U, 0xd8a8e9d1e8f2c3efU, 0xfb5fa289ac5715bcU,
  0xb3d9daf6dcf309b9U, 0xc11a3bd2300070feU, 0xeff66ae3157d4f5fU, 0xff7ddb25b2680b10U,
  0xfd010e63aafcb806U, 0x2846ba38a2e86864U, 0x3a1181d5486999d7U, 0xede9c65ca00cfef1U,
  0xf32cf9461cbae689U, 0xbadf53e3a96b20b0U, 0x3d4ac657ee382043U, 0xab5e298fcc97a703U,
  0xd95db6a8bbf3fd5cU, 0x71e074c3eea68d87U, 0x5fc6d6c22619ea3eU, 0x5e72681d5a35f217U,
  0x36a5510b9493cd12U, 0x55816b86c019b70cU, 0x5886bffc283b522dU, 0x16d52d94ae07335U,
  0x4891c21cf51e41e6U, 0x1b03b934818568daU, 0x483660b62b3e75bbU, 0x199c16bbf5aee2fU,
  0xea6158bcad1d5ebeU, 0xe3d871bd36097f3eU, 0xcb31f4098c1a01f5U, 0x33d6876439ed2375U,
  0x468312023e1527edU, 0x42011d93e1f1ab94U, 0xc21a850e8a0ad40bU, 0x3256fa7dc6d353abU,
  0xa51c17f671c2b867U, 0xf9156252a0fea01cU, 0xc8b592fea56c1c55U, 0x3e956077ff3acdaeU,
  0x2b49799ad46f1e3aU, 0x310eec6b5a4bb5fcU, 0xe107dd60a8305412U, 0x65ad9b730d909cfcU,
  0xe37dcb46054e3d12U, 0xe2299f6fa736ae18U, 0x469c3c8518d0056cU, 0x56f6ea04c85e0755U,
  0xbbb021d86c29ebbcU, 0x6fbf95f244e0bfb3U, 0x71a4986633903dc1U, 0x5c423c49937eae71U,
  0x43bfb50e973ee02U, 0x599d4eb2c865aebdU, 0xc044e7dd1cff06b4U, 0xc5fa2d566c653a1U,
  0xabdf57ed4083e2e9U, 0x6c97f927d2535b86U, 0x220d3d66c034f4b3U, 0x2131c024696aa7f1U,
  0x9f187e1a3357d589U, 0x41144e2d7979af55U, 0x181e310e1f2cdc61U, 0x2d1e681b0cf64434U,
  0xe9e3b90d27fd2ce9U, 0x8cdfe3438d3ae19fU, 0xd3adde1bdff3a642U, 0x36384a63093253a1U,
  0x67fa2dfdc8e47064U, 0x1cf453ed2f2862cU, 0x9c0107ab8394bbU, 0x4c3cede28d9091c6U,
  0x43b78270fd7cac7cU, 0x9ea97f213273cfcdU, 0x29c2d75d0a848b63U, 0xae67a3856296d5a8U,
  0xa72e7b912beb0e06U, 0x5e266c1b219ad658U, 0x8adb878a2b159e36U, 0x3d2400927bcfb018U,
  0xc53ac4364e954cb8U, 0x136f404aa178126cU, 0x7505de4e5d022cc1U, 0xdeffd5ff7fa1718U,
  0xd6447ec4d0de5c15U, 0xbf2a3ead952814f1U, 0xd30e147bced41f1dU, 0x59961334d026f14cU,
  0x3281b1e9b15e01f8U, 0x313603ab8e493f8U, 0x343f591d23640b9dU, 0xf4acb52d504883a3U,
  0xc1fa8a57becfdda2U, 0xaa4795bdd3d8a373U, 0x4c0500a0dae99ac6U, 0xe5f995723c7f0fd9U,
  0xd9694d88fc2fe9cbU, 0x6289e1012776527dU, 0x4dd7ed5eed32dcc4U, 0x110c0bb0676cabcdU,
  0xc76b3e51850a6c9eU, 0x436a68e51685be9cU, 0x343da256b82918d7U, 0x250751d5b6df072aU,
  0xe3940aedb910368U, 0x11ae158d2d5944a3U, 0xeeab32483b464c08U, 0xfd080f26a1c18d29U,
  0x33a00600250d89cfU, 0x37c1e16587fe736aU, 0xafb709440457582aU, 0xb7a92f3cc37eb5eeU,
  0x2c667562285411ecU, 0xc94e6dfc4202fb2dU, 0x9e4bad1584df2519U, 0xeaa8727a06c0c4f5U,
  0x215ecef107d764bdU, 0xacde0f2d71c72b4dU, 0xa912e68c7723bc9aU, 0x2f368eedb74dec67U,
  0xa04603f381c07dd3U, 0xf495cf2963f1b3c7U, 0x2a193795f4383048U, 0x1bcac220973a38c8U,
  0x47af4040743304deU, 0x413120f1994eaa7dU, 0xbc20ebd4c9544862U, 0x27630721c0d01562U,
  0xc9da5ddef2cd9807U, 0x16b179f132465f72U, 0xa3486d5c69e0c410U, 0xc884c56b0caf76c8U,
  0xc82e67cf9bd1a02dU, 0x7ce36ee5a7a15bcdU, 0xdccbc4c88321300eU, 0xc47c398416ea824U,
  0xef2ad0ada0b930f7U, 0x9eefd14a82356409U, 0x89f21cd0eb982f0dU, 0xa9679bda22f925e9U,
  0x5e2115b7dd67c861U, 0x2b1d92ec4be0f083U, 0xfd7fe99685bde62aU, 0x93c12bd7f95c3e2fU,
  0x6146f5428c128f8eU, 0x831dedfb2d8e906bU, 0xf91ece4e3fe0bb10U, 0x4cef3c735e8d4e7fU,
  0x96f8c2797e43eaf6U, 0xe2f23f789128cda3U, 0x72fdd0bab79e71f9U, 0x707e6f1b2203bbd6U,
  0x52291216e2efea24U, 0xe92e9fad16215ffU, 0x5867fb422cc7e4c6U, 0x99c82bd5aec4b8c2U,
  0xd4ab4d0da7e9b8faU, 0x28de0fd9df62f3d1U, 0xe02e96a2c71333bbU, 0x112cf5239c13065dU,
  0xcd75c8fc5566c2b9U, 0xf5941dc8eeae86adU, 0xae1dfcef72d69d82U, 0xec20a58825ec1f97U,
  0xd0628d5d3c1455b2U, 0x1cebdb981ef420c9U, 0xa727f99c8febbf10U, 0x5f0fdd175a89b25aU,
  0x30b98fb8a7ea7314U, 0x8674cea7cfd82c7dU, 0x119ae5a3dca4f358U, 0x22ac4589fca0358eU,
  0x745cb6b3b790a3c0U, 0xdd4ab45fcc425b6cU, 0x7c723c4c6b9e6d65U, 0x20c6c5a673c099f3U,
  0x91bd02aee99903dfU, 0xca9129214cf3dffaU, 0xb0b1fc2801d69e79U, 0x784c46564415e19aU,
  0x5d0073a316ba6857U, 0xfdfc45278e935faeU, 0xdd6646b584b12a5dU, 0x225d500ef0c6b170U,
  0x1e6564fdcd609f0aU, 0x1953cfd59b84d05aU, 0x1f2c71474c6df2d6U, 0x92160964902e0dafU,
  0x9d12c4e55301e192U, 0x4f4703a54b1f9e5cU, 0x62b10015b25f0ccaU, 0x8c5bd10b0fb158ccU,
  0xffffa1bfffffc0e3U, 0xffffa93600001860U, 0x25a2000042f1U, 0x5333fffff540U,
  0xffffe83b00003fddU, 0x18d8ffffe247U, 0xffffacbc0000562dU, 0x293900004cb3U,
  0xffffedff00000a54U, 0x7edffffa192U, 0xffffa890ffffea76U, 0xffffb31800002ea0U,
  0xffffed5fffffed3eU, 0xffffcaa60000042bU, 0xffffadb800005e9eU, 0xffffc09fffffa6edU,
  0x60f803a58cc9b5e2U, 0x92643c15cc6770beU, 0x3617be043a5b3e24U, 0x9943f5b60be78568U,
  0xb8bbc549494c67baU, 0x7ef5140b14545cffU, 0xa620da95443b4048U, 0x160b8b749aeb216bU,
  0x98febb57d7632a5aU, 0xdff4ae31cd7ae857U, 0xb2ae55a9c2aef36cU, 0x405c916ec218d67U,
  0x32f877e269a65d47U, 0xa777f55d60c299ffU, 0xefec36f4a63ae785U, 0xc80c69058570de68U,
  0xf34530b0e5e20c00U, 0xbba071b6a3fe95c9U, 0x529a7a729fa54e50U, 0xf29778f12c28134dU,
  0x3cb43a070db6d36eU, 0x16cf41916345b26cU, 0xb9161995a3ba6334U, 0x48b598b6bf2c8bdU,
  0x3e384d99ae009f47U, 0x26e68685e59e1b42U, 0x3ab9567b4d359f42U, 0x15ae1069df32a07U,
  0x469fc5cb3d77badfU, 0x2658ea4e04f8d7e2U, 0xa810555731ac4a7dU, 0x900e4937b33e875fU,
  0x793c58c9a734f0dbU, 0x8cc3a0834ca09cc7U, 0x887a8318418abd2eU, 0x1841ff693c3ec742U,
  0xe2b623f2946d9f7bU, 0x14e728a057c31e0bU, 0x1a1a24d9621a6bbeU, 0xee2f74a937cbaeaU,
  0x6a3f6de928be8e63U, 0x1fbe6ff4633a568aU, 0x278f8a667a16f30aU, 0x5911c908105a7357U,
  0xdb5efa3829f678dfU, 0x1865529f485507d3U, 0x31616bddf0265d90U, 0xb140e4b34859f156U,
  0xef04d54345fc21ddU, 0xed38c7edd2a33aeeU, 0x3aeff89142430934U, 0x6edcdb1348de9f86U,
  0x52906304db3071b1U, 0x7a51c4c6461ee5e9U, 0x6366de7bf57fba2eU, 0x4443d85fcbe860d8U,
  0xc771d3bc11a5fde7U, 0xf041e68314672ba7U, 0x3b5fc2ede0d458b8U, 0xb09cf0adfd14ee95U,
  0x6d76c7154852c3cfU, 0x8b003d319e8322bU, 0x299515280b549294U, 0x9286e31dbcbc4b74U,
  0xffff860cfffffadcU, 0xffff21ddffff87adU, 0xffff7f3affff4cc2U, 0xffff0d3d0000d64fU,
  0xffff98c50000de75U, 0xffff29a8ffff8baaU, 0xf1d6ffff1611U, 0xa75d0000ad8eU,
  0x997092357ecddd65U, 0x4db3414c7d669a45U, 0x863323bdded44bb6U, 0x13b82f2acacb0f4U,
  0x45ded1b34dc3a1e6U, 0xde2ffbfb72a282fU, 0x51f3b62fc41095f7U, 0xb53d1608f334ca2U,
  0x6a81c5fc6fbc0f8fU, 0xfe5b56baea3eca0eU, 0x3900d6c0183bf996U, 0xa5291b186ec84ca0U,
  0xbec18f0f40e119b1U, 0x545634e3ccf47668U, 0x7be7e2711e154345U, 0x13e8e9893ba1ab64U,
  0x1c1fbf51d4e08f2aU, 0xc385f6dc45510c68U, 0xdcac39f7fa8883d7U, 0x9895d7f42e3cd0bbU,
  0x41ce0e41476c6bf7U, 0x57c85b06713c4200U, 0x2d268fc795cdde57U, 0x841e44052675ccffU,
  0xcd0a0e4cc366d16fU, 0xcc84a7a546ab2824U, 0xed27030f3c9f43a3U, 0xed401b36264ff23bU,
  0x53b11f5aa28f97f2U, 0x38a87cf8fbb8700U, 0xb777d87dc44391b1U, 0xb69940aa4536cdfeU,
  0xaa68e1fb6f16ff4dU, 0xcbc79a675b5d20ffU, 0xa10977d8cccd473U, 0xe217b3387d06f530U,
  0xa94c49d82142465bU, 0x8243b5d7cbb93a0U, 0x4f6c8d8c9901e24bU, 0x8358c61526a460f8U,
  0xb568e3915862d87cU, 0x63c6cb44f055daeeU, 0x5f6e395aeb7d6d8dU, 0x3bdbfa66c335e9b5U,
  0xce4814dc8c17b572U, 0x4e5743beaa2e1aa0U, 0xac51f45e01369aa9U, 0xc0c11cede9a09d4aU,
  0x12681bc9fa089ff5U, 0x76c252c8e32ae417U, 0x14a07013c7c84d4aU, 0xed57c1542bead7e4U,
  0x75217ac95104fa4fU, 0x682fd76f63c85252U, 0x2200e364f2e0a32eU, 0xa9641dd66755e639U,
  0x1596621fc91ae027U, 0x1a872ea394caa763U, 0xf4c5ece3c3bf77c9U, 0xa5f150dab398b231U,
  0xf422608362fbabfaU, 0x2cae1d11393ba883U, 0xbe4231d2deb01e60U, 0xe67de032bdf9b241U,
  0xe6598af50bb346b1U, 0x47b740d406e70192U, 0x2c198bd1e5948d0cU, 0xf3607ca68a9db96dU,
  0x1b881b180a5a9142U, 0x144205e9c0d2c360U, 0x2c8796cf33592891U, 0x68a0465ceded1bb5U,
  0xc42c3e6c831cb28U, 0x586590b5cefd43a0U, 0xd3408dc1d462ed6fU, 0x416cce652d38a55eU,
  0x5fe5a637643c1214U, 0x13e8c58ceded28dcU, 0x75ecc478d70f46a6U, 0x5446d9cf1683b35eU,
  0xf48a50a03863c970U, 0x651e567fcf6943b2U, 0x52421cbd82ec537cU, 0xbc93c502923eb1daU,
  0xcc30db5de9452b9bU, 0x60571c67c23fac93U, 0xeaf521f2daf5c8f2U, 0xf19283a51ae90536U,
  0x163153b85f8e46c9U, 0x5fc446c8fa0db5fdU, 0xbce284e361a9dd21U, 0x75291cd0db8ba7d4U,
  0xb075ff8b3f55143cU, 0x8ce0176455230b34U, 0xdbbbfe3adfad0b03U, 0x4a8d8b06f20a5820U,
  0x21afd65dd9e09beaU, 0xa93e7ad025253e1bU, 0x21a2bb4fc8e3a7f2U, 0xef18a6a9b113898dU,
  0x4ba2380eb093e29dU, 0x3799fad76df9feebU, 0xd71cc6ca883f315fU, 0x87d810e48e2a9a02U,
  0x776b1e727b920bfcU, 0x1dcc9e1713f9c8e1U, 0x7a3fe4f3a1860fb9U, 0xcab31f2b2dc0f6cdU,
  0x94a036f414994475U, 0xcedef23c34b09644U, 0x9de878042c9e38c6U, 0x6c9f4940dd05befeU,
  0xab3fc0eeecd7c634U, 0x4c7807f9c0d73c83U, 0xc671c853a49f3724U, 0xbe954fd9ca2e5a24U,
  0x8b9c0d69fd4169a6U, 0xaaf360323df09423U, 0x654aaec1d4ededf4U, 0xedebf09a12b0f748U,
  0xb0dd4aa4c272a0fbU, 0xee18c8c686cb3e06U, 0x1c1610e1b04fd4a8U, 0x2fb03605e78e3276U,
  0x3f4f77dbec3f2d40U, 0x117b0b8fc5099e42U, 0xc6a676cce5668bbcU, 0x73539167c57fdbebU,
  0x8229fec9592c2f14U, 0x76ce02ca0e63a47bU, 0x44f6114c27a0de28U, 0x25132df3466109c1U,
  0xdb002f987f44b30U, 0x3a7491c107261fa5U, 0x44eccef80f29daafU, 0xfd19766086c6ac68U,
  0xce13bb09f4e16847U, 0x5ba0705611c7bcfU, 0x6b709c5f9b9d9067U, 0x67f2dd077b9278b0U,
  0x21f41b3e6ad19278U, 0x255a8b44c35d4181U, 0xaabd0302f2779aeeU, 0xc68d470d09e18dU,
  0xf9def1fbaf50aab2U, 0x1bb668d6176bbe98U, 0x14d401ec61b4f4e2U, 0x89d0ee0413c38b9bU,
  0x32fcc0a87ed2fa4cU, 0xdb3d62ad6eb2e329U, 0x5f5c5b8ac214c6d3U, 0x8b67aecec4b6f8a7U,
  0xf894674d31ac30f8U, 0xa31c2d1c28eee3f2U, 0x3789c2d1ddcd50c8U, 0x3062d94dd93e4cf2U,
  0xe57a7c5c2ab0f347U, 0xd1064c4503798f61U, 0xcc86cdefafc45073U, 0x14ee29b3cd2aa1e8U,
  0x93d92807859b6f74U, 0xb564b9820d9c9f60U, 0x1668dc490b35ae7cU, 0x23a8e94435904253U,
  0x46ecd96452feb760U, 0x74c57729746395afU, 0x97c183ae9c39392cU, 0xd77ac366db8d0a4eU,
  0x8f5c8a54a2de4bfeU, 0xbc669fb024fb3815U, 0x136dc004e82d838aU, 0x86f32d597d777020U,
  0x23b81012b6e9d3efU, 0x5fb18b04f286cd32U, 0x307701d761af8296U, 0x76ec281f6680bdaU,
  0xd9d7c693d8bb01a5U, 0x1d6ea8bb97db7455U, 0x67f56b78fb2277cdU, 0x76f87bc6e8ff7590U,
  0x6522121ff329f604U, 0x89cd6695e7eea269U, 0xcc4c1e582685ec60U, 0x29bde666255f9391U,
  0x9b8d3795928e99cbU, 0x6dae52a8780955e7U, 0x46992bae8a3f5e70U, 0xfad0330322ddc6c3U,
  0xd1ac485286e4b875U, 0x7045befaca4484bbU, 0x319f3b0e260e2f04U, 0x48f3fec2f0125da9U,
  0xbc4becdf0d690cebU, 0xdd993eedd423a683U, 0x37131b8033a461aU, 0xbdecb4372dcbbed7U,
  0x6c501d65f39edae6U, 0x7a72ec89ac4adf7dU, 0xb619558b346ce256U, 0xc81ffe136496456eU,
  0x794da6b4c56d2471U, 0xc4a3e0c4edefbc0U, 0xeb273b1a5a79c4dfU, 0x4da44e10491385d5U,
  0x53a3609f0e2ed30aU, 0x8438a07bca235ba5U, 0xde3f47840f2a2d4eU, 0x79a6b68cbee6bd73U,
  0x279c4406b886a329U, 0x880e6a34ffc5ccacU, 0x17e8b67665e7b909U, 0x7cd1c0a75b593af7U,
  0x65f1a28991f355fU, 0xdf79611caeb7055cU, 0x73df03aa794ce435U, 0xef055275ce444324U,
  0x1b75eb79456d3d29U, 0xbb098638f4b06ec0U, 0x35e62e784fe8c4d5U, 0x9110d88fb22fb0a3U,
  0xa9336e976ff1954U, 0x2e8240bf912f3f7bU, 0xd451665aaed901daU, 0x93fc596d413d92afU,
  0x794b875af5bcb3d1U, 0xecef76594cef15aU, 0xa19d6a2bff2abb3aU, 0x16712c4cae91f06dU,
  0xb89e6f82fd463e44U, 0xcf45009a5581d5dU, 0xede5080a2ee24c6aU, 0xb0cc6f67571bf2c2U,
  0xc4a3a3d5cee3f4dU, 0xda2765cae5531c71U, 0xe86dc3610fa7891cU, 0xf13ebfc1446c3486U,
  0xfde4aefbedecdfd3U, 0x1ba4adba6a5dd33U, 0x889348c44044784bU, 0x945b73d44a3c7921U,
  0x673b8c6280ea079U, 0x284a6f372f3c94fdU, 0xf208adfab99f7de2U, 0xeba9227a2646e63U,
  0xfc1e335f86f7af64U, 0x371fb815b978508bU, 0xa5978edb5059bb42U, 0xe27a81a7177c01d0U,
  0x18955bbf4d15f7dfU, 0x96af38ca42a097bcU, 0xac874e596ca4ff12U, 0x22ce1e5a3be739d5U,
  0xdd0b5ec739ebb7e2U, 0xecf53fea47b3b310U, 0x2f2c98e6aef0e8d2U, 0xa9bf4b0ee31704dU,
  0x32c6a214f49400ccU, 0x2afd661c9410a368U, 0xd6a908522aaafaeU, 0x15b421a3e3ccac8U,
  0xd9aa30f3d068c56fU, 0xfb6bc060c1defa49U, 0x67ba3ce1aa863dacU, 0x45c331836e936553U,
  0x7b1b9265dc9501c2U, 0x8bfcfe1a536839fdU, 0x424f47011f0e5ea2U, 0x1f8c3903bc23e969U,
  0x129e71e648c5cc49U, 0x85e41ee69d343510U, 0xdf095c064a5fecb6U, 0x7e19a268501e0667U,
  0x71acee5d44246182U, 0xabae18e7c337cff4U, 0x83ffc29ad04d65a0U, 0x4a491f3df7a7e002U,
  0xd6c7bfea9020ddb8U, 0x351139fa57f6d1cU, 0xc36a11ee2605ad0cU, 0x4ec947601d20d37cU,
  0x9a82adc3a0614d1dU, 0xad47e387d3514d90U, 0x3f4add96d32cd270U, 0x94f0febb2413a6bbU,
  0x795035a4e3e87d7dU, 0xd45c6eb56431da8dU, 0xe1f7ae67b8dcf23aU, 0xdb6cf879ea4076b4U,
  0xca9e1c1dbde5c96cU, 0x7983129fef40909fU, 0x66be8650a36d77adU, 0x9c679760d8de189fU,
  0x2c4badf6c476689eU, 0x7c8ab4ac00ceea68U, 0x2db7a13deba56233U, 0x987ab95602f4576dU,
  0xf0fae49b79d6f091U, 0x6f2bb2e7dd4043d0U, 0x9a9eeee48537b990U, 0x9ae6aef221539c27U,
  0x14d51e68cc3e3c9bU, 0x126420f6686607cfU, 0xb79d06bad23e8e36U, 0xb8992bd3f3a8066fU,
  0x6ba0c8478c37a429U, 0x5ee07b06d2a2e3a7U, 0xb966098d10cd70e5U, 0xb8d5ebaf24bd0c89U,
  0xfd2c8e94848aad0U, 0x168b0dafa74ce59bU, 0xf15e1ba6fece4af2U, 0x30cc667873ef6d13U,
  0x59238488e9682e57U, 0x1f333dceca8a49eaU, 0x3c1b18b05aa28647U, 0xe250ed55e4343c7eU,
  0xb9c324544ead95U, 0xe307919906f467b3U, 0x5e6b349f0104b964U, 0x85fe6650b6b7ddd8U,
  0x4051c00fcfa5e86eU, 0x21a314b3dd643a46U, 0x4dd0c46c3d0928cfU, 0xa17762ae382b3aa1U,
  0x72023d0260ce797bU, 0x5c65a9064879210cU, 0xe520b1728d1e3a1U, 0x554adf7d30c68289U,
  0x37d4414c62bd2dd2U, 0x85de0e4d9f158accU, 0x6045c25d2325f8fdU, 0x3120a0d506e43cb2U,
  0x27b17341293c9434U, 0x9d0596b2e9a2329dU, 0x57a2ed7887b81174U, 0x12f0663e3596833cU,
  0x7abc041f20db73c4U, 0xb85cc2f7f0a0cc2bU, 0xe94c3cead6ff96a6U, 0x2c3ccf2458f4c846U,
  0x66ac154efdca051eU, 0x718c564aabb2fa89U, 0xe0f4e0b9633f2de8U, 0xb835ff2087b1e96fU,
  0x4291cdc991a98a3dU, 0x95f28bd8071b9875U, 0xbe17cf3810ef7959U, 0x89a101e3fc14dbU,
  0x2359f48a442bb6a8U, 0x966aea31147af2b8U, 0xa196d117c7b9443eU, 0x457dd29f5a1f6707U,
  0x8dc5c146fd58220cU, 0xf68c1dc1195f11f8U, 0xc80baa635dba3e92U, 0xfbf6be2ec31def18U,
  0x7ae118910ee7fcc0U, 0xb7dff2af00acdcc3U, 0xa12799f2eec3e40eU, 0xa251952f5ce90340U,
  0x4888f70f5bcd2c1cU, 0xac36a0de3e7494b6U, 0x66a11196a6f45d74U, 0xda2f5b457fdbe842U,
  0x4f1afa288f0e6584U, 0x5c971e4d3dc43045U, 0xea1caac269d7734aU, 0xb77520352fe56b1cU,
  0xc54e4ab8510f1192U, 0xd0711cff72121aeaU, 0x2bd869f71d5ba1c9U, 0xbe738b0d1d44b332U,
  0x6e74fff8524a2c5dU, 0xce1bdb2e342a272U, 0xa523005f6a5da390U, 0x4b830c63795c76c5U,
  0x5c3121ae4e112928U, 0x26fee22b729a4b28U, 0x42b4f0b2f3bcf732U, 0x6ff8fe6b756a8b64U,
  0xfda7a61365f4f7b9U, 0xe31fe821e340ee60U, 0x848794221486bf0cU, 0xbffe8cf01e557911U,
  0xf28daefe44c1412eU, 0x2fa34bf8e8286aa4U, 0x5b9f3f19a1208f33U, 0x668ed91ec51609a1U,
  0x8f77ab5ffadc20c3U, 0x832153855bb54affU, 0x74350d6d0c4c353bU, 0xe87d1bba41b17e62U,
  0xc14dfb26b3965d55U, 0xa0463f5a0ec90d88U, 0xa5a63657d2b9e2a1U, 0x5590d7ed7a12648eU,
  0x6ed542593bcac327U, 0x5c82681f13be935aU, 0xe6bd7c0642b3adecU, 0xe60491ae9b3ccbedU,
  0x94aff7efcb2cde8aU, 0x1f2109166d9ba490U, 0x52df17dd6f4e8135U, 0x7d4a89c17208fb84U,
  0x1ba9dd73daf34187U, 0x6865f44001309023U, 0xa81a68dbd8526a6eU, 0x23668e49a27ce054U,
  0x4b2982dc3729a8bbU, 0xd379ec0f538b8875U, 0x79dcf294f538a2d7U, 0xb5e0fb3801814d23U,
  0x6d3d77259c371bbcU, 0xf4341b35631307f1U, 0x9f2b7de52bbfd029U, 0x7c6a9920b3c0f2e3U,
  0xfe4cc04583079064U, 0x1ee0ce2054d958eaU, 0x2f4edb349ab18f9aU, 0x468af0e85ecccb32U,
  0xff32a424511e676cU, 0x13eaba0f1d7fe541U, 0xc79af839f864b570U, 0xcb1a0f114502c7e2U,
  0x285b155cb4adea17U, 0x7ea5adc907e4016cU, 0x7c9d231693e788d1U, 0x9574e770c0fd7b83U,
  0x767d1736c3feac56U, 0x6b38303d1a91bc0aU, 0x39628bce33a70b21U, 0x2219ebf95c9a64bfU,
  0x3930ffe56692ffebU, 0xdf8628adfcb01f2aU, 0xc160a1523fe4122bU, 0x4d08a700ec24508aU,
  0xd99778078cd7ba6aU, 0xd38f881e7bb7976eU, 0x3de419360ff8c601U, 0xf6a458c1a963d53fU,
  0x4314a890a6d531ecU, 0x9b488aef12382fa4U, 0x653feac0edf099ecU, 0x21fc10599928e4c2U,
  0xeb6c02e973626bf9U, 0x41e101061b92ff30U, 0x2b658253843fe07aU, 0x1df55ccd9d83fbdcU,
  0x1e6d822803f97e87U, 0x42d27b49e3c81e4dU, 0x7ef2f8b5b26d047cU, 0x9fcb4f3e35f8d1f1U,
  0xe2e1a789a3db34cU, 0xabf6b0a5befce49cU, 0x5828b5032a60f0dcU, 0x4e613a848eb88bb9U,
  0xbf1891558f3894acU, 0xd55c53b932f1f695U, 0x387c52b6a10e3e42U, 0x6e3f87462a00f971U,
  0x3507a6654688b84U, 0x9ec4f50e0510746eU, 0x5003770f78ea330bU, 0xb29e3764d5dd562dU,
  0x22c162b392b1cc30U, 0xb04b4adb77fe66a3U, 0x1f242be5f8c7a0c0U, 0x55a6372a4d1c1e22U,
  0xeb1ac1a982a1122fU, 0x3f55a57620261658U, 0xb7186333fc4abfe4U, 0x4999a722a5360e08U,
  0x253b89d975ae36d7U, 0xff3506e801698556U, 0x70f2c1079f01820cU, 0xc7661436328ed3d9U,
  0x4b6b66c2237db1f8U, 0x2770cdc1b77d7930U, 0x42033a3597a2d84bU, 0xb254154c37f645bcU,
  0xd445536c39207b63U, 0x64232b1d915fa157U, 0x908b2b81fa5577e7U, 0xf2b07fa2beb5b9c9U,
  0x1baae46a7484cf58U, 0x38131a3e87d38f82U, 0x6c08aac8d1d00e43U, 0x3f95fb88e750a472U,
  0xb75f10973bca6db1U, 0x444313498dd50e7cU, 0x67b6aac7d60f4647U, 0x22a84a686b30e175U,
  0xa7957e45a149eb4bU, 0x3cc09f779278eedbU, 0x2b0373c3a6d23c72U, 0xcd4f7a5fabb2995U,
  0x19fc8dd9aafe6acU, 0xf1f30e0a4e8a162fU, 0xe1b0c0b2974c2840U, 0xcea37596f90db95cU,
  0x67fac577061068cbU, 0x67f8983de9bc31b9U, 0xc605f5c31a9ca3ccU, 0xee94da61f69927f7U,
  0x78ff74bcff7e6a13U, 0x6291cea924b4bd52U, 0xb968de8a4b8283e2U, 0x9ec7a9fd3ce8e81dU,
  0x302fd0e52eb1caedU, 0xf7a78af50aaeee06U, 0x222496a8bab60fe7U, 0x18e464d123665cb8U,
  0x7d7d8cfbdf4d155eU, 0xdbe3fa7867f2815eU, 0x220563f71ee8e1a8U, 0x2fff5240c0c315bcU,
  0xb6747ac36ccc3d93U, 0x817882777bbe3ed6U, 0x885c925294ab8541U, 0x98f045ce6b5620f5U,
  0xa9aaaf2a70f4a98U, 0xcd3c6708212c321fU, 0xe7a16754f4b934b5U, 0x306e6f2cb7ea92f5U,
  0xdf67016090001aabU, 0x5689857def47a85dU, 0x16d59385de1fc00eU, 0xcba9aa69d5b68fa1U,
  0xf277e30a651e2811U, 0xfb5b072bef6a1e77U, 0x783dec09c67f4179U, 0x916703168559b112U,
  0x39cb30cbf1eb4d5dU, 0xd04dace637e6b96bU, 0xf4e23e6736874a32U, 0xb80fc6de41cac785U,
  0x2137cbb870f6U, 0x866790ae051c30ddU, 0x8aabbd2126ab127cU, 0x87140dcc34e78369U,
  0xc39272d02cff8bcdU, 0xe3dc32cdb61c8679U, 0x9229fb53f7fc299cU, 0xb46f02ea44c3209fU,
  0xa4598b6e481a2b49U, 0x2e03a8a0592ce936U, 0xc1dbb9f939f437b0U, 0x886a02eb866bfc4cU,
  0x32c7db5cfa6907ffU, 0x20e626f4c600bbc6U, 0xa4b301867496e4b5U, 0xe2c15de4f63da9cU,
  0xd899fefbfeb28df1U, 0x154414820cd546e6U, 0xf3d60406eaf4f74dU, 0x1417f53dc715b65dU,
  0x88924ba89e94cbeeU, 0xe50f602653b8153fU, 0x8c2669126d3e00aaU, 0x413b0b7b68308881U,
  0x401e4dd7b588a1ebU, 0x79f42b7b281dbfd7U, 0x45842ee5dc7dd636U, 0x4d5523cf1f936f22U,
  0xa6687a08c2c16599U, 0xb6e48620f8a8a53eU, 0xf389c1dd944db8c3U, 0xc0bd8fa6cc7e213eU,
  0xbfda21a7a4e8059eU, 0x5189b0163e860d34U, 0x8a94cd7fa1acaa2eU, 0x6eac9f278ed2ba67U,
  0xc48cee0d26bcaea6U, 0x7694ad47e28b95ccU, 0x9fbf54f619678118U, 0xe1ffc7698edfa2f0U,
  0xffff3ac10000b2f2U, 0x153e1ffff9143U, 0x12b1d00011ef3U, 0xc7f000098a0U,
  0xd8110000054bU, 0x146dcfffe8e4eU, 0xfffe9be900016a09U, 0x1034e000004ecU,
  0x18af9000141c7U, 0x42fbffff6f76U, 0xfffeb7b4ffff59e7U, 0xde36000034e6U,
  0xffff1ac40000fb29U, 0x6df1ffffb310U, 0xa10efffea70bU, 0x10830ffffc679U,
  0xbb2da76d459d4c34U, 0xc9a0f5972ae6596U, 0x5bbe9011ef9046U, 0xa219d3f8f13d289U,
  0x44c0b52d18bc24f3U, 0x93aaaf6611d7329U, 0xa1dad9e06730f2b9U, 0x6e7a8929ea23139cU,
  0x12739d78b596d48bU, 0xf551f699a5ba520fU, 0xf6fa735c793a69e0U, 0x579d5631415001a4U,
  0x1186e082b1ca7b73U, 0x224f7c7e2f582976U, 0x732c65a1e23371cfU, 0x572c1a7486ef439U,
  0x88d2d0d822adb30bU, 0xdb9e0439bcdfde2bU, 0xcc241059196d36e1U, 0x618f38e2d3fdea24U,
  0x73fd2322597fd7a9U, 0x5b19c2728171242bU, 0xa1e2b72ef72947d6U, 0xfed933c15f1f186bU,
  0x33e0c9614311ad64U, 0xc723fa8be3c384b0U, 0x56f704e286089f8U, 0x820689ef2ad1224aU,
  0x41e7e5d741a6563eU, 0x45f1161066595f62U, 0xc67ef8c26a6cf923U, 0x4bc48f6da69c0b3eU,
  0x70195a57170eff66U, 0x97b495e99eed0432U, 0xac364e950085a8a0U, 0x7750e78944c4dac1U,
  0x64543056ee3f55baU, 0x48ae249e5abffea8U, 0x1547e213e810349fU, 0xb3be879ec35458b7U,
  0x4fd811cf2ea967dcU, 0xb113111aa3c23010U, 0xedb43ce2f5bf0296U, 0xc60d262a6d59bd5dU,
  0xe3a4c8da4303e66fU, 0x191d82d29df73fe4U, 0xac1c40dfc5e28d11U, 0x2dd09e788a5e71c6U,
  0x823d63bc62ee7bddU, 0x83719991f575cbbU, 0x522aa402a70e2599U, 0x70f607ab20f49c3eU,
  0x92327fa4db29f640U, 0x74f998f4560a51baU, 0xa425fa6c664148caU, 0x151139008e733245U,
  0xa6e7cfd82ba88fd1U, 0xcadead512f7a58edU, 0x8ca4d845ae1be5a4U, 0x38acd4aacb944672U,
  0xb48d6ac6dfe236e4U, 0x84a0c43c437bef39U, 0x9859e9a9ab01fa5aU, 0x1afaa6d1a056b547U,
  0x13e7bfffdf00bU, 0x20a5dfffe4a36U, 0x26c2000027ccU, 0xfffd214bfffe1feaU,
  0xfffd4bd00003053eU, 0x1a3ce0002e35fU, 0xb815fffd6b87U, 0x6ba00018965U,
  0xd587f35d786267dfU, 0xc38df6f78ebe337aU, 0x54056ed056cf2185U, 0xcc0d34042d7cc45cU,
  0x9dfe4b48677a6cd7U, 0xa62e51f10cfd8616U, 0xd2d8f22309eb1451U, 0x95c8cc1fedd56fc9U,
  0x29d031fe6dd61c4aU, 0xf489639204d471b3U, 0xc1ca87b0aeef125eU, 0xf7314695e1744e5cU,
  0x6479f3ef060b3af5U, 0x63cf48c6fa7dd8a8U, 0x8964cb10d2d48221U, 0xcec6756e879304caU,
  0x33b540a79d1eded1U, 0xf99ed125673b8d9aU, 0xd0264730fdb30fa0U, 0x2143032c0ea5cef9U,
  0x9aa141d394251950U, 0x607c826b199ad16aU, 0x8b1374d0fd073f9eU, 0xa7f8898363c8b233U,
  0xb9a70ee0f76db6f7U, 0xaf647ea16a105108U, 0x27da3392a77ed9eeU, 0x900dfc60c2537b23U,
  0xb6b6c8b56c964d1cU, 0x9382889e19fea426U, 0xbac2d31f00b0a255U, 0x6c15fd200f1c04e5U,
  0xb2b5b3bd9fa0c53fU, 0x59253f81b131daefU, 0x3f20578c7842674dU, 0x5465aeedc08637adU,
  0x2562a5d1550f7d99U, 0x9442fb6c5160d2cfU, 0x88a7bf94442bb950U, 0x28f9b2950fd9563dU,
  0xeb8488567b27f0e3U, 0xf6fdcf29e60aaa98U, 0x30a554fb6e5d7be4U, 0xcf0700739bde0221U,
  0x1dac130cc2d0b3d7U, 0xb3a40f9866aec460U, 0xe4a0a480bbc56a6U, 0xfeffdc6eac45a056U,
  0x5051244986f1990fU, 0xbe2737a332643ed9U, 0xeffc8eedd4242b28U, 0xc57bc4023d4a0737U,
  0xf89a30ee5338aaf5U, 0x1796b63ba883bc71U, 0xc70817539cf447f7U, 0xb4b8c342a2d5112eU,
  0x37ee754e63d74ca8U, 0xe29b9e4af44c4cbaU, 0x1f20e9c65df16934U, 0xa8f57a2a4e997c01U,
  0xc037c4331e29f4f8U, 0xdc82c83f71fae2ddU, 0x1cf0cd159cdcec06U, 0x69ff496ad94bace4U,
  0xc02396740bda2a18U, 0xd0cd87336aa91166U, 0x223bfc2fb4170813U, 0xd80a2415e037fc50U,
  0x617dfcd036f5c0b3U, 0x48eabc3e216348c1U, 0xbca6459fc6ac33faU, 0xef23f12dbe9d05a6U,
  0x344261958903ae0eU, 0x9768aed126a0ee84U, 0x9609d83e84bfa2e7U, 0x51553040e8702da9U,
  0x614de8fc9764fe48U, 0x483fe62afe5b1344U, 0x3b3758e4ee4ec790U, 0x322f656067701884U,
  0x32b56de182589d67U, 0xd483e6e010e27b87U, 0x1f646f4aac6e048bU, 0x25f6e890cb52419eU,
  0xaabb0cfb2adbf4ccU, 0xbcdcbbe35dd2332dU, 0x408cbb8e2ea18cddU, 0x63d382213247ed68U,
  0x365bb1f049b605f2U, 0xf4b23b42382a6adcU, 0x825fb543afd401cU, 0xd88649d9b1e98176U,
  0x5aacefdb8a26eab0U, 0x4dcec4ff5077f1d5U, 0xbff1885e41fc21dcU, 0x8d6be9f2a85f3e42U,
  0x7b9a2092a73dcf8U, 0x4f2b3cd1c4a18e72U, 0xf2aa4ec87a4d0db3U, 0xfa0287ec93f3af3eU,
  0x55be7116dbe8e566U, 0xee9684ba4470635aU, 0x2095ab459e848a8U, 0xc11ef4a7e002af1fU,
  0x894970baacfcea89U, 0xd154a20fb16096adU, 0xe5e358231c66900dU, 0x94a426bfbc1c8bf0U,
  0x7d5275ad9b1bedc6U, 0xbf1265289c8c7bccU, 0xd8aa9b1bbed9a1fU, 0xfce81c16fb7f3aaaU,
  0xeacefb398dfaa563U, 0xf982835d08948374U, 0xf23bff555f5f9efbU, 0xbbd0dd5f629861e3U,
  0xc415aceb872b85d6U, 0xf6e7e7f7a9c5536bU, 0xadd0e1feb446c0aU, 0x9dd8bb73cbcbdd71U,
  0x761a3c66f65207daU, 0xa4db0f0353ef580bU, 0xd18a6c3982822316U, 0x5b27d4443395c898U,
  0x539f0c9ad67469afU, 0x239b422ae5b4b0bfU, 0x10fc2a3dff679c9dU, 0x834f6cedf3de9bbdU,
  0x8697aac87478290dU, 0x2d618b39e3a10605U, 0x42db2d8dbc14b6a4U, 0xf032ec8584dcfdbbU,
  0x2f1b68d89a1b1cc7U, 0x8558640dd570c7c4U, 0xede4198725416814U, 0x9fcaf50c956777f5U,
  0x8fe6a73a0bff4641U, 0xac6eed220153121cU, 0xa5b3f94909a87f5eU, 0xfe1724df3f980c49U,
  0x4fb3c3711ec51348U, 0x34e843b70631ea7aU, 0x74139041f85064e3U, 0x6ff99d3c890d23a3U,
  0x2bc188f042046fd4U, 0xd98908676a71ecdbU, 0x3e15babcb25c8eadU, 0x478a26647362ec62U,
  0x2d552dddc67c48U, 0xd3d4f6ff6926105aU, 0x1c262c7513aff5a9U, 0x66c035f15a245c11U,
  0x2fe046e04f00ddabU, 0x16f8f7044776ee8dU, 0x8604526e9e43e40dU, 0x84583d6269617c09U,
  0x9d495b607412e31dU, 0x90d20464adf66ab7U, 0xfacb7ab9a22f48ddU, 0x45f12b6d20bb9f02U,
  0x79ee82ac4eb271a6U, 0xe4ff90d3511cef2dU, 0x1a34e195735f4875U, 0xca3f6db87c4b966eU,
  0x2a00d3948f68d43U, 0x2c721ed97a6f68b1U, 0x318aa591c082a46bU, 0xb6d2cafaaa760d70U,
  0xabff941187f68f04U, 0x506395545e27416dU, 0x26e9eaaad79fd7c8U, 0x993ad8aab0ad87ecU,
  0x30b4d7b3731d3d10U, 0xf6ee99a60f1c0014U, 0x4dbf1caab25f775aU, 0xb6611075a9b7eda4U,
  0x7dbd61759d9a62U, 0xc5fcbaa2bd27a470U, 0x3c9ccdab15a7277U, 0xc8fb0ad58d1cce8fU,
  0x9e7b6b117a255e69U, 0x72124c1f8b6b661U, 0x9719332c6d58b276U, 0x28a7ccc15b51ed99U,
  0x44415ca49fe3ecd3U, 0xf72d1cf64c79718cU, 0x23aed3e650865c06U, 0x70e0a038a2be83f1U,
  0xf74638bb1d966f8eU, 0xb1f408da32a88749U, 0x95b738272ec076cdU, 0xf291377ca0c6531U,
  0xad299de538b1882cU, 0xd2335cb4597d722eU, 0x9b38744adb018a6cU, 0x41acbff3c8c070d6U,
  0x434a0ce72abcdb0eU, 0x687a41435b334988U, 0x95694986e20e110U, 0x415753c2c6c040e3U,
  0x75353b339b299673U, 0x32bc29fab33d5292U, 0x1d864a8406b88b6bU, 0x3594364a6bdec437U,
  0x33abe7ccc5564021U, 0x49188947ac0790f8U, 0x6b83c61018fdebbU, 0x9533e819bd23373bU,
  0x25837e3d9982e5b5U, 0x5e0729f5a247dd62U, 0x249c5e52c7ba405dU, 0xc9f646c46b90064U,
  0xae3b6d48c93db188U, 0xbbce4e7e8ef368deU, 0xd298166ac2e85cc2U, 0x7acea9e4c66193b9U,
  0x92aaae2c5b7b83f3U, 0xcd6ee2a5c49d64c1U, 0xefa16dbd6d0bfa3fU, 0xd456ab0540f69f7fU,
  0x366835cb8a3fc992U, 0x1259b904ce7ed31aU, 0x35d697e4443aa42U, 0x46c5d94f1c787d3aU,
  0x4b8e0e836fb8d4f6U, 0x30fb7b201491bc61U, 0x240dd53e01a436d1U, 0x92feefae3f9349b2U,
  0xa296a495815e05e5U, 0x8a0fb4b00bef7049U, 0x3b7fe3dc5adcfa85U, 0xcb08893be842243dU,
  0x2f2aa05471de58eU, 0xe84dc1babf101e7dU, 0xe85cbe4442672418U, 0xc5cc5b5a345208c3U,
  0x3f7e9585543526b3U, 0xc688d12167af03aeU, 0xd67c5415f2eae7b4U, 0x11229dfa3f353ee4U,
  0x38a182d39d37c3d8U, 0x95c941cbe5edcfb3U, 0xde43587001346842U, 0x79817cf2bfd0c89U,
  0x8eee963618439d57U, 0xe9de14c36379b587U, 0xea97f7d05c1f4679U, 0x10cb6568cdcd8497U,
  0x4d99f98669b56de1U, 0xda4ce21f5885015dU, 0x83aa3eb1179c81e2U, 0xede4011a54f8bc13U,
  0xe53f7b26a6aabcdU, 0x7b62797f7ea7cbedU, 0x703c715c9cfcc802U, 0x49f0421532d0a475U,
  0x7ab5ded27ec82639U, 0xd5bb3d9a903c8898U, 0x22ef882547990a96U, 0x39f12b78db8efb2U,
  0xb985b0f2c7715abU, 0xd2c3893ba1651976U, 0x43b33e3f11da8a0aU, 0xbd318fb104655a37U,
  0x71498f791d95b8U, 0xb2ccdfc20724a1feU, 0xbff02a255122cc38U, 0x6a6401b8e15ab03aU,
  0x3f4f97332c20d7d8U, 0x7b915aa55888cf4dU, 0xd65be1f20f08ff9aU, 0x12e73ac505913260U,
  0x76571e3599688b8eU, 0x193d2d1ecdcf0d76U, 0x58ab428f5ac6c29bU, 0xe5ad0dde83573294U,
  0x5627ab99ab5bc0cfU, 0x70e2bc1dc543c6d5U, 0x88b2b96ffe465addU, 0xbf43bbd8b05996c8U,
  0x8ca5335f904fc7a5U, 0x416bc61c633c1c23U, 0xda3ee402dfdb9599U, 0x1c3e3f8bfa7ab361U,
  0x4d92480f29ebee3bU, 0x8c4ed31151cd1475U, 0xfe8ccadd13e6f24fU, 0x288dd6b1f9ab8335U,
  0x446dfb11fe084effU, 0x7e1e9d9fea0b268U, 0x39eb759a70ab8544U, 0x2fc2e5c1d7e35baU,
  0x878acbb083d4c3a3U, 0xa4de3ed573ff6e47U, 0xfe82062a45b65f3aU, 0x1eace14e613a92dU,
  0x1925b8526a13ea5cU, 0x54c79cb5c8592cdcU, 0xfd30f7ab9fcc4851U, 0x4a8657740eed31feU,
  0x4b4ffcfcb61ab686U, 0x636b9fd13fac5a9dU, 0xdb4373955b77a432U, 0xad0ed60f31c83e7bU,
  0xa727662a5e1b6dfbU, 0xb019b927f71d83U, 0xf87a1a8d6b3e05afU, 0x32142b933bb811b7U,
  0x2f1fc88232416f71U, 0xb35cb567287c4b4U, 0xfc5c4487776e333U, 0xdf2f23e7be028c78U,
  0xf89f4b074c2712a9U, 0x992932c45495afcbU, 0xb9b79338a967a10fU, 0x7d9abf5d38d298daU,
  0x3a8e082dfea67c87U, 0xc221fd68b5a99d7cU, 0xb59fc7d29be4b60fU, 0x1d9501d4a3f5acdaU,
  0xf66495b112fd0d72U, 0x6d5e4fff2b68027eU, 0x2b8b2eab55bc7213U, 0x74215aafe9252134U,
  0x9f2c87f47ab2ed5cU, 0x8f02296bf7b88fc9U, 0x273863b7a9dfd3ecU, 0x763dee38a2844f95U,
  0xc0a96af33470e192U, 0x520cdad20b2ab227U, 0x5d82b03a77ff57acU, 0xca720cbc3d3176cdU,
  0x2f676ae5019f7b4bU, 0x959fc5db1b2caa60U, 0x2a41caa8c7a3d687U, 0x3c3fbdc634d8d7b4U,
  0xe27bee84e06a959U, 0xdab98fde541691a6U, 0x76ce1f73c8620c4aU, 0x1318485809d10fb2U,
  0x4bd2fe419cb0b5b0U, 0x92e12dab0f6cca6U, 0x2c0b4f2c248f05f8U, 0x8e8e3aa75649f205U,
  0x67c0e804c450701cU, 0x9ab10148f5769f8fU, 0xe32253bd1ec899f0U, 0x632541a87cbec99U,
  0x8852151ea1d0d9acU, 0x3a45c2e2eb277ab7U, 0xb00243e54694b435U, 0x584928633f19d752U,
  0x3c37a84c6134afe2U, 0x3060670c308e0b02U, 0xcb23ba5e83e8068eU, 0x2d2b19861cb017d7U,
  0xb238bfb516295700U, 0x1127d9037b1de030U, 0x2a84844e70da9af3U, 0x4b5018aa42e5677U,
  0xbe6a0618af8bb6d4U, 0x40a19a5e65a7071aU, 0x21125c40195da694U, 0x54f351ae51dc6071U,
  0x934b8a65de68f7e2U, 0x6381b968621badabU, 0xac54daa06e65b038U, 0x4bae51e8ffb330a9U,
  0xa62514972f12b8bU, 0x8adc4aab613243f1U, 0xed14e489f79aa18U, 0xbdef7e02583797deU,
  0xd45832dffe46e2f6U, 0xb308ee19836c7b20U, 0x99deb7b85609c301U, 0xc7ccf4a5e067c68aU,
  0x257c8731016ccafU, 0x84d6be5ee9dc5af1U, 0x9d1ce9e15624466cU, 0xeeb205cea7d1da8fU,
  0x3b6a04f66f98eb95U, 0x13438add1ae40a9bU, 0xd0bdd9c76d100b06U, 0xd7491a8685bd5c78U,
  0x4aeabc7c16c06ffdU, 0xa40d8fb8905a0368U, 0xa0fc0f08ba28018bU, 0x82e208cfb5dee08fU,
  0xb4aad002c86702c0U, 0x6150954c1383620aU, 0x3ca906a80ff06dd1U, 0xd61707aac79b1c7eU,
  0xa4dd9c3c88240efdU, 0x177bbb98a12e9fc4U, 0x39819b0923752c50U, 0x84c233e5fd64f2bU,
  0x51e8529eea535fffU, 0x708c89173a201ad6U, 0xa6694496d65e63eaU, 0x4498f428fe586fe8U,
  0x718807a954cdc648U, 0xa359d4a56466ed1U, 0x636661b1afa5ed88U, 0x17847422748ab805U,
  0xe7ce7646b0f04a4fU, 0xdd868e8e09f36e6fU, 0xed2e1fd0c17a10dU, 0x6fe05b3435b2f81cU,
  0xed0873adc6cd0976U, 0x88631eae18436303U, 0x100d1d369aa87be3U, 0x123f40671e65b42eU,
  0x87432f8639691993U, 0xbfbb50432e0c5c62U, 0xcb95a953371d1ffU, 0x1a57fd1f32276ec1U,
  0x17ac274760a96b83U, 0x32dcbf379bea19b5U, 0xac6e688522095854U, 0xa977697d77b2edd2U,
  0xbfe7f54908c0f154U, 0x5d36eb6c16c77017U, 0xf0cccc34c225ea4bU, 0x179199e4672c6b9dU,
  0x58f5ebb95e65c8b7U, 0xa90f06eacf81169dU, 0xff05f64adb24a219U, 0x5bb3eab9486eafe2U,
  0x826af651b17e4207U, 0xbd185313c7857510U, 0xde1c605ec2afccf6U, 0xaaa39d0443b3aba9U,
  0x86baabd1ebc684e8U, 0x64f6017e47095f00U, 0xfb1378fb842474a6U, 0x6858957e489af37fU,
  0xccf25b49a1b6acdaU, 0xdb8d91e45dc1b888U, 0xe675f390c36f11f5U, 0x4b0b3c714d2c3de6U,
  0x3a227c1c5bdf4542U, 0x43f2337878375bf8U, 0x344b35b566fc687cU, 0xd863c33791e4a663U,
  0x10880e4ed2e0c9b3U, 0x456dd507a487c666U, 0xd6ab849339dcb0e1U, 0x942e2b5d893be5aeU,
  0xc315cb187b01f03bU, 0xf5fdcaddf48a1b0eU, 0x6f825aa2563f69d1U, 0xc7ad96bfec1183a9U,
  0xbebcf1a2323b44d5U, 0x375eadb6aa1c234cU, 0xdf0ab25ae930c4b1U, 0x95b7f85ba1872770U,
  0x29a876203a76abe0U, 0x18c7388a6b100be5U, 0x479c9dd8996ef154U, 0xc43e74741f50eb78U,
  0x7ef87338542b4ccfU, 0x90bb07a5e2610616U, 0x30a4cbddd7d99bb1U, 0xa00bb0d9255f14e4U,
  0xe99e4e045101b10cU, 0x15ed230e5190982fU, 0x1f2e68d87b6f643eU, 0x596986dc3efa9caeU,
  0xf5df05608b5a3a7bU, 0x32d177423fc87790U, 0x28045c7e263675ffU, 0xe732dc0dfb759da4U,
  0x31e05b86ff7585c0U, 0xbfc0e17076cf0cb1U, 0x6adf437d7b251347U, 0x951abe2e012eb8a7U,
  0x829d9a70a88e9971U, 0xcc14308e0d552332U, 0x748c01fc5eb4f037U, 0x139ef40be59bbcb0U,
  0x61a28f789a710355U, 0x84048c541b1cd538U, 0xae582fd8b664aa6dU, 0x9bd1be3987653fd6U,
  0xcf373cda24b51ed3U, 0x5dea92388ea2cebdU, 0xb6f7d033f5414cd0U, 0xf4342b760397d32bU,
  0x6552da5fa64852cU, 0xcd5d3943d655c986U, 0xf6c6cfd039c43947U, 0x19c585c6623eed6cU,
  0xaaf0e87c95260d47U, 0xdbb8b5ed5919fedcU, 0x42afdb6e9e8d8e92U, 0xa7d75eb5570e8e73U,
  0xc02effdfaa0e4245U, 0x9cf1958c373d5c06U, 0x4d07bf1fdf0ebdcaU, 0x97e02913eade5910U,
  0x3688dbfabf928bddU, 0x12bccbbbdc9a2469U, 0xee47e5ff8f0b73d4U, 0x2d6f35f3a5f02ba9U,
  0xf6b463411973608U, 0x905af4c1279b4ff7U, 0x871923cdd1cfb8dcU, 0xfc9b8ae32c6f9237U,
  0x239aec5b6bd142dbU, 0x2e91c0743551dacdU, 0xba50dff67cf0dfe5U, 0xe454295b26a2083U,
  0xaa5214a4635e03edU, 0x7b5bfb356e7f6c7fU, 0x30116719cc545fdaU, 0x3c4545ab812b915U,
  0xff843c356002cddfU, 0x54f8fb39bd8590bU, 0x774197a4133b2109U, 0x29c99b0375886323U,
  0xa0a390e221aebe20U, 0x9bc6337fafaeecdbU, 0xca37926ce50a75efU, 0xc0ccdf69b061f681U,
  0xcd47486651708929U, 0xaff2ac311a27f237U, 0xb024bfdab6221435U, 0x4ea9b4d5d3674a23U,
  0xaa10215d3290e4f5U, 0x98c7b9050f010f11U, 0x288711e12f307e75U, 0x23f3818294009f1eU,
  0x239ff1924ca61cb0U, 0x2d0afbf24197d7b4U, 0xf61c6f4d657f5b5U, 0xb060f40928bfdb2bU,
  0x8f1b786caa0b2b4cU, 0x9b1683ee0292176eU, 0x3213526f9185e3ecU, 0x901d7bdee2443786U,
  0x84033ae74fcca62dU, 0x7b9e527841ded750U, 0x13fafa3773d5b859U, 0x4643553b3f5d0ba6U,
  0x5b3ef261962e9e7eU, 0x3cde114a2ad2eb1U, 0x130902b8ed329a26U, 0x4305e04c587d0d54U,
  0x5e7469e7844a0a6cU, 0x77931510de1ac156U, 0x1fdf0a87970bbf60U, 0x845ea0179059d962U,
  0xf1606cfc4df941c1U, 0xd677f443cf8d2d7eU, 0x652ccc7f7886941dU, 0x7318581784595840U,
  0x3620acaf2afee550U, 0x594ca3e594bde211U, 0x4ce96c8b927838f3U, 0x1a4e7eef48a9b0f2U,
  0x9bae7e5ca26d5fd6U, 0x64967ef3743ffe06U, 0x7b7dadcad5bdce38U, 0xa34f098c755bbd38U,
  0x99d6cb2d7bbec6U, 0xaf6ccb630dd61052U, 0x6ec07cd3087356e4U, 0x98dd41efe7701e14U,
  0x6e0d3f782661d535U, 0x412cf52eba19e36dU, 0xe296aa5b256351a6U, 0xf813ca18ca4b6876U,
  0x84db37472076f8d7U, 0xfc9d35c61b01b6f5U, 0x9253c76c0678caa4U, 0x19b3cc8d05cf51b9U,
  0x2232efffe769dU, 0xffff84bdffff4cd8U, 0xfffd3f000002122bU, 0x1e51800019435U,
  0xffffb649fffe83ecU, 0x1333dffff7923U, 0x2d1350001c463U, 0xdb5300016f16U,
  0xffff22ebffff0fa8U, 0xfffe434f0000a235U, 0xffff959a000190faU, 0x123a1fffd510cU,
  0x299e90001608aU, 0x1c34d0000ffa0U, 0xfffe56fa00013a25U, 0x1115a0000919cU,
  0x30c762f503dd5b99U, 0x9322d62225cf0d1cU, 0x5a1423f0613193e6U, 0xc3f7b0538a025f29U,
  0x67e7f438ddcda8a2U, 0x1d9ab9d45ba295bfU, 0xfb74bdd3428dd7eeU, 0xa7768e69ebfee34fU,
  0x2e75792ae4c2a935U, 0xafdca676386a67e7U, 0xf81ca65fec68e954U, 0xcb1f842d0761e38cU,
  0x5096f6b4a7527e97U, 0xe530915d09f5fff6U, 0xb06e658a1c82727fU, 0x464e6ac84e04967aU,
  0xf887bb83a3cc5156U, 0xb7edd306bc141a3bU, 0x30535dca13196c94U, 0x3000424bbb9a01deU,
  0xe297d309bfe070a4U, 0xe86c275210e38decU, 0x1dd0842b47cf3574U, 0x98cdbf037ace9860U,
  0x5ad6ecc0911bdee7U, 0x9e25f3ca4d5bb64dU, 0xa8aece0cf066beeU, 0x2d1819fc23ce5160U,
  0x9d4323d7c58a8c49U, 0x2eec1101942226c1U, 0x829c5c4161eaaeaeU, 0x59108534179e538eU,
  0x626f1ecdd8e2fba3U, 0x97de4d51a32f2fa5U, 0x58fc99d3f77c2d43U, 0xfe8cbc0b79f9b253U,
  0xf94422db47d8b617U, 0xb93d1fcafbb9562dU, 0xaba893871189991cU, 0xa85e734dac51fbd1U,
  0x78319505524286a7U, 0xf025d40988337c12U, 0xd21ec4fa18c1c671U, 0xad3877d72d0cf1d5U,
  0x58c0317a6a65b4c8U, 0xd02ee95b5f87187cU, 0x6cb8b83bba606dc7U, 0x697a1390066c627U,
  0x67c4765c044df12fU, 0xa2cf1376e5406caeU, 0xad652e7840fbda88U, 0x53ca8c2af886af11U,
  0x5df31cf15371c036U, 0x15f4721fb3c80f13U, 0x9ebcf08870ebc9d3U, 0xe9338ce907e22a16U,
  0x5167c9f34f1ab031U, 0xdadf667f956648c8U, 0x730ae5ffa7e86e06U, 0xd3328db26ac748d2U,
  0x6f7b961cc144110fU, 0x136f1ffb70d483faU, 0xbf8ae2fce8a72c29U, 0x743af4a8fdaa1300U,
  0xffff4b63fffe3e86U, 0x2840a00021917U, 0xfffdd2f00003883eU, 0xfffed50000030ebbU,
  0xfffcf4f200034ef7U, 0xfffdbc1c00028a32U, 0xe5b800010d97U, 0x32759000141a6U,
  0xfa2c45af642a0be6U, 0x76f4f4c154adc51cU, 0x260555b5cf85eaffU, 0x57a32f85dba5377dU,
  0x656b6dea21dc0266U, 0x5a412b840dc85fe3U, 0x4dbfbafa0d5ca98eU, 0xb79091a887a86b2cU,
  0x256a4dda16655892U, 0x743e6e26d8324133U, 0xd4fa9b36b2f079fdU, 0x8ec91c9894d7135cU,
  0xae433e6ed0bad37eU, 0xe8626dadf9191c55U, 0xf0dde455416d92efU, 0xa161e4698bda35f5U,
  0x2cdd1f530d0f61fcU, 0xfce1f92be4487d8cU, 0x1440c065a35df141U, 0x85be301274648bebU,
  0x30753b742c4df1cdU, 0xa3d5e9cd9a31217fU, 0x1600a5830b8d49caU, 0x23f3bcf24b5fa840U,
  0xb5d049026af805eaU, 0xba334800427cf61fU, 0xb9640f764244de9bU, 0x83cdec1390670910U,
  0xa529b9d484af3f05U, 0x99677ec1841da236U, 0x686a9f2ec82ec082U, 0x3e4264e471770da2U,
  0x21f7ba19e6436b66U, 0x3792aa2ffd65c9ceU, 0xf998f350670ccc86U, 0xb53a5732bd4bb86aU,
  0xdb1e4875bf557733U, 0xe8b1949f2950e40dU, 0x2da6d649aef31fe1U, 0xdae4862a3c5e64d1U,
  0x6d23d2c6adf1aa2fU, 0xe7e694244aaf32d2U, 0xc135d05187d5beb5U, 0x9cdf5f6ee396251cU,
  0x534c73c23e0b932bU, 0xba505739d83aa01cU, 0x6508d5090ce6c8aU, 0x638b0155e8614c03U,
  0xe98695937d9638cfU, 0x8207c7c28d0ee7abU, 0x17ea3cb65c089a67U, 0x7b6a303590625cb0U,
  0x41cb38073097c0f9U, 0x1410df2a14ff4702U, 0x7ab3f00822d352f1U, 0x6c2b9896867b1a68U,
  0x53406a5d57f2dd3aU, 0x735a824d260f56f1U, 0x57f7554939e4aeceU, 0xd5a1d43537ee0aa3U,
  0x321c54b13678e1U, 0xfaccf0874039748dU, 0x87581236c2705fbcU, 0xc3895d794f87498cU,
  0x1e63dd20cdee5f02U, 0x3a5909a9e33c76b2U, 0xe97cc1378a716349U, 0xe624531d104e6674U,
  0xaceb46fbba1fa59fU, 0x57ba99b17e85cf31U, 0xe8dcc075482bc122U, 0xb724adc8da8438e8U,
  0x37d40b99b25fb6c5U, 0x531f46330c097228U, 0xc75859b05f0de1dfU, 0x3ea2d2dcacfb565bU,
  0xbb4753a2ffdfc503U, 0x123d6a783dc4229cU, 0xa82e2e413ebfaf12U, 0xb59cfc41126518ddU,
  0xd84d1c485fb9266cU, 0x2c6e28196a7b9a11U, 0xbe9286204009a8ffU, 0x53a1ae5a5edc4435U,
  0x6269f77f1d7619a5U, 0x1022704f0fb610feU, 0xcd35d5f7ff09d362U, 0x35c9890e2d5905fbU,
  0xa129910864297aebU, 0xf96efe67132e9095U, 0x6631ac55c7389c83U, 0x76abba0d90502c2eU,
  0x358624312a7834f1U, 0x92ce1c115a25fac1U, 0xd8adef98a3fa6516U, 0xb188fcd4885e6b0bU,
  0x1ae95fc15ec6eac2U, 0xc5786afda6fa08f8U, 0x59398518a8554c28U, 0xac9a743fb49ea202U,
  0x20aad482528a7d83U, 0xb50c385ff9f599f9U, 0x8e04009f1da5b20eU, 0xdb88fe5fd822efa7U,
  0x4e7f5fc0bd7b615eU, 0xd806c933cf360e90U, 0x4bc44262b5f7db4bU, 0x35c9d647826bbb5cU,
  0xc90d48a468c7e170U, 0x6cf2b824ffe8c266U, 0xa60f8e6a75db78dU, 0x3d4c2adb59e7c29aU,
  0xdffa22fb323da97cU, 0x95ea4de74951e6b7U, 0xe39a0a95adf2f61cU, 0xb3a65e656ebfe8a0U,
  0xcaeca1cdaa9b477fU, 0x6f2d2cd74ac5ab38U, 0x5c96df23a6b756abU, 0x29ba8beb3e5e0748U,
  0xc9682924f189e961U, 0xcaa236b29376a717U, 0xc9f73763fc484601U, 0x8bbdc9666c23d14aU,
  0x268b9a780bd28fb3U, 0xb3d48f65064d51b9U, 0x18ec9d232025d459U, 0x5ee010c3e50487ccU,
  0xc322e4c50221ee07U, 0xce10bb2c88941ce5U, 0x487e60114234ca30U, 0xd595641da5fc1116U,
  0xe32fb4f21a3525a5U, 0xb1cfff201ae20456U, 0x82703306d35e0ec2U, 0xfdc252e60a7a8a66U,
  0x9e9eabb5da0ab7c4U, 0x648843b239c2d44fU, 0x2eb25e287de19af2U, 0xcba0e74969444798U,
  0x6c837b634cd61606U, 0xd9b17149fa03fa23U, 0xd08f3ca7af043524U, 0xfdbb69f187d22661U,
  0x85c31ae4e55cd007U, 0xd3f6da79e3cd0956U, 0x3166115a85c5653fU, 0x3f4156c06ad7c7ebU,
  0xa0177c9be3967de2U, 0x6924bb8c43cdb9c1U, 0x22558b02bb9c3022U, 0xda250a574c3ef6f4U,
  0x1d428bde1a408a60U, 0x52c457920dedf51cU, 0xf57a82b02952fab4U, 0x426a5cbce3c2e55cU,
  0x55fb10429fe474d1U, 0xc1344fe6562c3922U, 0xe1b68e87daa045d5U, 0x12b62fc37a4b5bf7U,
  0x41395f5db6786056U, 0xb6608789e1dfe050U, 0x2ee1272330ab1a40U, 0x79337fc393fff60cU,
  0x7c07b1ae18255064U, 0x552f2c4ec83c168cU, 0x22cdf0ffeb661c10U, 0xb08b49b1ac99131fU,
  0x566fb97e759ff1f6U, 0xec7dabbb39a7ec1cU, 0x951178746fb27bdeU, 0x18c5eb6ec04b2d5dU,
  0x1e32b165c838515fU, 0xe9aeb779647358f6U, 0xd9a92103b403e998U, 0x74c1597bcc6b55eeU,
  0x4f61c2541bd125d6U, 0x2ad0f2f86cc4e868U, 0x2a96dab8db6a3c5aU, 0x78357b3ecbf0f20cU,
  0xbc45855a3cae6630U, 0xe14587a127d6225dU, 0x2fe05bd381366087U, 0x517f575aaa781b87U,
  0xe754152321ccf4edU, 0x4f2bb7737c3f691fU, 0x9d1da40545c7e899U, 0xb0574cc39ad96556U,
  0x6fdfe808826fdde3U, 0xed2b731092b22c00U, 0x5fbf2aa6d387cffaU, 0x58e7c153b401094cU,
  0x4289ce76e1915d6U, 0x4d991f4be717fb0bU, 0x9ee3c9e0bd2a0673U, 0xd55e12af7fc29485U,
  0xd7f31610b87153c4U, 0xe09e9627d47e03e5U, 0xfb37929597a5481bU, 0x4dc6f34bf6b5dd0U,
  0xc9771134ac524ed9U, 0x5648a8fcd463a275U, 0xf85599980c755103U, 0x6d8a0608db99a83aU,
  0xc5bcb6137a6f7c90U, 0x44efbefd9d27970cU, 0x93b2d76689d40b06U, 0xa547e9f3d02efe4aU,
  0xa83081529056604U, 0x2fa7bcbf04e5c6ddU, 0xaae02f927c7d5c0dU, 0x178914661ebc5b56U,
  0xb797636857543efbU, 0x896e9235e2d5f6c1U, 0xa1018799eb6437b6U, 0x2ebef464c284a1e5U,
  0xc5a54d246563ea62U, 0xb6b386c62f3bcd02U, 0x2ec946b30dee080eU, 0x5e420b42adb501d4U,
  0xdcc388eb1b4b1a20U, 0x5f54c9f1788886e9U, 0x9bc8749d000d666aU, 0xd27eb43b26fce2f8U,
  0xaf29bf31e24e101fU, 0xfedce94d53d7b644U, 0x3e3878f2e2c74b3cU, 0x896c3dfd98048681U,
  0xb0c7316296d6fa88U, 0x2d20a1e4b3e5ede8U, 0xcfd0a6d40cafa80fU, 0xbe3b5c658a839b91U,
  0xbf3c5c526aa4412dU, 0x69120245c0128660U, 0x33208802eeacb9c2U, 0x5a8ad0376425ba07U,
  0xd1b3a9021f7e37e9U, 0x34cc73c20a6b2dbaU, 0x9370dcf6d0473a60U, 0x61fe0131c61e733U,
  0xdededaec3364ffe9U, 0x48d81309576da10dU, 0x2af7fd5e1c03d6e5U, 0x39f6f484a4080d8aU,
  0xc8619b6392331d4fU, 0xb3c2ddda4cde85b3U, 0x9f314179a0e30728U, 0x68f55c57a059e17cU,
  0x1e1fd130b756aea7U, 0x9c55be66b045d423U, 0x656215fb44a22a3U, 0xecfbe239e6c4955dU,
  0x222a2a83cd643e66U, 0xc033e01d33655a2fU, 0xb73078cd6337554cU, 0xab6fc3a98d8c03a9U,
  0x99be00ead1d0f5d6U, 0xb564929fc209e94aU, 0x443363c25a1e3af6U, 0xb485a8480fcc88d8U,
  0xa4b26822aad3f5f2U, 0xa376cc1bbbac9a5cU, 0x54fb6095edbafea9U, 0x2b2445cab8693d66U,
  0xbd646eb31936242fU, 0xd36eb94867038467U, 0xe042948fe688a921U, 0x6fd5f2819db9dd4U,
  0x2874e7e87388feb4U, 0x3a283c1ea0744758U, 0xcb4bd6a781265e4dU, 0x73e756a7a0ba38ecU,
  0xc98a0699aecd8f56U, 0xbdb477b32f413a81U, 0xca9188bc86a3696fU, 0xeb61372068de8450U,
  0xbdd46b2c54df528eU, 0x6a8550c18834ee03U, 0x9f02b83efaa605f6U, 0x23a4c7df8c1b62d7U,
  0x62cc0f7c48b9093fU, 0x65f6c5b88ebc4f35U, 0x5839eb1a42687a1fU, 0x3dc7ddcaf854300bU,
  0x9f95503fa5bebbc3U, 0xb6c33cbdcae1f4b4U, 0xde8891db5ba1edc8U, 0xc9d0a94cae99a118U,
  0x9797632969b5dc3cU, 0x30af56cf1e7b5d5fU, 0x638783abaa6a2cdbU, 0xffdeab23d8485f25U,
  0x1ba509244b69d2bcU, 0x5e91b6de3e080f06U, 0x70fc41fea9e1b75dU, 0xbb901cc26c5967d0U,
  0xbbdf8d1d11bea3f7U, 0x56e4e3497145c848U, 0xdcb805b7b8fa4358U, 0xf2f9366c923bd97fU,
  0x11d02c10431f5e41U, 0x31d6fab3e9949090U, 0x4e6eac41354cdabfU, 0x1a7bd57058b49e4fU,
  0x88ced5212d2c8256U, 0xc6709ae737d5541eU, 0x63441329aa4b681bU, 0xb7bf8ec1a7b1a892U,
  0x96f0de384ae0401fU, 0x3226054a375327e3U, 0xf76ebecd911c6485U, 0x99cfd1013de3623dU,
  0x6d743b1835b98aaU, 0xded79c3a9d914178U, 0x209992a9435c98cdU, 0x94aa8b1b521ef82fU,
  0xbee2077e4b8ea01aU, 0x56569a0f9485a67aU, 0xf40c0f63e21e406aU, 0x5fe53b1ee4c3564cU,
  0x76b899ebb3cdc4faU, 0x6ec93997165fd7f7U, 0x14f963f43cc17169U, 0xb7b5af69fb332d9U,
  0x6cf5425d015066aaU, 0x57c1fa3c408d4e56U, 0x86be0555162ad1cbU, 0x44f89bdb90511c2dU,
  0x90c42f8288ebd656U, 0xcb33e5c5c02ba77cU, 0x18c0aa154b8dc68U, 0xa96108d66b795f2bU,
  0x39e77ed8f2b2e967U, 0x638ff7920fa9cfabU, 0x86264c5a3d42971aU, 0xf241e7d0885dd1ffU,
  0xd038052c70a19d5dU, 0xa3b44fba1ee6eb1bU, 0x88d4f06bfbe75d44U, 0x6a67765ec1e4ee54U,
  0xd316881c10093594U, 0xe1c8b4a127ef21a4U, 0xa7bcf236cd5d1f8bU, 0xafeb53770c57576dU,
  0xa9f3111d68e0c3dU, 0x1213cd7c734d134fU, 0x1bd16a52bbc0c183U, 0x19325d846d19539dU,
  0xa0d0812284bef4b5U, 0x42af090884765111U, 0x7afeefc92c64fa42U, 0x2ca64014aeae470aU,
  0xe72f1da6253ec5d9U, 0xa8e83e2d0fd83b7dU, 0x5bc5efc1db931c66U, 0xfa06dbc10a544accU,
  0x6535bd07eb169dd4U, 0x255d4f4ff5712d76U, 0xa4ca21d0ea8c82cfU, 0x22761799dc15a9e7U,
  0xfa0060c54346db55U, 0x4b651f68d9c23197U, 0x28bad751f8da4c5eU, 0x52347822d9b9a08bU,
  0x78e59e1047304b78U, 0x268ca1df31aeff5aU, 0xfd599dc8638986ccU, 0xd29aee7a5945f6e4U,
  0x47456c2a4c179c3cU, 0x78eb7f99f89c885U, 0x96150dff275ed83fU, 0xaa9eba54e0b3e3caU,
  0x2da2ccbe1c7f232cU, 0xf75f47c9e1072b9cU, 0x500d0c2644cfcc19U, 0x1be4961f93fc5663U,
  0x5f67f2d9a60a2ad4U, 0x4886e2549f6a1a70U, 0x664484af736d52f4U, 0xd19449a746efa9d5U,
  0xef9752447e3ada3dU, 0x5141568ef050404fU, 0xe47d3713e9a15807U, 0xc7bf15f1001ebbffU,
  0x8835b25670eb85afU, 0x467851876f703240U, 0x3c041588259e0c92U, 0x6d010f062e48178cU,
  0xf003a7ca268b5f50U, 0xdb46c6c5dd5c46e2U, 0x41d7b27427b31f24U, 0x45cd05ed1ceb88feU,
  0xf21511fb946b4d56U, 0xbcc6edfd35941f6eU, 0x6e898daea0627165U, 0x8542e74f9a13b679U,
  0x6adabf19b9b672eeU, 0xc3dfd401048f19c8U, 0x99b48791a14a3fa9U, 0x7d742f8e9fc23d8eU,
  0x7dbf7fe97ae9487U, 0x28a79ae234bfa2b6U, 0xa218a1a058187b1bU, 0xa149a61b0a0e3eb1U,
  0xe27eafe41234a9a3U, 0x33498b5c8f1eb3cU, 0x21b195b83f86459bU, 0x23f004be69c6a754U,
  0xa1f9584dc2889d13U, 0xe03c3e2a3df8d749U, 0x16f8ee3531671a7eU, 0x2d3f911b382efac5U,
  0x7d32267fd13cb703U, 0x4b1eb009e0b6564cU, 0x4e8928cc62553f08U, 0x701176a4e73906f3U,
  0xff4482f50111f7d6U, 0x4167a835d83e37e3U, 0x2e252f3b4a9e1e9cU, 0x6207a6ace0dc0638U,
  0x2f92380804b6200eU, 0xb399614243a67328U, 0xf4beebc8f2e168fcU, 0xaba0d1efa789a8c9U,
  0x619d699130c113e0U, 0x51e3f698e0247d26U, 0xeba5ac3cb0510beU, 0x8334bc055e30288eU,
  0xf05adaf64a265586U, 0x37ba3419142f8bd2U, 0xd8a5812ae0628624U, 0x14556424ab82eab4U,
  0x3fe73e5ee51eab81U, 0x511eabee1515faaaU, 0x822f9ab6bbfe09a0U, 0x5dbe592a0e59c6a8U,
  0xc63bc1224184c21fU, 0x4c58642289e3a972U, 0x85721f69cd63c33U, 0x7922b8f259d2491fU,
  0xf735e99b8c777722U, 0xd7084fea1e9f7ae9U, 0x10ff6f3e0f64a10dU, 0x4fda68936d518832U,
  0x5fb7264101b26b98U, 0x7e2bf7bd374e7413U, 0x72ff164da3674aa1U, 0xba13f278358fb593U,
  0x94b271582a5e8b50U, 0xaf94351baac2e110U, 0xd3cd946b296aa621U, 0x6e052887cebc35c1U,
  0xb01ecb3be7b4e346U, 0xd2369a42f8d86111U, 0x7d1f4ac0a6a955d2U, 0x64095cde6365dfa9U,
  0x92b503a883119d69U, 0x69873c6366a24a30U, 0x35a54730d753ac34U, 0x4743f554df682d16U,
  0xd56b75f882f1a3fbU, 0x329141eab20cb88aU, 0x913be32d93ff5e5cU, 0x5adfcce1fbfb4386U,
  0xde65da10692e4d29U, 0x9633281ead0dbe72U, 0x4bdf3ea18c6dfa04U, 0x147ad60c7e66ef7dU,
  0x76e2bdbaf2f408deU, 0x54c7ee392e9d8276U, 0x3cbee35d00a4e0d3U, 0xd92b97b23e921a0cU,
  0x2d00479dec75ac39U, 0xaa918a87f8cf579dU, 0x8e725dcf56e488b7U, 0xe1926fff7eafa066U,
  0x71636c24eb6c397U, 0x42a3bde5fbfbecf2U, 0x4c94aca056ca9100U, 0x57d6126fe5e5ae73U,
  0x10528fb5326c596bU, 0x637514e47b8db137U, 0x5a8e59cd023da771U, 0x1cb957fc378d08cfU,
  0xaef4f3cd5a2f7d13U, 0x98f1bc5da12c3706U, 0x669b337477ab6da6U, 0xfebcb87eb9b5d6aU,
  0xd51bfecbeb899deaU, 0xadb43d7118517fffU, 0x6028ae660fa8e8eaU, 0x390ed5e654c14b25U,
  0x176b020efbdd5624U, 0x7c8d0ff0ffd0cd71U, 0xce103be09d4d4f3dU, 0xeefcc88841eab739U,
  0x88593761319e130cU, 0x750dfc8217c4e82aU, 0x8ce96598669279d5U, 0x74184626ed4372f7U,
  0x3071ae8c6c457dabU, 0x4e464b3d126478c8U, 0x79959cb9971c1d0cU, 0x4cb25f576f234c0cU,
  0x8a185c8eaf27d825U, 0x1188dba768764f97U, 0x9625feae4f750c97U, 0xd22b8c2a63a20f40U,
  0xcff46eaec1382ef9U, 0x29ac0e21157d8faaU, 0xbff8a588c8d8a27U, 0xc061289f50665932U,
  0x25ec074b691e11e8U, 0xe2f7411e4b342576U, 0x7f965b82941756d9U, 0x43eb7cda8c864727U,
  0x928b6ee738f5eafcU, 0xc39818354421241eU, 0xcd0d08d7783f20e9U, 0x7ade516ffb6d5125U,
  0x5f6ad93752bd9a7cU, 0xf3aa5c4866a90420U, 0xece2afebc427eb53U, 0x781f49ce0f65723U,
  0xecf4426493c00a1cU, 0x293ddecf584d708aU, 0x8f501190092ebef7U, 0x304b684befff7c10U,
  0xeac60dfff855fd0cU, 0xca3a59b428cb2081U, 0x5849cabaa324bc67U, 0x90c4a9c93332cbcdU,
  0x86d0a22ae343ce82U, 0x919691258a0771cfU, 0x8d48ecbac3501397U, 0x633242a2cebd8985U,
  0xa261d472c02a9c3bU, 0xa8f08cba943c8ed6U, 0x60cc8bc1167f60c4U, 0x4fa3430a620a6c59U,
  0xaa63a84e225b399U, 0xd1f5fca369bf832bU, 0x2f531b69b7d162dfU, 0x1273f3bfcc1d76b1U,
  0x2bfaa06ff7918e8cU, 0x8cfcfa36c558079fU, 0xbe9e7631bad94140U, 0xa6411ca4483b5390U,
  0x223ec0a96694dcf3U, 0xd88f00183f8e69f3U, 0x5de0f123c490e363U, 0x7dfd3e4f1096ecc0U,
  0xe7f3a5cc1e82618eU, 0x3497169f65e5b725U, 0xa2d865269b7af0a7U, 0x59e834859964ea45U,
  0xb51b8d90a8899796U, 0x5e4be4da05566b8aU, 0xb5edef21c0b45865U, 0x896b33cc564d3981U,
  0x571e9ce82a75695eU, 0xd8610bff15ad825eU, 0xabb4ea5760c6b5f0U, 0xcc1d3b4c02fdbe23U,
  0xfb0bd0f0b145116eU, 0xb75ed664f96328c9U, 0xe101cd4c39972d81U, 0xfb7be92656526f0eU,
  0x92bdb6744ecd4464U, 0xa9cc4e5183b3405U, 0xd02ef05ee38d9e2bU, 0xc5b03c38c9b21a0fU,
  0x9879f59639cb676aU, 0x6644f13c70a2545bU, 0xca1b9c1cfffbfbaeU, 0x7eabf7693c37300dU,
  0x18f8400017cb3U, 0xffff1904fffe7d24U, 0xfffdeb250000f775U, 0x6d1e000131f5U,
  0x3124fffe1dcbU, 0x1afadfffdaf21U, 0xffff745efffece7fU, 0x47d30000404eU,
  0x20ab7ffffb06aU, 0x19bcf00008ea2U, 0xfffe26a90000b294U, 0x28d8fffda929U,
  0xfffd95bdffff1190U, 0xffff3240fffe63ccU, 0x17885ffffc207U, 0xfffff057fffffba6U,
  0x6847c462f71ff450U, 0x6fb38f43f29395deU, 0x879ac5f4a10ab171U, 0x465ac7368a3f906eU,
  0xf39920473d58a20U, 0xec83cb05042f57fU, 0xe9e0fc27c5d6e641U, 0x64377df6762f3113U,
  0x20d993f9ad8a518U, 0xaa7f3f381326c3e8U, 0x2e7057e8ba9d9140U, 0x7e78d2ca7a61fcd2U,
  0xb81e39194d1afc23U, 0xf0899dfa268bb938U, 0xb0792b22f614f34eU, 0x863f4e04c1b7d0f5U,
  0x87407c33e1dd31ecU, 0x4ce8c1ae7dad6cbcU, 0xf462c5127303316fU, 0xb079321fae9e8f8cU,
  0xdb5c47eb0f3608dU, 0x16402a8e257896a0U, 0x98f7bbd44cd24cf6U, 0xa74637cdbdd3328eU,
  0x306ee9fe9659a5c4U, 0x6bbb3ea541c89ddeU, 0xce3d0902e02bf304U, 0x6753e4afd36b0c19U,
  0x3b535321f3de37a9U, 0x49c4a353a116a4bbU, 0x6a1e6a0ffd310d46U, 0x1acc13b788e0495dU,
  0x24a563ab6a33365bU, 0x5952f8739149ccedU, 0x70a1f3a303d446b6U, 0x7c102a7c95f9649U,
  0xba6d2eaec14811e4U, 0xc790285c7230782U, 0xfadf844066d70aabU, 0xbf0d07f454ed5965U,
  0x90501538e8b67869U, 0x8a54d5a7df2a1b6bU, 0xeead912a500cfb9cU, 0x82ae488230c538e9U,
  0xb2975a63b3c8dd39U, 0xaecb27c88a430815U, 0x889eccac08946f54U, 0xec3cd8c5d74aa672U,
  0x604b4f966a5c1f04U, 0x19ada3cb40f6dd71U, 0xa70662a190bf5d44U, 0xc497fb6de20e0ab1U,
  0x1f37a5ed175e9084U, 0x9266ed21b28f5d05U, 0x2e009ed84e4465ffU, 0x1cd308d168e5f0c9U,
  0xac64be864b1a0a2U, 0x47e9592588d8facU, 0x5adf437551bc7d62U, 0x17c6324f13be5657U,
  0xca19d9ac1a6237aU, 0x593e438d24fb07f6U, 0x171828d2786cf542U, 0xdaf26de5709379ffU,
  0x167e8fffee860U, 0xfffe351cfffef265U, 0xffffd8b6ffff5497U, 0x20aeefffe8e77U,
  0xfffdd4e3fffdb868U, 0x21d2dfffd89b7U, 0x11a5cfffd8210U, 0xffff5e96ffffba96U,
  0xdeeeae9c5a6af1ceU, 0xca4495b18ec42ab8U, 0xd58bf1c1508f32e0U, 0x741d60b8b4ee5e97U,
  0x3d83734ceaf00745U, 0xf17c6824b71e4ddU, 0xf76d234aeb6f1c66U, 0xaf9b03e4ccc14d1fU,
  0xfc455515733aea79U, 0x61e52d651cb6627cU, 0xa29834461f3e862U, 0xa2679f3ab13f8a70U,
  0xe595e5e77a65c814U, 0x566714f750d89704U, 0x934bda2876d8c923U, 0x27d8de9d4e62a120U,
  0xa8d9a170b7acf777U, 0x59533ffbb2084421U, 0x4d2e7913c80e2a43U, 0x1deec72c6265ea9U,
  0xa06840930dca6126U, 0x5dec109c159a856U, 0x77302740159a1343U, 0x4d40042b46772cafU,
  0x505abc1682db38e4U, 0x5486dc5a471f2204U, 0x911098ba489d4e19U, 0x185761f3458df6c3U,
  0x27330d35a3eda328U, 0x982d9c3f66d08f64U, 0xf67b0a2996a7c7eaU, 0xc9934e3433f49257U,
  0xea0d93178f98a94aU, 0x9aac64357c183c53U, 0x68cd69f6278e2ab8U, 0xecf4a1d444510c47U,
  0x7fd5e45895de003cU, 0xcc939e5ef5efbfaU, 0xba266c0fdcf4d62eU, 0x7970d6a387f78f8dU,
  0x4353c1481dc9a88fU, 0x590b0ef773b7d80dU, 0x2d9e047a3eaf8c1eU, 0x13cbcd15cd726a2dU,
  0x34aad7dcc93e6ac7U, 0xe3012c3a052ce433U, 0x9dd4b6cbf2bdd3fcU, 0x62d0d0d2cb09ba93U,
  0x6350e9df6f1fdb5eU, 0x64693904ba91a0ddU, 0xe0f64019672b4472U, 0xc51dc3150477e7beU,
  0xceae00a990fec502U, 0x97d29431ba2e909dU, 0xfe76e5968f3e4b4bU, 0x2dc3ac25b1117b13U,
  0x95be0dbe81ec66b3U, 0x5739c2cc6107cbd8U, 0x66db2a943b412c3fU, 0x62de4ccd6e077c0eU,
  0x31456489df4b3d67U, 0xc74335cf5eb0c5cbU, 0x85ea584dd56c90acU, 0x431c9755eef89999U,
  0x1cb8bb514fdcd301U, 0xc846c024e3d5c111U, 0x3409e95f0301d285U, 0x85e625c8856d6a77U,
  0x53702023aa7757a4U, 0x596496e8cf377886U, 0xc0d32bcedc399d20U, 0x5fa69ce3661749cfU,
  0x26a9b1ad65fa1a40U, 0x22df5349b5614b37U, 0x91195e54ec8b5e56U, 0x57702700a875cd13U,
  0x484ee6baae6265b6U, 0x8edb0e59a2da5991U, 0x64c3a37a1decbadcU, 0x782eb7b5823b18a5U,
  0x7f516ac3ce0b218cU, 0x4f92b0c2d6f2a8a2U, 0x490c17d3fceb2652U, 0xd15e0a37e576e435U,
  0x9f7e8f99dc1fe924U, 0x42bf4bc5f54e49d2U, 0xb65bb4d16708e393U, 0x22c8c4123e7a8e2fU,
  0x914a7a265d87b537U, 0x39b59cc778bc595fU, 0xf93c356a3aa8b025U, 0x75829cc257d203ccU,
  0x531ae9773b4e1d6U, 0x1d69eb9bb38645e0U, 0xf25da0130f8e0232U, 0x749d7e84de6fbb67U,
  0x7cf6489183bfbe08U, 0x7d6c4096307df57cU, 0x3250a686c1c2dc6dU, 0x86da8ab71f6421efU,
  0x9c14f1ba3e2a00e5U, 0xf950829c8dcc0219U, 0x35b68d7992a3c73U, 0xbace64c0740ce3e5U,
  0x6b7226db7cf4bac7U, 0xc0db086904c2a98fU, 0x39a36b56466350d8U, 0xf90e7b70af553d51U,
  0xabe05e89840bfa4fU, 0xe963c375794dae14U, 0x3887c583dfa692f6U, 0xa0357bee5f3a1ebcU,
  0x470e939ccd399b3aU, 0x75370917ecd0c419U, 0x45b23172097ab348U, 0x8f47aef674de8b8bU,
  0x728af5c2c2ff972fU, 0xa885531ef19b9c22U, 0x3c50799b34ca8abcU, 0xb4b23cce266aca79U,
  0x863f792718d50211U, 0xf651f9effbb03394U, 0xd9adda761834594aU, 0xb1f2725641bd5c6U,
  0xca2c5d2ce7d96813U, 0x8b89c59e9c4fc2b5U, 0x9d3d9cf419fc9837U, 0xbe7a0da77c176843U,
  0xb84867d4761cdacU, 0x5f9ce339ae9c4959U, 0x589cf554b7351bacU, 0x49fe83baebd3498bU,
  0xec7ea68b6d7aeb53U, 0x1ac0c2a2cc148da8U, 0xf92e79b5cbcce65bU, 0xf9fabe6358c56419U,
  0x743b9d69dd1a0251U, 0x10781a0bba8daa40U, 0x5e2662153106b0e8U, 0x1620f20a0c822400U,
  0x837320ef6d87931eU, 0x14f972fa1b03d704U, 0xcc6c075a576bf160U, 0x173eff8a62c84850U,
  0xe864cd9ef1fce25cU, 0xead8ac90fedf046fU, 0xaee03d3a2a500950U, 0xce7b707b84bc7236U,
  0x7250663e782ec809U, 0xd41fb92fc5c9332eU, 0x5d16172460694335U, 0x6cdd5d7c4aae49c4U,
  0xf6cc5357cceef3eaU, 0x2f7976a1d02bddf6U, 0xf9dd159888926e1bU, 0xea975e5e176d1c76U,
  0x1441419ce9d91c19U, 0x2e3b02b11bee2fe4U, 0x62616b74ea1cfeceU, 0x4899ecc52a5fa537U,
  0x98f7c45a7c2707bfU, 0x43446421a41565f2U, 0x4516b821d26e261fU, 0x5b58661282d68ed3U,
  0xc4c852bdced3c4e7U, 0x7d69ebbfac86729bU, 0xddd551db3bebda2aU, 0x79ad11f263ffb65eU,
  0x45a2c795821734d6U, 0x5b15e5536494e8b0U, 0xc781248564762972U, 0xcba8e4b004abebf8U,
  0x98f9aeee9c623d72U, 0x50346c75b61ce3e8U, 0x2912d3232349bbeaU, 0x1adc15d6a4ffc15U,
  0x302577d5cd345abU, 0xea7bf639fa8c140fU, 0xcebda0576c0f7bc2U, 0x8442dc783dfb593cU,
  0x32a251276fa822e2U, 0xcbc5b3918f818c0bU, 0x9385cb9a1fdd1c70U, 0x623e21a5b957d206U,
  0x70ff74d68f63ec7dU, 0x39d5efb2349337dbU, 0xb582b630f6070e17U, 0x4913101dcc7a0d6U,
  0x6c90c8e05288aea2U, 0x9f85c310c75304f4U, 0xd8026ec5742b00b8U, 0x3f764a1b4597e419U,
  0x4d608b2fa682b356U, 0x5732d34763604610U, 0xd0623d97e70929d1U, 0x33fc7606ea0b8b3dU,
  0xad3cc500c58c65eU, 0x1f722eb7650625dcU, 0xeff30f847682187bU, 0xa9a665ab01beb076U,
  0xa02dd22d4e672e3U, 0x9b21f0f3779532bU, 0xc7f9bb0614f43cefU, 0xcedb9d9794cd8a0cU,
  0x69c11b647301cbacU, 0xa7ea72943afab61bU, 0x28137910cd966f56U, 0x16b2690b15cf49f5U,
  0x3c00f683037517f8U, 0x2cb75a7655aa7279U, 0x16f48e579824b372U, 0x2a527efcd69875edU,
  0xd3332707e20387c8U, 0xc81a1c029c328c6cU, 0x8e4fc72452e7f504U, 0xc03448c23bed19f6U,
  0x18bde6a625cd395bU, 0x5c699d291c13fce5U, 0x799f9d6959a2cdcaU, 0x8b335a496766b8b3U,
  0x14c54ae515863995U, 0x33b3dd2a8e784f51U, 0x5f04dc580246dc1eU, 0x4ba81bd7f7f53fceU,
  0xf8bff7f651258849U, 0xf7b1766fb29af2b2U, 0x96996b68868f3bdcU, 0xc20eabe1151ef392U,
  0xfc5573dab0189c2aU, 0xec7778452ecac5eaU, 0x7d5103237ed40c9fU, 0x925bd46d0bc0d7efU,
  0xae416f113e3d483U, 0xcc961d675496e8d7U, 0x71ba5e3d5d923e6cU, 0x8d517478351f256eU,
  0x3a4d4bcf6b6b4133U, 0xcc6ec6ab7facca3cU, 0x1676fea78ce79255U, 0xeea412f2a678cfc8U,
  0x40417cab309dc2daU, 0xd7098a8caa9ea598U, 0x25dd216588b4cfdeU, 0xf59dea10e58ce472U,
  0x6baa00df1e346781U, 0x57dfd38be402ee3dU, 0x4dec05dd1daef99cU, 0xe82473794571d056U,
  0xc49b4099ddf43663U, 0x96c8dcfd5997e87bU, 0xff3f7227c368c035U, 0x76563132d012c5eU,
  0x95d133d0c06cbc8fU, 0x999f36f308738469U, 0x3cd1bdf1f19084c6U, 0x4817f11f7a385960U,
  0x5b150cc44447676cU, 0x9df78de6b8d81ec7U, 0xb30f496ae24a36dU, 0xc85c75315f04c36aU,
  0xd4016733f90210bU, 0xe1e7d615aa1eec05U, 0xe56fe5e37bc526a1U, 0x9ddee8eccc3af4ccU,
  0x6c1476e6ef269267U, 0x5182245e100751f2U, 0x99cf91689cb48a90U, 0x54a95910b5b85f31U,
  0x7add3bb918784b12U, 0x9c8818bf389749b1U, 0x65f790b2a63b2e36U, 0xdcf12b3d57b5f6b4U,
  0xcbbe5b8ca31bfe6U, 0xadcd19f458ae9fdbU, 0xdc8f2a9962ed211fU, 0x55a6eca0f819f2fbU,
  0x3ecfe497466d8599U, 0xf45f4e06b500788bU, 0x6241353653052383U, 0xa1d565d02f78625fU,
  0x897fed8a8d055256U, 0x6945f7869eb4b5d9U, 0xdb9c0684b6f3c856U, 0xb7afe92070e8dd91U,
  0xde6f7a98db539a60U, 0x56a6afe115af7731U, 0x9df64fce6aeb6402U, 0xa604b0f424579637U,
  0x9f7482bbaa12f94cU, 0x9c991f8b98f951fbU, 0xc4dfd49bd51cf51cU, 0x48fd0133a45be8d6U,
  0x364a3da5e5d104e1U, 0x926dc38e55787aaU, 0x60e0da3e656b6dafU, 0x3f3fa12cb6f44db3U,
  0xc78c38094f5a0b67U, 0x1d0d8c2b3b7004c4U, 0xce284105dadb4c2U, 0x21939363012d716dU,
  0x6cfa7584bfa1cac3U, 0x2156a8705779f192U, 0xb07d361ee2d8bd30U, 0x83b5182f98011706U,
  0x7b8fc0255d989cd9U, 0x379ffbd7c2f37173U, 0x3a15ab987025ad5fU, 0x83527845d5c52a07U,
  0x15827186a4f0541fU, 0x1c048d87af6481a8U, 0x95dd365d43da34b0U, 0xfc99851068f4ebceU,
  0xa3679853d28d593fU, 0x76bddd9ea2f5318bU, 0xff471eb582cbb09bU, 0xab217406a7c1334cU,
  0x9dde1fd7739d36bdU, 0x8b4650053408d3c6U, 0xf359047d404a873eU, 0xcce65662ea7daab2U,
  0x39bea139ba5432f6U, 0x6ecd9e330794d6c4U, 0x764a78c2b014996U, 0xe01a0c63b7583b55U,
  0xf4c7d169fa790011U, 0xbe4273ca22a21da6U, 0xc97b399a7bf5c988U, 0xce7bd4989bb5d9f7U,
  0x9518fc02a6f6342cU, 0x15bcc06b7e409f01U, 0x1ab0fbf3e070c270U, 0x2cff82ba693ba610U,
  0x9c3c3fdafed4ae3fU, 0x78d6e0e73bad3803U, 0x909981902c3e8fdeU, 0x96cc63ff130a107eU,
  0x532a3216611b4247U, 0x570f23ae9fdb248fU, 0xb05bf346d38d4372U, 0x161776638ee6a674U,
  0x549474adbc8a4e0bU, 0x8d613f11d97249e6U, 0xcc91fc6d9c51b598U, 0x3daf799fd8a5dcd7U,
  0xdbb3aa4744634928U, 0x2adb54abe31edc2eU, 0x1d0e2b4cf94ee7bcU, 0xd42c4c4690e0c0eaU,
  0xd7c8cc4f63d13f99U, 0x4b0acfeda4ba3bf3U, 0x17887cf8646abb17U, 0x7dc7f6c17ec1efdbU,
  0xac75bb0e077c421eU, 0xcffcb6def6a1c88dU, 0xcb8f5ee5df93c125U, 0x8e28a01cbe6bf85eU,
  0xaa047409f3290487U, 0x26edbec01c79fe9fU, 0x1cadb32a3469cba5U, 0x47577dcaf390aa3cU,
  0x8cb714be60b48911U, 0xb94b0c6d16190493U, 0x2f7772bfa52a23a5U, 0x58d9d0d13901f7b1U,
  0xc5ec8f0b9c25a882U, 0x6eb1edb3ffb52193U, 0x244a56c837bdd9c0U, 0xcc87d790dd95a0caU,
  0x3d5744d09cb2a1e0U, 0xcedf1636e3cfa96U, 0xd0a28ef108eb2fd4U, 0xc096e0061d70ab78U,
  0x4d9ed8d229ef2a47U, 0xdd5be7869de883eU, 0x556d8812fe9f9d2dU, 0xa296f6f10a6e331bU,
  0xc29448f689336834U, 0xbbd3641326f1c009U, 0x5a35a2dbd7928feU, 0x511983da8425b91cU,
  0x8e5ca99f35fdb049U, 0xc07b87d33792dde9U, 0x7d5583ff9eff8319U, 0xc822317ca00906c8U,
  0x901114791f297b93U, 0x4778fcfdd3840a0dU, 0xfd0cb1495bc7f613U, 0xd70fe46b2d212f6cU,
  0xc99664e3ff09ca45U, 0x453ba9e0fa91b2e0U, 0x3de24d55a0be1847U, 0xdab3be10d9ddfbf9U,
  0x5e7d9ede5ebce938U, 0xd1f3dbfb7e306aecU, 0x5a316dfee30be236U, 0xdfc41c7045ab12c4U,
  0x33f2d8152b673e6aU, 0x3457b8d93ff234beU, 0x1e17cf6c40c39fb7U, 0xf089cb0fa4b1b94cU,
  0x569c2ed753325eb7U, 0x8afb5012008b5f73U, 0x6333f16bd8fb160fU, 0xc9174688282b15b2U,
  0xe268b0730f4fe0b5U, 0x6a03bc133521b250U, 0x422ea7076ab3a3e9U, 0xda6b0f5a3a9e9bbbU,
  0x2fe5f3ab23902905U, 0x734a9a32bf574af5U, 0xa46585d31fd54e16U, 0x59d1b8f149319f65U,
  0xffb69df6ad7fd602U, 0x92b15d5fc49d1ef8U, 0x8f14daf88f56a2f4U, 0x57d401a8ae3fc9e3U,
  0x7e66157be97acabaU, 0xa49fc06fe9da6acfU, 0x18ba54b99ad74992U, 0x1d537639b0f524b9U,
  0x3dad92300583cdb5U, 0x2d70e9b3ee1325adU, 0x78618b9af45cb8feU, 0x91d959d61fa4cec7U,
  0x2a5fff99ed9534aaU, 0x2b814a62525653acU, 0xc2eb4270622d3f5eU, 0x602466cf2db9f847U,
  0xb6008c97ffc04f04U, 0x4059a7456cd73da5U, 0x18b4b52fbb894901U, 0xe7ddafef681f24f9U,
  0xc390695063af9947U, 0x74e7d3660dff166cU, 0x526251e1519aec54U, 0x22dab0e69055f175U,
  0x9b3d3b92c865421aU, 0x8288d48993bf20afU, 0xea12068ffecdc219U, 0x9a916b66d1a10d91U,
  0x51708e7ba99b82bdU, 0x965f0c7014cdd4abU, 0xe61bff1dafa76d0eU, 0x33d0289cbe4e09daU,
  0xe5f2a6356df5847cU, 0xffd6e4b1361a92aeU, 0x92fe6b9b04ed0151U, 0x7d61f931dc6dbfd8U,
  0xd73c7560e1df3047U, 0x9d8a905889ae9ccaU, 0x8f6a14e3e753b60eU, 0x5d2291052ce62008U,
  0x7d34dc5dbd3466b6U, 0xba43beaf0b42a04eU, 0x9c2f6b2c2955f93dU, 0x26332187aabe18cU,
  0x5fe27b277c209061U, 0x9ddfa2cf231f96ceU, 0x1dab5590ff6a2ff8U, 0x43271079146d9c8eU,
  0x26ad182b1b68271dU, 0x49745fa5f3f457a2U, 0x38e5583d39662721U, 0x3f76d783a30039aeU,
  0xdbe126f874dcc062U, 0xfbe2c70844e2cbbcU, 0xfbfd50cf43cf67b2U, 0xf356528c752bf0fdU,
  0x754e13adbe53e65cU, 0x2e5e520f992c7edcU, 0x8424fc786e5425c8U, 0x1a6a1abce8b0e8b1U,
  0x6147ab9af7b0b1dfU, 0x65a6b32832aa95ecU, 0x9b7a7a53f913ae08U, 0xdf54df07eabfb106U,
  0xf494ebf917b2691eU, 0xfaa3e746b1d30c69U, 0x2d2c06fc503c1555U, 0x204cd56458167495U,
  0xd585475ef26d15feU, 0x9aeb2025d5e5fd3cU, 0xc414d3bc365dc7deU, 0x1d05622d9406067eU,
  0x8b8396c54d639962U, 0xbc21753a8ae5e907U, 0xc2ad5a838dcedb14U, 0x77a7ef47579ecac9U,
  0x7eb7c2305fe87315U, 0xf58e17d402de2bcU, 0x6baf47aa460dda02U, 0xc37d69e79be89e20U,
  0x84cbd09892c87759U, 0xef4f5378983f1d07U, 0x12e8fa188dfbeefeU, 0x4186b4fce74aecd0U,
  0xc1709a4f83422728U, 0xd2d0c5ec1fc6c5bdU, 0xf81558031a1da333U, 0xb6263bfbb3da9d87U,
  0x4c543b97af2bebc2U, 0x691cf0486f196f3eU, 0xcae724babb7535b7U, 0x31566e729515eabU,
  0x9d016a3d66b0e767U, 0xf2d1729f00a9552fU, 0xeee9e55539484e84U, 0x586be54e2ce761b7U,
  0x951dc428bc61aba6U, 0xc8924c1f5803f538U, 0x19753c515717be09U, 0x467073aea57fd0beU,
  0x412b16b1e69b6e46U, 0xbf35c2e85cc35ca2U, 0xa6652e080c078813U, 0xc47796947ebed0d6U,
  0x3000437a3334d861U, 0x2ce39fff961265d2U, 0x3418cec14490b399U, 0xfb28f7d95559fab2U,
  0x7a7abce88792f91cU, 0xce25ed7dd2c838c6U, 0x2bdc36a69623c8acU, 0x45daf2385567b4bU,
  0x6ce99f3ce08a4437U, 0xd222c6c0ff7786dbU, 0x41cc0403d18e5090U, 0xf9bd9b6e0170e890U,
  0xefb5b964fc76085cU, 0xccc7b0d6fd2ec07U, 0x475b2edbd8255e3U, 0x6a6306cc2e44c006U,
  0x55d8f60c6cd69a20U, 0xfc21ea0669cf6eedU, 0x1de0bc38f9c905e9U, 0x98ab9411ac99378U,
  0xbfd4d8ad3b49b331U, 0x79e81d964c7601f0U, 0x2d5d34d4f53de3bfU, 0xe82fcab98ff99474U,
  0xe99b96e749fa5d9dU, 0xb476e63198aeffffU, 0x43770b4c9e2a3f06U, 0x35600b0587bb332dU,
  0x4873245fe1a29540U, 0x836bba6ca08fdeaU, 0x1ebe4d6056948bb4U, 0x6211e8019f657af9U,
  0x5c15e78accee20a1U, 0x69dab906362c291cU, 0xca24e70a0f290214U, 0x401fc505b85649e1U,
  0xc5f48b62a9914472U, 0xa7e6cfede6b401b9U, 0x7cc7476de3d443f6U, 0x642267fbaae8ff2dU,
  0xe0d89b9a0e4b6af8U, 0x8a39fdf5aa3696c6U, 0xacbc3d01c593f154U, 0xc5441d0a47459cf3U,
  0xdf08deea6f4b0ac9U, 0xd358dec6534056f4U, 0x263c9ac991991490U, 0x15d23ed78c02beb3U,
  0xea96e03bf644e69cU, 0x56d14b1dface3c08U, 0x2ecb930943902137U, 0x6568e29057b40fc6U,
  0x4d4441f764ace122U, 0xa87a795da7e756e3U, 0x4d9b1c74854a162dU, 0x44e36fd5b5df9f65U,
  0x237ec96c36467e61U, 0x8ed471a9271e01b3U, 0x649d863218840553U, 0x824529ea92fcda75U,
  0xfffd4a65ffffd8a0U, 0xffff7b76fffff4e3U, 0x1fc09ffffa5a3U, 0xffff692ffffe358eU,
  0x118fd00021d73U, 0xfffd645f0001ec48U, 0xe2d600003993U, 0x5b2a0001068aU,
  0xfffe175000005386U, 0xfffe2a1900005b51U, 0xfffd0501ffffb273U, 0x93ea00003191U,
  0xffff7f13000240a3U, 0xfffd29e9fffe5621U, 0x17c940002bdbfU, 0xcdfefffe0a6eU,
  0x18d6561184d30e73U, 0x1d534801ac636942U, 0x6be0a7cf68c5b00fU, 0xf66ea1eb6c4b1c0cU,
  0x4f33010cd06f8e58U, 0xf64e6aa1bf6e46d0U, 0x5dd97ffc69ad933cU, 0x429f05d958a400faU,
  0x49f7c74aba97d0b9U, 0x40f256b4f1f8fe9eU, 0x48869f022978667eU, 0x6ee01b099ca0dedbU,
  0xe23ac0b9dbb46e42U, 0x4aeb34e9ef5aa7aU, 0x15bcdb06339e36d8U, 0xdc49e44a57d52b04U,
  0xe51a72a6b4d83575U, 0x9d89ec4a3345de70U, 0xfbfb4ae721ade9aU, 0x63a9bb4f29f60390U,
  0xa594c5cac6dceaf0U, 0x190ee253c7dd7a73U, 0xaddc138d95af35e4U, 0xbd5933999bc8526aU,
  0x770c270b2761aa96U, 0x416ef162ceee7ee1U, 0x32b1d4574dc3d057U, 0xc5e7f00275b1aa3dU,
  0x24347808b87cfc8cU, 0xae61f42a4b9420b3U, 0xf52752d242f3764aU, 0x519873143d09bdf3U,
  0x88413b66d0318820U, 0xc6e114b4601498deU, 0x8752a3c4e3a64857U, 0x668aaca67db9693cU,
  0xf9f8f0dc8f74e912U, 0x6c63b2775e2354b5U, 0xdc000901a552a8b1U, 0xcfcc6173fdc9c63U,
  0xfdf832288888aca6U, 0x380b763e728157e7U, 0x4d3b5bed11a8b0adU, 0x634b199fa66974a6U,
  0x75af06c87e3993d3U, 0x87873023e840bbdeU, 0xd2a6bf95166b290cU, 0x981af0003e9715e1U,
  0x48fb37ee8e025949U, 0x1a3dc0b6a8964fe7U, 0xfa0dde3713e85334U, 0x5a7b4257a04eed97U,
  0xf157220ee58c2402U, 0x53cff25db1a5590U, 0x6fd49e61515319f7U, 0x4e9854a9bf846a87U,
  0xe3372192c7b7db7U, 0x2a7715651ffd3147U, 0xbc3284139b83f081U, 0xa94eecbc6a3e14ceU,
  0xd799c5e208995ea6U, 0x5ccde556cc599612U, 0x4f2124aed42f765dU, 0x9beec229754ab955U,
  0x4699bfffd5c1fU, 0x351c00003d7f7U, 0x9662ffff2351U, 0xd11100010c9eU,
  0xfffeb897fffe8c70U, 0xfffe3ca6fffc79aeU, 0xfffd9de9fffc9ad1U, 0x283e4fffc76a5U,
  0x2a159166e078ba16U, 0x54ef9a10aae5a383U, 0x475f12b8cb60491fU, 0x8b5da1b7ae55b92dU,
  0x6041ad6e1e9e5776U, 0x42c2e4360494f52aU, 0xdad5a0145b791847U, 0x3972f5673e42bdbaU,
  0x9477b5d7fe9b8340U, 0xd1a4c80ce61691abU, 0xee09a82132a6a7c3U, 0xac2401538220497aU,
  0x67aa2b2fbda8b783U, 0x361c2b136f1b23fbU, 0x369c77224586dc22U, 0xf772b8bd5a42cbc1U,
  0x70d7b746ed03dc9cU, 0x87852365443f3a00U, 0xe452eaee58bed037U, 0xcbd23648c8ee4642U,
  0xa41667e22919eae4U, 0xac010f23c603281eU, 0xd8f883f9e60f5d00U, 0x56e7498d279f9ca5U,
  0x45b7f451bc14ff69U, 0xdb7191266b33e06bU, 0x975c3d5338a9e47bU, 0x95163b9ab95df138U,
  0xdd734b0f85a249bdU, 0x6e6e69a6cf422b3aU, 0x498229da5a7cbfbcU, 0x42985dc6f45ba6b1U,
  0x9104316ac83f8c1U, 0xc8901ea9c33c03adU, 0x6b9cb30a13b129a4U, 0x6d35e950e67e073fU,
  0x4825acb1efceef1U, 0xa1ec4de5c803ee75U, 0x6f867ef4fdef8af6U, 0x343bbe317e98e07aU,
  0xf043f1d35fcd5d0bU, 0x1cf5fc515989a657U, 0x7f22642dfdb36264U, 0x8bec2577dc58f86bU,
  0xe0c250a4e2bf5212U, 0x7ea8afbd39c99459U, 0x70c26d5f85c6b451U, 0x8dcd9a08dba915beU,
  0xf966b33b7027f201U, 0xe49c92a8f2a1e5bbU, 0xdcc2775f5f894a62U, 0x39030ede9b3a2e2fU,
  0xf252bc5b1b405658U, 0x191e81a521f2aeafU, 0x9e6aa9d6aa64f828U, 0x87ddba192c4b080dU,
  0x3cfef43174b3a011U, 0xc13e6fdf669b4aceU, 0x4e83d00e310ea89cU, 0x5013e13a25a960e5U,
  0x2a47c0632aea44d5U, 0x20893a949152fa27U, 0x408cf81a1458e691U, 0x161fadd06ce0d0daU,
  0x9d9e34d3ea579d5cU, 0x4431a2f476bd5b0eU, 0x5d195956ea60c04fU, 0xd597699acb327c87U,
  0x94af99d09512eec5U, 0xf90d1ea57dc06a8bU, 0x65f51e93b61ea05bU, 0xd9dabcdc455d3361U,
  0xd7cf8db1d3e9c377U, 0x9f273dbb1c792b74U, 0x71518c216d058eacU, 0xe3e90d4192c39195U,
  0xc18dd0ff38a916e7U, 0x4377912b9d5e2e64U, 0x705450bbf5c30961U, 0x57083aaa51ce49c2U,
  0xc65a126d13f78eacU, 0x3b4c263b7d23d8acU, 0xcb0173d52631f9c3U, 0xc3aad48986de290fU,
  0x638deff6044b231fU, 0xc4d074d14821a9e8U, 0x34bc12caf0e68512U, 0x8358d26d852d5eccU,
  0xa7c7de62d26bd84bU, 0x6d1cf4fe8db3a369U, 0x728b717a94a6714fU, 0x6e062eb4adc65b3aU,
  0xb11ba7118a2ad42fU, 0x45c54a063f27cfe4U, 0x765ce8a19e0a8565U, 0xc1b21353650378d9U,
  0xbf7b6b3519903a50U, 0x820b19aee9a05cd7U, 0x54b923412adde94U, 0x86b1d78e32f8aff4U,
  0x7e7d16e54d36ab2U, 0xb8e1dcc31641a758U, 0x754c4d3a9a21b815U, 0x8af39b1a32f1b4a7U,
  0xbdf7c98362cfa189U, 0xe1bb70f4dc3cc8aU, 0xe5eaf234933d6d9U, 0x4e2e5e603a0cf8d1U,
  0x7ed0d09847ede06cU, 0x8f743ea2c5bdc575U, 0x75d99e1e466746e3U, 0x76f884dce292039U,
  0x6136391c0a2566fU, 0x853cc10f82944128U, 0xc4ba67b97bc414a4U, 0xe914fb9ad431b04eU,
  0xc0f2dba52ad16afcU, 0x47a2f50e25d2b5e3U, 0x81512edcc4d88309U, 0xc825289b96cbe2c2U,
  0xb5871564efc53b9aU, 0x79d3631f26c8e0d7U, 0x97b2df6aa3b03265U, 0x88a729f57f4aecf4U,
  0xa6a5e66dfd7df9f1U, 0xe5c26123c8ec7287U, 0x37ba5e9d6370a8a0U, 0x233e53ba4fb84b56U,
  0x66342c539d226e95U, 0x1bade86f9cc4336cU, 0xd7d8704bc341af23U, 0x5e5460590fcc4a8cU,
  0x8a1e78b1673a45c7U, 0x11329a65557786f5U, 0x2cfc7d6fc6dff55dU, 0x84eede8e0b62dcbeU,
  0x29c38bffebea9c91U, 0x4511b0adc89316eeU, 0x7d762785a771d2cU, 0xb0f2f367abdb7a64U,
  0x63d1bdc23fdd6058U, 0x332eff91fb46596cU, 0x902fbf396d30524cU, 0xe7c1b56450fa343eU,
  0xf8e5cbda5e6ba009U, 0xf518b01903ef42bbU, 0x10c0598dcffcf3a8U, 0xa53a3e11fa274f2fU,
  0x36deb121020ceeffU, 0xa512015fdf1afc37U, 0x43a05b237e1ef798U, 0x2feac6a88bdf3a3eU,
  0xac4d1bba04180351U, 0x2c1d22e92669fa43U, 0xcea0878242dd9b1U, 0xa676cf17445b96c9U,
  0xb59dfdd0ad0c0e24U, 0xda0152edcc2ec319U, 0x93ad9a998d772ddeU, 0x32d1c199e4cbbaf5U,
  0x21ce8c297cc81074U, 0x41afd3f45f67127eU, 0xb604a857f342dcf2U, 0x1d947c73aca2a26eU,
  0x8cf321c52ba9f39U, 0x5d5c53b339746ec1U, 0x889fc04054c5a30cU, 0x5dd5fcbadf28dbe6U,
  0x744ab9ff87504cbfU, 0xbaef00cf6f40135U, 0x921c36f648133d8bU, 0x980507b47569b6a6U,
  0x4dc0d581f7b4531U, 0x24a6e88108c67a92U, 0xe9a404543d616fc2U, 0x7d9e5f9c298c0c1U,
  0x56b1f13410f72d43U, 0xb9e225370f408bc4U, 0x8ace4d669c2ee655U, 0x31fe7604a197f36eU,
  0xe40e2966d23f153bU, 0x8d8899cb52332993U, 0xf4986760263de1edU, 0x372650e4328cb0d7U,
  0x60a9e86cfd8fcfbaU, 0xea8e9aa8f5dd8b9bU, 0x578dba67bd2c71b1U, 0x44ed046c3386ec5bU,
  0x7a46c7731bfd1897U, 0xf814e7d0f2cb2e8U, 0xa48a6d37695eee4bU, 0xc33910e24325e1d2U,
  0x3090cfebd63e6a42U, 0xbd0722c88e673084U, 0x1dd94f2916c3fccaU, 0x5fbe135926b921bdU,
  0x77b5add5c38fd840U, 0xfc3a74aeaf02f501U, 0x5e79cdd7ef3c4461U, 0xedc088da07d6d601U,
  0xbf1e6b6322f1b6cdU, 0xbc3fc2ada5d95a4dU, 0xa848f505e586fd3fU, 0x11ef85601ee5cb9eU,
  0xcecd95c9074047abU, 0xf6bc05cf4d5db9b4U, 0x3f98206744197ad1U, 0x5a31c5dd06d883c4U,
  0x26ce3ec388113c57U, 0x813f85144733f57U, 0xdb5088056e335247U, 0xc054b0121c71071cU,
  0xbb1af3b98d4e7ff1U, 0x9496ee81f01e2b83U, 0xab7037684b32a22aU, 0x5cd8d1e8bb13b3f4U,
  0x90729418a09f491eU, 0x1e674494c9eb2258U, 0xfd9973e66e0a4973U, 0x3fa3f76675820fb2U,
  0xe6366c41a1026c88U, 0x769d3d12b0703703U, 0x52f95cec4e652391U, 0xb6aaac9533aed40U,
  0xf33c3b40f1fe9a35U, 0x6b015d4d62000ff0U, 0xc0bfad28fa8bb072U, 0x74b58bb1f30002d1U,
  0x6e7ab1161137e22U, 0xb5ef7c3be510faccU, 0x5445f3f5dee1fc82U, 0x25d0f6a4ec70f7a9U,
  0x95e655b8ce100c39U, 0xdb1770758b6cf737U, 0x3d8138c0eb12dce7U, 0xc6245ef797789cd2U,
  0x41ff9ff2f33435eeU, 0xb9588f4eefc620afU, 0x10aab19e38523fedU, 0x43afd97f63a18904U,
  0xd9173c79a7bf5af7U, 0x901ca1ac7dc7554fU, 0x192bbd8748c3192bU, 0xfe6bacb5cf3746c9U,
  0xb564eb0242c5cd14U, 0xf425ab64700828ceU, 0xf7c195951480a49U, 0xada294dd2542ff44U,
  0x5c724bd1a33fc767U, 0x6ee91992e18a8ef7U, 0x4898a549e1f066ebU, 0x5b7bf8719ad29a62U,
  0xe61ec296db5f628eU, 0x3b2d03b9d2c11e06U, 0x67b5903652f6fa20U, 0xc14e1953668860f5U,
  0x2ef28a51af41e409U, 0x4c094f5a029a8b70U, 0x73f6e6733ecdf0d6U, 0x3fd33998d72eae8bU,
  0x311d85c91d247875U, 0x3fd88ebc5c00ac35U, 0xd926629ba5778db2U, 0x4f4483f63b578774U,
  0x378de17488ad549bU, 0x6ae1711800a4549dU, 0x10c902011b4966cU, 0x4e59dc13b610520cU,
  0x365ccd3f5303f1b7U, 0x7ac57c8c58eab7acU, 0x56db0c5f016fe18aU, 0x10e6e28c0eb35fc7U,
  0x69b6da530163946eU, 0x3a1a414ee3161d34U, 0x891446bd8798ca59U, 0xfb1266ca14d134f3U,
  0x65b05baa8883b74fU, 0x88f4056e8ecbc944U, 0x6802214affd87c1bU, 0x8af5056a5b790e4U,
  0xfddb7136e93762f3U, 0xd5c59198448263a5U, 0x262802b2abb4a67dU, 0x835cae72215aeb0eU,
  0x1a4f00d4adcd5217U, 0x53988faad8923f2aU, 0x6f90bab8e6a11b37U, 0x40292d593a2b42aeU,
  0x9199150500c946d4U, 0x5fe6301aa3f44765U, 0xebc52181a90e6ad5U, 0x78edd6d702c9289bU,
  0xd8098c7c05ae9be1U, 0x8a3a16a63bc494a9U, 0x2ccc2f6cd310b912U, 0xd309e9752005da4fU,
  0x79cdae091aa9436U, 0xd1e1c423db176ff6U, 0x5a84d474a788141U, 0xf1574e9bac44ac3aU,
  0x95ffcdf627d07371U, 0x2fcfb6ef29f9ad61U, 0x417538cf47c82e01U, 0x3c5cccc3ce048da6U,
  0x27f28484eacb06a0U, 0xf98179e517c16de9U, 0xf329f97c4d2fd4e0U, 0x94f2f850b3c088f3U,
  0xe4016e5929682933U, 0x21b8a7f002d35d77U, 0x78020dcb0c7c47faU, 0xee814396eb2b8b5dU,
  0xd8f68272a19251e0U, 0x971cc6e0a9130c75U, 0xda6dc66a065a0fc9U, 0xbbec60fc3609bd5fU,
  0xcd200b1a8f77e7baU, 0x85bd47f34b679e5cU, 0x3d981093fae909U, 0x87a51236e6f05522U,
  0x891a63b5794a27b2U, 0xc1458c361bd146fdU, 0x36ee1e74b19b2260U, 0x9fb4677cd9f21b4cU,
  0x3ac94f45b1389177U, 0xe1548fd57fe402ceU, 0xfc60dd60fc0f738bU, 0x9aaaad2a0363ea4eU,
  0x7bf97bf7b94c1e74U, 0x22db5ab14d76676cU, 0xaa9f3e867f12a5cbU, 0x6a508bfcf1d2311fU,
  0xb03b7a1bd0285ccbU, 0xc2e930aa143cb72U, 0xb46912cccd2ef3ceU, 0x41aad51fbeba7973U,
  0x775a63e9420ec07aU, 0xfc0868b6c086156U, 0x5421139bff14110eU, 0x3e04925b694d2641U,
  0x34e3522bab3c7e92U, 0xcf27515bfcece5U, 0xa893837edfc638e3U, 0xa5da83a9d3cdc432U,
  0x2369527c0b709c81U, 0xbd5c5fd798ac750U, 0x25cb37db7abe721aU, 0xaea8a598a472284dU,
  0xe7b7e94014571dcfU, 0x7e84976bdc43f1f7U, 0xb6371be175b083abU, 0xaabef38cd075fb20U,
  0xe62517aefab901c3U, 0xa3b122edd1c29928U, 0xe6abf80a33baf2d4U, 0x22022ffd974650abU,
  0x45b93cb9d80ac04bU, 0xb6fb662a116934c0U, 0x54e51d603e458e73U, 0x551c3c290eda4333U,
  0xc00b1755fa496d5cU, 0xa74e2f079308fbe3U, 0x32372759c086f98cU, 0x83317ce671edaa52U,
  0x244cc38718ce60e6U, 0xa301c3535379099fU, 0x6626cbd1f1ba1301U, 0x45827a2a8a9afe0cU,
  0xcf529490bd1fbbc7U, 0xaeaed1425a1e0815U, 0x361d13224a8ee4e0U, 0xf1b59f4919537cb8U,
  0x10cdfb29f32897f7U, 0x9102f3593cd74cf0U, 0x503ac5b54efff7b0U, 0xf2d4398cda68b1dcU,
  0xbe6e35d9515bfc8aU, 0x92f56f894e04eb49U, 0x74e6bd4939061405U, 0xe1662025b6a4c640U,
  0xe3918d1cb9c04d2eU, 0x18d04d38856239b8U, 0x97b983a0bf8f7d04U, 0x4ca7da3c2ec4553U,
  0xa4f8ddf5bd0c31b2U, 0xe81d519a9b6c8f20U, 0x3fad153428842293U, 0x4da929c73ef7ee2U,
  0x4e8fee1ef718f885U, 0x76ac7302e1777fefU, 0x795773fe430f8c71U, 0x475cb0e4ac1a90deU,
  0x33bb82f6d450903bU, 0x6288444e9cb92f65U, 0x6e14cdcff0b4a3d3U, 0xea15b512e5bd609cU,
  0x2ed228749e2aedaeU, 0xf3efa7e2d9eab1e9U, 0xe3473db6a436f8e4U, 0xc18641f5128c5808U,
  0x59b3721bc1f448d8U, 0xfa4d6a7b97a2b18bU, 0x4436b356f3300ad9U, 0xa9cb25ca8f3c4addU,
  0x3f6d1ff2edf1d162U, 0xc1270e2e90305256U, 0x45c342ae25a7039dU, 0x1ad5292175b0529U,
  0xacde10978fac3055U, 0x68b52c84d0c070c0U, 0x525a8a473398f807U, 0xf19d390bf82bd492U,
  0xac0e8ba466293e2eU, 0xa9c73b9d01c1e3f9U, 0xce718bc11ffddc5cU, 0x7e106bec36d414f7U,
  0xf4fffaab44bac276U, 0xad6e9778bb9acc7cU, 0xb0efc1be19ae0944U, 0x32152947d32d0d79U,
  0xeaab72cb7ca65c24U, 0xab10d09da46b28e5U, 0xd0228f154ce73eabU, 0xfaf659295486f98cU,
  0xff0eefc77cd5579aU, 0xf17b03866e9e94f0U, 0x5c0e4213d81fc4a5U, 0xbd057f46ccff3758U,
  0x7a680e7d911bf25eU, 0x937abe584d810b56U, 0xf728a3d0cd3591b1U, 0xc1c003b9622d5884U,
  0xea5dcfc99ed0b386U, 0x2b82f8ec7902fb52U, 0x5ea57bb76a963e79U, 0xe6abab9950e8d756U,
  0x54b81b7ac9d5b621U, 0x8dfd6a7e4b77b481U, 0xdb4b28e966171f7U, 0x3b454a049a176eaU,
  0x12d9c85dbea96d24U, 0x2b5a76ad51fe94d8U, 0x8e4f75e4b9aea46bU, 0x5b6a02e13b2d639cU,
  0x8566d8b603573421U, 0x2ddf24d845a49a92U, 0xa748aeb210ad864cU, 0xee1c6e7bf94ee191U,
  0x9a18751f5bbe4d1aU, 0xd0a79201cd18f422U, 0x1f49b149175ef64fU, 0x5dc28b841cb0adbU,
  0x7b931a735b8db957U, 0x335a8c16ebf84949U, 0x57ecafa9eb278958U, 0x5564faf9d33c8efeU,
  0x1783d568835fae06U, 0xa2b975f9d02b7294U, 0x2f01c69df4515947U, 0x7a253f52c86b0167U,
  0x1bfbd8fe5e623db3U, 0x34f8c3e3ed0238fcU, 0x6bbbf2a0fdccd8c9U, 0xecbf4fec86e85efeU,
  0x57e90baaacbd00bU, 0x56bc6c3b8b039534U, 0x557a8ab34f841812U, 0x30019f26af67b3eaU,
  0xbccc21f9839c2ba8U, 0xc09ce28c896af92dU, 0xef14d8ccf4434363U, 0x53ee110bab6d9e47U,
  0xdb9a89b4ee023c66U, 0x1692a8c5427040e7U, 0xe0dfcdfd5df2947aU, 0x19b5ee6357333925U,
  0x9010a21610b1bdf4U, 0x4b70787847ea1f58U, 0x4fd58207da02efbaU, 0xfa51ca0fbaa24c12U,
  0x39fcd0b29cdb03fcU, 0x5728c40c4e8ef6f8U, 0x6b08690313fb070cU, 0x7a38e86b709e2b4cU,
  0xcdb7306199b3e039U, 0xa08d89a8b6da1b6eU, 0xf4927d940ab419aU, 0x816d37735546c90cU,
  0xacb36e62765e6642U, 0x7dfffcacdda6ad61U, 0x92c78cd77621036eU, 0x89181ea21a206998U,
  0xb1835fde49250d3aU, 0xec1f7c19b0c5b99fU, 0xe912e3e2061f6962U, 0xfa7d0b20f0533ed0U,
  0x1b70ca2c767e642U, 0xf57a798679ba25dU, 0xb0bc3c29a4636340U, 0x3f2ee311701a14U,
  0x645507307555a3b6U, 0x89d0e78d0dab8394U, 0x2bfbc7f2a5c6c92cU, 0xc84053855d02a87eU,
  0x338c6b42254444faU, 0xe085cc2f265143aeU, 0xca1fc3419994e443U, 0x2e9a8b22b383928dU,
  0x5fe0bb49679f89aU, 0x187b1909c848af0U, 0xd1a01d20ad79f2f9U, 0x52368dbeb86a4c52U,
  0xa62e6a4eb1f19e4U, 0x78a55d40b8f4f61U, 0xb1ef380cde8a9a39U, 0x62e1f1c59d8d474fU,
  0x6ac2ee9b080e605cU, 0x240a7041457d566eU, 0xdde6af6df46818a8U, 0x8dd24db2023b2119U,
  0x547ab189000d4b1bU, 0x25932f9dd747d2dbU, 0x9254485c589bd654U, 0xa46954f3b5315bfaU,
  0xdec09902d3647091U, 0xe3486a31d37fef0U, 0x77d31cf4b1d9dd38U, 0x5519c470837e8ea8U,
  0x6429d53f98d1d9efU, 0x7cadf6bff7f481fbU, 0xe4b23fd49ae7c93cU, 0x23aa69291979731eU,
  0x9d1ba31b5361180dU, 0xf6b0e35aaf8b24caU, 0x3f495bbd5fc814afU, 0x70dac45d13e1f7f6U,
  0x28fe0d8e2fb4ba64U, 0xd05e7160be129cbdU, 0xf7244b966b9db42eU, 0x4e84533ae3064a57U,
  0xbd23ff257193025dU, 0xb44dfa40e2f7953fU, 0xe7fcd157029bc626U, 0xc2c7d60a00eec745U,
  0x3f87c0efa7ee979bU, 0xbaee1606e83d5eb3U, 0x616b4eb61c482c1dU, 0xdbbf4ccb7bc91a7fU,
  0xa723f398539ca608U, 0xf4ae5ba52a9e5e4eU, 0xf1eec13dd8c774a2U, 0x3556e2fb69f72052U,
  0x40559e083eb7030dU, 0x794f39079b71a319U, 0xc40601f4bd46c891U, 0x2fa58e71b33487d7U,
  0x8c475fc9473abc2cU, 0x913ed6c7de2f3b11U, 0xbf2af87b4b8e5a16U, 0x82b1bd1149aedc96U,
  0x5f3668e71f4df75eU, 0xfce269713f2946e8U, 0x1c12aacd78d1cfa5U, 0xab5cb44833e82f88U,
  0x302c1aec5977ddbdU, 0xc93772f86d6dd88cU, 0x6a5ab77d20f26e0aU, 0xf98a2ba5760fd12eU,
  0xba5028bbcf295184U, 0x3731c0e9a2048c69U, 0x4cac467e5521aeffU, 0xcd4b2ead54713687U,
  0x6daf067b0bf144ffU, 0x18923487d2ea72f5U, 0xf4c140ab7dcbb2adU, 0xb855f7b347032d93U,
  0x2333d00004322U, 0xaf7900000c90U, 0xfffe9f710001d3f6U, 0x1a5a1ffffff59U,
  0xffff520f00021fd0U, 0x1507bffffe4e8U, 0xfffeb605ffff7463U, 0x26c6c0000b269U,
  0x5a7400018b77U, 0x105eb0001cec1U, 0xffff1f260000ea28U, 0x226c200027461U,
  0xfffdcdd50000936bU, 0x251ca0000b3fcU, 0x204e700027bffU, 0xffff22010001e977U,
  0xad88137c166c2eb4U, 0xe916b616071258e9U, 0xc60fd9a73e6a2585U, 0xbfcb8496e18b7d36U,
  0x9045e36733dc1eefU, 0x7743c50b0a86f7e3U, 0x40feba3c2f889290U, 0xceff23ffc662afffU,
  0xff37f188695c1de8U, 0x325b613d8d1cbc8U, 0x85693cb989403b4fU, 0x6e62eb4a2737c24cU,
  0xba848c653f598b3fU, 0xfa3ad5230f73490cU, 0xb4046e0a5806c36dU, 0x9ad7427f07a2c0a8U,
  0x4abaaede51af4476U, 0x6a1a35355fab157dU, 0x2755e330ffc12882U, 0xe6309177717e7683U,
  0x87f0997d39b6bc69U, 0x343c757353aa33c5U, 0x40b939fb1c020839U, 0xa68a22a8982759U,
  0xf97f9d21e2e2b772U, 0x620481ced383637eU, 0xd6437a3aa035e2b6U, 0x151f1f9e8133b4ccU,
  0xc2c143cf519f161eU, 0xab004ba2e1e3af99U, 0x69faedfff13a6bb2U, 0x744a390ac3be0effU,
  0x6dbb02f3dbc50ddU, 0x49ecff67331b1ae0U, 0x7fe6a4e10a48d63bU, 0xece9f03c8972a32dU,
  0xf43ffef8e3086323U, 0x13f0024aebe6b599U, 0xeab2794546e16c34U, 0xa363eb2f62c2a7c9U,
  0x4a5c73c93719faa5U, 0x24d0c1e1e6923aedU, 0xe63cb07ade025d8fU, 0x3b855bb6bec4168aU,
  0x29c0b828cb97bc4eU, 0x1a2e7a6c677cabc0U, 0x6733c5518a92e415U, 0xc09364bac6b211dbU,
  0xafc3f647a73f6af7U, 0xb42a1ee10185603U, 0x65b84aaa0742e570U, 0x2924c873f36cd27aU,
  0xbf7c285f674466e1U, 0xd9be249f76eeff83U, 0x128697914f08915dU, 0xf34ee57055b161e7U,
  0x421808212233317dU, 0xe8daf6ffd5e321a5U, 0x6b354c1152ffdcdU, 0x42168e60e2e320bU,
  0xde464c8bab7b58U, 0xe5956649c67b9e0eU, 0x9ad7a3fd427ae910U, 0xd434cd525c6fe589U,
  0x15822fffd78bfU, 0xffffd16d0002f526U, 0xffffdd7afffdd328U, 0xf54ffffef31dU,
  0x1b4ce0002d1c2U, 0xffff3532fffcd9f2U, 0x100b500009aeeU, 0x3394ffffebad8U,
  0x2dee7078a194dc43U, 0x44444e33c3d172d9U, 0x9c3b9cedd2d3e44fU, 0x9682bb4c196414afU,
  0xfefa449d77543d50U, 0xf34ae00938585e3aU, 0x5bdd6ff55c423d89U, 0xb147c9f470e4275eU,
  0x52ee52f6f512a07eU, 0x72aea532f88ec081U, 0x1a67d2949713d4b8U, 0xc5b82519992a1d11U,
  0xf4741db2b3a62c04U, 0xce7e1b23e4dfbda4U, 0xa8513eda25f2ef8dU, 0x6914fe5d5b528905U,
  0x5dad090c9e75a015U, 0x56422092f548eb88U, 0xf2dc0631d311bed5U, 0x308a8ba79ec679dfU,
  0x246d84d7df96a7b1U, 0x15e70e2d6c5f0034U, 0xf09c87c221291d74U, 0x96b7ee7d5cec3da9U,
  0xd47aafdc58e61df4U, 0x96d7511b1e712dbdU, 0xebd2e3882b7721d0U, 0xcdd46f7932f1d8a5U,
  0xa548f741698c4c86U, 0x9db9ce26c405d9e8U, 0xcfb694f48f9fc22U, 0xde8d03abe03e306eU,
  0x3a9aa7e574d6b699U, 0x7cc2bea8d904dbd6U, 0xf1ab634f2ec8b1d4U, 0x71fdcff771762c4bU,
  0xd3ecc03857cfe261U, 0x8e47f54cf0f89f09U, 0x6659069bc56918e7U, 0x2d4d921fd18c6de3U,
  0x60dd9c34a167887bU, 0x4324f4ff2a8bf96cU, 0x6f9b61bb02e0a633U, 0x5ab084db59a21e8dU,
  0xd1fe0d331c1f848fU, 0x4d055395ce7bbc3U, 0x72f6ebe2bdb57152U, 0xcb3719091007da0eU,
  0x5716aad0230ba45dU, 0xfb770547c240eb65U, 0x49b094bb5382fa1aU, 0x7716769743afdd01U,
  0x6e3758239d113f2dU, 0xa02bd2d6798f5f37U, 0x700e6ba6e1f78354U, 0xfee5677eaa6bf003U,
  0x41ae1faa8f1b303U, 0x835001486f7ae704U, 0x8df914f805ed138aU, 0x5dcc725629b2c99aU,
  0x2913e8f91e62a40dU, 0x64caa6ead2e33854U, 0x515bb99f4db53b12U, 0xf75203477ab47265U,
  0x9dc3fd3a7563366bU, 0x3e76f7ef3ca913ceU, 0x9a61626c81e7199dU, 0xe49bcd5deb281b03U,
  0x32bd0f768fb61bcdU, 0x30efe7d59c45152fU, 0x17c919ad5034d7U, 0xda1d6ef4b006e785U,
  0x15feb013f966bb55U, 0x6284c3ecf7ee864dU, 0xe3878bb5ea9fd652U, 0x67de7b68997540acU,
  0x514119c248c437b3U, 0xbb6dbb3b91cd7c5cU, 0xc0c9f8822948d8d5U, 0xad2890f4ba4070ecU,
  0x284bc26a8bb79287U, 0xfd0f677310445898U, 0xdbe6f94d91978dacU, 0x38191247aa5e016dU,
  0xf58a31b67a2b1f19U, 0xdf0791589427b829U, 0x27b177fbf41fe4fU, 0x8247182942bd0b5dU,
  0xd8084aac48b6e32bU, 0xe04bee6666bb90c2U, 0xae899d2eac8be9bcU, 0x748669e9ea3b60faU,
  0xc4e842c2c1732f99U, 0xec54d5a4c2f44393U, 0xb091d3ce42ff1957U, 0x5c0c8282f2086d6fU,
  0x8a98568463d9a771U, 0x6ba1ccbec0f93e10U, 0x7f1f8269c06d87c6U, 0x5898a271a6494561U,
  0x2ca0725bdb35cceaU, 0xb291ede97756f3d1U, 0xb745d1318f1c9295U, 0x8f121110b31a2095U,
  0x6e730e0c110a2b9fU, 0xdc312e0f828de890U, 0x3d666a841dfaa6fcU, 0x7913678d8f7dac39U,
  0x6aebb944711f8c40U, 0x619cea8522984053U, 0x5931c522bf1c74a2U, 0xdc3115c710aa10aeU,
  0x6eea9891a87c877aU, 0xd93f46b356a03d73U, 0x281d21b4fea4d667U, 0x249f941bdec8ffa2U,
  0x22642b2b72e1fea6U, 0x4585f2ca1c40ff58U, 0x8a682baaad3fda5cU, 0x28ab6dfe3374fe78U,
  0x86a28fb9a8b957a7U, 0xb533818c0f5dbfc2U, 0x9ff68cec44f7dff2U, 0xbf6e3501baa3d71aU,
  0x949c32ef0ea5d8b8U, 0xb3b469f12b138744U, 0xc3e8659b5bfa3ddaU, 0x8d3da96d7607ba14U,
