/**
  ******************************************************************************
  * @file    network_data_params.c
  * @author  AST Embedded Analytics Research Platform
  * @date    Tue Feb 18 16:49:42 2025
  * @brief   AI Tool Automatic Code Generator for Embedded NN computing
  ******************************************************************************
  * Copyright (c) 2025 STMicroelectronics.
  * All rights reserved.
  *
  * This software is licensed under terms that can be found in the LICENSE file
  * in the root directory of this software component.
  * If no LICENSE file comes with this software, it is provided AS-IS.
  ******************************************************************************
  */

#include "network_data_params.h"


/**  Activations Section  ****************************************************/
ai_handle g_network_activations_table[1 + 2] = {
  AI_HANDLE_PTR(AI_MAGIC_MARKER),
  AI_HANDLE_PTR(NULL),
  AI_HANDLE_PTR(AI_MAGIC_MARKER),
};




/**  Weights Section  ********************************************************/
AI_ALIGNED(32)
const ai_u64 s_network_weights_array_u64[48334] = {
  0xffff254300000bc2U, 0x186f0003a21bU, 0xfffe70e900026f30U, 0xfffe65d500025840U,
  0xfffe7fcdffffbc60U, 0x1cdd100037e21U, 0xffff5d720001dc97U, 0xfffc1adf00037075U,
  0x494bb00051567U, 0xfffc8acf00012b7cU, 0xfffb360afffae5bbU, 0x227c10004b9f1U,
  0xbed7fffbe0d2U, 0xfffba19b0004e3aaU, 0xfffe4d7f00043e6dU, 0xfffe5f5f00028d42U,
  0x375bbfffe7fd5U, 0xfffd43f700048cfaU, 0x18abaffff6d78U, 0xfffc379e00045b0fU,
  0xfffae6cf0000870eU, 0xfffbe2f1fffbce0aU, 0x42f9100040250U, 0x15893fffc27a6U,
  0x4f6d80003b973U, 0xfffc51c6ffffdbd4U, 0x2d64dfffb457eU, 0xfffd33e0000365bfU,
  0x356d1000416fdU, 0xfffbfb86fffca86bU, 0xfffc0a34000356e0U, 0x49aab000130cbU,
  0xfffbd8d6fffc4ae4U, 0xffff9ac200032ff4U, 0xfffd05f90001d92bU, 0xfffbca50fffba07bU,
  0xfffd771900041f80U, 0xffff6591fffb3275U, 0xfffe741f0003e12dU, 0x302730000bf28U,
  0x158effffde4aeU, 0x256570001c3f8U, 0xfffb1250ffffc7beU, 0xfffd0f2e00007eb2U,
  0xfffc499ffffd9019U, 0x335ff000166cdU, 0xfffaea91fffde242U, 0x38e6bfffca83bU,
  0x3035dfffe3568U, 0x25552ffff10e0U, 0xfffeab260002d8efU, 0x3a91b0000c993U,
  0x49cfd0001ee06U, 0x42767fffe52ddU, 0x1acb00042facU, 0xfffed0cf00035aebU,
  0x101b4ffffae71U, 0xfffe6d59ffff0341U, 0xfffc2fc4fffcfc87U, 0xfffdf72e000210d1U,
  0xfffb377b0000a19cU, 0xfffeaa8c0000eeb0U, 0xfffc69aeffffcdb0U, 0x107a9fffef379U,
  0xfffe82adfffb85eaU, 0x4dcaffffafa24U, 0x405f800011a5eU, 0xfffd37ac0000ef1bU,
  0x51fbb00005560U, 0xfffba01400004a7dU, 0xffffa85a00033ea4U, 0x326b0002227eU,
  0x29bf8fffdc50bU, 0xfffd771500053e2fU, 0xfffc75fbfffbce75U, 0x521fb0004ab73U,
  0xfffd78ea00050cacU, 0xfffc788efffb621dU, 0x497b5fffff681U, 0x17d4900052095U,
  0x30445ffff0492U, 0x28be5000395efU, 0x13161000419d6U, 0xfffeef6300029c36U,
  0x1d5b000022c06U, 0x34562fffed0acU, 0x2c995fffce03dU, 0x39cbd0002503dU,
  0xfffd8a0effff939fU, 0xca050000bd2eU, 0xfffe34e800046a1aU, 0xfffcbf0000049545U,
  0xfffc398500022015U, 0xffffb8460000aa9cU, 0xfffeb0bafffb616dU, 0x28d98fffaff2dU,
  0xfffd260cfffde424U, 0xfffdc01f0001d540U, 0x384b00002b6a6U, 0x2e69cfffde4ceU,
  0x1c32efffb3535U, 0x30a6200004e2dU, 0x2c16b0001d9ddU, 0xfffb048500025ea8U,
  0xffff4eb0ffff39a9U, 0xfffc7178fffdfee3U, 0x4941a00022037U, 0xfffd18f7ffff57aeU,
  0x4d401fffd99e1U, 0x48d0f00020c54U, 0xffffdd40ffff33d0U, 0x175cafffec5c9U,
  0xfffb8854fffaefedU, 0x2dc950002f006U, 0xfffda6aaffffeec6U, 0x15b630004fa15U,
  0xfffae82affffd579U, 0xfffc1bf000048a60U, 0xfffd1dfc0000112eU, 0xfffdd844fffde7dfU,
  0xfffb4c6400024ff3U, 0xffffd0affffbb27fU, 0xfffb7d6e00038db7U, 0xfffb8ea40004dcf8U,
  0xfffdb9e20000110aU, 0xfffc494dfffd5d4dU, 0xffff8071fffeb550U, 0x926dfffeaa06U,
  0xfffff04e0000c984U, 0x48928ffff4b13U, 0x194a8fffdcb85U, 0xfffd02780004f03fU,
  0xfffd6a910001b208U, 0xfffbe7af0001c451U, 0x2e9190002f2f0U, 0x2322c00035e46U,
  0xffff64a1fffc04beU, 0x5c0dfffb1943U, 0xfffc9eebfffe1563U, 0xfffce68d0000ff6dU,
  0x312ffffb6e9dU, 0xfffee8e00002c2a9U, 0xfffee392fffc63f2U, 0xffffb5d7fffe1740U,
  0xfffc3cdb00017357U, 0xfffef9dd000140c6U, 0xfffe4fcafffd29dcU, 0x226a900053852U,
  0xf1cbffff198aU, 0xffffd663ffffe913U, 0xffff620ffffd334bU, 0x4b3aafffc64caU,
  0xfffada910001632cU, 0x1a43cffff6efdU, 0x2d852fffc0dd5U, 0x317d2fffd41a6U,
  0x1bcb5fffaf549U, 0xfffc8eb10004efe4U, 0xbea0000246d9U, 0x816a0001404cU,
  0xfffaec59000110d9U, 0xfffeec17fffdc1dcU, 0xfffbd41d00016412U, 0xfffff8730001a499U,
  0x474200001abe2U, 0x2eacdfffefed8U, 0xfffc1c6bfffe9272U, 0xfffcb43100011a4cU,
  0x3a895fffd97adU, 0xfffe95f2fffb5ae3U, 0xfffe42d1fffc2ab0U, 0xfffcac2f000132c7U,
  0x472cefffd35daU, 0xfffccc770002ce8dU, 0x33ccafffcf026U, 0x35080fffd6a52U,
  0xfffc8c250004b91dU, 0xfffb7a53fffdeb58U, 0xffff1245fffb21c0U, 0x1352cfffd52b3U,
  0x1a9c6fffdbc9fU, 0x116400025a7dU, 0x15d60ffffb666U, 0xd53f00048b41U,
  0xfffb869900051f83U, 0xfffda31effff111bU, 0x2a8e00042991U, 0x3caa4fffd981aU,
  0xfffd157bfffd1931U, 0x2a0620002c39cU, 0xfffda5a8000473b3U, 0x3a43300038697U,
  0xfffbf9150003b665U, 0xfffb720400051b50U, 0x219860001bfdeU, 0xd5f1fffd0ff4U,
  0x4499500049d10U, 0xfffc431d00001b27U, 0x34fc2fffbd99cU, 0x2a754000346c7U,
  0xfffe8977fffed819U, 0xfffbbe260003a1c4U, 0xfffe699400003f37U, 0xfffea5c2fffee56bU,
  0xfffebd5800039670U, 0x286ca0001af39U, 0xfffe6980fffb4bc9U, 0xfffba895fffdfc5bU,
  0xfdbcfffff37bU, 0x183fd0003dc0fU, 0xfffe5ff100025d83U, 0xffffb6c7000084dcU,
  0xfffeb8bd000191ccU, 0xfffb7f650004d2cfU, 0x4760f00044567U, 0x367e2fffb3a35U,
  0x3c690000f520U, 0x56db0004cc00U, 0xfffcaaf9ffff4ee3U, 0x4f3abffff6db7U,
  0xffffe10b0002bc42U, 0xf10fffd081cU, 0xb24afffd8be6U, 0x2302b00013089U,
  0x33de7000330afU, 0x1ff03fffb217cU, 0x43fb80002e40eU, 0x32c8800005b36U,
  0xfffeb9e4fffe1210U, 0xfffd193affff1db3U, 0x4ddc6fffbccf8U, 0xfffdf87200032ce4U,
  0x4542afffed0beU, 0x33b760003a580U, 0xfffe582c0003ef4dU, 0xffff3488fffd781fU,
  0x5292d0001e597U, 0x3bd73ffff375aU, 0x14b68000244c1U, 0xfffd345d000035d7U,
  0xffff89090003fc04U, 0xfffb87970003b381U, 0x3f9e1fffd3318U, 0xfffbb7ee0001593cU,
  0x3dc460001f949U, 0xffff107dfffd2096U, 0xfffcfee00004be35U, 0xfffb2f3e000505e1U,
  0x38695ffffccc2U, 0xfffb47780000b5f4U, 0xfffd21ce0003b453U, 0xfffd90fafffb2e17U,
  0xffff576e00040dddU, 0xfffd5a44fffbd499U, 0x10a5dffff6d4cU, 0xfffe696100052d7dU,
  0xe6e81791be686afaU, 0xbecfe0cefb28570eU, 0x883a6bfe0f34b298U, 0xecf4b3d01fd08455U,
  0xc67041ea2615add5U, 0xfc12c1159ea5c4b8U, 0x67454e022eb26875U, 0x4c6ba97d55bd9210U,
  0x9dca72ce8d66bedaU, 0xc8417a3ebfeff6eeU, 0xd30c3c074b279611U, 0xecfe6df80201b525U,
  0x88eb296a733ea3deU, 0x36ad750690438cafU, 0x5c8b2f676e9c4429U, 0xcc8942fbb45f32fdU,
  0xb657696037322a06U, 0x2e10f765b127cfdbU, 0xd1ad65412edc9061U, 0x3a580957f7b57c31U,
  0x5ced08964774919eU, 0xc5f66803eccc5efcU, 0x638d5b174d253bfU, 0xf406da3499deda10U,
  0x879a5ffb8939b408U, 0x8475fb9e0e9fc032U, 0xb1a60bc230bc1de1U, 0xcfb61303e53ee6d4U,
  0xc98d5ea70fa4c142U, 0xf4a5aaeec351fc5bU, 0x1e3ea39da105561fU, 0x12e5c355528d3e39U,
  0xa1529befa7556a7U, 0xbb8d00354747ae26U, 0x790b64e308f4ae38U, 0x10a8e8112bf20d15U,
  0x89b6d5ec4c38d626U, 0x9342f59c672b0c88U, 0xafde9c47180669e7U, 0xc0ea895b56a519c2U,
  0x9e57f7605dacaca4U, 0x4f70b725d42f6c3U, 0x9c7c9e2ef2f50659U, 0xcbcdcdabd02e4a5aU,
  0xaec865686affe1bcU, 0xcc51ab23ce229de2U, 0x12ec3d13029b369dU, 0xc3943772a2e1ea8cU,
  0x362eea5363247c7U, 0xfc3ba3f0dd0d9f7bU, 0xc450d9dbd914de85U, 0x73bbd9dfebfcf87U,
  0x5ae6898ec8e7612aU, 0xbde87daa4fbcc61aU, 0x64b2f4745fbdf07aU, 0x2e44fca54dcc165cU,
  0x2c5ecdf39bdf55caU, 0x5bcf2da122ac12c3U, 0x2c6871e7e0744760U, 0xb106f7ee0c2fff14U,
  0x723e4a3625fe25d1U, 0x39f9cf6c55421e0aU, 0xf1c7e53b44d09defU, 0x37170df8286989e7U,
  0x37efe71171d8885dU, 0x937c337c5949edebU, 0x1b4977d4adff900bU, 0xc304a100264bad85U,
  0xae68593408e7b592U, 0xe7693429a19ac167U, 0xa80b83ec50dcdbacU, 0x3d744f35b35880eU,
  0x722e75a1fb0c0a5bU, 0xa1fe8589dd36f6c1U, 0x8956e91d3751fd92U, 0xa9ea0cf62d1c896fU,
  0xe02539d42ee0c09dU, 0xf7790378b76f8ad0U, 0x9ce49894a129b5ccU, 0x38258cc1598789ceU,
  0x12159cbed5aa44c7U, 0xa3e06a125752018bU, 0x1ca4ff94969e2c37U, 0x629095777b4357c1U,
  0x8b6039ca70acbd84U, 0xb5693b63963a01e1U, 0x79c4d96ef47716eU, 0xda4a68952d2aff95U,
  0xedb03feb4c714576U, 0x20a2701f461e8e23U, 0x79a3bb543e40341eU, 0xc6c79b25262e11d4U,
  0xcaf097f331bef95eU, 0x124e4c0f4e78b6f8U, 0x78cbd890fe86fdb2U, 0x4aafe1e628fe9d4dU,
  0x68a8a4c8d16b3db1U, 0x207275ec85306622U, 0x3770399784f19eaU, 0x38c01f1310327150U,
  0xc06ce3e5defdf99eU, 0xa56c5f8b9a323ff8U, 0x5b87a1c77a60c24bU, 0x44fa78d72750f89U,
  0xe97b1b2b5f8f3752U, 0x19d61c6a951cb3e7U, 0x663ebaad0cad3b32U, 0x7ced6e5b1c0f1112U,
  0xfbaa8db714c6485aU, 0xea0ce5c08821b44fU, 0x7ce4f01ae735cd0bU, 0x9688e44f53c459baU,
  0xb6c15aae74e033c3U, 0x6091b59d2165e1ebU, 0xca0fd797d81e9843U, 0x1609e8e6c28662e9U,
  0xf4127c89ddae74ecU, 0x8a5f9d6ddc40bc8cU, 0x7cebf270b162f4b9U, 0xd7a22bea0a7ac7deU,
  0xc9b4750913d5c3ccU, 0x881e0669d439d539U, 0xeb26115a5a677c37U, 0x49bc3b0022d33acU,
  0x10234f2630c0c836U, 0xfa5ec7bed72af7daU, 0xa88c7ce4162b3e06U, 0x18f48f20188af1ebU,
  0x6f344e5b03d35c0aU, 0x66cbf3996039da50U, 0x292725aa98f8e161U, 0x2af0b55554778759U,
  0x710e5561042605d0U, 0xd2b386c4dde1857bU, 0xf7d64d5e1c4db9f9U, 0xebac0157bd918b65U,
  0x4753fab2f33041a3U, 0x1ac0d33a50f149bcU, 0x513f43b9608901fcU, 0xe95a665fdae3c651U,
  0x3a76a4bc8328cf02U, 0x25eb1b1fcf62fcf9U, 0xe56bf03a70149507U, 0xaca38b0ef3b88e96U,
  0x1338aa5b6c9b45b1U, 0x36008e0350982264U, 0x3b8e3df3b24fae46U, 0x27906086acda6730U,
  0xc67558bfc22af049U, 0xccd88b72fe2cf58bU, 0x47aad38db38c324dU, 0xde482c572ed20eeeU,
  0xd73bd328f9191b08U, 0x7303920f4b5e034bU, 0x889bd390791e731dU, 0x504ca1595ca7709cU,
  0x72bfd0d2c5981e77U, 0x1a323b33f05527e8U, 0xb0bd639db5536684U, 0x5ceb6babf9b6a2b2U,
  0xa52f5de34669e41eU, 0x6c9ec4a5ca89aa77U, 0x25063c89a10e0ad9U, 0x83f58990f038654U,
  0x3be01728421714b2U, 0x525e99236b0ade1bU, 0xffdbc689e7988c62U, 0x68429457595f6645U,
  0xe3aacb70c18af104U, 0x50f641be87547865U, 0xd3a0482d8efd0376U, 0xa04f8df62c2f8aa2U,
  0x9d51a569dfe031efU, 0xa47628e010eb3556U, 0x41350a70ee2cecc6U, 0xf2cf397c091cfeeU,
  0x1ff519e375b10e46U, 0xaa2614b9387a4c2cU, 0x311d67c578a63f8cU, 0xe16fa3f439294565U,
  0xd41804cc3dafcc21U, 0xfe30b23c02458eb6U, 0xa0edec94e800eae0U, 0x759adac642d86a49U,
  0x212d5510109f6fe6U, 0xedd4fc61e39f0f98U, 0x3ab3a3a0721b8f69U, 0x5164f35e3c9161cfU,
  0x865003c35ee154b6U, 0xd6f590a964e3abd1U, 0x2e120687ec76a957U, 0xf9ff21e82647bc1eU,
  0xa17fc5c86ae5239U, 0x6e2defd1ed786e47U, 0x467adfec93b89af9U, 0x4ea16c18eda20c38U,
  0xc276c268ca632c59U, 0xb1310a018baea791U, 0xbae991a353d854e9U, 0x3b8f92f39ba012aaU,
  0x72dac133681dcad8U, 0xecb495966414c63fU, 0xc693644a5f95696U, 0xe67a08d72fffdce4U,
  0x5bf9062b8b7a7050U, 0x89d3a53e99f270c5U, 0x295509a543fc4e7bU, 0x7dd5c554731ef736U,
  0xa239b1b830d98a69U, 0x16bccf96d7932566U, 0x370cef35db6e858bU, 0xf488ff2dbe17742bU,
  0x48036009d9262684U, 0x901a57b060cec447U, 0x3ef2fdf0f38aa54fU, 0xa8602e918f2784cdU,
  0x31c75fb4adb063c3U, 0xe3a32f947b1e697cU, 0x3f59d4adfd37d913U, 0x54601e0b148be0fbU,
  0x16bf03e2c0dbabf8U, 0x2bd4f67a0cf6f271U, 0x9a79e01558fc69a1U, 0x4a4e2a8f71ac7ab3U,
  0x9d0cf30f87e32ca5U, 0x84060c425070dc7cU, 0x87f16b85ee276f60U, 0x4406acb7331671cbU,
  0x160a9c9b8eda6c47U, 0xf62baa2b5e1bceb0U, 0x3ab2a3ca5e6d7346U, 0xbe923baedf6f2f6aU,
  0x6af2c33499541741U, 0x660d1f705f7a4c36U, 0xf2f960a68fb946a6U, 0xb5d0a34d8ba82338U,
  0xad363ca828c0b216U, 0xccd93d324b18396fU, 0xeb068eab7368ce3dU, 0x5f8fc5b3bcb78ea1U,
  0xb629a20133789c14U, 0xab5d388e213d808U, 0x36b150760d32f15aU, 0x2929eaa30a5a7263U,
  0x1637dce8ca83c3f0U, 0x5075e67787c85e94U, 0xb97c977cb9401b2dU, 0x40309ca79b91ca9fU,
  0x68f7e1135193c727U, 0x1505598abfc127cfU, 0x3d73a1edf0d6306dU, 0x457a138e2ff30f67U,
  0x6b988c752726462aU, 0x969d706c7b23f873U, 0xdab0b73036d86da1U, 0xf2abc0bb1b3c4d30U,
  0x98bb944fbd79ef49U, 0x429d7efb2fe36d2U, 0x4839859563b36ca6U, 0xfa19939afccaa1c8U,
  0x539bab641d9d3358U, 0xcf6906ca8374f7afU, 0xacf772b1ab632efbU, 0xebd7a05e51b522fbU,
  0x2fa7141c42e46853U, 0xbe933c5437d556c9U, 0x1f1c6ad9c1ae083dU, 0xe18cd5ca61ed3cdbU,
  0x424c8920b57cac20U, 0xcf6e141e75204740U, 0x5eb8cbd323d8e129U, 0x6bd4294724fdd933U,
  0xf1bf52b8c3554ae1U, 0x3c42600b262fa75bU, 0xb60022076a695f40U, 0x8adee5545f322c69U,
  0x55569dcaf644beb4U, 0x6844bd1ea5e8d544U, 0x9cc990c8995a5846U, 0xa39be878518e39eeU,
  0x104ca19a032ffe37U, 0xf7651d1085aef45dU, 0xbdb37276d9c83f9aU, 0xda8f1a56935216e4U,
  0xd15e992b512f67deU, 0xf6d80c0cd9f2d1d5U, 0xd279471b4466c034U, 0xccea610851924bc4U,
  0x3fbe4b9e6e75c548U, 0x85a81e1759378f47U, 0x1b2f1c36f81ba2e4U, 0xefaf33c7d5a4c355U,
  0xf8fc88e2911c3745U, 0x1e555684dff11fc7U, 0x46a8ef2a4c94a7a4U, 0x450c2c8691446b7U,
  0xbd8dfad591eca645U, 0xfb091d628fdbcbb3U, 0xe07819ebe5c54a44U, 0x69a9ec9a1aea93e1U,
  0x5251cdd51a46abd1U, 0x4b649fa23ad2f26aU, 0xdb3c3f95749eaf18U, 0xe4a3746acd42755dU,
  0xe7d4b75fc08b2b0bU, 0xec5306fe87e74893U, 0x84d79ce10e63cbdcU, 0xa284218acf1a7c57U,
  0xf86b0bd71ac86148U, 0xa58828c717ad7700U, 0x2988e2740c61a4c4U, 0x68bd4387bccb6043U,
  0xd6f9305a09784018U, 0x96b3fcfdf20154a6U, 0x4847d27455d304f0U, 0x559861ee88eb6b57U,
  0xa655edfeb3aed3feU, 0xfde8d6451bfaa254U, 0xc1a2cf68fcdc1d36U, 0x9f3cb6a92e4b4991U,
  0x310eb67b5e5578c4U, 0x5332590c6563212cU, 0xd27bff371e96df9dU, 0x7c344fee0277bbd7U,
  0x9fda0143ac442fbcU, 0x9258cafae750786eU, 0xddd6cd9557e35e56U, 0xfcac241fccdbaf2U,
  0x873a0da5d4727bbbU, 0xa65d639ee4f653f4U, 0xaea5eb1a013001d4U, 0x1e679f27bfc51e69U,
  0x55ace5eb401177c9U, 0x17e86f16a25e1e3aU, 0x17c160a9967a65c2U, 0xc430708c97974d21U,
  0xf64485f263c0f7f4U, 0xeb6b2af62d303e2cU, 0x76e4cf161eb5ab05U, 0xc436cd964d56b271U,
  0x969d5ddd8a6dc1bcU, 0xf187d9d932c6a2c2U, 0x948e2932d8980230U, 0xc4a4167bcbef5fa6U,
  0x84ac969f0ea41b1bU, 0x8ea1a152044fb72aU, 0x4ab816ba6d0ecfbdU, 0xbd4ab2cb70ca6a48U,
  0xa89b2298ab427453U, 0x659038a85f6c6561U, 0x4548458992c71022U, 0xeb9b9ae2b3d715c3U,
  0xe43a6c26219eead8U, 0xc453c63ca61b51fbU, 0x4eb599f04ffc1930U, 0x7219d1e60619edcU,
  0xdcab54f604a2b247U, 0xf2defb3a9354c921U, 0xeb7c484230e168c4U, 0x3f140448ea1e8469U,
  0xedbdf3fb56cb9013U, 0x62ecd6051602281eU, 0xe4a354275ba6296eU, 0x8ab909fc42f6b31U,
  0x2d649400ca3ec176U, 0x559b9b8df3bfe5d8U, 0x793c799523d2d351U, 0xc8f6a7fa9f409f3cU,
  0xeb975a7be15d52c7U, 0x7ca5e67ded63213U, 0xcd6e45ff5faf4228U, 0xfd6bbe00a478eecU,
  0x5d7ce0b6a3bc059eU, 0x2af2487cefaed22aU, 0xbae6705a00e8124eU, 0xf8bcfb2476c91d3fU,
  0xa649ae2918cab7b5U, 0x143d8f85e2222d86U, 0x18e2c940a55cd29U, 0x68cd2e4a4e0f03a0U,
  0x1af4480e5a39cf26U, 0x5b76ce89fd17848aU, 0xe5b858933662d21cU, 0xffd93d4814057108U,
  0xf5355d3cc69f409aU, 0x892db5536e0444f3U, 0x16bace12877a2096U, 0x7acb52647769649aU,
  0xe4912028ce2db76aU, 0x94f0656aa1e85210U, 0x29f12a16a208d469U, 0x55d547071d3b2bddU,
  0x8d9ac43086f46355U, 0x3725bfd00a518b5dU, 0x894af94a32cfdb57U, 0x3deae0345d36ee05U,
  0x8bbff70b402be1d8U, 0x2bcfb96f6f454c58U, 0x4eb813e22c7a18f2U, 0xbcd563dfcb45d430U,
  0xcb58ad87a85d434fU, 0x62ac205e28b3b0f3U, 0x714a850e93fdf4aeU, 0x97011275c120d9d9U,
  0x5a53b4e88c8ea25fU, 0xda4b90d9f20fbc95U, 0xefdeaa186a8e449U, 0x1f23c3abe5545853U,
  0xe75f2ac1ccdbcdd1U, 0x76418f4523baa8d8U, 0x5577c13f11f08b32U, 0x382168c4b4c9f268U,
  0x4d4b0da7b522c9c0U, 0xc3f7abe248bea9f9U, 0xe0fafde88a2972bU, 0x1748884e6026e2afU,
  0x971f47fc4d6bae9eU, 0x9af8928529a27c89U, 0x7390bd31e9602651U, 0xcfb1e8e1f91f9277U,
  0x771b498b4f70b6d2U, 0x92b286472a4619ffU, 0x94729ae8d8d7fa5cU, 0xddb23b36d5c212c5U,
  0x7bf5b9faa35b6c40U, 0x667ceb51ea1a3294U, 0x1a4d0e8cde5c1902U, 0xb237667918035c6dU,
  0x56258aead32e96d5U, 0xc9e2595eb3c7960aU, 0xb5f5d6c389a4a90U, 0xa1a618f98c29681dU,
  0xf5b3b1f2c7319d87U, 0x1796beb1fb3127e6U, 0x1a43e42e02fd89d5U, 0x75c9d500ae3e128cU,
  0x5a671973d1c3abd0U, 0x19c642baaa08df70U, 0x5fd04e4f61f7784bU, 0x4d1e11c4d35f7195U,
  0x217632047bda9830U, 0xb0441e3eac1726abU, 0xc6e25a08065ddae4U, 0xaa595bd7a7dbf5a8U,
  0x4a679590252a8b04U, 0x20151cf9f30533afU, 0x6f8b85a7bee1c19aU, 0x1ec0e89bf169de35U,
  0xe28b0dec9e03799U, 0x5304cbc922609431U, 0xf38886120bf5ace9U, 0xde3dfae427dbddf4U,
  0x6364d79e05bac4ecU, 0xab3ede629de11f1U, 0xf45d46029b65d509U, 0x99aa7526ce3f6d2eU,
  0x1cefe95a2e8bd116U, 0x784a224e1a073a12U, 0xa9402ee55bf7aaU, 0x529c0120fea4cd0cU,
  0x90a243913a61c905U, 0xc78d3b534b4dd643U, 0xa8fb85a4e844a8b6U, 0xcb255071b0376e09U,
  0x6bec40cbd0c7b5fbU, 0x68527694adb09ad1U, 0xe73d4a9d160832b5U, 0xe452d035ef8b6037U,
  0xf48f0742ab4142dcU, 0x57216162ae798a67U, 0xe80d8d8663b943beU, 0x731286aa3704b063U,
  0x4bfa32ef79362442U, 0x7485ac62f8f99d07U, 0x6e2a7144b443401bU, 0x652012aadf05e5a7U,
  0x20af26b909fd250cU, 0x832d90e1ef83fb5bU, 0x8034b2e86c2080cU, 0xd66717156ab30513U,
  0xe60093aab105d857U, 0x95426b5295408902U, 0x69b89968d39b4d31U, 0xde405a726da5fc3aU,
  0x28d934d1af0210e3U, 0x3bd6515820d635fbU, 0x854989db01f855eeU, 0x602c1ae05956ce8cU,
  0xce0b4e5a3ea5c484U, 0xef463a73a2e0382eU, 0x952c3c2a3dba9ac7U, 0xbd4f3ec313b3d9e1U,
  0xc649985dcbadcc91U, 0xad54b63e4f5342e0U, 0x73e38ccdf42fbb08U, 0x4f02f14f143b15d2U,
  0xfbb10fe686e55bdaU, 0xbe96954a476bdb08U, 0xa9f56345b0954e18U, 0x43e4e870ac575797U,
  0x35e80ca8cbdd1dd4U, 0x2e3c13ae012733e5U, 0x76283340cc298e70U, 0xa73468def005d7aaU,
  0x583e20cc71368fdfU, 0x31fae330d92d215fU, 0xfe793b1321d1d173U, 0x466ef67298854d72U,
  0x59bc301c3feaf78cU, 0x23f5c3fafecc1508U, 0x699f23f0322c0238U, 0x1d3f005bbd8eb01aU,
  0xb7e737b3f48af8d6U, 0x7a48e7c37517e996U, 0x5c149303c873a823U, 0xe6582f6d65d98f25U,
  0x367a2e3efe74e3d0U, 0x8843bdf4b6d4e397U, 0x2fc619723994c978U, 0xd929ba71b27156ceU,
  0xd74a61be4f5d8a0aU, 0xd02ac4c5b7799e98U, 0xde3a2c8c90375552U, 0xf95329501cb00e84U,
  0xdd4308689539907cU, 0xd213e1064916c57U, 0x6258fa74adb84d10U, 0x28f50b1b424884fbU,
  0xfa8dd10171cf0914U, 0x4ab04e9a17e6a8bcU, 0xb9cd0d66545f5f71U, 0xfdbbc823e3835337U,
  0x2a30c20868db9708U, 0xd9a93bbaee5ce846U, 0xc751c0775a7d2f5aU, 0xae03c5325f6b65ddU,
  0x2cff92ade2ac96fcU, 0x7554dba1f2bc1989U, 0x8a2bfc760eea7b72U, 0xa3bd63430f0d92ecU,
  0x71dfa59dd86baddU, 0x6b5aa4d51227964U, 0x815ca2a45711ac1U, 0xbde62fe3578ae232U,
  0x6171f7b1676bf96dU, 0x60fcaee250bb67a9U, 0x1e25d145360e8c73U, 0x4754ecb521d260f3U,
  0xe160a9e17ac959f4U, 0x84f556cc372a28e5U, 0x348e3c5072a47ce1U, 0xe2b977874ce94f48U,
  0xfbc89ddf61878c41U, 0xc9c78b4d5f633026U, 0x6de1773a0c0d1362U, 0x9b3ba4ab4809a7e2U,
  0x3e4cb77572b74847U, 0xb9b5754f3161b361U, 0x53a84402edb5671eU, 0x3912cfbaae72d96aU,
  0xac70765974d2196aU, 0x7d51febc20a0db6cU, 0xc88e68719e6f5f9U, 0x2ae1ab72f1f56451U,
  0x60736e7b0c95322aU, 0xde3b3ae88fac564bU, 0xc487646ab7f1b097U, 0x135dede45f507275U,
  0x2bfb35b413f21b1fU, 0xff5e408674ef4b9eU, 0x38a560ee45ad17abU, 0xd130f0cb2b743f16U,
  0xe50cef7b693a54a3U, 0xb8930a26930414eaU, 0xbfadc49a4617b450U, 0xaa11ddf32bd74125U,
  0xd7378564e41afeebU, 0xcf4496bea56e04e1U, 0x93f38e0879883637U, 0xb7888bc6a4b04058U,
  0x98ae95e8bcb7f8bdU, 0x8f427476dfab2dc1U, 0x58a61cd099b5a478U, 0xaf922c4cd9f14005U,
  0xc9c2959e22fee35eU, 0x27f9612021939013U, 0x952089e862f3b75eU, 0x89920d14a128375cU,
  0x4c45687da046da5fU, 0xf73acc69db9fccafU, 0x625e7be9ec4f6e95U, 0x1ce9e8b79f8b93adU,
  0x8a8a79583c09d29aU, 0x63ba3c354d9593c5U, 0xf5d69bd55e5b315cU, 0x32a430f1e5a4be01U,
  0x5993d1aa1c7b6073U, 0x6427af2abd76cb00U, 0x5ef6528fc9143ff0U, 0x8f169cfd7064c222U,
  0xa02c89fb5eb3bb3aU, 0x899147276e5c58adU, 0xd973e2be7c6302aaU, 0x6914f5830d01272bU,
  0x99a2f90f759671f9U, 0xa4cf13f5968f90d1U, 0x4845a3b37c745d17U, 0x3caedd716f3c684dU,
  0x51159993f23758fcU, 0x9a7d35495ada94bU, 0xc07b0f151bae8e69U, 0x4d40e5eb3f045143U,
  0x4b3537a8b2908645U, 0xd0487c309d8e3540U, 0x4459e46771576538U, 0xb044d846878badeU,
  0x9315d0cdb1c54968U, 0x9a1109794a16db29U, 0xbcbf96cab794dbfbU, 0x5ca6bca2dc0d93aaU,
  0x20e246c4d7ef4abfU, 0xdea212f2a8dc2ffbU, 0x1ab25d668203ebeU, 0x4953ef33e40584d8U,
  0x94fbecd53a9c4baU, 0xf4f2a8f39719856eU, 0xc5e5ab5cedd73eb0U, 0xd15a79cd5a1adb51U,
  0x4d08bbed342384b0U, 0xc3280e3460cbd45bU, 0x15a4feb40b378efU, 0xf7604b4ccebc94e6U,
  0xd84ea4537505c946U, 0x592b69e043ca2667U, 0x73b7010ea4d259abU, 0xdd9368ac68ae1ceU,
  0x3b0bb039f9961889U, 0xa5a1348bbb739508U, 0x2942f0e24c655f17U, 0xee719944217014f6U,
  0xfc0fa11f7cc3c12bU, 0xee75c722ae1f9591U, 0x868d9386abe720e5U, 0xb2add8b353f4a57U,
  0x2b1fd46b599b77f3U, 0x4c297ad3254189feU, 0x3f353a8db7b8cbf3U, 0x14b5bdb158466e79U,
  0x75e973e8c8024f0cU, 0x42b2b69a4a330bfdU, 0x56ba9a0da1903998U, 0xeb4df75bb9015e3aU,
  0xb974957788defff1U, 0x726d514cbc15fda7U, 0x30c7ac652fce5a56U, 0xaa77d86c914fe32dU,
  0x6175572e48505bd6U, 0x2227a6095b5e11c0U, 0x4afffe004015425aU, 0x9fbf5ff9a3fa960U,
  0xaafeb7d25a372ba5U, 0xc917635b43f18aa4U, 0x61360ac7b0a25fe2U, 0x9d5155da2eae4bf0U,
  0x1a59d884cbd2d2fcU, 0x35f05403e15d7d4eU, 0x6c1dbd3067263c2bU, 0x639b9fe0184c6291U,
  0xbfcd73a141d2ebe0U, 0x5d72211f43676d04U, 0xeff5ed06162438b8U, 0x735b028ce3baa579U,
  0xbf7394db322946b4U, 0xd5f4e9340caf4badU, 0x643b24eadcaa2b12U, 0xa3cf20bc27b262c2U,
  0xf74c16b280de7fbU, 0x659aadf7add5ee3bU, 0x1e134105cb658668U, 0x69876439591abd99U,
  0x35bfecdf48ae653fU, 0xfa2bc2dd1926b6ebU, 0x8af19d0454bde542U, 0xc34aae9ca47acbf2U,
  0xa6c6c3b69db77ce5U, 0x299e3acf7429793eU, 0x1d2c55f2144b1cedU, 0xa8593a0dc3cb86acU,
  0xb188fe8e2fc883acU, 0xb40016312c3d278dU, 0xf8c4e3632faa1733U, 0x4616f5b119b14b6U,
  0xa7d3d50409c44b9bU, 0xbff370a3d45f2c47U, 0x59f6ac9ed58dcd65U, 0xd2923c6719246ec3U,
  0xe22b1907488619fdU, 0x44fbc07dbc634dd6U, 0xa124d636886f0beaU, 0x14eb2e509f2e6bbdU,
  0x2544e7a5d5f25a76U, 0x6dc1f2e4ab38944eU, 0xa51607cc9dc3a8b4U, 0x39a35c0ff9d0e8a8U,
  0x7390f185a229c8a2U, 0x92c18552cbf9ee5eU, 0xb59adac6496e4d47U, 0x71acd114863f4cf0U,
  0x98c86f84e0c1292cU, 0x5700ee9a8421b901U, 0x657cd33ff264346bU, 0x5b636f41f48db14eU,
  0x2bc55db7a521ba05U, 0x4b954f6e7795a050U, 0x4148b2675113b60U, 0x677390a249645a05U,
  0x6165ebdccd4a14a5U, 0x948ad9f40f356e70U, 0xfadad3398e40e611U, 0x6022450e3f7740f8U,
  0x38c195e46d9d668bU, 0x11ac6325731414U, 0x316d05b24d5bda5eU, 0xaa2c60a4c13c6ffbU,
  0x2423b440792ccc19U, 0xfadfc141dedd822U, 0xefc46596a7de69e8U, 0x1cf878c196c7d36fU,
  0x57e1309c055c247aU, 0x3256502b87d5b245U, 0xc8e213945faf6462U, 0x5d663e5d52c3ab44U,
  0x5ce977d9d00fcb04U, 0xcf07b34797d4d0a5U, 0x932a1cd2b1c368e4U, 0x7de947076bc1f2e2U,
  0x85b47cc79289e1edU, 0xf09a92a18f1a0262U, 0xa39c6ff23648b95cU, 0xcf15adb2e7d0b61eU,
  0x735070e3504e174fU, 0x968a56bb6df0a5c2U, 0xfae5b3583649c094U, 0x2ae508eaf6ca1402U,
  0x9b06662d756c249dU, 0x7032001010124431U, 0x3eeea490d1f35ef3U, 0xbdb3b366c56b45deU,
  0x66870f5f250da4f8U, 0xff55221396cb60d9U, 0x58f5611323cc98c4U, 0xde2fb7ba45a6c407U,
  0x88e7531550dfcbe3U, 0xb0c1be417b2fddeaU, 0x3eccda1d5504fd25U, 0xd21f56145dfb5c24U,
  0xaedee3550748971fU, 0xaad5ffd4c7e8b526U, 0x28aadf0b171157b4U, 0x2e7b5ba537ced401U,
  0xc5c3c8aae90ace75U, 0xaa43cd6e6139083fU, 0x1159e554139e0b5fU, 0xe46d2bb819c57117U,
  0x599857970860a667U, 0xaa56a14c1ea7e9ebU, 0xb350b32de13bc0d9U, 0xfaec1bdbf1a4110U,
  0xe47caa68b1cd77cU, 0x358aefe43fda75b3U, 0x26be3d6eb5db6a13U, 0x5aa9c67a20f2a584U,
  0x14d2210c5dd20634U, 0xf71274e387bb00b0U, 0xf936b76815c7795cU, 0xe9ca7baf8b1e3002U,
  0xe4a198a5f409cb9eU, 0x63e4723c681d7736U, 0x55232a40296502d7U, 0x6c8ca6131742d935U,
  0x923df338cea00f52U, 0x48c269bd4e409477U, 0x220b50df206952bdU, 0x651edcd00ed5a598U,
  0x2a50c32ceec64345U, 0xe5b7b5f0ede61f5dU, 0xd8b6571afe3e8e62U, 0x515c34fd06060cb7U,
  0x5d3571e7734ed672U, 0xf3daee3c358cf8e3U, 0xc7c0430d452431b3U, 0xf3f7b97b9328d7beU,
  0x948baf2710fcf454U, 0xdbae638d022ced95U, 0xb1d8514458a325f9U, 0x2c3ac60767b13e66U,
  0xc6682dad4891b30dU, 0x79ed3952c73a98d1U, 0xe8a7c2df4e3a5b87U, 0xe4edd7a310779795U,
  0x245a3a4e8692dd7cU, 0xf87d0a3224ea8f70U, 0x26d079aad41f849eU, 0x6f32ac6043bf1ec9U,
  0x78ab4b5d12bcb685U, 0x2b7ca2b3b96844a6U, 0x204dd6aa1b46b8e2U, 0x1879dd9a011997d2U,
  0x2c18fa4c98df3761U, 0x46189dd327fa1f99U, 0x282dc5f4e2e63888U, 0xfeedd1cc105d143cU,
  0x10965f70e9215fddU, 0xc6a12d3d300d678aU, 0x46ad0c1ebbfb519dU, 0x5f6f4198e65050a3U,
  0xaa8ea6ee9610d6bcU, 0x22c29884307ba112U, 0xdc070a0aa34736adU, 0xe8a1f3a9c2eb23c9U,
  0x5646b84ac3aad953U, 0x70208c84f4c8d8caU, 0x93c5d8aa35e8eb4cU, 0xf8c5ba1ce31e59e6U,
  0x8fd48cf87b680064U, 0xc078e1538a9798a8U, 0xf4aff46461fa4149U, 0x278499a4fe46f50dU,
  0x255c5a6f56bcd120U, 0x9b2ebbee0f6c142U, 0x37b35baaa700e554U, 0x39c49a8848178f42U,
  0x8d5dd32abc8550e2U, 0xb9a1f752a7d08e92U, 0xc3dfc4892443622aU, 0x57438b4fa41ecbc4U,
  0x7a6028a64d9cfc9eU, 0xe5e14f8225975c2U, 0x5ddd21dfaa506138U, 0xd3bf29d8921a9a3U,
  0x744ebcc8620227c6U, 0x6d4504e2ff3bf12eU, 0x6e145e6a48bd4267U, 0xc3d72ff83adab58cU,
  0x7323e5d5dc1e8ca1U, 0x4f42f2f9a7676dd0U, 0x5b68081c87ecfff6U, 0xb98bcf12c057fa68U,
  0xf288ef021850ab7bU, 0x9069efeba070a64eU, 0xdcc0d3014fc06f5dU, 0x4adb8d36396d60c6U,
  0x321cfa421aed8c07U, 0x9665e0e2b2fda64dU, 0x35d11c3d7062e7f4U, 0x243ae7d2ddfc08cbU,
  0x35de0eda5f54134fU, 0xf88c6f5321bd254fU, 0x6c2ea53def860804U, 0xb98ef5fa0c352cb1U,
  0xca8a113bccd29ff4U, 0xf01c61f905106b54U, 0x775155a5ae18db92U, 0xeb495c9c5ac951c6U,
  0xfd710e373ea305f7U, 0xefa8f0c6a1b06addU, 0x4fbeb1cfc3323e1bU, 0x8f8b60dfbf24a1deU,
  0xa8bc45ee167c7127U, 0x9bf0b9896fdd2023U, 0xc98394dec7a55d5cU, 0x9f5a2354c19531e5U,
  0x1c2cd4bebded86c4U, 0x434b71d1c88b023eU, 0x9b6308432bc275c6U, 0x96c809e14c375e52U,
  0x4c685f156b23c1e0U, 0x2dd3b689f952d33bU, 0x761fd71807492994U, 0xb721fcfe5c729eccU,
  0x8644b2c2a4754ea8U, 0xfc52e64eca405fffU, 0x604ea4165aefafc2U, 0xc2549eda8f632387U,
  0xef1fc778c9f37b01U, 0xe43afdc000cfa738U, 0x8ea4c0790ef9ba87U, 0x28f496622c898adcU,
  0x38a408fd6d87bf3dU, 0x9951962462cc866cU, 0x9df4bd57dda04c49U, 0x76df959cd5fc6bb7U,
  0x19dfcdabc8f0689eU, 0x57e8400fe95dbaabU, 0xc01e23c730d5f34U, 0x3fe5100f9dfd9f17U,
  0xc8bd598fa5b32b72U, 0x4190a3cf2cdd6876U, 0x956485fe6b236badU, 0xeefe48330234ded9U,
  0x3b78a490aee8a321U, 0x49fe3aea6ded7bcbU, 0x4e44a9ff885d2e06U, 0xf8ce8d41d347239bU,
  0x114593ebea501dd5U, 0xe403d52d3096ff44U, 0x316bfebb0433e6b1U, 0x9155ec2a58fa2107U,
  0x162654e3de9583cbU, 0xcb1fb832ed50865cU, 0xc6f8113501b64a14U, 0xc3c2d8708d4575e0U,
  0x1e176485de1d6401U, 0xcb5c1366ea996a5eU, 0x706689c4babcbccfU, 0x40daafaccd66f0d5U,
  0xeb29742745db0004U, 0x3b202333643789d0U, 0x1c8f27d001e0a267U, 0x69f5a8a450ff45f4U,
  0x72741cd442c5c9cU, 0xcb40295bb12c3e92U, 0xbec226ded7e59da9U, 0x7069b6768a03c0baU,
  0x9a98cc4342832d4dU, 0x1fedc05b39125aebU, 0x6b0dc042e8e4b3fU, 0x4a09088b2ba80041U,
  0x98a8cf37d1a07a57U, 0x2ab242a226aacd26U, 0xc801ddb2ba117beaU, 0xeeebb7ae64becd7bU,
  0xee3ea5bb0ac6225cU, 0xe7536f0b7049928U, 0x48a69ab778d7667aU, 0x453ef40ecda44ef7U,
  0xc7ed5886b9e6fd4aU, 0x1ddd2cdd201cf3b8U, 0x53337332b260da03U, 0x65ec550de11f34c1U,
  0x6304be0ba2b94f5cU, 0x83ac9c3dbb27b1f0U, 0xcbc2f3248a035a6dU, 0xe148e3e7368bd6abU,
  0x2d261235e9e31c3bU, 0x7a2ae6b29314b6cbU, 0x50567c516c8bd128U, 0xff372968102d2a54U,
  0xc9c2ab5fbd14479U, 0x2a0c249542cbf279U, 0xf91f13d1dc003093U, 0xd9bc2348733797ecU,
  0x579aa6e70a9169a8U, 0x858de7d0e85bf392U, 0x915fdbe35f7c31a1U, 0x92270d6247af614U,
  0x5a2d07bb86f1b8bbU, 0x6b56ca1e6e17c177U, 0x32b9a4548a6511caU, 0xc0e64690edea392eU,
  0xd745f22ea08eef1bU, 0xf7fbee8c6e97f297U, 0x15f4e3938844d71eU, 0xc668c77173234e64U,
  0x99048e310c3816b1U, 0x55c31e8efef7daf1U, 0xd0c9bf2fb95f3f44U, 0xb20774dcfb25eddfU,
  0x1e3043acd69921d3U, 0x2456fb5026260ba8U, 0x7c2697046aca6821U, 0x4b74ebcc1349de58U,
  0xcfdee3246dcd6e9dU, 0x702c94510f7765a1U, 0x25d50e4aabaabdf8U, 0x9c1c0edafb6bcdd3U,
  0x90205d8bcabe1592U, 0x554fc48ed30b7059U, 0x49e2785cfc739378U, 0x950318720c51c4c4U,
  0x49982fce03858da3U, 0xd6376d18c14d9fb6U, 0xb7e212832562d3ddU, 0x87f8ddd955c9e87bU,
  0xdf220164313000c7U, 0xffd4c2f20e1bb52fU, 0x7bfbf6a39840877U, 0x5d84932ccb417696U,
  0x20e155f78f4e741aU, 0x1b0e6b06f3243b89U, 0xb2e041269e3da760U, 0xbc94cf96ccf86d63U,
  0xe2084e488d0dacb5U, 0xaeb5574de844d834U, 0x86f63c53cfb5eb12U, 0xddadb90619db5e36U,
  0xc89cdcfa25846b0dU, 0xb01aaecf400b6091U, 0x4f7b0b26bbc63657U, 0xab9d0dc56ff4886aU,
  0xe4a8a21b3b25c6fcU, 0xec08fad3307ab967U, 0xcc58db2b862a10b8U, 0x344c0a6a49a39dc2U,
  0x6a6ce77abd19bf9dU, 0x933b6c37d6eb1b1cU, 0x8d3c1b0cc5bcf1f4U, 0x7521f22110c52211U,
  0xcb3da2c2a6e4099cU, 0x4b49d2c7c8a8f467U, 0x16b16194cb435e95U, 0x55cc99437ac5f9fbU,
  0x1e17796ef2ede507U, 0x59ee2eb3eb6b378aU, 0x1929103f62f1fa2cU, 0x959cd2e9cad4f3ccU,
  0x664011af714f012fU, 0x10e7a0d22562a7c5U, 0xf71bc5e73e1b8e1bU, 0xe07ae1262a2cb28U,
  0xde2ae51cd3453f35U, 0xffe2d1bd39078e93U, 0xa24c46926d93a24eU, 0x236d22c71414b774U,
  0xd663e8bfbae55ba2U, 0x4ac33e29feb2c4f3U, 0x4bdeb663a87cf067U, 0x9eab49123da8e3e6U,
  0x45e2734485f405d6U, 0xe695659b8c0d8f48U, 0x2f41b655de5a200cU, 0x16bcd55a671c1471U,
  0x2bc5b8f28a9bc673U, 0xa6bd9cd4ba182d08U, 0x7cb34154025ef38cU, 0xb6c715c46113c6c9U,
  0xf3a78e6b14452b76U, 0x97988d526122088fU, 0x55eb0f7aafff2cb5U, 0xc8d316b32733f4ccU,
  0x8d045f620ae77f1U, 0xc184c63e8d7b4f01U, 0x9f542bf7b139b776U, 0xed77c4e44d764568U,
  0xfd831290c906c3f5U, 0x48cd499f0b866b18U, 0xc647fd3ff2416e09U, 0x91ba4443f0893df1U,
  0x863fbb6a72f4fc4eU, 0x85f48842480e8e55U, 0x3aedf4f9d3c977c8U, 0x19e02d04c535d9b1U,
  0xa7cf923209c85c76U, 0xa9b41a756beaf6f7U, 0x53088624561e5fe3U, 0xcc9a7af33d5d3171U,
  0xc80b4b2fa5354f54U, 0xa349cc5d67995fc3U, 0xffbbfd1a4acba998U, 0xa179650406de63e1U,
  0xdf3313a68e1e40d6U, 0xbba8b8f1c51370bdU, 0xd95b23f054a9e8b0U, 0x23be0e5e40f221eaU,
  0x5ef601b597bb9a61U, 0xf5347829afce201bU, 0xfafa4fc43f5d3131U, 0x452deef8be18780bU,
  0x8f3e4178fd558eebU, 0xde76e6d1793bb6ccU, 0x272d2e71adff03b8U, 0xe352236838101b0bU,
  0xf79e29df5f9d97d0U, 0x8575f0159f85cfbaU, 0x68de4dc70dd42d1fU, 0x238cd4c0039d845dU,
  0xf52a776820240b6eU, 0x9c0745695767e959U, 0xe72123b62cacb846U, 0xe709f6fb5674cd8U,
  0x43a2ae19e836762fU, 0xe4096c93fc42e9caU, 0x407b592adc1df3ecU, 0x93065c2f3815dd4aU,
  0x306662aae8a801a4U, 0xfcea5a0d46a075dcU, 0x4b2b030b0ce65361U, 0x9aff4fecf9d695fbU,
  0xbaf66b36761971fcU, 0x9d74f21135fba571U, 0x14742fe174a9a9b8U, 0x21122a0a94c8f2d0U,
  0xb74d3c001f0ef195U, 0x61c60bc2a92d74d7U, 0xa9156c9f71c16928U, 0x8cd5ce95a2792435U,
  0xfd19b631bd28d55fU, 0xa54a241a63e03b5dU, 0xdcb3c7d0ccf573a9U, 0xef2b5a40cb2b7c0eU,
  0x4cb4f752b8fc60eaU, 0xa2521fa79301584eU, 0xaf191ea9fd19faf6U, 0xd8117b466d51ffd8U,
  0xbeb50bcddcd8c5ffU, 0x10d6ba91af79d0e6U, 0x97f97c9a87eea98fU, 0xe03018c7671cf465U,
  0xcffea83bb4f45b48U, 0x5f7784c03ed6bbeU, 0x8b8c0bdc5e03f7aeU, 0x3003c062f4095793U,
  0x86a56f416c643d0bU, 0x41862f03eea27ba7U, 0x14c605b27493c4cU, 0x2a07e2b43ef55b4aU,
  0x4132afaa4fdf2712U, 0x8fd270e2496973e9U, 0xf8b80ba6775d0bc8U, 0x3f118967a0de6ba0U,
  0xac752b065fa3bdf6U, 0x2bee8a0a974f8ee0U, 0x9935d31771b47316U, 0xa1991b35e098f77cU,
  0x7266efe14b2c97dfU, 0x30a94985682d88f7U, 0x69b93001da32ec07U, 0x8906ab2474d9c499U,
  0x185618793453cacdU, 0x46d74cf2400f8b1aU, 0x24accd5c78b30225U, 0x60de620ba4000565U,
  0xc6ea0c9ecb9b9312U, 0xbb2d6cae29b8aec3U, 0xf2e021e591eddc5fU, 0xab6c5a04fae79df9U,
  0x27ee1adf4e4a254bU, 0x2eec83e51207ff2bU, 0x54138ffafe8dea5U, 0xe7d2d8bd3a36db00U,
  0x6a5e93758fadc4baU, 0xaa7373b2d3cd0ec4U, 0x8a204072b8f17e9U, 0x3b962cc3b062fafeU,
  0x4cdb6df9c0e657eeU, 0x91ef940703c9fafbU, 0x46f55455646aedb0U, 0x317330c58453adcfU,
  0x8b2e1ee37824126eU, 0xcf50b0763ad7ae04U, 0xbd370bb9ad6808deU, 0x26a233deff1ce01fU,
  0x5df76d70b5334273U, 0xa3f2d0c25f7cde1dU, 0x2134f4339df243caU, 0x34dc53be9f0ba5cfU,
  0x8eec9f97255a5c61U, 0x1ed22a205fb99ea2U, 0x22c9daf669f8a306U, 0xd62d2162e72f70ddU,
  0xf455f72a084d9ab2U, 0x4557be69dc38c5aaU, 0x4c146d4422ac85b3U, 0x15fbb39503ab8db0U,
  0x2a0a8f03f365bcd6U, 0xafb406d9130de75U, 0xa379b3d7db09a785U, 0xc87b61b439d88a3U,
  0x14df6f53fbbb337cU, 0x46d6f9c6f4a4e002U, 0x76c69fc54a3b9203U, 0x78fa2b308490534aU,
  0x4c97ea4cf8e6ca87U, 0xd4f4d5f3a45ab068U, 0x97272cd723756bb4U, 0xa3f08908901cea9bU,
  0x713527b57bb818bdU, 0x4bba5c70f218f8e3U, 0x69e4fa0ad4ac0a30U, 0xe3add04ea061c329U,
  0xf65f1cfaeec1cd41U, 0x9f7da39ac4e25920U, 0xeed910c8e056a364U, 0x5a54794abb094f77U,
  0xf9db08d8feab91cbU, 0x4852fc0f21248875U, 0xb35286766bf56dfeU, 0x58a3776b58e66b45U,
  0x941b3e94d03da358U, 0x99d00225a357baf3U, 0xad5e4f0a2ec973d9U, 0x97ec59cf87879bf8U,
  0x7906004842a39eU, 0x24464dd9f4d2c001U, 0xda84a7314a0eccb6U, 0x4186521b5173bae0U,
  0xd552127472cb20b0U, 0xef301458f18bb723U, 0xdf5cdcbdd246ca93U, 0xc3cfca0655ea40baU,
  0x1b2d4a0265dee3f1U, 0xbc00d3c174144d9fU, 0xd4547b3a65a15d76U, 0xd193e789c1e8cb1aU,
  0xf6f82fb99fa3f7d7U, 0xb33e1b20bba1a101U, 0x6a90ac63478ac7c9U, 0xaa6e25d8fa00dfa8U,
  0x79bd99f7c755d3b6U, 0x7b1273020a3e72a1U, 0x741bf45ad46591d6U, 0x550a950278072903U,
  0xc276f3c03efe9f1cU, 0x3e635cebe553e01eU, 0x8fa2983173a1cf42U, 0x5f0d40696dad37fdU,
  0x9a450c6207c0d261U, 0xf9def17b6a97d9adU, 0x9b17b179b5a00fd1U, 0x47a6851bd08e9d85U,
  0xe6d04c6864aae91bU, 0xdf2d1c9f15b2aa0fU, 0xb224b911d8c7bc24U, 0x714e68796d98cb9aU,
  0x5562bf8e10deeee7U, 0xdacf18016106ff01U, 0xb934d8f1fed7b236U, 0x6bba64971aacaa5dU,
  0x126b5b8684e84214U, 0x3372fab8cf5fc5a4U, 0x5e1cff892cc88811U, 0xad769bcced1d75ffU,
  0x2118f6a83a41ff72U, 0x193a4e5839eabea6U, 0xf49cf5e9570b27f0U, 0x1fe00b0ad02b44eaU,
  0x15ae056f3b64ab2bU, 0xdf1da7a1771ddf71U, 0x6e615f21d55fd63bU, 0xbddf69af2e3e9fcdU,
  0x1c67ae07cba4baf8U, 0x5fa39d6d53f5b30aU, 0xc5f6952cb5a24e2aU, 0xc71dfec8b657d750U,
  0x4de7a93d53ffc09aU, 0x501d1c0bbd61b6e6U, 0xced9ed0ebb0f6862U, 0xac1627866d3a063cU,
  0xee3e08a440c116d4U, 0xba47225854ce40dU, 0xc764c15794f2ddfcU, 0xe3a8ad875f798765U,
  0xcac9be174b0889a8U, 0x78a4e8c9a9fbfa3aU, 0x98f3e16aa245c6e3U, 0xbc5a7ade9b5db7c2U,
  0x914478765c9ef866U, 0x3c01136456bdfd4aU, 0x3ce569143bbf57e1U, 0x9dc4c9521f768e9dU,
  0xe4ffe449f3b33a3aU, 0xa7b4c938b239d749U, 0x603110bc8a1fd078U, 0xcc006e3c39e887c5U,
  0x55280dcfa2dddd65U, 0x13fc0830a9f64d20U, 0xac3e317ad91b47f1U, 0xc674fef383067ecU,
  0x3443296088a75610U, 0xd08c6d388a3e4b45U, 0xa6a0c2c81b89243cU, 0xa66df5f7ec06e7dcU,
  0xb55290643c30d4c0U, 0xe0c7be5c793fbbfbU, 0x3b561000a6946e0dU, 0x4aabf0c33aa38a4bU,
  0xaf3739efb0b59970U, 0x4bcf013142e5b949U, 0x2ecaea359eb4a23cU, 0x56859e373e70a6cbU,
  0x2768159cdd083784U, 0xe8640431bf4d3af1U, 0x53ed9ff9ebfad8c6U, 0x7ad4d08e92093197U,
  0x9049c4877aac0f92U, 0xe61e95595099b3d0U, 0x9faace4e858b0cbeU, 0xf092c1cb09242edU,
  0xc80d1522af5cb43bU, 0x61a3fe21d3010f73U, 0xeb9bc16e139d03b9U, 0x362673ca905da6b7U,
  0x481cd6500f1f499eU, 0x370a21c6654c610cU, 0x8bd091f16dc328f6U, 0xed240fa9d43e3feaU,
  0xffe4b4ac58532ef5U, 0x50621c56d6fc5b5aU, 0x5b61ad8baba609b3U, 0x590b6bb0d2c976eU,
  0x210bcf8d600efcdbU, 0x2f8dca21e6a11000U, 0x588c44ac0f18c16dU, 0xbd2d65ed0d2a0fc1U,
  0xef88570f11f3bd1eU, 0x2436e6fe0014baa6U, 0xe44e029514b6e5bdU, 0xd70906957409e9caU,
  0x8b504d6a1d123e00U, 0xf0acebd35ce9c592U, 0x66b03eeaa95a4292U, 0xb7b15f84b890eb12U,
  0x57ebf4742ae05214U, 0xfc40bf4a2e64a71dU, 0x1697ed73c249cfd9U, 0x5270b2cf48450d19U,
  0x74db4f30bd37662dU, 0xf7633dfd0390473fU, 0x9522340f504c0e10U, 0x5709d7f1f11e9362U,
  0x730d170638bf249eU, 0x6aaa9e5bf6454025U, 0xbd84a0eec7eb258bU, 0x33e6a9f5a4d0a6a9U,
  0xf443cefc37ec5ea0U, 0x365494e78d51fa68U, 0xfa28b8ccdfa321ebU, 0x40f9e1de28ac46c3U,
  0xca32d42c3c7c69ffU, 0xb7251884abca2426U, 0xee2420286836452dU, 0x96c9ff92200011f0U,
  0xca98dcc96eee5c2dU, 0x1c30fd13d9748ef2U, 0x32977712ccbfd9a8U, 0x9f42e8aef3b83388U,
  0xa0b0496e57e37430U, 0x656b35f913f0f58U, 0xb8effa7cce4b0c29U, 0x6258705754a01d01U,
  0x6a32e69851d32040U, 0x8b1fcfbd70dc0593U, 0xe3ae44858bb8ebf0U, 0x481c1ea3bb8dd8d1U,
  0x8344017fd732b35U, 0xea6d05777c950c2aU, 0x85cfc67b0d923f09U, 0xb62e0cbbf4b4e2f5U,
  0x256561d0ab5ddf68U, 0x535a321e26d58aa3U, 0x724f2747d2198a0aU, 0xd6a0c12ab4ada5eU,
  0x1eb8ee4d92ee5dafU, 0x3765d12d964e5db3U, 0x59fa8ebaf2bf55fdU, 0xdde2020c186f9474U,
  0x35880ea143e008d7U, 0xbe61cf1c7bdb1b72U, 0x9fb00825005b46fcU, 0x774d67dd7968e0e1U,
  0x36a17cc9354b56b4U, 0x95d8557727085bdaU, 0x7afa1539be59c1c5U, 0x3289f4af45fd8a26U,
  0x376ca03e02f7980aU, 0xc4d704030ef699b9U, 0xe3ddde66bffb4fbfU, 0xf8a6e93baab15334U,
  0xe6c4a5cb5e376a15U, 0xd7c2b19b487c497U, 0x266436296a1993f0U, 0x114f5b9d6f85ff7dU,
  0x74e7a8982ae0f28dU, 0x99ea47c83ea5d3dcU, 0xf665520cdb852f50U, 0x31fcccb83a456c2aU,
  0x1dae43aecbcf70e9U, 0x9112ed154750617cU, 0x8d52272704ad6b55U, 0xb236482ec483926fU,
  0x4d3a424b5ba1dd16U, 0x8d73d13ad1d03251U, 0x10bddcf6a285b0d7U, 0xed14a4413978096dU,
  0x9fab4bd1fbc159b9U, 0x94f884cc92c318bcU, 0x3a94a9d99d530f91U, 0x24967b5d7dc2eaf4U,
  0xb061b75ac1e5e314U, 0x5612bce220406651U, 0x3bef8d1e000a8898U, 0x3a62ce5c8c1ba33fU,
  0x2b481a19adb0449fU, 0x7601fb76c14541c5U, 0x228bd52505e2fc0bU, 0x1eb714c633282ceaU,
  0x771a975720532619U, 0x1a2cdd2e27f7a465U, 0x6aa090e69e7e5c7U, 0xe55879e37406475dU,
  0xb83e1b6c5d64b392U, 0x35fdeccefcbf709fU, 0x73e05a1b1cc7fa16U, 0x7b644647af790f75U,
  0x9e0bbaab49a28d6fU, 0xc81f0cd340038c27U, 0x3d020d9153534ff2U, 0x2fcd61b8b96e55b0U,
  0xf1244a5765754051U, 0xfb922c26b88604e4U, 0xcf6d3389015f4a8eU, 0xc3c195d3fbeeb787U,
  0x28d130e6cd4e1427U, 0x3b18ed5e428434a2U, 0x29fc469eb4564f37U, 0xe3bf096aa7e57638U,
  0xc09447f6f83e8d2eU, 0xa6787dc6d3c050dU, 0xcae38df06d10c105U, 0xb509a66a69fb3bdU,
  0x7a180599dd63792cU, 0x3857da221c784b18U, 0x99e753105e4e382eU, 0x9f7b02a74bcf73e1U,
  0xb74a6c8e68e2e1d3U, 0xbee10387a538dc4bU, 0xdeaa0302dafa5d3cU, 0xf713ad78c298e0d6U,
  0x43d96947f0a923b2U, 0xf438a9a608d5609dU, 0xa91fac9760683d5cU, 0x3e531fb1076d8eb2U,
  0x3f41541f18b96dU, 0x94ac53bed0dee3ddU, 0xa884f6cb79097452U, 0xb94e6e4132bfe459U,
  0x77c2486af83a2a35U, 0x4e196d7ac05ba9d6U, 0xdcc8d84dc362f551U, 0x7fc261a858974c0U,
  0x7590afac3767ba20U, 0xf737757401adbfd5U, 0x725a14283ba4f31fU, 0xabeccd19449e11b7U,
  0x73a7a05b2cf78bf5U, 0x65b531d6a96b0d4U, 0x283c4653fb708aacU, 0x23fbc0615c6a0bfcU,
  0x93266ef7a9e6250U, 0x5aea01bb722bbc3cU, 0xde34a777963b11e7U, 0xff9bde784e6c2cfU,
  0x3e62283abb30904cU, 0x70f8db372f1c99d9U, 0xa3a725408cf3d9c3U, 0x6a984f730a28a930U,
  0x8f6fba56e8035f6dU, 0xa3a73916c9e7064fU, 0x8dc1c4d5ab5473abU, 0xfa0d150350b464bU,
  0x61fc18eb261fa198U, 0x2d6afbce6e50d712U, 0x1f1ec66c7654ae54U, 0x773c2824b31b036eU,
  0xeb8d744ad8fcffbU, 0x40346b32ae52254bU, 0x7363c559783efaaU, 0xf90d5d632548ac09U,
  0xe021cb9601cf1d5bU, 0x7586070f5c576238U, 0x519442c07c3921f1U, 0x37cce421c726ff8fU,
  0xf987a89f19ee0625U, 0x6ccf8f4a0bfdacacU, 0xbce0b538fd492f59U, 0x1b5fe2ec97c1fdebU,
  0xcfd528ce35d0c03U, 0x3110da5d4783ccb0U, 0x54b162ec5ad732f8U, 0xc666d322dce87afbU,
  0x9e9fef198a53ddb2U, 0x93dde06a15b66f46U, 0x946e71a4bd94b43dU, 0x17aec8054dd7b15dU,
  0x78dfc7af626c249eU, 0x38998e0cfdb02148U, 0x3e2359a614bcca03U, 0x8fe953aef27a13ccU,
  0x550189dad1a23042U, 0xbee33f0f34a8bcd4U, 0x265fb81b8f88adb2U, 0x8c1735dba5323959U,
  0x371a495586762f66U, 0x59db5b2f0bd94918U, 0xbdf070d0434f7942U, 0xa896aac74ae5d394U,
  0x77d9d9b7f98f34d8U, 0xb588a01701c67a86U, 0x6d109bf1a02fe222U, 0x786e5819c7bda364U,
  0x38524df5295dea6aU, 0xedef4be626842c44U, 0xe6f5a9b5ae434e7cU, 0x7c68b9bd45ac041cU,
  0x4396850098bb1791U, 0x47b22fb4d39f0c58U, 0xf876581ec485a348U, 0xb422e1087b6801caU,
  0x9c22a62ab1b9510fU, 0x4e877ce1d13c6410U, 0xfcf77149da1243d2U, 0x69c8af04f2c637fdU,
  0x7899314d89374d76U, 0x125fbb875be894f2U, 0x62085e9588b1feb6U, 0x14edfe4932d08611U,
  0x86cd6d40879265a2U, 0x7153d0529998312aU, 0x67ee4bea642bf8fcU, 0xd5a649263133de5cU,
  0xdf16aa3a5ffcd4a7U, 0x5c63744d8ed00d8fU, 0xc607a61fb90226b7U, 0xb9961debf157ca0cU,
  0x506731ec79bc0cecU, 0xfdaafeb331e77aaeU, 0xed4ef7f31ef4de9cU, 0xeb1606c1ab75a815U,
  0x4540337813f45b79U, 0x77c3785cb1aeed42U, 0x2dd65eba4a842750U, 0xf015cac809205ec8U,
  0x8dfe6325b51862beU, 0x83bfff7da336a890U, 0x15a7405611094dc8U, 0xe5d3d33d176ec1b3U,
  0x4a5916269d61f1f8U, 0xb9bb42b9dad7831dU, 0x3ef55fdda87bd2bcU, 0xf450a6ff5cead3fbU,
  0xd8f7433eef763d1fU, 0x925ca20feb6c06c4U, 0x738d1a9df27502bcU, 0x19d3f47b54f9fe8U,
  0xec42e5c9359f1807U, 0x10df830e21281586U, 0xbefa6357286d5fd7U, 0x3f7520f8b170e725U,
  0x4be0c869015a8b53U, 0xeed06d408ec4e3dU, 0xd3c06e26d693264aU, 0x830416084895e37U,
  0x2ab7a160748a2699U, 0xae2746d502a77492U, 0x9a512167df1c36ddU, 0xeef13074746a713eU,
  0xd154443edebac0d3U, 0x719d1a2cfce0b9c4U, 0x3eaffdfb08e9fb83U, 0x17e8778a8c501deeU,
  0x4bd739a9a4427a4cU, 0x57255ba61146f2ebU, 0x2ab0dcc76a2cdb56U, 0x5ab08aa00254918dU,
  0x74aa3a41b1d06e8cU, 0x53f8a0e8a0e2fd64U, 0x8824c05604d1ed48U, 0x527a334b96cd04a0U,
  0xb71cab9d78892637U, 0x2a1c06177d534d88U, 0xc3b7d5f9fb7b0041U, 0x715c5925efbf7139U,
  0xdd871a35d9bba820U, 0x8865746bb0ab03aeU, 0x6dc7d063bb647156U, 0x4849ccbeae3e69dcU,
  0x1da744aca7d4da86U, 0xc40a78698cdfb008U, 0xe617a4844cf11c18U, 0x5a2fdfccb4c505d3U,
  0xf99dd1efbd674e5eU, 0x713415f77648c9eeU, 0x110b6caa8ac8d16fU, 0xa5bf5f85aa1d66f4U,
  0x1da0c9374defe10dU, 0x6097b590067d0538U, 0xf9d40218c9ff8666U, 0x510ef08eaf903b07U,
  0xd303ac1d54c0d799U, 0xe2e052068eae170dU, 0xeb2308cf53d1ea8cU, 0xd5eac6b0f0ffc613U,
  0xd4fe8e0fa47bc2fU, 0x2b2a4838d9089c1fU, 0x79af32d62b4d5d64U, 0x71f529f0e6da6f66U,
  0xa153cbd9b9494c96U, 0xe0c978f9e8736e2bU, 0x447b725251a86073U, 0x6cb58431d31beceeU,
  0xbd865bc6189847acU, 0x651ee1933c959f87U, 0xfc5dd6570b5bf0ccU, 0x93663c068b04c5bdU,
  0x4458aa1f39d145d1U, 0x352bb4300e3176b4U, 0x344d96fc614b3888U, 0xe61290b89f0b9a6eU,
  0x1fd66bed6c48cf99U, 0x2e29c1a6ebd21a68U, 0xb746a43f78641d9U, 0x4e2b03a014996203U,
  0x31d6aad61d6efe64U, 0x677941342215418dU, 0xa70d53cf9624db7bU, 0x2cf40aeb3c953e4U,
  0xb59ede6f39461e33U, 0xdfcf3194317a0490U, 0xed20d12ff9283db8U, 0xdd6ebb4e3f282cccU,
  0xb01afe07f348c027U, 0x41fd4644a852dd09U, 0x39ad5ef8b8e1fa6U, 0xd1dea24811564184U,
  0xba3923ef55d62236U, 0xd242147499d79dc3U, 0x4265cb85c318715U, 0x2b1293be3f02ad62U,
  0xd222181111be792cU, 0x561c92485f67bce6U, 0x708755d0419c1da8U, 0x13e16f095d2a8e28U,
  0x66da4dabd5eed8acU, 0x2f05d3e35ec17069U, 0xec9663461cda77c8U, 0x2d1d0c003c9b133aU,
  0x29c8ed2f3d2a47cfU, 0xeb2d21e49eb8b822U, 0x9347512f8bdedf50U, 0xff64be249424295aU,
  0x642ab31aa0963925U, 0x6935d393e1127762U, 0xfc632c0b34c8c38fU, 0x367122f4a547d130U,
  0xef2317052abc4e9eU, 0x79bfa657515d98aaU, 0xa0589b318429102bU, 0x78bb1fe84a1ebb5fU,
  0xecfebcf409ab402dU, 0xd9e0ec109ce1e49bU, 0xf533d9c0c143c476U, 0x5500e98c12e72005U,
  0x654c745b26df2a6bU, 0x656a5235c7389775U, 0x5f3daa92da68af70U, 0xa8736e3348dd9b4fU,
  0xe02b481945848d14U, 0xc2b1004005917167U, 0xe875da22e3b56fU, 0x8fec2318d8566e61U,
  0xe377585fab855958U, 0xf8e1906406c5e7efU, 0x3643dd4b1752f227U, 0x31ab46fed454dd2dU,
  0xc6103714f833a25bU, 0x1c41e22190645cb0U, 0x1ab35afbfd9132ddU, 0xddfac68d18276b11U,
  0x49bd32a8d9fe286cU, 0x2c86f3e47829b6b8U, 0xaf6ca5c27378ee6eU, 0xf39ee4f6e99fa74U,
  0x6f25f08a769ff79dU, 0x33a6fef1156978adU, 0x5088480e68adb710U, 0x9018e4a600ae8a50U,
  0x29e028003727afecU, 0xe1556b44ad55cee4U, 0x5ad73b997c3f1d7bU, 0xac9e542e71a0b35aU,
  0x6b04082b500ec738U, 0xb8278a1cc09c4729U, 0xc3acfa2b97b04904U, 0x62576e54a993f8cU,
  0xb0b44b2d56e341caU, 0x708a3fcce51d5c33U, 0xbc0a49ed41abf761U, 0x296819406b185aafU,
  0xfde99dde8f51cd2cU, 0xea22b7f7908e0fe2U, 0x1a6f07d152a7b81eU, 0x1ecafff830895768U,
  0xe285c2ff41ef3b66U, 0x77c7dfc33076f6afU, 0x57bd7827113193beU, 0x916eb9ecdafc794U,
  0x9dc08f8d79b0d577U, 0x5e84185cbe54c489U, 0x3b544fdab1da7928U, 0xe053e6b014e7f868U,
  0x56b0e6a53e3726e6U, 0xc711890f5c76d828U, 0x154c79a2d864cbbbU, 0x27c45f270038ad92U,
  0x78761054cae22a65U, 0x4756c0d940dcf2bU, 0x6ca433fcd2704a78U, 0x74d4c122cf0001d0U,
  0xd415d54859960ddaU, 0x5caf55562d570cbU, 0x79086c3f91c7623cU, 0x4eb62766918e3d55U,
  0x393e4afd84b1de4fU, 0xfd435948b2b75997U, 0x695b2a1b4c6052d2U, 0xc0e9c05bc96f9209U,
  0xceb3d34d8650a39eU, 0xe5f83d777c0c36d9U, 0xefda795f8a3d09fdU, 0xc3d4b18cc5a04779U,
  0xf716d986108ce48U, 0x74aa7c1ce690f6bfU, 0xff5dc45e75f898dU, 0x7965e170a4e8c4U,
  0xa6316222c61a83bU, 0x3690cfe3a245266dU, 0x7c9cbf4e23094433U, 0x6f71d572000769f8U,
  0xc5858dd56fc1cceeU, 0xed0d4fc97b6fe2aU, 0x85a3669a23a1e526U, 0x1754bf93ec873afaU,
  0xc814341d6ba256bfU, 0x894fb1a151d85ea8U, 0x9fcebae1a9a58bf3U, 0xa4cbaa44a6013084U,
  0xc7a052c2b6e8065aU, 0x8c090621e3cdd3dcU, 0x14330cff59104e2U, 0x21b80d84a257722bU,
  0xb4f614b998f7a21bU, 0x6bd3c451d8e6fa6cU, 0x102b3bee69e45f23U, 0x7048fe894940a283U,
  0x18de2922ac0fdbafU, 0xeda804ba2d6ac4f5U, 0xfca821cc64edb1f0U, 0xf93662cce542c672U,
  0x691cec0667659e85U, 0x285d567b1a9d4d02U, 0x532b982e4d8451c9U, 0xd2566eeca506d8baU,
  0x1e491c8fa9c5b8c1U, 0x44f85b2daf2343e8U, 0xddcfcb360055a9e1U, 0x3a5c644ce46db0U,
  0x667b082cedecd8b2U, 0x5f2167cad5e2d11cU, 0x8e631cf18a9da516U, 0x40e71a4761c02c8dU,
  0x6ac30c9f034b35cbU, 0xd754676baec2c560U, 0xcca9fa8a2327aac2U, 0xd75c45060c0bdfe7U,
  0x587822bd9364339fU, 0xf2e8cac0ba851603U, 0xd93928cf99ffc7ecU, 0xcaf113da2335149eU,
  0x4eb82fe8cc420aa5U, 0xfb4fc3ac8cd582b5U, 0x4e87c03b134c4faaU, 0xab0aa896cb30cd51U,
  0x411846f11110240U, 0xed70e85176d05dU, 0x49836ce21ec35c02U, 0xf13a2ff6dfeb6332U,
  0x58bd3f93a20c09f1U, 0x374f5f0a7a425416U, 0xaefd2d119c3ca6cfU, 0x93a06bffee8ddb4bU,
  0x7623621ed798f19cU, 0xc169e67165dcd201U, 0xa679518f94d76689U, 0xc56ed6bcfc12909eU,
  0x45fd719b38ff15fcU, 0xaf67f965680c39bdU, 0x38fa14b3aff95c1fU, 0x7474cbea046b63e6U,
  0x45be28091750c8adU, 0x1c2a19a8848927edU, 0x666bbab8134ba62bU, 0xb34c9bc23784e8f3U,
  0x4793046521ea614aU, 0x2026ff453a9d72bbU, 0xf2b16dc611764b6bU, 0x9eb7e458a6c3992cU,
  0xa98be6884d05b6c4U, 0x9ea271d6b90cecf9U, 0xfd9b7cdaaedd61bdU, 0x9736199469dc19bbU,
  0xfd5b74f69739cb66U, 0x4c27c3c0dddb0f6fU, 0xf54b31b7ee0139eeU, 0x5655997959dcb661U,
  0x163c67699a950408U, 0xc9b742a3de6eb1ffU, 0x9c4c6d7baa5e7aU, 0xa928e0f088451372U,
  0x73293a542b135f79U, 0x974310e3f7b3ccebU, 0xf6675509f0260ceeU, 0xac53edc8a560659U,
  0x1520f4ed45cf72c4U, 0x322a9970b29f2bd1U, 0x45e4dfb59ccc3d26U, 0xf4f6961b6e3db2efU,
  0x76782f55fbd57aa6U, 0x276ad2b4ad2066d7U, 0x47f15588916db7e5U, 0xbb57ec1225d0f16cU,
  0xdaac9657968e53aeU, 0x845fd461c551973U, 0xf9da6f53c0233a3aU, 0x8535d7414b5dd00cU,
  0x89f7f7c762da30d0U, 0x99b6b4c8a7403795U, 0x780a1bf031a350ddU, 0xd996768b679d2049U,
  0x9cee1dba7d4ab4a3U, 0x891d7905cb06b523U, 0xabbcc6b6c896a8d7U, 0xd0565e7dd475faf9U,
  0xc6297aee3152571cU, 0x1c3a601af86c2d56U, 0x8d4bfd2e9bb9a99aU, 0xc7abacf439e1c1a6U,
  0x4259f6609a06ab2bU, 0x6ef8717b8f3ee449U, 0x8a06caa5aa9ca4b7U, 0x4609e88513c842d8U,
  0xb158bfb6256be16bU, 0x7798e0ff72e12eaeU, 0x64c11850f330e1fdU, 0x9d644c88c24112fcU,
  0xde46429119c7cf8bU, 0x15bf1fec3820a2dcU, 0x52b6ccce8977e084U, 0x1866ccc68316425dU,
  0xabc809b6060b65f8U, 0xfaed43ba2b3df469U, 0xdb0e246d730ea255U, 0xf49e42f641852e74U,
  0xa67c42e5d675ef25U, 0xb9bf3aca7512d676U, 0x470be5ce615e8f51U, 0xd1de4d8b8c05db8fU,
  0xbd34676cc1b45ddaU, 0x8f0cea0a149a543dU, 0xdd24fa3cbd881910U, 0x8b4719f531d0ce40U,
  0x26f284f5643e086cU, 0x1720331afa910e08U, 0x774143a9e366fff9U, 0x481d124c5cf9404fU,
  0x3b0a7632afb11943U, 0x1cce3200101113cfU, 0x4d12670b3b6ea48U, 0xc7ef15dfe3c53edcU,
  0xa9e020b8e1dde636U, 0xfc06d9d6b12b7915U, 0xe7a01591d1b36cbU, 0x72677398493fae7bU,
  0x47b4c126c1dcfaefU, 0xe2fb76777aa30bfcU, 0x8e06f267b78f02dcU, 0x66e87a9c750a637bU,
  0x2105a8c1d68c9b22U, 0x545f645cf767d101U, 0x61d497923164a5c5U, 0xa1f3aa2015310c0bU,
  0xfa9b602241862ddeU, 0x745a4c4bb8ba595U, 0x94533e3a75ef7bc7U, 0xae053935a39716b1U,
  0x7df20a66356f45eU, 0x5d695ea0b2ea3de9U, 0x6e0562eb890b51a6U, 0xafa2a96801403473U,
  0x9974b14b3520d1b2U, 0xafbac9a547027769U, 0x35c8546e3aa45ae0U, 0xa1bc89450339a106U,
  0x55e163ba143d94d4U, 0xf4b597246330565cU, 0xb152bcd16d709470U, 0xa443f20f66e0e490U,
  0x2c9d7d525195aa40U, 0x94b01f6a41fdddf8U, 0x9f792aa9971d3414U, 0x1a2dde2cf957ad71U,
  0x9515d0a2cb1f313aU, 0xaea42adcf352c82eU, 0x8bb9ea8efceb96b1U, 0xc21e929a17186b02U,
  0xa8fdc3c806e7b8e7U, 0xae9bf72973bef66aU, 0x6c0a7197eed1c6a3U, 0x4b0ed5c5e71de1bbU,
  0x87e6ac2ef927b57bU, 0x3f6b2f3f73df7610U, 0x33b51d20554c2cf3U, 0x3eb8fe9204d6057aU,
  0xcb9a5ac1389c6104U, 0x76b4d5af230350eeU, 0xf8ed8ded03c4e086U, 0x16cda3b854f448b4U,
  0x4a3a6901d94884baU, 0x243f03997ada7b68U, 0x6b04c644bd6c49f4U, 0xb1fff367a7c355b9U,
  0xb4123e4ffbcf8d55U, 0x284252f9206bb201U, 0xbd9377e9ee720057U, 0x6058b246b9c12d3aU,
  0x6f0902176d46eedeU, 0xb0a46958691fb785U, 0x3302e3ae144fb634U, 0x8e574d6cec7631bfU,
  0xe72ce3dbde736df2U, 0x4e3d212b703afab7U, 0x62cf2327220b0595U, 0x104e223138787245U,
  0x40a1b8607610b86cU, 0xb6adb5bee6c3ad4U, 0x4b8f904d90facfabU, 0x45d0d350c2e19048U,
  0x460048e6ab4aeca7U, 0xb3e91690b0dbb2aU, 0xd0ad214bed0dcdf5U, 0x1d9ed18b77d75a05U,
  0xef1d204bd47ce70eU, 0x75771f846083f6caU, 0x9b4483074a0b79f3U, 0x8633e8b3fb77fc3fU,
  0x972abb617a3b670aU, 0x71a7e5b2b393e725U, 0xdfc0d31ed204550aU, 0x8cfeaed80c0dda23U,
  0xf22e9465e064f79aU, 0x5f30ce913cfa6f8eU, 0x5f3524a486fa9b64U, 0x73e56113cbc60cb7U,
  0xb907ff4ea2ac13acU, 0x2d9aff3c0e875d19U, 0x1484e8e5047be5ffU, 0x65735d91fd2b8a0fU,
  0xc95e3439c284fefaU, 0xaf95ef3cfd2a5784U, 0xf9035923418f5e37U, 0xfff3bf33ad583089U,
  0x4c655778a1e026b3U, 0xbd2b038d9c5e0aedU, 0xa0f4db9069de67f9U, 0xbb69ae6f1965101cU,
  0x55bbd4a7031db5bdU, 0x9665541cf3e4d805U, 0x954f1ece7231fda5U, 0xabc3052108734b11U,
  0xd83754fddc24b5c8U, 0xc18e1ead0d85a79cU, 0x5198d1333dc19914U, 0x7079624f05167ab3U,
  0xe63c9fe67ac7d9a2U, 0x2365a00560043b94U, 0xfa03f6a2f6bb27eeU, 0x159a97ff98a350d8U,
  0x961a3ab3343b5d5bU, 0x546896e905ed28feU, 0xbf596448321a2df0U, 0xe6752bd4e49b2e2dU,
  0xa7ed43eaa3efefb0U, 0xd4d9e1167724f51bU, 0x6cde43923a24ff73U, 0x3d07c54fd8ecbabaU,
  0xeea58bf1fb270cdbU, 0xf8dbe06c229c4194U, 0xdad585a546c41cd6U, 0xff7005105831b52bU,
  0x669cb7f30404e910U, 0xe0013df093255775U, 0xaf1aafcc7aa77656U, 0x2564d6d385a04038U,
  0x72126c0e8f582e77U, 0xea4228b7e491ea5bU, 0x2744d108d3bc136U, 0xea76e55d547be3b6U,
  0x1ebf63afab657246U, 0xddbf442abb490769U, 0x97527ce32576e093U, 0x56e362dc6fbc04f4U,
  0x11b85e86e25b024fU, 0x2748a3413cb8ee9U, 0x9e07fadc7ad68638U, 0x480b3369e6db05a9U,
  0x69d01ad78aaeaf1aU, 0xa9c7e7cd6a8778a5U, 0x8cbe071e2113e33cU, 0xb069e4ad20c72a7bU,
  0x74c989e70053a885U, 0xbe58608944a929b3U, 0x5f79e2112b96cc35U, 0x5b39799637c1d3a3U,
  0x8698d2216a60610dU, 0x789bca97c76d893fU, 0xfdeb8e84baf934b9U, 0x652ebdf62b1c8d60U,
  0x30e7a42311d7fe22U, 0x6c670fa0fca5d530U, 0x4b0723ec2491f1f9U, 0x36db6ebfa729e708U,
  0x33b4ebfff8723070U, 0x22a747e88bccaff0U, 0xd7bb8aee5a88d58dU, 0x5b3112eeb8e7977dU,
  0x242f0695a21687b6U, 0x9b4f239dbcd0178eU, 0x750cb65189adc4aeU, 0x158ea9dd4dc47453U,
  0x4d1dd609f7604314U, 0x683ab90024fb101bU, 0x62bbb092dda93591U, 0x9c7cbe1b122315ecU,
  0x2da32d180fb4623dU, 0xad18a779983093daU, 0xca2b6e841a965c8aU, 0x54ea1c0b2c0c0079U,
  0x554db85328b5ef11U, 0xf36bcb64c58a9db8U, 0x747cd56b01e2acU, 0x64c3ae1f55ba293aU,
  0xcfbaa86f869cfdb1U, 0x5ea1027a5a463652U, 0xe1d124aabd671c3eU, 0x2aef78bd1aebb0f9U,
  0x6a08bac00b67f570U, 0xd544590395c9ff3aU, 0x2f415d9c2fc4cd8cU, 0x6a13077864746347U,
  0xd0993ee295c97b4cU, 0xb17cfc9ee4b03c5aU, 0x94c24f7cadc58be1U, 0xfe839b8c8efe791cU,
  0x9cdb621da7629ab1U, 0x3143e7d560db2ebdU, 0xc2d64e5fa3d0e615U, 0xb1f4556dee892bd3U,
  0x2b0328502604ad31U, 0x8b73d60e6258d107U, 0xee6d3e531d17e785U, 0xc32ce00020523749U,
  0x403b12680638c1d4U, 0x87e33310da8d2009U, 0xd7e7bcc617950a63U, 0x99606c5734981e2fU,
  0x63068c1b3c275fbfU, 0xb34727f5600aed51U, 0xb15eaf4c43616f42U, 0x8ad1e5a7c77126e9U,
  0x245e17a9166add17U, 0xf7090a44ca7b41ceU, 0x28c6204cc3455eb0U, 0xd19b49061dd30a45U,
  0xade5d9e3f8c3838eU, 0x20969aad551c44a8U, 0x2fa430d8a500aa51U, 0x3dfc6ff6e1298fe1U,
  0x32fc5753058217edU, 0x37497570b997db49U, 0xd6890c3c5aeafdd5U, 0xf96512ffdf90ae93U,
  0x621b617c9faae26U, 0x173d691cbe648db9U, 0x3ddb26695b4f5694U, 0x25138f2dd48a5243U,
  0xfc87abd6e8c40494U, 0x8e9202f0ed5ffb1bU, 0x601ff66cfab34240U, 0xbd4864a3b2f18f2cU,
  0x16cdb356b3c52fafU, 0xbffafe43dae47687U, 0xf9fa1f0cb62372a5U, 0xf3556e791d6b015bU,
  0x9c3aa08a5f10b730U, 0xacb2b0f6656d0d3bU, 0x6ba4a50b83d399dU, 0x441d217656efb615U,
  0x2c332089568393e8U, 0x6c5656fc7272f128U, 0x6cf3cad869d2d210U, 0xd25fa62d550657c0U,
  0x66a669be4bd20b94U, 0x6e5d3c985a141f5U, 0x48cc10602f2e31fbU, 0xa15d08d2d950b72bU,
  0x612bacec36601e0aU, 0x500c3101a1a0e12cU, 0x8f71c069a5c05ffeU, 0x965f60419709e765U,
  0x3808314a69af2063U, 0xe82227309bbeb59aU, 0x66681c8efc4368b1U, 0xf37a4376c6afe889U,
  0x988821ee338e1400U, 0xe66278fd3e2fdeU, 0x941f7c3deb1f6ab1U, 0x4d9aa0bd2db67b76U,
  0x88542aed91f6734cU, 0xd8d29eb03dbf0e04U, 0x4e6530bf8bfac6cU, 0x932aca5b93ee5f16U,
  0x9ca3c1d68ea95fccU, 0x688ddc2f98ef3c2dU, 0x25e0d33e8a955b20U, 0x8814670eb809c930U,
  0xc7f82fc0ed673400U, 0xe83f991ee4a6765aU, 0xfacf1740c88ba12U, 0xb6835f56c6fdac87U,
  0xcd3b91a9ca3f4e88U, 0xa8f663200660e2adU, 0xeca9d903a8ccf310U, 0xdf9e06916e44634aU,
  0xd9b132957335623bU, 0xf7894be6a009b2dbU, 0xa759a4fc870561d4U, 0xeb95b9493e4c4d96U,
  0x2898f07049c4a5cfU, 0xc7fe943e9c955051U, 0x1e2c4557bf87df77U, 0xf52ee8f3b98d76eU,
  0xe421054f167dd8daU, 0x95b66b9f44c89153U, 0xf422a16bf27b3286U, 0xb401ce4acfb001f8U,
  0x14f12dcc1e03d44dU, 0xf4978b45541220d8U, 0x19707a827aa8913U, 0xc61e7aa3b9692849U,
  0x7607c9c59702ca8aU, 0x538eb724e988668aU, 0x9148b1a03d4d48a9U, 0x8676df12b4be826U,
  0x629a78aa0b5ad995U, 0xa8dfee1db7f7f538U, 0xf900bc1d831cf60eU, 0x461bb9116f44a247U,
  0xf7c0aee09e4b538U, 0xd2eca38576d7c8f5U, 0x9b62d62a92027ba4U, 0xdcae4a0be5f7e82fU,
  0xe59ec5bf0b225db8U, 0x8829bd5b1deaa226U, 0x47c6b55eb217795eU, 0xf69c1bcc8dc189d2U,
  0xb869989833322100U, 0xf061ec1a50042499U, 0xa6978bb74a2fad42U, 0xe2de918a0d9033b3U,
  0xd8b2d3658a91eea8U, 0xedf792f47ad5f36bU, 0xef54c2a2a9d2d91cU, 0xf1269d5f6a6c4f70U,
  0xd8abf15235cf7430U, 0x54a741d2e7e82d53U, 0x7adf3ad68f132964U, 0xbcd551336fd39806U,
  0x8ae7d6188d5ba6dcU, 0x50f8b80df8a41624U, 0x7bdfb4131f8f84bfU, 0xb526793feee2f6f7U,
  0x79f60d0ee88895d8U, 0xca0e4c2c4828e56dU, 0x73b279d1bbb92bc1U, 0x2c3e1e13888825eeU,
  0x5dcedca9cd547346U, 0x770023bf39cee9faU, 0xd949d494b5d25fe2U, 0xa2a79985e835dfc9U,
  0x4df147bf11683005U, 0x3e256446a18913U, 0xc870e919a06753f8U, 0xb403ced84fdb7cb0U,
  0xe7839884a8261b54U, 0xcfbb01fa944dcf77U, 0x3939cfa935e7b5a3U, 0x904bc6c41def63c3U,
  0x761052d56f2edd70U, 0x36043464ae26374aU, 0x40038a3c63cd546cU, 0xbe32ce6c1339108eU,
  0x1b3c013cf564fd88U, 0x2de4c6b93b385d01U, 0x253cb88551e26b4cU, 0x73614bb3e67af75fU,
  0x4949441b2d72e139U, 0xd89d3ee58d04d5d6U, 0x4e4ce01cce45acefU, 0xdad3265a96c61628U,
  0xc14868114872f0a2U, 0xb2aa96ac301ef653U, 0x5369552195a176U, 0x7967fc7a41129891U,
  0x76a69dd3e372a731U, 0xfe3cac0563299f57U, 0x8cf90c59b8b5f873U, 0xdff5ddc01174a049U,
  0x24f901d39ce6ac40U, 0xa850a6acf7bdc4c4U, 0xe1c5705ecd1fbe0fU, 0x74ee723276166a64U,
  0x5894b4fd322e75cdU, 0x4e3bb0f38b3f6601U, 0x4e8adb4891bd5aecU, 0x51f01cdbe92c1172U,
  0x154619732b70e1d5U, 0x40495d26e1695b42U, 0xaf50ccaacfa94d1cU, 0x6147a354433ba796U,
  0xa83d61df557ae16aU, 0xc210787c1c6eac98U, 0xffb23fdd34fb340eU, 0xb908f9798ebcddcbU,
  0x63c14e8f5e1acb2eU, 0x8a17533e5d8577e3U, 0xf54f845a3a189a9eU, 0xf7c319b81859e395U,
  0x24c1ae431a2d62f1U, 0x995e3d368ee476d5U, 0xadc092c7738de107U, 0x60a479124af70922U,
  0xb15296ca22d743e6U, 0xb90e5cc12442e00bU, 0xeb17a352d0cdb00bU, 0xc607fefd66ba0e64U,
  0x58a69c689e3d0179U, 0x90bf7aa1d1d151cfU, 0x6524029d5c415c86U, 0x93e75bc1e62ae813U,
  0xb444b5262eb5775aU, 0x35bf2d3027ed76a0U, 0xf594ab7b38e76597U, 0x878e0a6e4059dbb3U,
  0xc4999bd762284498U, 0x1aba790193630cc6U, 0x84d5b2fc8cc9ed0dU, 0xe1c9ac8cb9357364U,
  0x8d5392af9bfa1bdcU, 0x5f1b2a6be75887aU, 0x8e0be22507f45f55U, 0xfa0f49e13e1104e5U,
  0x7aa8959baea3373bU, 0xc12b33c0d685da4cU, 0x24b3e1895ac8ec1fU, 0x2bf9f0e6429047bdU,
  0xc1a12dee3c010702U, 0xb5d5efb2303ab495U, 0xc5048e6f48c8f83eU, 0x51c4168ed52fd229U,
  0x76be2613119264ddU, 0x2b7c4747f6ccc48fU, 0x7b15405376935888U, 0x6684bef90738e502U,
  0x9df4b514b184b42eU, 0x94dfc66d9e6004c8U, 0xa534dbcbabb258cdU, 0xe45bb878899ca2fdU,
  0xec4393662b55d318U, 0xd6e9b114a928559fU, 0x3d2e2e9705e78462U, 0x897b391565064eddU,
  0x71685ce5f53f5326U, 0xee1d6c785085aeU, 0x224b189575286006U, 0xb42c45c0f09f0fe1U,
  0xa2de26a72f5a48efU, 0x767a1f44a569e576U, 0x40bc3f08ed6e0778U, 0x4ae6668f909e3601U,
  0x27c0b2e1f3fe6f87U, 0xb181a2af2b04799U, 0xdbf804fe986e5e47U, 0x2efa88d95b32f6afU,
  0xc59ed3af39d8e532U, 0x7a34dce991002b5aU, 0xbe514e1d9cfe3fb6U, 0xd8f9dadf16625a08U,
  0x63631712bf4b8748U, 0xf7e3dc3c0f22b214U, 0xb762a11475649e0U, 0xac896eae53841018U,
  0xeb5d67714dd989c1U, 0x90cebc99686613abU, 0xa572beb7aa296cb4U, 0x4a3201f33a5378a6U,
  0x2df1869b989dc2b9U, 0x5b2aa0d4063ce7faU, 0xf01e2cd26663cbe3U, 0xfe1aafea67e002a9U,
  0x6f2b3675e94c2abeU, 0x63873ff1f35b23c1U, 0x3b5443753595b2aeU, 0xbab6d62a7d43520cU,
  0x39db01b0e77aa55bU, 0x2b012cedc40c62d3U, 0x7c33dac5cfd43d86U, 0x2f9ce0dbe2d912eU,
  0xb12319f439979c29U, 0xc02746bf53882214U, 0x1694baa1abe9924dU, 0xfebf9a6575d9d2aeU,
  0xf0f79f2eff9c5c84U, 0xc1c62d8a4fb9d237U, 0xe9088c5db845c9b3U, 0xd850a6c5a320b506U,
  0x3b0a9cf8dad52f44U, 0x1e7b2965a1c30341U, 0x13b32fc4011c4731U, 0x96aa513721f46f90U,
  0x9d94280d1cc50999U, 0x14758e11c42685bU, 0x4888d442e476738bU, 0x41736c3bf47ab413U,
  0xd7cfa7d10c0dfe49U, 0x911dbf66fae2cb3bU, 0x55cd027514bd22ceU, 0x305560eeb80e3970U,
  0xb9dbf0a574556bd8U, 0xb6e293a631dbf405U, 0x88cbdbd061b343faU, 0x78d992c2cb5a4eeaU,
  0x9f1e9575b7fab5aaU, 0x2e19a28872a6a544U, 0xe2a9414961fe480bU, 0x36c3a1a4b2037833U,
  0xea22e5b8e493f04eU, 0x1ef7fa7136ada455U, 0x4e10ddcb481484c2U, 0x4976fcaec234da06U,
  0xe6fc25bf4bf7260bU, 0xbfd93fd1703d6067U, 0xbc1ecb872fb208c7U, 0x723f3f05ca3f6173U,
  0x98af2bdba08c4c57U, 0x5b7ba26f094d50fcU, 0xe9091f5b30cd77b4U, 0xd76fee1a3b2f5be2U,
  0xb23caa75ba1fc94dU, 0x7cda398f2f13999bU, 0x20b49f742a4bb406U, 0x733e895686dc34edU,
  0xb93c4401d1ae2769U, 0x536011cd7c006e5cU, 0xd4fb8e4e748ecc72U, 0xa01c71c521a42475U,
  0xab33a246fc415bcU, 0x4bc51dfe4d126586U, 0xf0935ff515acb7c2U, 0xb44927bb3b52d9d1U,
  0xfb368c69074144d9U, 0x1298878cd907c856U, 0xd70e7daf69404ae0U, 0xe849c752a0878ebcU,
  0xcd1d6e87841051U, 0xbc221ccbb21e1441U, 0x9a2d694edfc4611dU, 0x8cc4525827792fd1U,
  0xc5a45538f45bc25U, 0x65a461ed36154afbU, 0x8b4a57bc9b415abbU, 0x2755d56f2c154e2U,
  0xcfa9775ce0f357eeU, 0xb01441ea6157bc98U, 0x3129d0d61350d275U, 0x5ccd53ee1631fa38U,
  0xbaf39ec0dde4c486U, 0xfa7033dfff9ef740U, 0x4e03d44b9da89e14U, 0x5e6350ee5ae806a7U,
  0xf3785cd8998e9c06U, 0x3b2d62c27a69310cU, 0x9d19d75d1babdd0bU, 0xaef5664264c660efU,
  0x61bf370900f47914U, 0x2e036feb79931dadU, 0x9e154f7ce8241cf3U, 0x789da19f24257e7U,
  0xd6dd5f235a895e30U, 0xd3413dc92e2fb6b0U, 0x46a6d61fc3dc097bU, 0xa8350d222fb65c3bU,
  0x50b56c20e04604a7U, 0x60639c0af8eac102U, 0xffa53feaae1a0bdbU, 0xc5c96f2bb49a228bU,
  0xe018e904aa3b8f88U, 0xca154263accfcecfU, 0xd05585283dbd2354U, 0x181e4c8d846da4ffU,
  0xd9f891b52304044fU, 0xab9a8b5da4edebe4U, 0x371a6a05279f245bU, 0xb948308a13dc40b0U,
  0x72a1e4f4fe76aed0U, 0x446200ad323e19b5U, 0x4c837c6c087c2547U, 0x6e0901b3b6d54ce5U,
  0x503950692069b118U, 0xb68dd25d34874abU, 0xef520065250c7a92U, 0x5b244129c84d87daU,
  0x8b56ce9bac235b72U, 0xfdf6642537bc3817U, 0x5fc3ad7b40a4cdc2U, 0x582babb1ff87a4ffU,
  0x1207e6fd057b5d5bU, 0xdbaead3c5b5b4bb5U, 0xc1523dabeb142458U, 0xf19ff24a31100594U,
  0x13ea00cc2f4e47b0U, 0xe4aa22977863c3d8U, 0x468c5a2ebd37b46eU, 0x46ecf24400416f67U,
  0x605f46f8166333d2U, 0x6ac34364786d9478U, 0x10fdcf4f3b7c5629U, 0x66264a061f1e3e7aU,
  0x615bd4e62557ecc3U, 0x1c572d314c6bf9ffU, 0x6684fb6c7dfb16f5U, 0x26d3af4a5446eac8U,
  0x4b020a6cc1ab4bf6U, 0xe4ae7374ad34980fU, 0xaca45c4684453703U, 0x73bf95a59cef27c6U,
  0xbbfeadfcc96ed686U, 0x88ccdc4b64a44d57U, 0xff186e68d9a45015U, 0x9d6ffc56ef39f831U,
  0x2e22d99d8109dd5aU, 0x2ba3a39a93d86afU, 0xb8f372b1a7cea9afU, 0x73db8f829910ee9U,
  0x364962345dbf3054U, 0x29064b5d47d5e485U, 0xf15bc2039568fe4eU, 0xf4ed402780a1cd6U,
  0xd065c828b10e3a22U, 0xd6e03b3735a9d31bU, 0xfefd0dce4012f383U, 0x4857ed32ed98055bU,
  0xa0b2601f3bffa643U, 0x5d8c78cd7dd5ae65U, 0xf9106c1ddcc7d638U, 0xc577edf95754f30dU,
  0x4806b5ebdc536b88U, 0x62122de9545d1b2cU, 0x39c81b352dce3856U, 0x546a14f2173cb639U,
  0xaf24a7750adc879dU, 0xce4e19d516cb2c2eU, 0xf30abdfda8be47c4U, 0x6a55d03cec81be2dU,
  0x2eaf94da24dd56e5U, 0x2319fd856db36e73U, 0xa09c33a17c5172dbU, 0xa08583158aa45946U,
  0x6907f973a8596447U, 0xa66e493fd844b258U, 0x315d6cd79dffb06fU, 0xb72889e8d4948d47U,
  0xcd97c03ee1e3c3d4U, 0x1a699900e4f3d9aeU, 0x24ca216b19220f14U, 0x4d0b4f2d133c9f9U,
  0x589bc529fe4284f0U, 0x24e1ef94f86e3bbbU, 0xc50cade988ca2d16U, 0x79753ac838c8b1f1U,
  0xa1dc329445de0af4U, 0x121051e30e695093U, 0x3ed99cd83d8a9962U, 0x471709be92ae6606U,
  0x67e3a48a0ae6b9ecU, 0x12896dd1e4c2e9baU, 0x8c51ba0d0fed448fU, 0xcbd63bc24b32d1e9U,
  0x41fccd77c788300eU, 0xdbed5504e2fc6fe2U, 0x339120fe49fda6b9U, 0xb540f18eb0d0f0aaU,
  0xf77255af6116610eU, 0x1206f75dc8de1fb3U, 0x6a929ddab2c7a0f8U, 0xc13a95c33565b89U,
  0x65eb5c9334501104U, 0x326d589ae4627252U, 0x28762ea31fbdcd55U, 0x520ae376c8d6cd72U,
  0xa7a32ff3e7c229d6U, 0xc92bb318becfad07U, 0x720b680df0a54641U, 0x275a202eba5e4585U,
  0x5b60ef70a6e8e279U, 0xdd5b68b0eeb054c7U, 0xa7007ad3a0a3cf31U, 0xa3290df35cd2b02eU,
  0xf5b132c3d53c73baU, 0xd75fc3714ceac892U, 0xd588f125918fcf43U, 0xb52ad3fe1a83e503U,
  0x8974f0e44f469a5U, 0xf278b816c09836e0U, 0xceaa960ae2bb5c75U, 0x7a28d8894372eba3U,
  0x78dcfcdf14447205U, 0xda13fc3fe5b2cf0aU, 0x2637a3ca93f887e5U, 0x961e12e4c050b718U,
  0x8d0e0eaa75560c75U, 0x21d238f831a7172U, 0x1e082999d3e49dc6U, 0x97736c451569680bU,
  0xc0f263d3c5a138cfU, 0x2d1a5c0be64ccfdaU, 0xa06d15735f09bb5fU, 0x4ba9a367d856c3d8U,
  0x53f0c5146965c256U, 0x2d27b138396d6451U, 0x71104b9289bbc433U, 0xb105674bd8c55e8eU,
  0xd1436e95284e5a9cU, 0x3a6544c0326cd714U, 0x716a1117eac25c78U, 0x32ed4db798b0a61cU,
  0x2205684a308bfacfU, 0xdf7ab3bf4dce49d9U, 0x9a4fc809a06bf086U, 0x49929456758fbdc7U,
  0xe13c8d22a98752ceU, 0x3a38b8e13d274926U, 0x701fbd2618f1626aU, 0xc0b61e4505a44664U,
  0x97f5a2b119664513U, 0x2895e2f4683205c7U, 0xbb8508503c33d086U, 0xa105557815b071ecU,
  0xd1fa2018f339940dU, 0x37123a38b2c3a9cfU, 0x520c368b349d9beeU, 0x6670dddeaa6916dcU,
  0xdaed50da566908d8U, 0x731e4b8d87592febU, 0x4cb65f87b2d01686U, 0x6984cbefa10d78baU,
  0x8cb3fe018b37ff5eU, 0x202a9f145a2c844aU, 0xaff736998fbbe954U, 0xf720d630a59fb21dU,
  0xefda774fbbe4d179U, 0xcc22f611ac56399dU, 0xebb41989096c2022U, 0xd15f2b78c366c45fU,
  0x1a853afc27c13058U, 0xdf4577a83d2d6149U, 0x4906136f16d16efeU, 0xe44492086a3e54a5U,
  0x3e3386cf023c610aU, 0x28b960c0521ee037U, 0xa58cad8628dbc342U, 0xf6f9e0609574b9a1U,
  0x9084f4160366bbf9U, 0x7ab5379d0163b3aaU, 0x4805496a46ba2af0U, 0x24a017fe39b6e445U,
  0x9c8dcf87dc8e0588U, 0x6762729e4217d3f8U, 0xcc22df71b3854000U, 0x9dcf07fc4f02ebf5U,
  0xbb068bb4f83d1106U, 0x4f0c0537079ff632U, 0x967c789cecff5771U, 0x76652233bf572993U,
  0xa30cc966b8b231d2U, 0xc4bb94582801de67U, 0x57c413fbfd0b29e9U, 0x50ccdf3f67e695daU,
  0xab3e4fc86fcab19U, 0x44c938c901eeccb9U, 0x6994da9cf7895595U, 0xe2699712a1e5023dU,
  0x9809465ef44a9a15U, 0xeee06dc3e538435cU, 0x72d74211a7eab254U, 0xea07d14429e90e87U,
  0xb33a58fbaf8655a0U, 0xe3c02aa35fb1cf0aU, 0xd9668bced8a853c4U, 0x10e5ac3117d9fee2U,
  0xcc3957de450a9f03U, 0x64099333d05384f8U, 0x4f55a972fdbe2900U, 0x7187aa8446ae77e0U,
  0xa32e7dae317284aU, 0xe1d5fb14234ca80fU, 0x8808d766e0a9461aU, 0x3f1f07e88d6190ebU,
  0xef3a0f497351d846U, 0x2e585ed46da77c87U, 0xd8bcfca171524c09U, 0xae0fb6916bd81f31U,
  0xb4430028a98fdda9U, 0x5c4fd34b9bbe5674U, 0x14ddf6e4da5a3637U, 0xd2542901fffcbbb8U,
  0x1d55623596aa5a52U, 0x527c038c6cfaebf8U, 0x843d1e48005dc4b5U, 0xe99a0e1ad63a968cU,
  0x2b6c54bd29c2555dU, 0x196b56c518a15625U, 0xc3c6e3becfaa2114U, 0x69bc4741560392d5U,
  0xfc403ea55b612f14U, 0xf7632f5484fc9740U, 0xe81f5cbf6e21560eU, 0x89156bd1f0160df7U,
  0x9b0a4bd4daadc492U, 0xc946f7ab3cbedc9bU, 0xcdc31223a66b5a43U, 0x6c2a91327962c7e3U,
  0x4760540370ec5431U, 0xd3a6dd91a2679e6U, 0xffd3350150863febU, 0x4c156e8589141817U,
  0x8bd864cdccfd4a1aU, 0x896bbd9731991989U, 0x148e45220837a7dfU, 0x47b290b6b89da763U,
  0x98c30b26b95dfcU, 0x38bc682fcfcf18f4U, 0xe9f950891bb765baU, 0x35fb306f96c1f86eU,
  0xf585de19d1ae1f1aU, 0xb34ca44ee5692da1U, 0x7aa0d2124f239e00U, 0x2f7b55312ed2142bU,
  0x1ca1385bc9bf27c9U, 0xcb226e1743be5e69U, 0x939df162205b89abU, 0x6d493aa7ff73654bU,
  0x24f3958ee7a3bcd2U, 0x4f3946ff48f572c8U, 0x346cabdab61cbb9bU, 0xde4a7760d3f5c0c3U,
  0xba394b4cd762e1ceU, 0x10d7e21037210110U, 0x370f6a157ba4aa06U, 0x24cc06535df67a53U,
  0xdb93c9ab01bc037cU, 0xbce9fc8c31026b37U, 0xb17388ee246789eeU, 0x3536a52bd65b5fe3U,
  0x64f97a95e7d24497U, 0x9a49d2305ddaf7c8U, 0x7aee74ef795ed17bU, 0x16ece300fcc6e227U,
  0x51e63d437c1efad8U, 0xa08c1f210e52b745U, 0xabfef52ec4d6888cU, 0xaef1c526ec3c2275U,
  0xc4401c48a072ceeU, 0x1771a38e4fb3c54fU, 0xcb935efe778c1f41U, 0xc3c95e1d77517157U,
  0xf2f2a0aa2b7197ebU, 0xfb0c0ccf59b772c3U, 0xcc8c5ddadf3a2ad3U, 0xa73fda4da616725cU,
  0x846211d4fc2d7036U, 0xb191cbdd3e155a04U, 0xa4e400948ad9ad70U, 0x6cad23e78d40d42aU,
  0x4ec5ebc0c3696430U, 0x98dca049334531edU, 0xaf7878bcdde95d38U, 0x68a5878f561f6ef5U,
  0xee8ebd53cb345348U, 0xd5fc1893ea38302aU, 0xb9251276dccc55c8U, 0xf27a8f8ab46d8f24U,
  0xfc7dbd0303b5272dU, 0xb3510f872ae1cdafU, 0x6b3f56a455dc6e78U, 0x5f6405fbafa4b04dU,
  0x5cb300669c9591c8U, 0x5e04c115d5658718U, 0xeda196ffdac1febeU, 0x7b7775c07ab4e0dbU,
  0xbc424771b6f718e1U, 0x2bdc3b444c3c84fdU, 0xf4aca85328cb0fdeU, 0x223b17489a5f6378U,
  0x4697aa97c968501aU, 0x1538c7b91e4a9704U, 0x1eee295d5ef4b9a6U, 0x52fa0aa843e2c543U,
  0xf493f8e85bab5fa7U, 0x683017ccd6e57c8dU, 0xf160e852e8cd5e6eU, 0x5e6614613df57b72U,
  0xae71b032249df3adU, 0xb35590852772a093U, 0x67721faafba2953cU, 0x8ab8030a64e96310U,
  0x4618c70ef26cf553U, 0xcd88a8c03a4fada7U, 0xa2e06e443aa00d6fU, 0x1a23604d046e089fU,
  0x6ab3b5be68421c63U, 0xdc65da0de434b95eU, 0x32b9fc146eca9104U, 0x49cbd2cfaeaa4997U,
  0xa692c6f321ebb5f7U, 0x8ed0e80edb3853e7U, 0x930331d3512ba885U, 0x684d9a11506156f8U,
  0x2929f8a01cb279a6U, 0xba35ee9c30175af4U, 0xcca966d2d412af4dU, 0x3742f5f097facaafU,
  0xb5c0cc15b6b9bd47U, 0x49660a900f561b29U, 0x3239f0c4dedb573fU, 0xf5054808442327U,
  0x29192ee5914404a2U, 0x2070a0e9a805593bU, 0xf1eab5b1b1e02e92U, 0x9e71aad4903303faU,
  0x41b4e049ae3a5297U, 0xa183463e71094c1U, 0x9a9a624c7bf9a4c0U, 0x555b0219c12bd192U,
  0x45a79ebdde5773f0U, 0xabcbb05dc9a0d890U, 0x9097f9b82bf72071U, 0x464ac4e83cf46d46U,
  0xfe88b665a145aad3U, 0x97212484da150f76U, 0x4292f6e5a7e648ceU, 0x3e97a744dc2c8f71U,
  0x194c1ecc5e5e79bfU, 0xd9c56f57a293e4d5U, 0xb9c2518d6c4d1014U, 0xd3d98ffd2a1b3538U,
  0x232168fd9e44236fU, 0x67474bb8b0fc29aaU, 0xb4e00e60316d52b5U, 0x58fb04d23d4821e1U,
  0x2b29bb23ec5fa887U, 0x4b406461d55b1c5U, 0x23165fa9ee0546f7U, 0x4b9f1337f044833aU,
  0x7cf3e6d57c4fa4b0U, 0x756d92b311fed79dU, 0x5d4b193cecf76907U, 0x2d99428a21a4b29cU,
  0x36093f4a2d196879U, 0xcac32ddaeeb7c0cU, 0x8724290207dcc952U, 0x55ccd2bf70cca704U,
  0x7ae091e715a07a57U, 0xc5ff8ea145dc9ccaU, 0x49b4e5ff3907d2U, 0xea1ea449b541c3b8U,
  0x432640a1e1f58711U, 0xc0d67368f3e0a2ddU, 0x507322fe860fa06eU, 0x155b62bfa0f28a39U,
  0xf1645bc596bebf4cU, 0x6cbac50ca6cfb6b3U, 0xc2dedca98fa10fe4U, 0xda6405a0f7572575U,
  0x44cc68d31c973175U, 0xeaaa03992ed907aeU, 0x65796c4f1a49a15dU, 0xae1a89853ea08648U,
  0x11a6e4a110fc8320U, 0x95bcfd9069447b28U, 0xd6ec02fc1b0b17f7U, 0x981773912853d266U,
  0x6aaa68c4e365ab8dU, 0x2c8fb99fab1e4f6eU, 0x6d129a2c8740edb6U, 0xb9eb6d61c675cad4U,
  0xb91df816b95ad74fU, 0x18521ce7c9346eddU, 0xe6a0ad2ab0179b5dU, 0x9d1f53c187ef682bU,
  0x42181d570cf6e4b1U, 0x63e5c5a5302090deU, 0x4bf5a5c879bb5c6eU, 0x6bcd1b44d8746cb9U,
  0xcdd60cd80c0c04feU, 0x7ccd5ddbab605607U, 0xcca307fa7c01bf5eU, 0x41f24be6bb69feadU,
  0xee6009aee0a7c08eU, 0x681f16e0f5bd5575U, 0xc6a50822fd84b066U, 0x22ba79c1720f0b2U,
  0xcfad493ac18bd3b0U, 0x1c8df58a6ca5f25fU, 0xb5f22909565bc1b4U, 0x4a9963bba1950babU,
  0x469321b4aa15790fU, 0xea60e85d3162e169U, 0xbf39e4371b9da570U, 0x1c60191ab47068cfU,
  0x1b3154219736a809U, 0x11730e93f5f3fdcaU, 0xb9a50e6b265784c9U, 0x2be8ca6aa07a2506U,
  0xd642286835289793U, 0x78f9f941dc9d24d7U, 0x3198eb0aef0d6d1U, 0x61adcea8263736daU,
  0xa55438c7024064a4U, 0xbdf35fc6795376a2U, 0xb5a29c3e8b99d121U, 0xeea2e27212bd2b04U,
  0x9475b46c5593744aU, 0x47fb47c22e7c668dU, 0xedf230b7c1d4c4ecU, 0xceb75a36d4d96c6dU,
  0xf3a47d6207131e01U, 0x5d65007c172b5bcdU, 0x4446a27b01128f89U, 0xf66471af77d3e2b5U,
  0xda78df05e79dc716U, 0xef4930bebbc1322fU, 0x771ea1b92f563d2U, 0x3b969d6dab87f043U,
  0x6f6c58de847c152fU, 0x9df43eb961245a2dU, 0x44d7039341a1f298U, 0x46f62dcc8c6ba777U,
  0xc0d2fcaecce32213U, 0x11a2c62ba670cd3eU, 0xe1909e9acc33897cU, 0xc9ec9fed475ce16fU,
  0xe68ceb857a932a0bU, 0x110d992e78988830U, 0xaa2db65193304347U, 0x469904988b69f98dU,
  0x44241052c603be50U, 0xbe0a8e9e22b2d30U, 0x48579af799759dfbU, 0x46433caa76cf2738U,
  0x2d06fb21aef251cU, 0x222216f629a0ff58U, 0xb732fe8deb29b988U, 0x844b66645e72f594U,
  0x9bf66268ce05c263U, 0x99454251ef703ec7U, 0xbe9ea7e031edc065U, 0x5865d956f98d36a5U,
  0xbf6ef7cc685a4ce1U, 0xd001505825ad8757U, 0xe5b9558caeb2590dU, 0xf887e8564d62a0eaU,
  0x9e6505d1a57cde97U, 0xcd989fc72f4dd012U, 0xb2a8cda4cc54065cU, 0x753a9c01b604bd06U,
  0xbd16aa0d94d25ad9U, 0xde4cdee267ed85f0U, 0x679019dbab9699b5U, 0x4975e0414bfe34dcU,
  0x27f3e0759207751bU, 0x30485a1df6ce3f9bU, 0xb657eec7df70b12dU, 0x51fa5d70fdf3b08aU,
  0xf4e65550fe7a156bU, 0x7811c386dc10978fU, 0xb6da718c6a2d43cfU, 0xe438b905701a280cU,
  0x2b25f87735094528U, 0xb8d2e93254d703bcU, 0xd0614328593e0d90U, 0xe9b7f12892fa3da8U,
  0x989fc04301d3e85cU, 0xb76bc3c6acc9f740U, 0x4f3421be67636f2U, 0x62e0d6f148c4bbafU,
  0x76e5e758699995a4U, 0x276e123da4f14deU, 0x89a9afad0dd317ddU, 0xc825376b248444e5U,
  0xb22c9b67f23797d2U, 0x21c3a8baf2d2fdfbU, 0x9c0e3104af299e55U, 0x739aec2c0a736dbeU,
  0xacddb73a16e46fabU, 0x9a3c7cc296e3508fU, 0xa03cd0c1e5096de1U, 0xfefa093408db1784U,
  0xbd11e3f6d51bdefeU, 0x5a18ad06141e0479U, 0x698b5a64c39cf509U, 0xe30fe524fb5b6e8cU,
  0x50447cc5290c6564U, 0x9f303b1ce34770d6U, 0xb107c0dbd2e0a1fbU, 0xf1c459883aaf2b55U,
  0x5934c86091954a04U, 0xada388ce8bc43a14U, 0xe8008456ba1c4260U, 0xed5685259731809U,
  0x576113e129a4212aU, 0xc502163748abcac8U, 0x6acab8b5263ce4b7U, 0x3fd1131d62176f3cU,
  0xa2ac55bfa8df779cU, 0xb9f3b3d786364a5cU, 0xdd3ff0390cb9faf6U, 0x11fe8859ac613806U,
  0x194627a31999c951U, 0xda2170a40eeb01afU, 0xfbda50fd6115fe4fU, 0x50a9184c368ea621U,
  0x54283a9c8f699edfU, 0xcb6600c45d857169U, 0x3140686350b7eb35U, 0xe269af1a17af53f1U,
  0xee2a7b0e98378814U, 0xdff2440da605c399U, 0xd94396ccdd079999U, 0xaf3c450a3bd5882bU,
  0x6e0a05f46f379d97U, 0xe0246d5a06f8a9d7U, 0x4c4fe010dc6120b0U, 0x3eefa4eb9ff38c1U,
  0xf1c739ed4c5ecd2dU, 0xa05ad05346593d2cU, 0x6966acfcdcc8c23eU, 0x3b084a644592c537U,
  0x6f7bcff23a368f07U, 0xc446d713a04efd78U, 0xbf421e97fe4565a4U, 0x122e57b95fc54e01U,
  0x486257bf5409f579U, 0x69c0f9df00771019U, 0xfb7a5d8b317bbcc2U, 0x37f2a6c7d6166f8bU,
  0xe702c5cd6b2bfba7U, 0xe97006d402c6ce39U, 0x25a5842256ca8a60U, 0xccd9545dbcf357f7U,
  0x11fe64fac5098acbU, 0xf2121dbc8ad4565dU, 0xff348488aa56af2U, 0x9f0fd62b3e789e7cU,
  0xa756b3adea66460bU, 0x48401dc244dbae8cU, 0xd8f0e6a5d3a865ceU, 0x7371c14d67c2ad9cU,
  0x191bcb9be762c60fU, 0xa63715ccad4cb8eU, 0x2c8462149a906407U, 0x51ddb4d13cde93dcU,
  0x85ccac1cea16a697U, 0xdbe0cc114449e0ffU, 0x1183205bc4d12ccU, 0x900d3769a9fd9561U,
  0x1363b7b7872674ebU, 0xe71eeee85b9ad0d3U, 0x74ddcde4d0e4e21bU, 0x1b420a2e050757a1U,
  0x98690454ac9537ddU, 0x43582baee96fb30dU, 0x9b74b4b190016ebeU, 0xfa1a6cff51d8e6b5U,
  0x7c36c269ca4da619U, 0x254d271d926f1cb0U, 0xcba0d5ea6eb792c1U, 0x67c244d723248a01U,
  0xeffd4f433f8915f3U, 0xa7323dcd9e3d18c1U, 0x469efa1875b56eeU, 0xf6c50af02274dffdU,
  0x399bb7522e95c3ffU, 0x472d0e466162ad89U, 0xa0a19666cf3ba3e8U, 0x65f2694f1b889149U,
  0x4a32547dc8f6f166U, 0x995c5691bf0653dfU, 0x137068270aeb7322U, 0xbfddbef9f8d7b62U,
  0xfb89f7e6512b1e39U, 0x781005d56827ac2cU, 0xe73d45599e502869U, 0x5aaea43759b4ba93U,
  0x654274204d1af672U, 0xa1d7c12416e7b941U, 0xb18ccfae4a0c8e9eU, 0x7c5cfc00fec704e6U,
  0x5e713f7c31e154e4U, 0x4e3e8995843dd160U, 0xeecf83926a386adU, 0x38b3e9b934db94feU,
  0x860e4d452b582295U, 0x99e942eeef71e0e1U, 0xcb692e3f014c01b4U, 0xbf97ee366c9ce02fU,
  0x27a1be20f458d6afU, 0xd5eff4340085c3b5U, 0x68a0bb4205d5276eU, 0xf69752facd0d51e2U,
  0xd1a253521762b16dU, 0x72180cd74379a6e1U, 0x553bdcc05daa1930U, 0x55ea4de08a4b15bcU,
  0xb01dbe5de2b28711U, 0x5c89dc44149bb9f2U, 0xd706a65a9222562eU, 0x40c5357cf6fb5523U,
  0x9dc141bc711e2caU, 0x7ac21b4b055dd4abU, 0xe8d2a3d01859e91fU, 0xc7d0716d9000d721U,
  0x97ff4088b105757bU, 0x17257bbba0eab6f8U, 0x1752ae6039de4ef6U, 0x2bc0396004c88e29U,
  0x22d1943270618fa0U, 0xe215cb24c2fbc37aU, 0x84c9d62eabdaccf2U, 0x4e10fcc120f9dee8U,
  0x77d78e0964155b1eU, 0xbab24de874e36e70U, 0xe5360c8ca3a9795aU, 0x6842a1182f0dee92U,
  0x1535f61a716f4723U, 0x5c7b3f5bcfa7e6b8U, 0x401fc7c6c4ade63aU, 0x281e0dd99c8a92eaU,
  0x1857419415ad210bU, 0xe08eabcebcd1fbddU, 0xc6b03fc6ee84903fU, 0xd7afffb81f043de5U,
  0xfa5c6adfc30a8ae9U, 0xacb242c3d0bbbb71U, 0x12e2651d1a88e8eU, 0xdefccf2272a2f8aU,
  0x9df40320e85ac632U, 0xc1c0a4186ee36d34U, 0xf854370463ebfd6U, 0xe2207dac11554c11U,
  0xe2fd03daff4f9d1aU, 0x2106a8a443c330e9U, 0x13ae8a3f42e7339eU, 0x9aaf212a1685ad6cU,
  0x3ad432736f7248fcU, 0x2af850c900b5e1a4U, 0x3bf3c6b4cb96f568U, 0xc5a6c81c31c2b3c2U,
  0x124150492203afd5U, 0x7048e174c78342aaU, 0xb08e6f3804708b2dU, 0x3df71c918f949da1U,
  0x6d2fb37b2aae5b9aU, 0x15a4d72657134407U, 0xb86822d150b7f0d5U, 0xac73524cfde96e8U,
  0x4e5bf573a5a700d9U, 0x92221f28b37a534fU, 0x6bdb6fe84822b205U, 0x14d6e8176dcdc657U,
  0xfbb4ca8ad13c3da8U, 0xa1952facd3912650U, 0x77c78f60d173b9feU, 0x90a2e8a5b128a099U,
  0x6658eaf05e5bd230U, 0x4b676ebefdb51f11U, 0x6f18a4ce0d64c842U, 0x5024ece20e66f025U,
  0x7970bc901bacd4ecU, 0x6e5adbfe7263c02U, 0x92c6b8168ea9e364U, 0x91b0a80a964f70adU,
  0x8f48d590a3ca5344U, 0x12d30dd9084b503dU, 0xfea1268ae0411927U, 0x29fe94da4d646fd1U,
  0x2fb22db3d2df3b47U, 0x2f97e9b70ae3b3efU, 0x9d1cb133acacaed1U, 0x4ea0c56716dc6898U,
  0x17ee369019a6b30cU, 0x899647d8341b8fe9U, 0xe0088becf2b2a6edU, 0xcf5ab70c17c8fa14U,
  0x68c04ba9fbe6d9b4U, 0xd2494e384c26838cU, 0xa359b1dc174e0cc9U, 0xd7919eba289178fdU,
  0xe5bdfb94615a27d1U, 0x1e71b39ad8ef0e2cU, 0xc9afafc5a3559631U, 0x8df3af286788333dU,
  0x6d1bc767dcba585cU, 0x896ce259e7da4d04U, 0x8526d372d7555041U, 0x6dfb4c8e68996795U,
  0x6b39ddae54f20e86U, 0xdabca23627b6b922U, 0xce3d25a6f24efa1aU, 0xaa361a9b3c27b36U,
  0x993dc1874b785788U, 0xd6d530371d96cfcbU, 0xd9c718a664b8fae5U, 0xb907a5988ba06b00U,
  0xe6bacdaccffc2651U, 0xc9e425fd1a37b96bU, 0xbf9314b7fc8a4db6U, 0xdb8b02b1ecbbd5f1U,
  0xb64262c7a9bf8cf9U, 0x887999d2d7b9237bU, 0x86493138796cb31cU, 0xeeebba1e9af3d753U,
  0xd890942885adc8ecU, 0x1f727c97c5a36d8fU, 0x2bb031b8a3756fd8U, 0x7a5a1bfd6930e9afU,
  0x279f4db6c5d384afU, 0xe203b4b57b4e14daU, 0x740cf79bfffa296U, 0x519983144e06af05U,
  0x585fec169a6f1b4U, 0x51346e5dc0b5e62cU, 0xa9d9e23e2cc6a99dU, 0x2a403629a649b2edU,
  0x21422df56d2a02fcU, 0x2400304369d52f59U, 0x280210443964bf58U, 0x4c19a17796df0a2aU,
  0x7a60c13735cc06baU, 0xfaff58565c4fe1a6U, 0xe71af21160e42094U, 0x68880f6223cff6abU,
  0xf49fc2293c673d26U, 0x659966f565b90b99U, 0xbfe28f0b2fc35cf9U, 0xca0863704a74e0ebU,
  0x93e4c40937387c52U, 0x364ccad394dfbcf5U, 0x1e9e6c385d5a7652U, 0xabe843f9f326771cU,
  0x5a484a1cb11e05e6U, 0x6e2175a9e16ac591U, 0xc556910042d0d873U, 0xd568a605103bc1d7U,
  0x40f0b884c4bcf2dbU, 0xd7e1794569e71f66U, 0x93f5ed4afed31da1U, 0xc4c8d440982aa5c8U,
  0x28585be5944bec70U, 0x1c84ccac3f06dc8U, 0xffbade5804dbbc27U, 0xd10a126f15e2d81cU,
  0x3a5a3c0a2db51c4U, 0x214fd0fc5df0b92fU, 0x5a17aa9841c60b5aU, 0x66479cb4476bd187U,
  0xba69f4c7b5c4a472U, 0x2805384120a77663U, 0xbe39ef6727ddcc83U, 0xbeac5c704dcd29abU,
  0x6a53752a88570e47U, 0xfc7ce49fcf774402U, 0x9fa0444b15ae7301U, 0x6e1c9f572620ff58U,
  0x5c3c17086eeb35b0U, 0x6e524c0caea3a1fcU, 0x3d91be3df4e1453eU, 0xc5ba86ab9fab5f14U,
  0x2d5eba1fbb7b11d0U, 0xe0e3fd93ce87c331U, 0x4faff135cf11f314U, 0xcf043fbb3025e45fU,
  0x662ac5bcc2859496U, 0xc9ac5f415c5b9b7dU, 0xc5cc0fa0cad06b76U, 0x608e74c7eaa63131U,
  0x462d76f90f6c9b85U, 0x5f95cb27da8dfcd5U, 0xad8cb18d48d28598U, 0xff0b1c222a33023U,
  0x92f097b77c5156faU, 0xb325119a376f2eb2U, 0x2f981e9149a9a6f8U, 0xe1e3f48ed251a09bU,
  0x300c0f599771da39U, 0xfee1a4fa2cc56b57U, 0x1667fbc4090ee68eU, 0xae32a52d4ec2380dU,
  0xf007758fe51ccc4dU, 0xf809049a9b4725ddU, 0xdd08030faded511eU, 0xc7bdd8568775748eU,
  0x5b129d3493c1b295U, 0xce4c73732503751eU, 0x9e215b4dc19612a3U, 0x96603399b323e107U,
  0x5c300fba338e02fbU, 0x2edccdc62008ab58U, 0xb43690a3bd173030U, 0xd71c89a9b0c85620U,
  0xe754ad49f8f79462U, 0x40f6d5b1886942fdU, 0xb04a6a289867c643U, 0xae794e2cf0e34d9U,
  0x99a3564a8cf859a0U, 0xd23c52e175222717U, 0x1fd65b85da9bd2c8U, 0xbc7ad667fc125115U,
  0x35d1d40d016c8d46U, 0xfa6ef866896753cdU, 0x116c00d9b5da2e2fU, 0x1546fce6163025b9U,
  0x9c399edff79c9753U, 0x5715c479f9ec8887U, 0xdf65881cfe20c248U, 0x32c279b88acd8387U,
  0xdd79f8e8ae1ca4c3U, 0xdc0c2ff640a893a8U, 0x3f1a05f16617fc99U, 0x4dee60c2bdca5d50U,
  0xad0476efc0621ca6U, 0x60a5be8f67e44fa5U, 0x621c7748361769f8U, 0x59d99b3c398753eeU,
  0x2a4f896d42932d88U, 0x2d027a2df1709039U, 0x44451e95a6c54568U, 0x55fc30ca66a807c3U,
  0x9461fd9f512a5e90U, 0x87dde7bd3247669bU, 0xbad8d078e009dcdcU, 0x8a8ededfa1748873U,
  0xe82831adb81259c9U, 0x303689a29e31f022U, 0xecf26e98007b36cbU, 0x40763c1d1b4d45b3U,
  0x8fb10740e544dddU, 0xba609e0b64f416edU, 0xc3a3163ec57cebf4U, 0x17f50af69a0c67eaU,
  0xcfb3b0f6117ce7acU, 0xb4d31252684d43d0U, 0x7512beabfa6b4574U, 0xc70fe56a8727de1cU,
  0x25077b7de48b206eU, 0x580e4ce146edb057U, 0x2388e8f4665288fdU, 0xa0b661253d9b1edaU,
  0xf8a874bfd015001dU, 0x3d2c37d6e21a7320U, 0x3a0acbfe41d47a28U, 0xde5f7793570a3670U,
  0x7b7a70bc91a75e3bU, 0x8649e0772ab78af8U, 0x6662988e1dc3d8a0U, 0x922685951243715bU,
  0x202d385978170077U, 0x15aef5937dfa1872U, 0x5006b732dffbace4U, 0x41fa0c65e89d9ef9U,
  0xde766a33978fe573U, 0x805b460bbe1da48U, 0x59c40c9e8991b8ddU, 0xd97a4b4b01850e55U,
  0xcd171c353b2603e5U, 0x1431e0038b04b55cU, 0x9635950b957be5e1U, 0x1ce46f441f507441U,
  0x1116162f92a55ab2U, 0xf74d76fd01c55025U, 0x649e0b20ad5d5f0dU, 0x2307fa032f21c0ffU,
  0x5bbf0f4ecbfbd4a1U, 0x4095f97b56c11887U, 0x29f90c98d5370759U, 0x5ed1a8e76335b73cU,
  0xcaccba2cf18c13c1U, 0x199010fb8e37ce47U, 0x48a2a15cfcaaa504U, 0x2bafa3531fbad8e3U,
  0xa3210e3b1d7066f8U, 0xf4fe9095e252c864U, 0x5ad2372e50aa04bbU, 0xab760e2e09b62808U,
  0xed56f3ef096f92eeU, 0xbc884e0f0e879ab3U, 0x2f0eda3e4026c29eU, 0xb2251628fc61b0f7U,
  0xe00934b5267b4b43U, 0x56afd79591c99c05U, 0x552b8687b60c942eU, 0x1a8d5ba9077c2104U,
  0x6cb8979ad92385d9U, 0xb55ecc2ab4a8f4edU, 0x6c0b254d76b195a3U, 0xe72978c0763a890eU,
  0xc1075e67e31213dcU, 0x31e4eeed4aec20eaU, 0x4e51f87d27cc3badU, 0xd6dffb0bd1b10a13U,
  0xa2ef6694bd2d6da2U, 0xf5ac95efbb705a87U, 0x9e8aceea4c733e88U, 0xa5f16dcd1b9b2fabU,
  0xee240297d64f7060U, 0x987b95eed2311aa3U, 0x10dcbe56101cc95dU, 0x3da3d1ef18533ee7U,
  0x5b0416ef398cb094U, 0x5a5a8f2b31720e9eU, 0x259c27c1a811af89U, 0x86a0bb258991429fU,
  0x751c600f16d186c3U, 0x66cd623596b74179U, 0x5ee4f5bd1308b061U, 0xaf5abdb45f542579U,
  0xbb3d489fcc8c3355U, 0x8cd1f485e485606dU, 0xf3fb1eb20fae8d6U, 0x6f1feb6d8e30925U,
  0x911037c12a84c8d9U, 0x3fe74c02b793f69bU, 0x8e0d4f4f0351f0afU, 0xf96718e4b22149cU,
  0xf788bc651f57209aU, 0x5859e467f8c39898U, 0x7418becc560a46dU, 0x2ed9abed58f69aa0U,
  0xe6bcff35d3cc391eU, 0xf3e2e9f6bc4c422U, 0xb955aef576a0955U, 0xc178a0fd20037ac7U,
  0x33da37031a97c294U, 0x88f13e1e76b0c388U, 0x53c71572e03f1fd6U, 0x4fc6f6a72908617aU,
  0xb6b909dcd5dfd5a2U, 0x6d73ea3900ffce98U, 0x5eba42cc63c3a05bU, 0x5747f96f52c883c0U,
  0x544ed6592a3aa40fU, 0xa74263f379bdbd2aU, 0xec3dfa4227062a5eU, 0xaa8b20f8dd0ff586U,
  0xb294278e30a902b1U, 0xf4a93ef9b2e57596U, 0xaaa3d75584dfb637U, 0x60c121fc4bdb3418U,
  0xc5ad5bee14dd60b6U, 0x505a2a9988e1338U, 0x4f55c58ed5492195U, 0x914aaac4ca527215U,
  0xdc9bd35319e5a45fU, 0x4a4d7cf649055222U, 0xe8c48d08c58714baU, 0xa300897d1cad4baaU,
  0xd2d626c0076edebbU, 0xb8d46ef474ed3388U, 0x63e4472a102af657U, 0x3cbc54aa14c0d218U,
  0xa0d3445d663465daU, 0xd075429b5aaec284U, 0x479ccafaccd45fc0U, 0x33ec7693148e03U,
  0x4eb7e6a022d31bb3U, 0x8a85a2e8f0af1023U, 0xfe9a22ad5afc4062U, 0xde97e110dfde8f96U,
  0xc85eab2320449587U, 0xebfb53d4a6a18b6bU, 0xfcb65706f701f01dU, 0xd7d588ccba9fdca9U,
  0x120f1efe5c2fa09fU, 0xe2ae045de2d404c7U, 0x2eda064c6a9ccc26U, 0x8697d8b8b1f6dfcaU,
  0xa5c189ac98aedb1bU, 0x58508c01c64f60c4U, 0x9fcab63f3c2cc338U, 0x7bd92caa7c727390U,
  0xceafd40e16caae93U, 0x88724b19a2671726U, 0x9eeab26b88b27956U, 0x444d37081f2b2314U,
  0x725c1a77a7bb84ffU, 0xc167057989283d27U, 0x4c8c8d3149f265c5U, 0xb5efc3a97918ab45U,
  0x712371c5db924821U, 0x232138073e6f4ab1U, 0xd0ac0dd6bef20bb4U, 0x60f3090e0bfd3272U,
  0x9d7de264a818a58cU, 0x2cd244d29b27d5b0U, 0xcb6f6fce3059193eU, 0x14c43719e602735dU,
  0x2bf107a5cc14db27U, 0xf8df90d8fbd53e3bU, 0xf5f85edcb9e80009U, 0x247c5df59b477c26U,
  0x157956b74e88c070U, 0x670f3bac068cda89U, 0x71dc1965cd4aef9cU, 0x1e0e7b349613fb99U,
  0x985ea0b8b899461bU, 0x37d80417a816778eU, 0xbe759c0f39d6e9feU, 0x4d1d27b65258cdc4U,
  0xf9313a45e0c6762eU, 0xdd90854bdd4c9119U, 0x9c19dc64fb1a156eU, 0x256659bddd8d421aU,
  0x654b578c03868a33U, 0xf7e56cc759f813c6U, 0xf3efa6e9a4bbb45cU, 0x26c304c09f78dd36U,
  0xeeae076e19f4a60fU, 0x363a3025743212bU, 0xe6e828d022c1d50aU, 0x2dc5adcb1a434366U,
  0xfcc52834d9d42601U, 0x6709eb2c4833ee4cU, 0x2b2d7f7ff8a62f5U, 0xfc5a484c4d18e863U,
  0xdcc46dd022b33398U, 0x717d47031fd14ab4U, 0xd875ce5bfbede84dU, 0xd72de5c2abc04897U,
  0x50328f748489483dU, 0x770436a1e6676f1dU, 0x412ca0041ad48ed1U, 0xb5c8ae230d5dfe6bU,
  0xfcaf7403883feeecU, 0x1e248ffef5437531U, 0x16b052074e8be70fU, 0xe186bf42a487a32bU,
  0x66ca0f2216999ce9U, 0x1df4621c3cb4c366U, 0xf86c2774f76486faU, 0x56b2698797c7d4f3U,
  0x396d1ca3afe44471U, 0x5a10b0f0b8282f74U, 0x695c42f7128d9c1dU, 0x27fdfc1c77e8f675U,
  0xa91dce0aa288124bU, 0xb174aa25b21ecc8cU, 0x6687716a0fe63409U, 0x4299e14365e73022U,
  0xa3cf496c4521e11U, 0xcba2d516a95fcc25U, 0xf7caf9d31d745415U, 0xb9267cecfd9f30e9U,
  0xdc4ba5e4777496bbU, 0x680aeba502247a62U, 0x2b796e8a560c74a5U, 0x3af21164ef940e2aU,
  0xbeaeaf137a341457U, 0xc82f42499e229b71U, 0x59340f44ed641db6U, 0x71132f60e0e720e7U,
  0x4fdd2607b1f0c3d9U, 0xb2128416b90c4debU, 0x4b624a7aba612e37U, 0x7a76cc7a0a774233U,
  0xe9f4d19a4aa2e5c2U, 0x45ff47b705e726a4U, 0x129f8a12598ab4f2U, 0xd82ec089f22bbffbU,
  0x9ebc4ae14bbae9a5U, 0x4764368cd3dfa88dU, 0xb603ace1fba262c7U, 0x77d7c1bf291454b4U,
  0x2bdad32468d531a1U, 0xc40323cd95e20e6fU, 0x98fbe25df94326abU, 0x70660b1d594fb0b6U,
  0x6fa07aaa8624ec55U, 0xe4d37a0819a478f2U, 0xeecfe50031c00e2bU, 0x9d1ef1bfa8d03e3aU,
  0x49045ef51784dba0U, 0x4347e4247408e655U, 0x52f172b65d206625U, 0x57260a1ca49e4bb0U,
  0x864249b07c0e7b8eU, 0xbef1a94d2d45901aU, 0xddd484291dbc87c4U, 0xd96cc48039a0391U,
  0x49d363d9a5727db6U, 0x255e77f60ef3bbfaU, 0xdfe8fd91534eca5U, 0xbe3fb4d89834e4baU,
  0x520e399f589015f3U, 0xa396c332f4df12aeU, 0x4c705bc0cd97c033U, 0x9c8a387a8edc4d83U,
  0xf63162297324eae6U, 0xb56b55bc282336beU, 0x87b91f6114d5a80cU, 0xc0440adcfd5db6dcU,
  0xceceddefa8989b14U, 0xf5004e773e5d4a25U, 0xb419426a3a61962aU, 0x9ea25de2eee401c8U,
  0xe3507a5bae560f56U, 0xa12ac8d25d9f41d8U, 0x77395ea9600ba8b0U, 0xeba7a748337322b2U,
  0x38cc4b3f5232e230U, 0x29159a0495ff0d76U, 0x99f2349009f5e2f5U, 0xeacef6b31f1b6ee6U,
  0xdd0c632ab94f31fcU, 0x5a6c05b8aab7ca76U, 0x30931b60bc0cf994U, 0x3116350e59308ba7U,
  0x15bca56a0ca4e239U, 0xfe5d54015b23f297U, 0xdaa76baefeafa163U, 0xce58703595001feeU,
  0x299976fa0b4274dfU, 0xb52e7c950bb97d1bU, 0xd2f6679f9d51b31aU, 0xc8a420d81c3664afU,
  0x5814b4406b4afa33U, 0x9acd29566753a321U, 0x959d41f5e50179f8U, 0xbc9e94070fb94b2cU,
  0x5c91770aeb07ceceU, 0xbbccde3ca798fac5U, 0x3f5360cbb721e828U, 0xea54cacb4031ba68U,
  0xab4f34a09bbe3a99U, 0x1f533011e344b0e4U, 0x1ad61eb676ef0d06U, 0xdb155ac3e095d3aU,
  0xbebbd086340e6db5U, 0x8fcb031ddfedb529U, 0xa28eb96035ac1dd4U, 0x9d7bf20e5f330b69U,
  0x3737afb92da8daa4U, 0x1cf3c5b26f52185fU, 0x4113ce76ab1ef58fU, 0x94da6443f96c1976U,
  0x7bea5bec931376d2U, 0xf2f4b3bd1199a826U, 0x33fc89dcbc034c54U, 0x3c35d85f8ae090eU,
  0x3d421386a1dff39U, 0xb928cbd49593495aU, 0x1440c5ce0222f09fU, 0x1b4b6117c8a226deU,
  0x3833d34e421830d8U, 0x6cb4ab280af3f098U, 0x28b49f997066660eU, 0xbf19876e00e0a68dU,
  0xc61ee242f0dcd929U, 0xb26dad60cec883a1U, 0xbfeb556cbe492d40U, 0xebf0945c0b42ef7cU,
  0xfd05f659ef675e96U, 0xcad7225fddde5939U, 0xdf0e777d3e284d22U, 0x3397c1e92c00b5e1U,
  0x16adcb516c1d6825U, 0x10f300746e91e545U, 0x7a1cdc784b044158U, 0x3d0634ae6495fecU,
  0xc0ebc4fd73688f8dU, 0x9e61b6785c99d625U, 0x436d30dbc0aefe13U, 0xf89bf67b2efce690U,
  0x669ebcabe74b0d5cU, 0x24092c16cfe4784cU, 0x786f35c64617d9d2U, 0x27592c0a004435e9U,
  0xffafad7755604a02U, 0xdb7f420c75340ddU, 0x748d941bdc03f88U, 0x32a6b7646bb5c111U,
  0x4614682433416dccU, 0x996d24f8292ebe1cU, 0x5a592eee36b3848bU, 0xb25925c96a14f478U,
  0x66db0f173912b15cU, 0x52c4c1a656683472U, 0x62bf0ced2dfba660U, 0x9aac8eaffd6d89d2U,
  0x901b418e0ab5613aU, 0x4b572db60f122826U, 0x149221f34cf07740U, 0x13fae9d3c7c9ecc0U,
  0x6bcb7343401959cdU, 0x8b4d36312f090e8eU, 0xf5f5be25915ec6e2U, 0xee45432bf55f0ceU,
  0x5a4eade607d08b9bU, 0x6f3441205de84793U, 0x155e220f61425430U, 0x65b9dbaeac15c9f3U,
  0x4d1f0491d526a138U, 0x102bcf7221306f13U, 0x4e1bfde5a26ab9adU, 0x3b2582d9def3945U,
  0xb7b1e59aa32ae35aU, 0xceaa011d1e2e8c95U, 0x8ab86537703d3b9bU, 0x590d0a13cc5cbcd3U,
  0xf8dca2065627a787U, 0xe4ad8a63a0aa90dbU, 0x89268deba99cb421U, 0xc50fe09cc30edb4aU,
  0x7ad926408e1cbd26U, 0xb2581440c9709fbcU, 0x56f1a10d19085107U, 0x7160d931c485671U,
  0x3796a7de38fc2999U, 0x480a7124fa3bce8fU, 0x1269ad096685cd6eU, 0x7dfd2e86860a7115U,
  0xf1a58b184c5241b1U, 0x6b46f626d4de8fdbU, 0x27922d08a623d6d0U, 0x3cd3dbd7c5ae94bU,
  0x2e8da4e0ef9d4d85U, 0x2bb120023ebbf65eU, 0x46c51bb343059488U, 0x682dd7f1a7f88e37U,
  0x88f6091ff37a1af3U, 0xf75aa0e287a8e32U, 0x7b4a522f630c70a7U, 0x9495c8033c269358U,
  0x1c0d02e937f05459U, 0x2f9647d7c1da408dU, 0x3fbaf2b6c9118921U, 0xed5c871a91f6c451U,
  0x5fec4a77ecf8aa1eU, 0x30a6d4a8b9731b05U, 0xecbe3aeea5f488d6U, 0xef2c8e6ea5295bb9U,
  0xa759ac57b28595aeU, 0x4100d9b8870af9caU, 0x1c25327657e73239U, 0x422695efb151572cU,
  0xe7234933124bc555U, 0x9d59ac1cb7bcfb37U, 0xdc4708a0b706c04bU, 0xd2699fc5c2b34d3eU,
  0x16731d91c9f5132eU, 0x719b433ae2b0e3efU, 0x2a0a5f4c4e899f6cU, 0xb202c2f38e73b246U,
  0x748d294aec9c7adaU, 0xbc5d41c274006087U, 0x5a433b5a980af28eU, 0xd945672e7ce89df1U,
  0xb14e3c4694001552U, 0x46c673908bd0df26U, 0x711edb863d63cdc6U, 0xf46ae1ce11b53c66U,
  0x6fdd6a247daec242U, 0xb58e2094bbfb1114U, 0xbad7767de53a8bf6U, 0x98cc0cd0b98a0031U,
  0x73327a579e94e144U, 0x97a00aaf2cc2494dU, 0x9601dff92f55c028U, 0x7263be66f89c66cU,
  0xb15617ca1b66abbcU, 0xe185c50f8ac775d8U, 0x34007c9ed7ba65a3U, 0xe76b29852af939cfU,
  0xe1d296e9bd2b5201U, 0xf722fe781b2b56cbU, 0x9dfbcd4bd4a7220eU, 0xbcb02edae51f8ddcU,
  0xc2b0e50139014fc3U, 0x75bd98dfa0bc4550U, 0xe19f4e51338c46a6U, 0x8e373aa769d59b6eU,
  0x5cb258efee6cd4a3U, 0x1f01f6014d1100dU, 0x6aecd5a287c57437U, 0xe41c556d0f084373U,
  0x97fd4ac31f09a720U, 0xcd1b15f6d38c26f6U, 0xd9b1aecafb5811b6U, 0x1e9dc9441e422e75U,
  0x23edf0fc29a9cf78U, 0x30d6f5b51ae70b6U, 0xc64422799d72f3dcU, 0xc8975198eb105853U,
  0xc5a70417a9eb3f88U, 0x7650aa0bd42ac89aU, 0xa731ad8f8ed6ebdfU, 0x2c4fbb15b9876cU,
  0x23d59dbfed226208U, 0x66a186a64c075d4eU, 0x8ecfe9ee1b6a5bcfU, 0x1d1accd912662f84U,
  0x3d9a9b5225a6a10eU, 0x47af56fc1ffbcee0U, 0x8b42ad34530bbce1U, 0x1303df5a22c9bc38U,
  0xcff4f9e9d3c1b78U, 0x3b91710941f62569U, 0x38f5ed661dac1999U, 0x3d0b42b266f3a31bU,
  0xc498a0ef957047edU, 0x20bd87732d6b9fecU, 0x8c3353d554c7f2e4U, 0xa287932e78774532U,
  0xa883ff9965bd4eb5U, 0x29955750d7caaeacU, 0x618d4b0deb235ef9U, 0xab09d11503bc4eaU,
  0x4c2e97e236a2c35aU, 0x3a6041411f51770eU, 0x94e2bb940ed1ae3dU, 0x2fb8f66401fa3e4aU,
  0x9636b1e71045f551U, 0xb4c54195acf4c5f5U, 0xb6d2994c3006f0e2U, 0xb6e09e910955f929U,
  0x72ec7603c0c0c099U, 0x247593a35ff6780dU, 0x7ad1bf2a16384698U, 0x99c2175b402ffad0U,
  0x6141d695dd9e5fd0U, 0x5a268511c152e1c4U, 0xf3a030914ad49303U, 0x9393d0f34ac34dd7U,
  0x883f5c60725b272aU, 0xaed1e5066f0f93baU, 0xf4ff61d1546d7d9aU, 0x901548515090b5edU,
  0xff7507f575ddeb0fU, 0xbe4af4a2d9c16e3aU, 0x6f1b4b6d545808ebU, 0x4854610c0658c0a9U,
  0x4e2f2f8418656637U, 0x7430621006bcf493U, 0xaabb2fffa7f184e6U, 0x66482640b5e61ce8U,
  0x87a41262355f8b8U, 0xd029b05b72bc79e5U, 0xb668aef8bf4ba03U, 0x4e98fdf7438fdc0dU,
  0xbd761a6dd177d87aU, 0xeaa0e50358d8ea96U, 0xfe3f4e45bb1048ffU, 0x4606d83672980a53U,
  0x3311dbf3fa1600fdU, 0x516005ef2c916602U, 0xa8dc31d6282205c4U, 0xa7f4c20b6800d7deU,
  0xa9c3a0db9264312aU, 0xfba4503e848d9161U, 0xd6e5715c576993ecU, 0x6d5bdc6fde857114U,
  0x94cc4ace2cf7a841U, 0x47fb69e7fa950012U, 0x67a3a5568f8e09acU, 0xa721aa7790f90f20U,
  0x6045ce000b8ae04bU, 0x4bacc29a30df7b70U, 0x4cad984e1a3d082eU, 0x8a600695c101a25eU,
  0x42ecba8c56fabf00U, 0xfe8592cfbd74613eU, 0x3076aef1e20db7f4U, 0xd0336ad0bf540108U,
  0xf4fca9d7d0a8610bU, 0x957366c7e81ebc9eU, 0x9f5915be623f1a5dU, 0xe7bbc2ad5264f591U,
  0xbb623d85cf6a8710U, 0xd846fd36da35e87bU, 0xb1de3f3414feb5f3U, 0xe09be4862fe7db13U,
  0x74180a899b8d7450U, 0xba5502d10f03d360U, 0xd8c6edf41aa31b5bU, 0xc7452cc23f6374cU,
  0x17c09ce146a88f50U, 0xe4f820bc8526e702U, 0xfe52239de1a8308cU, 0xf4c949f2ea6c0b2bU,
  0xb0a5690202b6ac8fU, 0x8e05b72142506e65U, 0xc90ae52b005c6288U, 0x719b6d54100c0a4cU,
  0xabb6e89190e1a74eU, 0x18a447ef872259c3U, 0x86006b2034cbb747U, 0xcdf48eda63a39aa2U,
  0xbda2296f38b79f67U, 0x7ec5012bed6f685U, 0x3cf3b630c71951aeU, 0x854fcbe21046d874U,
  0x55db62f6c7fd278cU, 0xc2a0e9a89caf491dU, 0x4690d53f52929d85U, 0x6b3e8a4855eea0a1U,
  0x2eeebfaf66516b5cU, 0xd3bd951a05bb05b1U, 0x540cd3a706f165c8U, 0xd73e48512f15fd9dU,
  0xa4624e34d52ca08dU, 0x5abd126b4a11b0d4U, 0x73e6c8461deb5083U, 0x8998b31b6c2dd44cU,
  0xfb6c5a7d1a317b0dU, 0x570885b17a591c26U, 0x8fbbd725235021c5U, 0x865258b0c360c275U,
  0xc91d59873805175cU, 0x351be0932a1c6655U, 0x5ae473aec4ecb430U, 0xbab21c7d523e082eU,
  0x9c5a74dcdf394774U, 0xdbda9ffff13937cfU, 0x3179ce3378191522U, 0xcb180f93c8601b0dU,
  0xd06f080956c80c92U, 0xd7ebf970b0bbf3c3U, 0x75f4d4c436fa4a1bU, 0x7804d10995ab67faU,
  0xb006ced005ec6c32U, 0xae1b2af960614feeU, 0x9ab5edc8504d1431U, 0xa06075e0412a7daeU,
  0x2b57a57cd6dfa9bfU, 0x463bbae0ec9bffe9U, 0x9aed513941dfcac1U, 0xfdefc25a684cbebcU,
  0xab6ab2270852183U, 0xd1a18b63794b7cfdU, 0xe88c6fede328a3fdU, 0xe1c5378ed6df2e1fU,
  0xc29398ad4145cd74U, 0xc9109069d124a430U, 0x4f8cb3251b1b278eU, 0x880fca7ce337cdf5U,
  0x30df46136ee0e4bdU, 0xc30337010a04ffa4U, 0x86f221c6f6ea17dcU, 0xd6e9352898018af5U,
  0x8ed2e37455386229U, 0xbafa8f1911e96430U, 0xe3e86f29d3b32e51U, 0xa2100017e30d09edU,
  0x26d1743fbf1f5b32U, 0xd0aa51e20545f0d8U, 0x18c2306f7ac67957U, 0x58af106f042e66b9U,
  0x53be94ecc361a186U, 0x2bb259487d0ccc3cU, 0xc5bb7c38c2e8e6c1U, 0xe0a3caf3bce564d4U,
  0x72fe08c3d8c25a45U, 0xd3130699f15f0c3aU, 0xcdded911aac00bf2U, 0x49415b93ce74cbc3U,
  0xd56309bd4ab6a90U, 0x57574c9a173c45eU, 0x22040486a0024741U, 0xf83befc31ed83a74U,
  0x5fed9c582213e9f3U, 0x94bf0b6b6b86cbf6U, 0x4ce842f9f7abaf6cU, 0x4a4cdd6cc2e6a2eeU,
  0xe7e5b1040c917b03U, 0x36bfd22970fd4d52U, 0xb62d5ec031573a03U, 0x938c2c56a50f272bU,
  0xc84a71c78a02de1dU, 0xd90b70a0f2ba59e5U, 0xcc5b36c8c41b92d9U, 0x74283c8769543990U,
  0xccc228e4a7f1232aU, 0xcba78ca92ddc9ca3U, 0xf8e83debad516611U, 0x8545fb8a075fb8cfU,
  0x24f2ac414b939a77U, 0x2ed12abe44542890U, 0x9aef86e6e64e51d5U, 0xf10994cb8c2544f5U,
  0xadb42debec5f7c70U, 0x2ca30c8e40ce16d6U, 0x3c5deec7f8f008cbU, 0x352aab523ce34d7dU,
  0xa2882fb7c694bc6dU, 0x32c7c7bfdcc6c0e7U, 0xac247c902318e1e1U, 0xae6b9fcb742cbdb0U,
  0x6f796bfcb8bd94f8U, 0xff0fc7c9303e380fU, 0x4da956602031e6b1U, 0x40fb37a4844dff0bU,
  0xbeefec2e62661843U, 0xaadbfc258c257406U, 0x4ec74a6c5b296961U, 0x164079f862ba786aU,
  0xc676576eed1d97a0U, 0x98f79b428b102061U, 0xc86ea209c1fc454dU, 0x4d9a5940d9df831U,
  0x265b2c139b5948dU, 0x94074d93d5b7f82eU, 0xae1527a754cae905U, 0x9cbdc5f62dc4b228U,
  0xcf6b3a19661db0d9U, 0x413e1fbceb86e1eU, 0x85322dc96cf43bcU, 0x16e68640640d1f64U,
  0x46da846de62a9348U, 0x639549f348f854dcU, 0x3803f4db08ddb2ceU, 0xedfe2491a7534eb4U,
  0xe806bba22a3e6636U, 0x311b9d2f13da6abbU, 0x2efb3b99c0f647ecU, 0x687427b14e3d7204U,
  0x353d2bdf506978a9U, 0x22d66671cee417f3U, 0xc425bee2ba222a65U, 0x45da1ee64a064394U,
  0xb6b8229b364129efU, 0xd82171f05a09369bU, 0xe4615da5458a3b1bU, 0x56d35b500c099dd0U,
  0xc4f95272cde29e71U, 0xb4d0c568522f3f66U, 0xd6c635d408f52fafU, 0x36680bdf90dcb963U,
  0xae4b19e0734a308dU, 0xbe5fd7a5e09b01edU, 0x47ea9ac6c12fa27cU, 0xf21f32ae89bc8870U,
  0x2cdf8ea914e43fe1U, 0x618ef49d13669a12U, 0x2f4f791183e690cU, 0x150c03dff9614f38U,
  0xdf6f7807c61c2ba8U, 0x6b78e5f6aa5d1cf3U, 0x659c2066eface9bfU, 0x50e6f988ed3292a0U,
  0x8b57f3759fb472edU, 0x4ef976b88959421eU, 0x166ed15bc266e5cU, 0xe5969cecd983a9f0U,
  0x96cd44170fbd156bU, 0xfd9e9f0eb98fcb9dU, 0x1d78ad414b0c1130U, 0xb4aef9d37a1178ffU,
  0x15dcf8cdb6b898fcU, 0x762fbfa3b5c52701U, 0x2f21f0f1409ea88bU, 0xe45b710a57873a29U,
  0x94a010a42bb13cfdU, 0x8d02e4ddaed61587U, 0x3bdf1cc1cb4490a8U, 0xdc646a0258e28a0dU,
  0x9a4d1b2b1a3f3403U, 0xa531673779f3a669U, 0x1f0a098a554ffcfU, 0xfc07d9d4e1d56e93U,
  0x69314dc92d339040U, 0x55fd44b72f9593a7U, 0xd6f6166f37e991c8U, 0x1df3977cfd02864eU,
  0x867360a8183533ecU, 0xa5a158ee0a8b76d9U, 0x255cae0f65e52aadU, 0xd12c794afb041859U,
  0xe5f83c58033b2ff7U, 0x37ae71b1aed01716U, 0xb0154c05f83ec2caU, 0xf28d1fa1095a2624U,
  0x278ea16ec0705179U, 0xb2552b0070b83ea6U, 0x1a40202944b698f7U, 0x2e5ff9de50cbaf23U,
  0xbae967e898206464U, 0x690fd7cfa18f88f8U, 0x9878ce664da8cb89U, 0x81a736e2f87f265U,
  0xacba08171839cf19U, 0x8385539429fa1dd0U, 0xd16f6a4bb8ab6058U, 0xf628fe50f46bd098U,
  0x84005a1cccee6d92U, 0xb61976091b0ed53eU, 0xfa74db5e34c800e4U, 0x779208af0c4c58c0U,
  0xaae1425415cf6407U, 0x833bd794e2849507U, 0xf11ae40c125099d7U, 0x1deae2a5ee52c170U,
  0xc211b83f576778e5U, 0xb9caf50954da1015U, 0xd4a5b9fc49128e72U, 0x8f99a8cb34db4de1U,
  0x4b3325ad75fcf430U, 0xf9733243b8a4f669U, 0x29ca9189ab618486U, 0x38b0282fdc0fab47U,
  0xcf014e09bf39c50dU, 0x68a3f2c87d946bb4U, 0x154a4ea428ece9ecU, 0xf467fdc1506c43e5U,
  0xcd6ff8548bea897dU, 0xd69f6dac15763517U, 0xd43b745cdf780ef1U, 0x77fc12b284f89954U,
  0x8b1d521b30475b27U, 0x34ba9fd57e56fdaU, 0xa843840703b9af6aU, 0x9cdbbe1028cde9fbU,
  0xf62ab6c4b034465eU, 0x5e90386dd2c49dceU, 0x5e65270ea9f305e0U, 0x8e796fe9ef8d2309U,
  0xd5e4269a7bc2481fU, 0x16ecfa3d2e4c6510U, 0xc6c4a82a6204b8eaU, 0xe13271a599dd9bb5U,
  0x85e0255d267d459eU, 0xa76c2d6a403cd2b8U, 0x131d323baad1ee7U, 0x5ae364429848c69eU,
  0xd1fac143aa1a4b86U, 0xf207977145b7a99eU, 0xf68c1e957b499621U, 0x96fb7a91a79d878fU,
  0xdaece5af314c5a56U, 0xd68fb31ede29530aU, 0xcba6a887b649b8fbU, 0x650124951177fca4U,
  0x76b22eab15408bcU, 0xe3c2f75cf06378e6U, 0x161613333c64f3e6U, 0x601f8c96c957917bU,
  0x3a4cf3123d8acc7aU, 0x259e299b0427f425U, 0xb7e7a79e5e2b18d4U, 0x4e8a6ba034ce16bfU,
  0x72c1a64f2eab664cU, 0x14bb4e6daa303008U, 0xe44925cb1936d58dU, 0xc412c4d231b85cf7U,
  0x2fb4318bec935df6U, 0xcdfb350a361a2fe3U, 0x4546a9f5f841ae1cU, 0xe17032e2e27888bcU,
  0xe078d5c5ed34b7eaU, 0x76565a23ef6cac4bU, 0xb06e05298778cf2bU, 0x440cf4b61a29750aU,
  0x7290e6ff07edeec2U, 0x84ea532af221602aU, 0xf7d45ea452d92cefU, 0x740f129362cdd63aU,
  0xb486ca701ab4d6e5U, 0xfa366999119c8e0dU, 0x9756257bc3af1745U, 0xd7a2da2fa4b07acfU,
  0x1134d69c2aa82c6eU, 0xfa0bebb9d64f42a5U, 0xbf666e2f0085b863U, 0x70e0df492bd6331dU,
  0xc8eb30b3772dcbb9U, 0xa9b9a378658cbd14U, 0x3317663c3636d454U, 0xaa89ebc4c1126cb2U,
  0xe0040e9be88a747cU, 0x1b888f7658c91ebaU, 0x7703e099b5bdb8ddU, 0x20720aa47377bcb3U,
  0xab69f00871fe98b7U, 0xf6dc495e2e954830U, 0x56ccb639c7552f1bU, 0xca2e594f2a91b1f7U,
  0x357b1084e6cc9e63U, 0xb184920ca9d142eaU, 0x773e8960171ae50eU, 0x2bf8906646a9aa7aU,
  0x8dabc884118ccdb5U, 0xb83cef8ec4cbbdf2U, 0x736e349f9bc69feU, 0x4aaebf4370781decU,
  0x1133a1cfd5920f1eU, 0x8bd3f2979d02ed5U, 0x1bae5610f388f0baU, 0xf372c3cd13913ad2U,
  0xd216f6d79fa687e0U, 0x32ccb49c9a83e735U, 0xf83adddbc7c1e70fU, 0xfd2431cdfa502c42U,
  0xacdf19c26bee04b0U, 0x2d84e6ae0964b9f8U, 0x348cb2cdf3b15fa4U, 0x4e22dde7687456f0U,
  0x68eb0e89640fcd93U, 0xd00ceeaea4b52725U, 0xd67cddb6c149faf5U, 0xf1332d46ddaec2d1U,
  0x53165e4670555974U, 0xffd90bf363a30d2fU, 0x2d3fef2dc7fb6e56U, 0xb7bbb465ed00d1acU,
  0x424d8ed526dee29fU, 0x8b0104895ef94c2aU, 0x7572f724b7eb4f10U, 0x64efde2f29c7051bU,
  0x7af6e2a3a29ca964U, 0x1653a193acc2a643U, 0x60b6d9cbcbcb7cc1U, 0x9bef8f4e289e3f5dU,
  0x8d0ba45d3a7b3657U, 0x53f2f0b970ee4adfU, 0x53136b8e211ae4f5U, 0x296a6ee074dfae14U,
  0x3de65c0da3651abdU, 0xc2d8a64f34e909acU, 0xd056aa2ac2378af7U, 0xd65b737b8a0da2c6U,
  0x5723d1e8bfa4196aU, 0xd1983c91d9edc843U, 0x56d10b98c9fdcecaU, 0x774ffec5db5f8a39U,
  0xb8eee03c5707985U, 0xd7bc2799f1d789c7U, 0x76c06eeeabb5b61fU, 0xcc2edce8669ba398U,
  0x525b883010898b12U, 0x7cd6c4d0510cf9ddU, 0xeb3eece02d2c898U, 0x3ef45b9b41e21ae0U,
  0xbcda3752d9683d7bU, 0x4fb47b08bb8506cbU, 0x10b9aff273fdc23bU, 0x3128323cc3b225fbU,
  0x13aafe9a011bc5bcU, 0x600014e65c4ee634U, 0x264b8c7325e029a9U, 0xe6b1c7f848dda264U,
  0x419aaf2be9ddf34dU, 0x14b1bd68e609ad09U, 0x6d663b837ce3a60bU, 0x3e0ff19c68ca344bU,
  0xe054a1273a17da31U, 0x675d4a7850778893U, 0xce4b615fd614dd93U, 0x9bb443ea045cd65eU,
  0x9c3bf4aeeb000999U, 0x6e511276223ddb15U, 0x4b5afb1824166619U, 0x1bd5a0a7a09006U,
  0xc2a7db8f4e434726U, 0x964e9879456c1aa8U, 0x794ef3f10209ae28U, 0x5942b953f6cdd28U,
  0x51e5b3b6cc035d9U, 0x869ea98c5b71b4b7U, 0x211be60ef122db79U, 0x44891ffffe4c209bU,
  0xcba133f09e92af9aU, 0x940f85e9694b34cU, 0x1ddef850341a0113U, 0x4a6bf5ba6a54e36cU,
  0x43af68dd8ba54e78U, 0x8c2a1718b6e8c4caU, 0x60b8ac9ca4f84ce0U, 0x5b3b9c6c19fb50faU,
  0x22db4940fe894e4cU, 0x1b3257f266996facU, 0xe16e2086205bf212U, 0xf373411d7bb56ef0U,
  0x984d0a35d6450434U, 0x43beb07de9f9de98U, 0x3ac9571dc958596U, 0x8711d237b1a3163dU,
  0xf4ca4049d7bbaf14U, 0x277d4178d4850819U, 0x2aa971da6f56315fU, 0xbdeb1d70c3ec319bU,
  0x2f0b9a4144207953U, 0xd0c43fd28c6668daU, 0xad3bd2a98fa50a65U, 0x4d2a1215b18b8bdeU,
  0x87e5af4193d10920U, 0x978778eb1eb9c14dU, 0xfd33cf3655cc1520U, 0x1242e74f096725ecU,
  0x1f9f00131525dad0U, 0xe450cce0c71f5578U, 0x5559327c67f8c225U, 0xe856aeb8e155fec9U,
  0x1e1067915679ec73U, 0x1fa906b9d9fa3ea1U, 0xb6573668182db36fU, 0xfbe30d3df96ef7d2U,
  0x1c4987a8b222f1c0U, 0x1a78f6d46073f9bcU, 0x5d0c04992ac1a4ffU, 0x181ba234af71b2caU,
  0x5ca85812909cd2ecU, 0x2193cc086fe97166U, 0xe8a1b1d2a05645b7U, 0x419ea668a6272918U,
  0xc17bf86dd9ae5cebU, 0x92acf5e4e6cd6541U, 0x9fea06c5ceef6f29U, 0xc78a9ac5bd7bf50U,
  0xa3484033510b584dU, 0xc119c0c2e1ef74cU, 0x51ef3ad5bd8f9efbU, 0x37283a138878794bU,
  0x24fc7871456f41aU, 0xe44cbc16145a7800U, 0xa1b00ec1a418fa1dU, 0xf2f0d59f2ab455ddU,
  0xdcdaef54ae1c9a29U, 0x737441ed40791d0fU, 0x923f7d576bda432fU, 0x9ceab637f8b50cbcU,
  0x873cc566def13115U, 0x61a844919d571aa9U, 0x3d8b76a19a361613U, 0x1d776a029f89f6efU,
  0xd9ad47e2915aa353U, 0x98ae6ac8174dacadU, 0x7983e14bbc6dba22U, 0xe0d374978d6f6cd5U,
  0x776ee0e63a90250aU, 0xcb8da55318605341U, 0xf597937a46cfbd5aU, 0x6d37a8b0d86a3994U,
  0xe8678921103341d2U, 0x5e8470b542cf8b0dU, 0x21df5d2160b26a9eU, 0xddbe3a279a4d48c4U,
  0x113bff5bedcd1d6cU, 0xfc4d612a4b02cdb0U, 0xa8696c2062a7c5f4U, 0x5a2a24942b479852U,
  0xe917b6c0acbca52eU, 0x2d9636d859400956U, 0x5d9a5d5d11636ea4U, 0x199fa3f487c22d54U,
  0xcd0b0296dbdeb339U, 0x17265e09b9061502U, 0x4674cf2596280412U, 0x2de1243e56b0d0eaU,
  0xa64ea4d01371b478U, 0x7bbf256594674f49U, 0x53d1ecfeb0ed32a1U, 0x16f5303c9e06ca14U,
  0x31b2267b33fe7251U, 0xd967e92188ccfb49U, 0xa63ebf796db20843U, 0xe7daabf44987ce4fU,
  0x5c7d75c365b97b3cU, 0x49f7cda2f31cca27U, 0xa61d17446c96bd87U, 0xde8671fd5e37cd1cU,
  0xaa71ee014174cf96U, 0x38cea33b9058116dU, 0xb9764fb536f61be9U, 0xc572853a7396d8aU,
  0x845b4525d3ef79b8U, 0x6a211fd29dbed31U, 0x56d4df75264a5a18U, 0x5585e88ad4c0e0a9U,
  0x330fd9176d535067U, 0x28c25d95fc07550U, 0xc1b5ebe02facf48bU, 0x645213606b655c6bU,
  0x1575bf1c1a868974U, 0x293edda8e634604cU, 0xf11dc0e85ab21c62U, 0x54fc462db148acbU,
  0xbbb8a0e2372e47e0U, 0x34b0e546073b9adaU, 0xdc9950353c0c0f54U, 0x752b25bc8c5a906fU,
