/**
  ******************************************************************************
  * @file    network_data_params.c
  * @author  AST Embedded Analytics Research Platform
  * @date    Tue Feb 18 16:03:25 2025
  * @brief   AI Tool Automatic Code Generator for Embedded NN computing
  ******************************************************************************
  * Copyright (c) 2025 STMicroelectronics.
  * All rights reserved.
  *
  * This software is licensed under terms that can be found in the LICENSE file
  * in the root directory of this software component.
  * If no LICENSE file comes with this software, it is provided AS-IS.
  ******************************************************************************
  */

#include "network_data_params.h"


/**  Activations Section  ****************************************************/
ai_handle g_network_activations_table[1 + 2] = {
  AI_HANDLE_PTR(AI_MAGIC_MARKER),
  AI_HANDLE_PTR(NULL),
  AI_HANDLE_PTR(AI_MAGIC_MARKER),
};




/**  Weights Section  ********************************************************/
AI_ALIGNED(32)
const ai_u64 s_network_weights_array_u64[17618] = {
  0x44fb15dabdb82fffU, 0x5cbaf9ddffb11f5U, 0x4bf24a28d1bc2a18U, 0x5cefeecdaf4efaecU,
  0x271e43daafc3dec2U, 0x2e2ee1c1b602ce0bU, 0xc73c19255e2ffccbU, 0x11b82f37c8bab208U,
  0xeecc513b15f8f01fU, 0xc90ba71c51485922U, 0xcdfb010b9f4e5bbcU, 0xc6a01d412e2cc90dU,
  0xefd23658ccc4113dU, 0x43ea1107ccb709b2U, 0x2c1d06eaaa3b47d2U, 0xd2d9cda726d40a36U,
  0xf03ffecc22ebc5e5U, 0x9623a594720fff5U, 0xb8bccad9fc39e8bbU, 0xd7f6d12fa92e2bffU,
  0x32d806fab6b4e3f0U, 0x3da41c51e349ffbaU, 0x2057f40fb449d4f0U, 0x344024ccfee21c2eU,
  0xfdcb21c7cdc116c3U, 0x4ee73fd6d6d23504U, 0x308eb17ebf2112bU, 0x91f6002be56e9bdU,
  0x521007f4f5d033beU, 0x2decd93cda466021U, 0xb740bc4013f8552fU, 0xdfcce6490cd2f101U,
  0x463837dcd9da24b2U, 0xdbdb113913eae722U, 0x2104d94bc3d91bbeU, 0x14e0420a43bec70bU,
  0xcce3ec1416cfefddU, 0x1edd0ad7db19b33cU, 0xe7b3ee18270acd09U, 0xfc190adf2b1fec1cU,
  0xe3358410bcef8fcU, 0x20d3314bb8cce12cU, 0x3a47ecfb304d5143U, 0x46ea19d22e2c4bc7U,
  0x13d524ed29132600U, 0xbf41572d47cdb9deU, 0xe4c2ebd33de2f0d4U, 0x4c23f55347484f48U,
  0xf71931ec382b6225U, 0x3fd7f83c48cde8e5U, 0x3b4ed02253e11641U, 0xf5d81250ffe537e2U,
  0x2f19eb20520901f5U, 0x2ad424e4d5e8c234U, 0xc031cc14e7ce0653U, 0x22f34cc03dfabbc0U,
  0x4dcc385c3946c509U, 0xcd1de5bdf9d12809U, 0x6025f0c9d7063624U, 0x34de23cfbe23043eU,
  0x2d2f36fc2cbbe0c1U, 0xf642c82206e9f4feU, 0x2f2832af4341d1baU, 0x31e91ae92019d543U,
  0xed200ac01b15e1e9U, 0xdb35c1c0ad16dd0eU, 0x4bea6bb4b3abef0U, 0xd4e415d213e8c9dcU,
  0xa7a644d3fabf4608U, 0x732f2d9fb0cc956U, 0xeadf4ccb32ebc6b6U, 0x46ecc0db2e402139U,
  0x1eb3aaeb4518a5d6U, 0xadfb413915ffd3f4U, 0x4c503caa171354b0U, 0xd31fdcd043bfdeb2U,
  0x3d1ac832bef7f5c4U, 0xa80a56da06450a36U, 0xc24eab4ed4dc1d3U, 0x18b4b3e7e713fb0aU,
  0x37d14fb6ff1101beU, 0xd9aabc33d820e4b1U, 0xaa29e6e10cd4450eU, 0xe7ad32d937e63df8U,
  0xdd2deff5331f14e2U, 0xb4eb2518f4ebc242U, 0xa9f33d26c5150814U, 0x2b712d3fb09bb2cU,
  0xd1ec2cc83f00f2bdU, 0x342318fbe942adaeU, 0xaf4119bfc1ddb234U, 0x3eb7fbe83cefd329U,
  0xdf3500bdb60ab2efU, 0x2bce2f8d3394715U, 0xc6dd3fdd14064541U, 0x49eec51e4cb4320dU,
  0xce412b36aa1fe5b8U, 0x9062d9ea05fc768U, 0x33f8000394ebc0c3U, 0xf9f8c7c1d4e11962U,
  0xcb68650db53fcf2cU, 0x1f1dc61ef5d40e17U, 0xf14df95826f54ceeU, 0xe73f1113da09eceeU,
  0x19d4e00e24add900U, 0x3f36ed31220a3eedU, 0xb133dbd84910180aU, 0x2116237aa46d0fbU,
  0xf82711fada01d768U, 0x3cf6153120817aaU, 0xa540383864c2afebU, 0x38e44b1b52d25601U,
  0x3f576e5b1622f3aaU, 0x1339dbf9d6bc0246U, 0x1834b6a71b531b08U, 0xc719aa4442af9e1cU,
  0x3f533ab0a9641d44U, 0x11d1c30fbe3cba46U, 0xd7c2d62ab8b5eedeU, 0x31fddfe273bbcb1U,
  0xcd5504a79f5d16bdU, 0x1c641541020491bU, 0xd5139ae1349f4e26U, 0x4f093dd9fcc0c818U,
  0xee05e1040740dc1cU, 0xc3bb3aefb500baf9U, 0x34f9c2311212e9e8U, 0x29cac5351bcaf951U,
  0x83e41de20cdadfaU, 0x2fb3f1c015edddf3U, 0x27490a28d4e157ccU, 0x2a9483bdafb4dadU,
  0x5d2449dff453333dU, 0xf81b4c25b5eeccdfU, 0xb42eeaaa853c32bU, 0x9224421fb1cb419U,
  0xe3d235de32efc906U, 0x4851020e0304b1f8U, 0xa9e30e24bcb723ccU, 0xe2b0c005abb82be1U,
  0xcedaefbb09c1b2edU, 0xdbf647052bb6c922U, 0xdbd329f1b046fff7U, 0xb72bac36c117a934U,
  0x23014fd4ae4609beU, 0x208b81f54d6e69fU, 0xf6e1cbba40dad6eaU, 0xbb51e8f2cef60415U,
  0x3d01c64d48fdb3d0U, 0xe740df46c1ff5a2eU, 0x5fd3d8d2b4525820U, 0xacaec429d0e5c4feU,
  0x1e0814431cd02d32U, 0x6252c9403acb27f9U, 0xb341222ac12df1dfU, 0xdac2bfd1bc2621b7U,
  0x2529bd325a38e650U, 0xc5530eb2463dba4dU, 0x4af54e4b5e1b2a1bU, 0x3c392a51e6edd0aeU,
  0x49f3e5351c0bf7c7U, 0xc2cefeef3b2bd7f5U, 0x3e2afde8d032d71cU, 0xf345f4b3dde22836U,
  0x123bdac22c1fcf04U, 0xe1ea1cafb8f105ebU, 0xd3d41c23aadfcfe6U, 0x46120acc0101ee16U,
  0x40cf4f02b039e1e7U, 0xa23f1e750f53b41U, 0xec1d2e1532d43f29U, 0x12feedae27ce3acdU,
  0xf103cb4c0ce71803U, 0x4cff3be1f60a4844U, 0xf935ed1be03e4430U, 0xf23e1a222dcbd516U,
  0xd584c41ee0ed722U, 0xddebc60a0fe4cc39U, 0xec9c6df273805b6U, 0x4fbdc508e6dedf3cU,
  0x3f01effc3f800eaU, 0xbd2de9393443c30cU, 0xbee8fdec1de2f9fcU, 0x180cf5433643d6f5U,
  0x244ae7c7c8d4435aU, 0xdf2a394bce122d5eU, 0x31d2b533343b0b39U, 0xf122d844184bc8feU,
  0xf3153deb22ebefe3U, 0xe6ff03f6beedc6d4U, 0xf0bb4631e5ee2e39U, 0xd4f80040f541e5f9U,
  0x511bb940e9291ee1U, 0x9e239e1caf74eeeU, 0xa9aaa6b106e7184bU, 0xa6e5bc2797d42504U,
  0xdbeecf3bbcaf19baU, 0x1caf0ff11ef7ba1bU, 0x1c25eb3735bcf11aU, 0xf828eda40050eaddU,
  0xfa05e101e33248ccU, 0x15ae13f3190021b2U, 0x4eb8b1f7fba7ee34U, 0xece239331f44315dU,
  0x135a5845b3c4032fU, 0x1fcfe651a9b2a334U, 0x3a20a8a50e16dbd3U, 0x4419caa5051cc000U,
  0x201e073644c30fe8U, 0xc9a4df66ee1707c6U, 0x2dd2b7eec1d0409cU, 0x4e38c01dff3f2ab7U,
  0xd119b01ff2a6431eU, 0x17522de6b21cb8c7U, 0xac410c4e102adbccU, 0xbe471decfaebd84dU,
  0x53950394411ae23U, 0xfc0850bb2245db0dU, 0x3effca9dde0ef7d2U, 0x3af3ebc1e8f3c64eU,
  0x49f2c73ae2c5facbU, 0x44e022d9dbbdbe1aU, 0xd604074f4217dac4U, 0x4a0634a7b2e8ca35U,
  0xf1153b2cea27334dU, 0xe6ce27ad14bdf503U, 0x2c143f362cc15ce9U, 0xec1310e7b4160a54U,
  0x9f9f259d5219e299U, 0x3df85254ab1be4c4U, 0x190aa6ac11f9d0e1U, 0x2e36ee29d722c456U,
  0x586450c14c082051U, 0xea4715202313d8d7U, 0xc7d8ab04bd0a20daU, 0xb237b8188ec3a054U,
  0xd3a6fa566225c3bcU, 0xf0c41f2d2c2ae2dfU, 0xa0f141acff08c805U, 0x4b2b1c0f6630c845U,
  0x210639054effdde1U, 0xfd2630f3aa98ed0dU, 0xe9b9fbb89db22731U, 0x1704c9604d172ce2U,
  0x47d6df3cc0cfe540U, 0xc5c1d0d052a7f752U, 0xd4fdbd1de7a6b7b6U, 0x160fcaaec9fd3a1cU,
  0xc3a44b16a734eb2cU, 0x41d602ff3acaf741U, 0x26e8df3527070229U, 0xa3a16b723cb5fd7U,
  0xd4f2baaab0b03ae4U, 0x4bd42bcdc336ee05U, 0xfa40bb1418d6e8c7U, 0xd83f112f5f43fee8U,
  0x2fce9133ac2e4ceU, 0x27ea1f1f1fad5d59U, 0x451ccfaddda85f2aU, 0xd313d001d14c3badU,
  0x3bc1f3f44fb9c7d4U, 0xf2f7b35bb2c3dbbfU, 0xeef4fa904cad2d29U, 0xe30d2c37dd076146U,
  0xf346d8afeb0b5b09U, 0x505238e0fac33600U, 0x3cd124b70fe8b54aU, 0xcfbd60cf394ebc44U,
  0x5065eeaaf81507d6U, 0xf7dead2ec5361e4dU, 0x629efbf1fe70e54U, 0x38f21b76eacf4bf8U,
  0xb343062b04e1ef38U, 0x2bd4f52015194bd7U, 0xc3e7b4f0151ad8f1U, 0xeba247b32457c21cU,
  0x3452b347d904a9ccU, 0xfee7c84bc5ced859U, 0x2d2ce5bab4cad06U, 0x2972285f39a5fe26U,
  0xe8d940f0c8b1c403U, 0xc025c4766fac311U, 0x1156c01259dfd834U, 0x3651c9fb4724ab3dU,
  0x102fbee939ff1e1fU, 0x1f9eb217f5eaf025U, 0xf71803360710f5c6U, 0x3bdaaad8a542230eU,
  0x5620235ad038aaa5U, 0xf2e8f222cb2450b8U, 0x3904fea8fa6a64dbU, 0x23f8b1d4dc2c3816U,
  0x76f3ff26d3006f0eU, 0x1802ca5ae41e4d08U, 0x4b330641ea04b63bU, 0x19e3eabec450fef5U,
  0x2adae645bebc046fU, 0xdde7345a55629e0aU, 0xe61339d9a017f434U, 0xb7d0315aa1f34cc1U,
  0xbef415f93adafb61U, 0x9f27da0e5ec90bd5U, 0x1db4af093ea929c2U, 0x1b331b27d5adf640U,
  0xe9e5614e633a0eU, 0x1e26db9befb3336U, 0xe770e7d3291ddcd3U, 0xdc440b1d246706beU,
  0xcb455ed11b0c2744U, 0x35b9e05ae442f5b7U, 0xfc29c0b605f006d9U, 0xffae7c371ab6ffcdU,
  0x44e7363226cf5c38U, 0x26033cc15b22d8ebU, 0xd410bc270bc3134eU, 0xbb41ad2bcabb1e01U,
  0xc35a3507bd340d07U, 0xdcc1b6bac50422d6U, 0x2dff10d93e0db1c1U, 0xe001f2a1455a05bdU,
  0x2c607f5db39c4c8U, 0xfb204239071acb2eU, 0xeed40a2f0452bb7U, 0x2131dd315236e4U,
  0x11152b4526a3ceb0U, 0xbf0f08f0a6decf4dU, 0xaca00fa80cbea3ecU, 0x212009c9423da9edU,
  0xd3d9faebad30b6e8U, 0xc6f639f150ecfdc1U, 0x1e0a3f0de7fafae3U, 0xfd18b74e2b300b47U,
  0x7393db84931dee9U, 0xf60e19f4e9014507U, 0x39eefd3711c11b17U, 0x4be05ab4ad0d5b3U,
  0x2813cc024de310U, 0xb612fc1e3b1fc357U, 0xd1e142423e0302b8U, 0xdbd5aad1acaf22b2U,
  0xc6ed060c4ef658deU, 0xcccd074bb7f443abU, 0xa2d9b1083a52a0bfU, 0xf4213919e0eae510U,
  0xbd630dd63caf9eeU, 0x4528fb07ad26c01cU, 0x3ad828ce21e0fa0aU, 0x21e246b223ff3d41U,
  0xa2c00cc2be4e9f0U, 0xdf4533c457d7aab2U, 0xe5242708f511c9e2U, 0xf5f746dd11021406U,
  0x22ff42dcf003c4b5U, 0x2e3cfe9f3e3e14fU, 0xede619020d354423U, 0x46b2dde600b6ba2bU,
  0x25f4fcbe1fdedd05U, 0x5e5310f4329d626U, 0xd8cecdedb936df25U, 0xc018f207b8ea08bcU,
  0x39e94b19082f0bf8U, 0x380123ec320dae45U, 0x2f23134e173ad400U, 0xc2fce7fcc812de07U,
  0xf1c84ec1393db437U, 0x5edfc9fcdd47e92bU, 0xc0e2fa39b0090f46U, 0x2e0e1ac0fd282250U,
  0x2f213e62353dcf7U, 0xd40cd3043c4ab92aU, 0xa444b24af0ae93dU, 0xd7ea19ab31401f3dU,
  0xbce52d372f0df338U, 0xf23d552dc4fa21b1U, 0xbfe9da40c622dbfeU, 0x14e5c0353cdeeaf4U,
  0x47c631e5ec32f256U, 0xea20222b5d14e94cU, 0x1338fd13dd40e01fU, 0xce27bac121dcf73fU,
  0x122cdee7df04e0dcU, 0x73a20f20ff9c4d0U, 0xdf06cb3602d6210bU, 0x2e211a1fd3432cc0U,
  0xcc00cd27d5b34352U, 0xd81832f946151c04U, 0xf3b9f03130d43cb0U, 0x80cdfa737e31acfU,
  0xd5bc302342b8eb3fU, 0xe842e5faca150dcdU, 0xd915b636cfdec260U, 0x520c9d0808b80461U,
  0x294a56d20cf7f91dU, 0x20ffa5b159cca3d3U, 0x9cb61331e2f2ada6U, 0xcf0a1ee113cdfc44U,
  0xc12dcd0fe8c923a7U, 0x7c72403ad11fb0cU, 0xa719f9d306e14ff0U, 0xc5fc13dc481e383eU,
  0xa5e9efb9abdddfdfU, 0x20c7d2c8545c3603U, 0x173e37ce41350a21U, 0x1d32451312d1b2U,
  0xf6323d0de137df49U, 0x34d0b52f2e18cf10U, 0x3727b1d3e34644f0U, 0xccd1f2320fcbb908U,
  0x5e21eb9daae1a5fU, 0xcdb03e3bebfb5dcU, 0xc324bec253ec5ff3U, 0x30662310623cd025U,
  0xd4c30ded55b8f2b8U, 0x60ed585c11e0591bU, 0xa82f26f4c30f5e2aU, 0xe630ef165734b144U,
  0xeca8ba25512ac0beU, 0xdbeee240c916c22eU, 0x44ee18a8380b08bfU, 0x20ff20e7362910ddU,
  0xe2f218ddcbb9b8d5U, 0xc1adfdeb73ef20aU, 0x104f6215dcbb61f6U, 0xdadb5f3ffd3e35daU,
  0x4bfc371f0c481ab2U, 0x650c3f11a0bca017U, 0x2ee1540c395b0e0aU, 0xcf18d2e032c2ce34U,
  0x52d70c1853f91153U, 0xadd2d346400149f5U, 0xfd1a3a27d9f14d43U, 0x201c1cfdc4c951cfU,
  0xa7f11ec0e4e6e8d0U, 0x6bb3bfec2e2cdd2U, 0x4c05c41ff5f5cee9U, 0xa9b6aa55b527e559U,
  0xe800f60524f305a2U, 0xcee6e237fede32b4U, 0x16bb071a40f929abU, 0x2c3b0ac105f9d806U,
  0x42ed20ecedc43462U, 0xb81440e6bcd5d319U, 0xeaf766c0b3c328bbU, 0xa4d292809f436bdU,
  0xb7cdbf5cebbd001dU, 0xc0143b2961dfc210U, 0xb4bf63ee29d3c6dfU, 0xdbe84eae184cb358U,
  0xea24e233c313b6bcU, 0xcec602bdd629041cU, 0x2b3c154856cdecaeU, 0xfbded812bee1e89cU,
  0xb3ec11e5451f43bfU, 0x81dffbbd7ecbe33U, 0xc2c3f2deddfe184bU, 0xcd22c75a49d6fbf5U,
  0xdee5014db9fb4ee5U, 0x53ca18d72e351463U, 0x92e06cd32234addU, 0xfa5b3231fdd02ff7U,
  0x2e2b064ce1f7eb27U, 0x59b3fd17c30b101dU, 0xd6dfe935c0bdd401U, 0x5cf03fc84f4f0056U,
  0xf4c748f1311ec237U, 0x33f2c8bfd72f5e67U, 0xef8e3da3f5b0c1bU, 0x32380a2deb3f3105U,
  0x154fd32acb2ff6eaU, 0x908fc1e0ee230e8U, 0x1dbe02b31202ef7U, 0x1452cfb1eed9c14eU,
  0x4bee34caf3f9efafU, 0xc25f4c43d1f6cec8U, 0x56b74a3707e04343U, 0x3dd83cd6cbdc2ae5U,
  0x35acdf1dcf73b25U, 0x38d53d04b015b8d5U, 0x2f0c36c833aaccefU, 0xeecf0334bea94cbfU,
  0x61ef15103bedb1afU, 0x9314a2313f52b12U, 0x20c1ed41132fdf19U, 0x2856db45161f4125U,
  0xc602b2472bb24236U, 0xf14837a1df1f19deU, 0xcbe4f7ff0ae43a56U, 0x52321a4ddee32bd0U,
  0x13f101f4b55e22e7U, 0x2fd0b2d046f7ca2aU, 0x906ca56c738c9b5U, 0xcdf22024be564404U,
  0xebdc1db2aab24313U, 0x1038e5d310bbf161U, 0xc8b42624c93459b2U, 0xcdfb48cd1e0726bfU,
  0xd95fc1bbe8122adaU, 0x33b744e5a5eee433U, 0xb413ebbab5a616c5U, 0x5cf0ee3b574e2610U,
  0xc4b13f55ba50de36U, 0x48012d38d50b6a46U, 0xf51901ceb635022dU, 0xe2f5baeb25b01828U,
  0xd1fb480ccb56a8cbU, 0xeb38de220bc916aaU, 0xdc4efb01cb1bc9dbU, 0x3a3427d40ebbf0d9U,
  0xbb7c8ff8ec321e0U, 0x3def1908a8f4dd40U, 0x24534f444ac8f3aeU, 0xb1162739af16c2bbU,
  0xbf07cdfa1bdef83aU, 0xc7b4dec12f253c40U, 0xe4e234d5232130b1U, 0xfda70af045ba2b1dU,
  0xc36c6def7dec9ceU, 0xd218fd1c070d06aaU, 0x44e0be4f37df3cdcU, 0x5440ae8170c0af0U,
  0xd7d10527e1e10faaU, 0x500273dd4e9f7f7U, 0x15b314c105093e04U, 0xb3acb38cb25d5cbU,
  0xb3060fcebfae28ddU, 0xe61507d3f9d1f23eU, 0xf9fabfe6e9bb25faU, 0xd4c03ecc203e0bb7U,
  0xf7be09d23f493f1aU, 0xb6f01bbaddb32143U, 0x8df12f644fc0fe6U, 0xbe0a6acc61b37feU,
  0x2013b3bd2017ee4aU, 0x15edf60cf6ad0cd3U, 0xdb37aebecab334e3U, 0x52af025ffbb07b6U,
  0xc0108fdf12d07b8U, 0xf5e7b70303202ba9U, 0x2bfdb235df05ce0eU, 0x37c31c061e1ff8bbU,
  0xb841431fef0926fbU, 0x3034f6c3322cc0feU, 0xca30220cb9ec32c1U, 0x1023e9ffba2dcac6U,
  0xbeae05e10b4e0fd5U, 0x19f7ee400e3cc5e1U, 0xb6dda23c3fa8e0ecU, 0xad1d1017fa384ee2U,
  0x90daff1dfc4aa0dU, 0xcbbaafc0ef4516d8U, 0xe6d345411e2adab7U, 0x1dbeb8b6e923bf0cU,
  0xa1d8c0d4d1e5394dU, 0x4e3810c03acba72aU, 0x3213fef0fd2ee22cU, 0x8b00c24f70b251dU,
  0x4921d20b1425cdd2U, 0xda211d1e2fac1e09U, 0xbb055a40bd3f4cf4U, 0x2ff7f513a835eb0dU,
  0xdff41f04d3cab600U, 0x16034235f13aa71fU, 0x1f46f51df33038d3U, 0x4a340f291c58b43aU,
  0xb3133d4e548b6f5U, 0xed3372d3149e7f0U, 0x10533aaa7b128b6U, 0x3dffc0e5c8e9e40bU,
  0x4470910dcc92ab7U, 0xba05e0bdc1f5dcdcU, 0x1a1fe3adea4534c6U, 0xb2dd034e9dcb2ebU,
  0xc2b3d531f054bbeaU, 0x4492bb349f5e7ceU, 0xaed8e8ea2b1708d0U, 0x49c34b41ffd7c01eU,
  0xf5c4cd2a54084951U, 0x3dd206512a47e1b6U, 0x284d47c22de20d03U, 0xa00410db9de2e47U,
  0xcbeaf82118522547U, 0xc5f1ade90d305236U, 0xe3b24cbb12ebfcb2U, 0xf1eae60afd1e0fe1U,
  0x1002162953cdb81cU, 0x5806faaeacfdc116U, 0xbbf0f1dc3b05ea0fU, 0x1e4fb14bc3cab1edU,
  0x5b42cebaaf14ac4U, 0x8c058dceeffcd23U, 0xba0d3761ba2cd42aU, 0x42fca8b40fe63016U,
  0x2d33d7faf1d62608U, 0x27e5e608dcee2fc4U, 0x5422fe01904013fU, 0x4942add1b2545912U,
  0x10123535b9212de4U, 0xe631f33703523d28U, 0x3b301635132830c5U, 0xe1490dc5100f0fddU,
  0xda02f5c3e31f166cU, 0x4368e05deed4c052U, 0xd04265f6e1313508U, 0x2101ccd5133d4ae8U,
  0x724ccdc57f03c909U, 0xf65926e86ffec6c9U, 0xf2fa563d6b1ddbfcU, 0xf05823e0b3f434f0U,
  0x4227144720bbbfb4U, 0x16d4d74127203f45U, 0x10d93e3bc5b9af13U, 0x2fcf35b4c7b764f5U,
  0xd2be927def6d112U, 0xa7ca001727b6c2aeU, 0x1929b0bba8a1ade4U, 0xcc40ea1c1c29b222U,
  0xd520e6eba2224d23U, 0x3a55cae20ff2e603U, 0xff16c0d0cd423cf9U, 0xcf4ad3bdd5e2480bU,
  0xf2e9f14ccebd24f5U, 0xf02ba657c01810e3U, 0xfebb5f2e0aa463e7U, 0xff45bf16cb13ab5eU,
  0xcd0cdfb7e3f0fd37U, 0xbedc0dcff9e3d24cU, 0xf055d6f8411a56f9U, 0xf9ece425d5280db9U,
  0xbbb9244fe926bdf9U, 0x5fdece0ccfd328cfU, 0xe72db1420e33ede4U, 0x4052c1e942bee9c8U,
  0xc2b534e4e41562bU, 0x48e3cb1cf63ef41aU, 0xf545e511f7cf210dU, 0xd4bdae16c810f755U,
  0x3c2d4c34ed01fa17U, 0xe214b5e73009c6f7U, 0xc1394ec7c7f331ceU, 0x92d1d01b52afe00U,
  0xc6189ce95233a6d1U, 0xe6540c70070830c7U, 0xc5746ed355b2c4fU, 0xb1062664ad22af32U,
  0x33d5f1252a604660U, 0x3de89fbc1719042dU, 0xc303402603f9af3bU, 0xf95126f83bd2e913U,
  0x68c24945ff39de41U, 0x248e090cb018af3fU, 0xf24f16422c6157e0U, 0xce2e3fcce2f2ee1fU,
  0xac495caaedb141b3U, 0xd7fcd4edc91ebe94U, 0xdf2e41c855eabf27U, 0xd0c7c6441203ca1bU,
  0xb612fee3e2ab18a5U, 0x3155c42d1cd2f6dcU, 0xb21647abe90005d3U, 0x541c163be30c62c4U,
  0xe031e9fbc6b955f5U, 0x534b31fd0437e618U, 0xebfd243becf0d5b1U, 0xb7ef0bd8d72c4a07U,
  0x37516009c8cffca8U, 0xecd5f4dc0a3930b4U, 0xaf1eaab91cb0e9efU, 0xc51c0fb1ebd66152U,
  0x580fc49206e5f023U, 0x500430f7dafe39c9U, 0xb3113b37dd56bbe3U, 0x3251f3ad37172da3U,
  0xfad820c7c6eb4246U, 0xddd733062c322f07U, 0xd5080320fe46cdf1U, 0xc7140fa748d5a9f8U,
  0x1715f74d22463116U, 0x1cf5e12e50cdfbcfU, 0xbd2138fc0d2a18d0U, 0xd3dbee195138bc41U,
  0x5230bb26e65ddffdU, 0xed5416bca925e7c3U, 0xf7d7e24841acb6faU, 0xc3ffdd0d9c4ac17U,
  0xaa431e1e124853adU, 0x40e5baadc1e9eec6U, 0xcffabfad2c61431U, 0xaf3a44c30d51f046U,
  0x43e1e9d23fc11fc7U, 0xf3afb6f1d22cecd4U, 0xb3322a18dbac430eU, 0xee122ca922ce10f0U,
  0x194011d432483c15U, 0xd345efc7fa31c54bU, 0xafc002c04cddbe4U, 0xfcf50026b502cfc3U,
  0x1cb41ed820214646U, 0x1a1d1945353e00bfU, 0xcb1feacdd0062937U, 0x2dac390cb9384c11U,
  0x241e17d5e9dbb6c9U, 0xbf23d9ceb6b0c944U, 0xba341ebe0eca29bfU, 0x4c381fb94b35d41cU,
  0xd40bf9cc11051143U, 0x3b2757aceee8f408U, 0xf80a260dea43a5abU, 0x450635c5aad93a22U,
  0xf20d2bcad010aedcU, 0x34c9c5e1adb34958U, 0xc31e220d052653d0U, 0x4d9f30c7fb693405U,
  0x55cfb0e33901333bU, 0xf811cc03cc0ec9d4U, 0x16db50c8f2d03b26U, 0xc2f31c1f8c6a61fU,
  0x5a03d2ebf12a211aU, 0x4d92729e32254f5U, 0x4dbc3b3bfa3f2d10U, 0xfc22ffafad3c3e09U,
  0x82df04321de33c1U, 0xbcf447dd254415e0U, 0x132cbefb1616b8d3U, 0x164de8e1d62208eaU,
  0x4154f811130837c1U, 0xfda336e4c41fd72aU, 0xcffa50f41dd83de0U, 0xd3f430502d2b48efU,
  0x530123d9e75324c5U, 0x3e47170e23b10704U, 0x576b195656e6160fU, 0x21085611f72c4546U,
  0x6bfa40334d421df5U, 0xdc541dd1f3cf6857U, 0x34c9f01117c7192cU, 0xff26cbe8f5e7eef7U,
  0xf9c23d1bf3efd6b6U, 0xc23904001bc4d549U, 0xd6c2d227fbcc49ceU, 0x5a550ad5bdeda6b8U,
  0x312428c1dc390751U, 0xf71d3be22645e935U, 0xc64d19491ffc43f6U, 0xcd2ede51ccf809eaU,
  0xd924ec381bd6d014U, 0x30e4cfe030e40221U, 0xc9092f4ed041574fU, 0x121541c7f00509dbU,
  0xcac2fe52fec43904U, 0xf4fda5d9ee402635U, 0x1e48f8eb34c7d850U, 0xadb82fbf450a01baU,
  0xc1f8bdf447f3b1d8U, 0xca5b272a23461642U, 0x422c1b024c2e47ceU, 0x47eb310acb10c930U,
  0xfb4e014ffcc12851U, 0x1f2ab7c5281f2fd7U, 0x432c43ddfad6b73dU, 0x4bed22eb10f1c009U,
  0xef2cc9eac6175439U, 0xf7cf0ff50ddc1c23U, 0x50f449e156d03343U, 0xf93c16c04b3ff02bU,
  0xedd233b824c94532U, 0xedbb0422e3ffb514U, 0xaddfd328d2d32f15U, 0xb64abb25430dbeecU,
  0x10b5af02492931dfU, 0x5314c626f52dd4b2U, 0xc102ae1cd0cc161bU, 0xcdcccbc8fa09a2f7U,
  0x22cf56b20cc514e4U, 0xcbdbc8dec4f4bdb0U, 0xdb0dabdd31d52835U, 0xb107071331b0f637U,
  0xa1e0d6aa42bdf110U, 0xc175d2d3ce4cc9eU, 0x38ddd621b4bcd6e0U, 0xaab43ce518ef27bfU,
  0x160ee6101a56c748U, 0xc8e0fa14f54049dcU, 0x3ebac46925fba9e3U, 0xfe00112e5b3c0edeU,
  0x3c4740a649abc316U, 0x733c1fd342b1524U, 0x42024c12cdf6b42dU, 0x31ff0d540244b248U,
  0x21183cd7f8f013b1U, 0xa39ba2bbb9274217U, 0x253459d421c74affU, 0x2a493b09dac8c857U,
  0xc3541c5ba57cde7U, 0x37e24b4ecefb000dU, 0xc7e7004cf609c6dfU, 0xfd5c1df601054440U,
  0x445cd3e8db13bb02U, 0x300d21d41f19e9d7U, 0xc6f641d6f926c1d6U, 0x36b74c45b9e2d8f4U,
  0x136b62231ee5da1bU, 0xc7d21f36bffcd966U, 0x32e165c3b7edf1fdU, 0x144d132e4c18e905U,
  0x50d211f061d76e24U, 0xbcb46719f222d5c0U, 0xd15e4db0b90f58c2U, 0xee395e3ee442e61bU,
  0x47cb47abdbe0411cU, 0xbae113d8eb39e0e6U, 0x24bbee2ce11623c3U, 0xc5575cbb5047edf2U,
  0xbe0b221ffdf2b9acU, 0x5fb806d00b2d5d67U, 0xb5d022b3db5553a8U, 0x3b2841dddcc43fd1U,
  0x41bdad4a2720bdebU, 0x23e4e4145ae7370eU, 0xbce05e3d1fd0d8ffU, 0x9f4f4dd8da5fc4d3U,
  0xe120b5abda2511efU, 0xa3bed315ed345abeU, 0xb40beacc4fc3b134U, 0xaf523141e7f5bbacU,
  0xb24cdc3fc21a46deU, 0xfcdc0ddc2aba0334U, 0xf121ff233afb32f1U, 0x26b30005aeb6c7c3U,
  0x3f07a9300907463cU, 0x5150001019f2ff4eU, 0xf32bd75116ec58cbU, 0x501354d03450facbU,
  0xf6fffc0be849e557U, 0x25ed1cb41f5205aaU, 0x5ef24b3b21b813b3U, 0x42634abe1533d301U,
  0x1b38b70ae05fbef8U, 0xc72ed7be54a62357U, 0xff28173dc4fbfe0bU, 0x10d6aadbb43ec9bcU,
  0x74af14e19431cecU, 0x3ac6b65750b50af6U, 0x4c44fede5cad506U, 0xccf83d40e6ebd011U,
  0xe215aa0a4149d2c8U, 0x4040f700fb482d2dU, 0x2b1f11d04fe9f332U, 0xe5c529aae7f9eabfU,
  0xac9fbcee6df4709U, 0xcc1e0615ef4c4a25U, 0x39e43edd3841f550U, 0x1fbaad421addaffeU,
  0xa1500c7ffb1fcc6U, 0xeb20a535a14134aeU, 0x5137faee0339c6f3U, 0xf3d4cdb0c0b7a4c1U,
  0xacf4abc7aebb3110U, 0x3d9de01dcabdeef7U, 0x14e046aa263c02deU, 0xd3a02d37cb3b1c24U,
  0xf84a091334a8b948U, 0x1b23ae5be3b2bd51U, 0xc03222002025b5d8U, 0xee59ba18ddf3f1b1U,
  0x3deaec32cebdf3d1U, 0xedf845bd1f59U, 0xd6e3280fe4cb015eU, 0xf8133ef52abe0de6U,
  0x1005b728e6d018f9U, 0xb21233e4fa2521c7U, 0x35c9f348bc304925U, 0x12e5f12bbd464db7U,
  0x22fd24ea4362d31bU, 0x1d095723601e2704U, 0x3b2045e358c6e7edU, 0x473df22bc8bc07c2U,
  0x52ac41760420811U, 0xa46244a05051dcbU, 0x3fe0be175bcf32feU, 0xb910393ef7b82b25U,
  0x554e063d36271e44U, 0xe10ae950cf2dc31aU, 0x32dec5f02f47f8e4U, 0x47fc34e7f5dccbdfU,
  0xd7e12de64219d6afU, 0xfaff20480fd0012cU, 0x503270fdc1131dcU, 0xf4ce20bf13fc0dbfU,
  0xe735fdd6ec0fe8e5U, 0xc02bc059134e2938U, 0x42dff75258f8e832U, 0x47d1200c59bddcebU,
  0x254511fc35ffedb9U, 0xfb4a11f2ed31da4aU, 0xe12e0ea2bc6ddf4U, 0x1149ddd8153447f2U,
  0x41f1f9370713f5b4U, 0x46c00cc5e0b924f0U, 0x152043bbd1f3bed6U, 0xe43e18cf4402f031U,
  0x7fee6ea0fe7d935U, 0xeab226014bb7bdcbU, 0xd0c6d6dd2945f5b9U, 0x3ff9f049df2dbe18U,
  0x352dce36bb3d4745U, 0x8f61c4e3d1a1bfaU, 0x3d053f37c307ae09U, 0xef17e6c3c41f3312U,
  0xb806352120362ce5U, 0xa18c1ee35b6ab96U, 0x42e4c4e5151bc0ceU, 0xf60240fd46ddddacU,
  0x50b524173e37d21aU, 0xfa57aa1c0b0f2ec9U, 0xa203c1f124e1f546U, 0xf1acbaf2cafba5c4U,
  0x3eab16c34ce3410dU, 0x4235e1f0d3ff30d1U, 0xcdf00ff4d2dadf4bU, 0x1714acefddbb0408U,
  0xe230ffd716f9efecU, 0xb4e158e2f2b6b005U, 0x55a50a0244bb3dU, 0x4e433138a804b7d3U,
  0xfc09dc4a2c32e1d1U, 0x10ab3e2ced4cd82fU, 0xf241d8cae84b2bcaU, 0x30510a0af73744c2U,
  0x2d022a3acf1e0211U, 0xc058b6de56b7a2e1U, 0xbbc9b4c47ec4951U, 0xe02fabc959b9c128U,
  0xba42e5582365dde4U, 0x1ed9ea0f620e1631U, 0x4eaedc60c8b234f5U, 0xf6660aac374713fcU,
  0xff1d594daf306458U, 0xd1023a056e915ccU, 0x12f729cd10b72a02U, 0xe84ab544d3b8de37U,
  0x1032311db9df1d07U, 0xdcdbfe4dca292815U, 0xc755b2583acddd0cU, 0xb6e1be28f5c76516U,
  0x35d94f5efc174916U, 0xd6c4c6c8341d1fedU, 0x3c4a46511a3120ddU, 0xec5bba08f8c820f0U,
  0x3230d3d421cc3e48U, 0x4730b9cfdf43d2d8U, 0xa9a8200b0904bf68U, 0x29cf3ea7fc0d0fe3U,
  0xeaaaf45fdd453cc0U, 0x2acc1feae31b17b5U, 0x44c10724b9d338c4U, 0xd1bfccdf4af546dcU,
  0x3ffaedeaf7c830d5U, 0x6aff0d4cda4db8efU, 0x31272fc7b5b2bb25U, 0x95dafdb255338aaU,
  0xc660ba28963e0314U, 0xebbd221128232bfaU, 0xf9c8d8c4c2b4440eU, 0xc5010ea7e107f82aU,
  0x69ece2db0ed823a3U, 0xc14a5d33e3dae4a7U, 0xd4fde5d3b9330bd9U, 0xf54ee1dff6e0deaaU,
  0xe84db31c15c2ae3cU, 0x165dfa432833f7faU, 0xeafe9aa33aa6f126U, 0xf4ab1828c80e56d3U,
  0xc0aedbe50618c5adU, 0xe0af0f5a424113fdU, 0xe0283f200a2402b3U, 0xda6c272dffa2324aU,
  0x2533a2cc9cc530dU, 0x51d1fbc309c5b130U, 0xb0be3003400b16d2U, 0x5d1fd61b49c4282aU,
  0x2c41e7a89add3de9U, 0x5ddddaa8cafb294cU, 0xa0bb2def560ef4dcU, 0x3f0ad73c1a422be4U,
  0xfcff4d323eb342c3U, 0xbac022fee1f159cdU, 0xda5ae808e61a21e1U, 0xbae549b222360258U,
  0x1029c48c8c7fe29U, 0xa2e524e5fca72aabU, 0x4cfdef2e46c741f0U, 0x3755cbb007080d01U,
  0x2f3f35ec2fe14a04U, 0xd8fc08f235214e0dU, 0xb556fd25e8304c15U, 0xaffde32311bbc11U,
  0xc2e236da192d40ddU, 0x5450ea251b2aeee1U, 0xea083523190b4ebaU, 0xcc52cb31dc03cbf0U,
  0xe400cee42acb0d40U, 0xe72700e95ebc511aU, 0xcfc636530a29f1d8U, 0x29fbe13627f10616U,
  0x170cc8c12a2f1030U, 0x49d2443516c1ded8U, 0x3106f3134638c7f4U, 0x2724160b0e0bde3cU,
  0xd0d83fd2ec46db26U, 0xf04830cb0fc04a08U, 0xca273ce5efddd0c6U, 0x3bd73e590e48b912U,
  0xbddcdad6e438c0bfU, 0x45e37ca43f5c403U, 0xd3c040014b53c209U, 0x1dee12b7dc0cc353U,
  0x1ed12c37c71425edU, 0x1b31e2d739e846e8U, 0x3f221dd22f1b49e6U, 0xbfd1aceeb4b2e61U,
  0x83f172c32110dccU, 0xfadcf33ce905ba48U, 0x23fce3e8c3323d0cU, 0x31f2ded2b0947f5U,
  0x3303bae7cf0d28fdU, 0xf2f2cd9310b207bbU, 0xe8d5a51b2e18d133U, 0xb4da8d115411d05U,
  0x55efdf33fd2bedb4U, 0x31dd10a5b3c112b5U, 0x2f20aed6d4a51f01U, 0xbf04e0b7aec2cec8U,
  0xf41bd6dc0d4715a2U, 0x342ca2c2f2025d2U, 0xc31b431cbebc3ca3U, 0xd3b5ba590ded0cadU,
  0xa94e1921c93ad4eaU, 0xdb73d2f02e4e13fU, 0xea2e5941ea1121ffU, 0xee440b3b46c117f8U,
  0xa71939b6cf3ffa3cU, 0xa624fe3e5122de21U, 0xaa210a2a1135160fU, 0xce11a7241d1b1cc3U,
  0x1121e72e3b4d09e6U, 0x263affa427950343U, 0x61c2f41dfda74750U, 0xca0b440bbaa7a4c7U,
  0x281ddd3609d1ef2fU, 0x12dfe93f0d2b4ac3U, 0x35e9edc9e9b5e4b5U, 0xaf3f3124efc49d05U,
  0xabe405c9acc4444fU, 0xdb221fc3bbf741e2U, 0xdf11f50adce22bcU, 0xdbaa4da8e0eeaf4aU,
  0xd6b0c2034aec4426U, 0xfd2ceb2feeea38f8U, 0xef13280ee758e6edU, 0xdb1b282bf31bdcf1U,
  0x36d3344c101ffad9U, 0x411db4f0cd45f2e7U, 0x47c0e4d528cefa4eU, 0xf2c53ae11fff1bf8U,
  0x304019163f29c7ccU, 0xdf4402212821e0f6U, 0x2f36cf472b0b442bU, 0x14b8b4311f31261eU,
  0xe327012a0334f24aU, 0x4b3ef10b3ae32cc1U, 0xbc07cb1fda1d25dbU, 0x221926ec1348314cU,
  0xf20f4b26c4db5703U, 0xe5d8e037e6ba38d4U, 0xa004617ebfdfc39U, 0xc604da280a4134feU,
  0xeb3e1002a7eff118U, 0x302a434530fc4e05U, 0xf5c829e5e13df857U, 0x38fc4624f6060b03U,
  0xedf1deff0e36381eU, 0x1a0f1134f21121edU, 0x2402072e3838f6e2U, 0xc4c1e1382a332806U,
  0x41fb250010d0e949U, 0xdf192b23e653cbbbU, 0x1b2042491d4de11eU, 0x3823fb3af039d02bU,
  0xffbaebf8af25ee11U, 0x42c6df5c2c4ead1aU, 0xda9fea45f6cec959U, 0x29eef4263da933d5U,
  0xac14e0ce45dd9caU, 0xec48070c4752c800U, 0x34e6c0473ab7c832U, 0x3cbe4d23e6483b30U,
  0xcc47c4efdc5c162fU, 0xf3c3c855cc3dce48U, 0xd10cddb8dd2f58b6U, 0x2b0c9d25416d236U,
  0xc17354c350cbe59U, 0xf6a947032c0f5106U, 0x4e4325bab2f013aaU, 0xbdd0ad0b684dcb47U,
  0xefc310e0da3a4a07U, 0x3e52c552f32ae327U, 0xbed1c45133ee0ca9U, 0xa34b35374cc2ae52U,
  0xc5382deafc5303e8U, 0xe51531315434d6aeU, 0xf7234c37062047f6U, 0xec48ca4458d4c4d6U,
  0xe225f4f7c9b025f8U, 0x59dbb29d235dbac1U, 0x3642aa491d3e1d31U, 0x2508ccf5dbeb3c15U,
  0xae66b2c1b514031dU, 0xf8a4c459faf23b2eU, 0xd640253b3a13e4fdU, 0xa9d5bb49e01d1e06U,
  0x23554d17ba3ebc0aU, 0x4eaf3cafe9381227U, 0xed1f943f31ef10e8U, 0xc22706a038f8aaa7U,
  0xd630a438d2ffcc0eU, 0x2ad8f407d0a40b0fU, 0x10cc4019f72cd2ebU, 0x429505621571235U,
  0xfc34ebe713fc2914U, 0x39fbfeedfbf012d8U, 0x97ee063bf8dfc8c2U, 0x43003810d1ea19d6U,
  0x1aab091b094efc41U, 0x1f151ab7ebf4083bU, 0xebfc5d9f248c253U, 0xcc42e31bd1ac16f0U,
  0xf515c035304e53d7U, 0xac5d1ae3bc200ec6U, 0x5f8dab5a701e846U, 0x37a5a633bf37e04bU,
  0xcba251bd7c2c0c7U, 0x2d151336f1e7beafU, 0x2a33d03d114ff4e8U, 0xd0d05af10eacca3fU,
  0x2ee8050d2db9ac10U, 0xbbc7a5c80d1512daU, 0x2fe1c1c90ae2e9b5U, 0x421ec1ed4430542cU,
  0xd1efcfb433a2e7ddU, 0x2f11a000bd47c5f6U, 0x1de63a03f0ede2bbU, 0xf81f550f14c1ccb8U,
  0x14f3d4db08d808deU, 0xab4049a5cfa1ece1U, 0xfa38e1aa0c25a9baU, 0x3c0be1ff4c5417adU,
  0x1736bba93033ab1aU, 0x3a291e281d341bacU, 0x3febdf1ef9f100e6U, 0x4a26c841e2fa4d1fU,
  0xf3afd2aff154fad0U, 0x8daecfb05f4ec23U, 0x33f000e10fdcfa00U, 0x4202acfdc3f41a19U,
  0xe6a5d71640d446efU, 0xcfaee822d2ad4424U, 0x749d21a2ceaa207U, 0xdbc808aa53daea24U,
  0xc8e3c036d8e6a93bU, 0x55eea14022fc312cU, 0xafe733274c45b4e9U, 0xdb0a2cfd48dc26a8U,
  0xd523a3b4e7a1a7d1U, 0xee470ecadab5e500U, 0x57ebe0de011928fbU, 0x2deff7fa3e233200U,
  0xdfa0d0c6fcac403bU, 0xd2363721eed12341U, 0xd23cffb4c3fd27d4U, 0xe33ac903ccac19deU,
  0x7dac5b556e9ec28U, 0x82702ac1dda1aeeU, 0x13b8f8bec619d8d2U, 0xeb4f04ca45322fc8U,
  0xd5b81f14f003301fU, 0x25bfb0c8403bb8a7U, 0xc91d28efb6d9ef4aU, 0xea4027023a1602ceU,
  0x2ba00f20480227d7U, 0xf1baf1ef1b27ead2U, 0xed02b4fe2fe70de0U, 0x951ed544d580744U,
  0x3bb106a8c3b7d816U, 0x4f072439c12556beU, 0x47f8cf17fa0f49bfU, 0xcda55ffcf462c1fU,
  0x1ab297ee530fae23U, 0x21324dc6db4bb8daU, 0xfecb11c5c34dfe5bU, 0x5127d6b209f41defU,
  0xc6fefd0642f32e5dU, 0xd22ff708b905b8efU, 0xcedb37af42d3e007U, 0x5255c00f24f2abacU,
  0xe2fdd937fe31641eU, 0x517531fd334bcf1U, 0xe4d71553b553a761U, 0x31c35a4c445134d4U,
  0xcbbfef3f0810290fU, 0x455dcd022abbf23dU, 0xb13fc50fb2d8ff49U, 0xefad503fc1924c5U,
  0x2e21c54717fb01b4U, 0xaef702dec138ed26U, 0x4d0af7bc03b83535U, 0xec074fe4af0c2d3eU,
  0x222a2d1efc3a2ce0U, 0xe404def9991a1131U, 0xb3ed11d59ed63f99U, 0x1aefeefaa9521b21U,
  0x383bfad009640462U, 0x280844efd4caead6U, 0x9bc21155e7a70fbaU, 0xaf41e60a39bcd8cdU,
  0xa14eb2d6450a4702U, 0xcd225d8e6bc56e9U, 0x3cc9308ada43c44cU, 0xa61337a90fbbd0e4U,
  0xe0deb926d8efa72eU, 0x3412ccf301c80af8U, 0x2a071443b7d81831U, 0xeadf3d3cb8c6b4d4U,
  0xe20ac7e72cc1eedfU, 0x24fbca34c1bed19U, 0xb2b069c4265c4401U, 0x4024dc0c349fe614U,
  0xec0dc7c00c2b59e1U, 0xd0f0a1d505bcaab0U, 0xe3cc125d3e3b29f5U, 0x221301b93a48d707U,
  0xcadc1ad132df52b8U, 0x7d601c12b0919a9U, 0xbf1de713b325ab62U, 0xcb23bb3db9c23639U,
  0x69533a2bcce51bb2U, 0x363e58ca5604fc2cU, 0xf142e9150e38c82dU, 0xa70e2839ab47b201U,
  0x412bf1e6e6bffad8U, 0x4addc9a7341d18c9U, 0x10d21720d2cce33fU, 0x572f0917dbe34aeeU,
  0xfbf52f522d55e9U, 0xc50aff080f4ae3ceU, 0xf1d7f3fad0eef6eaU, 0xf9b522dc4db9f0e8U,
  0x14073612c1fba9f8U, 0xb04805e757a017ceU, 0xbceaaaed0ea02bd5U, 0x2511b317a6473605U,
  0xdff9cb0df1a3b4a3U, 0xdfab54b8f2caa446U, 0xaacfccb93ad4f5d0U, 0xb6301dd3f5481baeU,
  0xcfafb4fac1235be5U, 0xdde942f9c450d25dU, 0xde4a5ac1c224bddcU, 0xfa152d9da752f502U,
  0x31c1f92d27d62a3aU, 0x124fdbbfe6a1b143U, 0x52e64e2f194a153cU, 0x4d28dd54c7b847fdU,
  0x21f2fcdd3bbb00bU, 0x82221fd410c220cU, 0xf8dd59ddf13d573aU, 0xee22dad836e0f8c3U,
  0x1bb8bc2c39e7cc0eU, 0x3fbf38cebec9cbc4U, 0xe6aad3b733eae4b0U, 0x4e3a13d1e94c5323U,
  0xd4becb3dcfb8fe3bU, 0xd0ea0e23423429f4U, 0xd0d201e6de5804e4U, 0xe4d0fd10f602c314U,
  0xe3350f53e80f18e5U, 0xdb1c212d4addadb9U, 0xe8e919abb8bb0af3U, 0x3abcfe2ae8d1c43aU,
  0x279d2e4e0f2647d2U, 0x57fa0bea4850d956U, 0x1de803ccefc23f2fU, 0x265322ffcf0ff72dU,
  0xe20db5f11683128U, 0xd6ecee0cc038b944U, 0xbdfacbf446f0a7b5U, 0x7d1443e4eb05304U,
  0xd306feb1f94cb53bU, 0x5116f9a11920f9d7U, 0xdf1ad3e0f9123d33U, 0x2cd9503e3345d556U,
  0x10b7c2fc54f3c8a4U, 0xc033f30c1df11d16U, 0x4e5c31e8ffed16d5U, 0xa437d9e8e4e8d51fU,
  0x30dae728f6c1420eU, 0xd119dd13085b5ed2U, 0xc51c5d33290f41f0U, 0xbec5fc8473b4dbaU,
  0x533f3ab449a9c646U, 0x50d324b9f813f010U, 0xcb335a425fcbfde2U, 0xff22de370c50f452U,
  0x4422ba48ddd839c5U, 0xd8392cec00c7c2feU, 0xcbff02dc2f24c6ecU, 0xeb14f1eabf400546U,
  0xcde322b4a3736d1U, 0x1e9f8e51107efe1U, 0x2ebbd013d0d2dacbU, 0x2628d445f10b48d1U,
  0x2dee46dd0503b838U, 0xc73f1d31041ee3f1U, 0xd8c9c657ddee451bU, 0xc6b7281d37cf1314U,
  0x1346dbee32caf9dbU, 0x38d24ad5d400e114U, 0xc1fb0a374447313dU, 0x393a1231fd17fd30U,
  0x113493fe12cfc1cU, 0xba05c2f2d2164d18U, 0xdfeb0c0afb4b1a1aU, 0x28f3471f2b1ae3dfU,
  0xcdce12d0334c2fd2U, 0xc7e028fe3c4d2744U, 0x4f13fe4ecc52d3f2U, 0x400926060231f7e9U,
  0x3ec71d04da1129e9U, 0xf0fcef32d8002ce7U, 0x2315223a31ed38c8U, 0xc5c7043049d909ccU,
  0xe0263cc5c1293fbfU, 0xd0eae1e3fc2324f7U, 0x284212c7170c32cdU, 0xfdeb04ebe147defdU,
  0xca1728aa3201cbebU, 0xdbf72915d4203140U, 0xf2d813d41042b605U, 0xbdb3453ce63011c3U,
  0x41fd07cd4e34caffU, 0x40a22840aab727c3U, 0xbef2df06e20c49beU, 0xa403f6caadfccb22U,
  0x37efc3cc14d92600U, 0x40c42fa8e63cbe0fU, 0xc422fbfb15b8231bU, 0xde0154136f2b6beU,
  0x16274ee1fbb3db32U, 0xe909caf5c3ddb42eU, 0xb3da104a43e2b626U, 0xfcc1330004091249U,
  0xcd0714c7283a023eU, 0x31e916555c3855dbU, 0xdcd9e0424f5b5edcU, 0x6bb0de504de5eb3U,
  0xbeecaf442612f050U, 0xad0200093d23d7c6U, 0x605540410fb32657U, 0x67df26b6231fff59U,
  0x5ab7b7ac6945553bU, 0xb8c21be2692d34d3U, 0xc821394712f03db0U, 0xb91df7ccffba582dU,
  0x45e6bc38e54830c6U, 0x1c2903f125d02dfbU, 0x37c4b90549eb0245U, 0xec2b05272c40d62bU,
  0x27104812cd10ebbcU, 0x351308ab31fdeee9U, 0x282dce0ec843d7eeU, 0x49ff1e4ab20afcd9U,
  0x24ec11bee6262822U, 0xed6424cf183c18d3U, 0xb34933132f3e3801U, 0x3307412628383840U,
  0xf6322e3ff55031faU, 0x37f2f4f3ab372ec8U, 0xf04220f63314f555U, 0x46bf0e40cc3da6b0U,
  0xc2e915d8c9f4dd30U, 0x2a1ef4cb1a0b1be1U, 0xe0232fa8ca14b704U, 0x1902e6d4b010d524U,
  0xe43ffbd12542df06U, 0x27e1e6023c2d2da3U, 0xc11d03ba16f4d0e9U, 0x4ccd1cf318260728U,
  0x47e022cdc1e9fbeaU, 0x1524dae7f8cfc4fdU, 0x2f70db403b6bcf3U, 0xb11df6b4cb2afcU,
  0x2a35100fde203239U, 0xfe11c1f41111000dU, 0xbb044eb8e6af2c2eU, 0xec18edf31dfc2c39U,
  0x209d5451adf08d9U, 0xeca905b308f7fd19U, 0xdb07f41037e8cb20U, 0x26f4f12c4e1d400cU,
  0x2e1aaf0d1eaf1903U, 0xc6d7f72ebe41bb0cU, 0x52ecc0bceab73745U, 0x101cb00e7a04eedU,
  0xc14534d52eede931U, 0x390929e3eb3ae1feU, 0xb941cf383dfda2d7U, 0xfde3b4512d2ff47U,
  0xd3ab4eeb6008f118U, 0xc02b35e4f9b9d01aU, 0x3518fecace392b1bU, 0xb7c61012ee544bc3U,
  0x571bc2f3aaeb4440U, 0x1fc109f34b235664U, 0x53c9edbc4b51362bU, 0x483f4214df2bbd06U,
  0xbe3c53e4bcfb08f3U, 0x5dea04c207b1501cU, 0xcae82404e2c7023cU, 0x7e7bdfbba14bffcU,
  0xac0617ffda15d5e0U, 0x11150e53c31df9f3U, 0xf1f4a2ef63f29fbU, 0x26c31600e3430625U,
  0x203022cd23f131c4U, 0x26fd10bd2356d526U, 0x4dbb29f4eef05012U, 0xb7c0f801dfbc38e3U,
  0xd4f8fd35d72753bfU, 0xd5da0d08a35134c5U, 0xd3c70eea184f11b9U, 0xca35a808e6fd4c1cU,
  0xb921dbf7da1bb5e1U, 0x1137e1be2a449fb3U, 0x48f4c00846f9f750U, 0x396afdf84eb1f62dU,
  0x2a201ede170c251cU, 0xca06330cd3fa14ddU, 0x15a51420ff23d15aU, 0xd444e8e2ff38acfeU,
  0xcc529e21febefcbU, 0xe73db5a81d46eb40U, 0x9f1ca45542cf9847U, 0x27aabcd6fecd20ccU,
  0x134fb5efb252ec2aU, 0x7f7ed294baccffcU, 0xd841b12afe0e5cccU, 0xccbbc10756d8eab9U,
  0xa2e5f2fdab0506b2U, 0xedf21e130a12f317U, 0xd7155144cf06affdU, 0x452af0a72ced49ebU,
  0x4ed1d549d6ec09faU, 0xa6dbf736b0d0e751U, 0x57ce4cbb2daf20d4U, 0x452a28f4d8ee2af2U,
  0x1dea31dfc9312309U, 0xfcaca62b53f4ec23U, 0xfc524249313154c3U, 0xbd0cb91cd8212e3cU,
  0xc104a4a667eaf5f6U, 0xf4b747b2be46c8ccU, 0x23c924bbc54e18c1U, 0xcfe434e8530c4538U,
  0xc53b160741272d19U, 0xe241d51f40fd2dedU, 0xb52c4064f43493fU, 0xc9b62cb32de105e7U,
  0xdabb07e92f3fdf34U, 0xf90f3c362a3be11bU, 0xc531f80bbd323ef0U, 0xfaeabf493bc709b9U,
  0x6e817e74254b4adU, 0x2d252f54bdf2a07U, 0x2cdbd2082e26c346U, 0xe918e9bff839e2bcU,
  0xfa5f3fd95751dce7U, 0x5dc0d1baea51b723U, 0xc4fa32e23127b6c5U, 0x4c7ceffc0be2c1eU,
  0x14c236badfd52507U, 0xc114e90c49352f45U, 0xc47d5c138472ed9U, 0xd73fd9412f4119ccU,
  0x301b394e520acd3eU, 0x403a2eec583c5008U, 0xf556b857add90dd5U, 0x532d53e122f0d9f6U,
  0x66cfeaca01fee0c7U, 0x20e7205147d4bc3aU, 0x114c3403f1ddf23U, 0xce4d2e4a4ae2e626U,
  0x444f3440312dc654U, 0xbd43bbbc29e754b6U, 0xf6b14313da424c28U, 0x1e10153ddd8b5baU,
  0x3cb847fa32074823U, 0xcd1e1f3b1dc6d8daU, 0x13b3ec0724d8f0b6U, 0xd303c5213cf203d9U,
  0xc9120c3bfcf126e7U, 0x4315bff1b8cb2b39U, 0x3731eafed122cad5U, 0x30b3d82e42dbb535U,
  0x50e7f4263cdb32e7U, 0x45bcdcf9d537d018U, 0x415034efe5f6354aU, 0xdf47cf0f21fc1ff9U,
  0x49c94c4442f3d6faU, 0xe8d6172919400ddbU, 0x2135fc31d80107f8U, 0x252221511aba00beU,
  0xdfde51333a08f80cU, 0x14efbdfd39ef40ccU, 0x2ed1ea082cbcbc2cU, 0x1cdc32bfc350f848U,
  0x4f0601db2d11b9e4U, 0x46e9532dfbe50c15U, 0x28e9223a4fb725cbU, 0x1fda320942232500U,
  0x4f50ebb631cf0909U, 0x1fc3bf9f04fcf26U, 0xd18fa0acb3f4908U, 0xf9bf12ca1dfedb20U,
  0xf24c3238efd12af9U, 0xe0d8283d4e38e10bU, 0xd4f11e16fcfb31f6U, 0x212fe9c5ba44d745U,
  0x48c41ee8bafe0c0aU, 0xe7b1585f39dbe8e4U, 0xd623b3545e9fe1d4U, 0x54b6a5dc001cf53cU,
  0xfa9e1bd0b444655eU, 0xa9f2f8c8ff12ce23U, 0x15e7fb0de0c16557U, 0x33f5d928fd271606U,
  0xc76329b81ca5f946U, 0xc6bbf7d5612756f8U, 0x1498b648df425511U, 0xcbec2243d9b03654U,
  0x194ca1cd13304d33U, 0xe998ee3ac3ce1404U, 0xdeac34b3f0b6cdf9U, 0x67ac43d2f0b2e7c4U,
  0x5214c8dccdeb1d68U, 0xeabfc8f4bf22e2e3U, 0x114fe35521a3346U, 0x17363cf4a434263dU,
  0x44c1f3bccdfd45d7U, 0x1207490df64be31aU, 0xd5151dfe173acc5aU, 0x4b382d005056c2d6U,
  0xad09bdcf0fdd4b29U, 0xbb1d4b2da4213413U, 0x5712474cc9d466f8U, 0x15cddf58e6b83eb0U,
  0x3edad4584abbeb73U, 0x1f435b222502d12aU, 0xa7e403da1225bc5aU, 0xa72accebf5c15d07U,
  0x21f63ccbd3f8be4dU, 0xce46fbb940db02e1U, 0x4914cabefc480bf1U, 0xf3bb3300b8c1c5bcU,
  0x1b5e2ebe8290c13U, 0x302de1225247fa0aU, 0xe9c249c23eb6c4f8U, 0x56d3152ed6155301U,
  0x4c13f80d2df4fd3bU, 0xbe0f060ec5f23904U, 0x44e8dbcbbc2409d0U, 0xbad9d1e334484938U,
  0xf0115d9063de549U, 0x83b002b58c8b52bU, 0x26f9f30b1bd0c01eU, 0xf9faebf2f4d84140U,
  0xd525464f394ac846U, 0xd3d9191b541cc14fU, 0xd127df1d1fe32017U, 0xc3fe13b464ee836U,
  0x590afdd6375344cbU, 0x4af9c7fa332dddcdU, 0x3418db5120e70454U, 0x4c0c3d04c0d8d0fcU,
  0x3002f642d8f253ccU, 0x1f60be14e2c00f4U, 0xdbb5d732cffb3631U, 0x441b112e1826d8d3U,
  0xffe454c245ad934U, 0xcf4c2220d4f5d125U, 0xe1d6f40dc3073c4dU, 0xfec7de1cc7fee9efU,
  0xbdc0034fbd52b5f7U, 0x54263b5c2f4d5adfU, 0x452f2ed40329173eU, 0xd3c22f1df30f4737U,
  0x823caf0255dccc6U, 0xbcee44b41864bb02U, 0xffbe0830c3daeaaaU, 0xc2b3a5e9c4b1509eU,
  0xe638cf1fd41913b3U, 0x290a533a0ad71f32U, 0x2fb93bf9d2d14422U, 0xefc34611e7503f58U,
  0x46f2473cba0b49d8U, 0xd648212214100ba6U, 0x44c7e1b9dfca2213U, 0xbdedb60b34d418c8U,
  0x1436ffc0091d4217U, 0xbb2e2f2b0d9fb2b7U, 0x3832e6e69fdc4211U, 0xb2cee50ec5fc2f40U,
  0x2b2e4ba08dabb37U, 0xede3b3843ec0a41U, 0xc9fc0dbcd1370915U, 0xcce1cd8b04ef534U,
  0xcbf2fcaec0a930dfU, 0xffd99be9cab31fbdU, 0x43f8cb1fd84cf134U, 0x24f2dbddcd7f131U,
  0x9a0e33c4e5d850c3U, 0x1bc9c2074f173248U, 0x1acf36e53ac32fc1U, 0xcf4822d7cbf5143eU,
  0x4ce7dc1ad306c9d5U, 0x7c1bfeabf14b1d1U, 0x3afe3606b9aaea2aU, 0x2f5b09ec1e355c1cU,
  0xfa222b0ddb3b58d7U, 0xbbd5484af3023d00U, 0xf2e823b6b0f3bcdfU, 0xc59da10002370910U,
  0xee3cc0e71f133728U, 0x193849d34d3bc5fcU, 0x13e43c62708cecdU, 0x4bd7c7ef0b40bcabU,
  0x55c220eec846ff29U, 0xe540f4e142ba123aU, 0xc2731a7edcafb56U, 0xf72e22d2472e1eb5U,
  0xf9da011adb0d2f09U, 0xbb22325558e65732U, 0xb9b5aaaf0242d4d2U, 0xe2cce750da49d0c8U,
  0xcbdceec003a8b8ddU, 0x53170f4d4be2c2faU, 0x23f43c4ee10d754U, 0x422d22361f351548U,
  0x69ea444b5723cc1fU, 0xe846ebb240fed50eU, 0xfb1f2608bc25e7d9U, 0xf443f1be3946fc2cU,
  0x37064c17dbdef9e9U, 0xbecdf216eebbc043U, 0x47c74ccf4eff3ef9U, 0xd414e8f9e155590aU,
  0xb8c5fc0c5139c7eaU, 0x13f21aa319fcec6U, 0x39cf4c4d47ad3b16U, 0x55cee723234912e9U,
  0x12d1d8acdcf31eb3U, 0xedf7a83aa2dca222U, 0x4d2fcd40372140caU, 0x4bc8f4ed9b1003e4U,
  0xb1961a23103acfafU, 0xc2114a5fe2cdc3e9U, 0xf725c8cd0e0d4fcaU, 0x1716539ab8bfcdebU,
  0xc84098ef3ce82f49U, 0xc2beb1a13d1ff0c7U, 0x2226d33b064bed50U, 0x2babffe56e6ab24U,
  0x366d0aaa254de02cU, 0x2e5bc0dd1c0ebef1U, 0xccf22c3f5ef00fb1U, 0xdffdbd4d62073715U,
  0xd9f01442420f1303U, 0x5338cfbcc05b293eU, 0x503bf3bbc2db505U, 0xf15ab4fe063cbc47U,
  0xfa60f15d69f5ebcaU, 0x301df11cbef31518U, 0x1acaa751cffb154cU, 0x20aa45b21daa3131U,
  0x61541826382ff010U, 0xcd7d418fd4549bdU, 0x26f0c7b52d1e10d1U, 0xb918e80420ead4daU,
  0xb624d3cf55435a6U, 0xade86205eff0a3faU, 0xdd5b23fa03c20858U, 0xbbf9dbca5d4007cdU,
  0xde46cbf74a5343f7U, 0xef5e07cc49f24b03U, 0x4e32ee412ebf09c4U, 0x5bad1a3ca99e224aU,
  0xe6f1efeaaae59c0cU, 0xd6f2e321b24c44ffU, 0xd224af02d89cd3c6U, 0x220242bc2d5c2af3U,
  0x494e0c4849dc56d5U, 0x20ac34bce50713ebU, 0x3abea7d1d8f517dcU, 0x27f611c60be19946U,
  0x5f1d535031fcbce6U, 0xa6d549e1abfc31dbU, 0x23bc654ecc0a2755U, 0xdf255346e620bd44U,
  0xabe9dfae2c40db4fU, 0x1a31c2e5fe4f30f2U, 0xccab21d1df00bf20U, 0xfc3fab6d341d03dU,
  0xe1594700fabbb837U, 0x6d44ec613fb73438U, 0x3d2ccd6d474f0510U, 0x5db7ab55b7bc1aceU,
  0xa305e1ddfb3d0723U, 0xef9ba0c32bf8d1a3U, 0xfc1eb0d21ab4dab4U, 0xf2114bcc1f27053aU,
  0xf414f5ce5644540dU, 0xb1c9d311d7ce50eeU, 0xbec305a036dec639U, 0xe0bf000c523115f8U,
  0x48415c1d3ec0a1a3U, 0xf43a46bcc51e2415U, 0x1028010fd3b8c6d5U, 0xe134113205154614U,
  0x4f37d4c5e736e5a8U, 0xc12ea6270a4be1b6U, 0xca26c0460fc8d2d4U, 0xdae43226b40aee3eU,
  0xb2f2bbce2be33e4fU, 0x1d18c5fd3dc403dfU, 0x3ccb4be3d42cb6e8U, 0x3ec0ff064fcee511U,
  0x3524c44107411ffbU, 0x2e09f6e05b44e738U, 0x6269182b04de2607U, 0xe5e0dd19ecc0c5c0U,
  0xa6aa5b05c0c1131fU, 0x17625bc6a3e23027U, 0x4fafebc9cbe03c63U, 0xdecee9bfd8bda6f7U,
  0x2c3ff11b2ab2eea9U, 0xd0f60813ba17f1e1U, 0xcb0620ad1cbafec7U, 0x5af641f0ebcfe9d9U,
  0x4bf142c931f7c4d8U, 0xde4747b003bdaad5U, 0x47faa7a48fe61840U, 0x260615c02939f118U,
  0xf2b3e0946d9e609U, 0x46b1ec4de73ef6a6U, 0xfdd45a25c43c4a2aU, 0xb422be032310c91eU,
  0xe8cedaeacc080c18U, 0x459e3d08b3d95516U, 0xd01941b1d5392b3fU, 0x341e2d114e2409c2U,
  0x2118d9a9084ddbe4U, 0x737cbd644af59c6U, 0xdcf3cfab46e00bebU, 0x3bbf362539fa05e9U,
  0xc34432e3e416f0d0U, 0xc35582c23223326U, 0x101bfaf451c412c6U, 0xbfd61e21c703c6b9U,
  0xd11b2b443e57d01bU, 0xe408ba2a5f44f44cU, 0xf716cc3fdb39b1U, 0x9dfdb18e850bc42U,
  0xcd4100dff242e108U, 0xd0ae07dd41200300U, 0x5323e9eafb400110U, 0x40f73dd92cd31e11U,
  0x5e3664e1b73155f1U, 0x575e3667e849d6e8U, 0x242bde0d64dc58f4U, 0xd0450b31bb094af7U,
  0xe8c81b07c8d22141U, 0x3140630bdbdac008U, 0xcb153136d6210d4fU, 0x1133f14df8330b16U,
  0xd6b6c536adb221bcU, 0xcca6bbbab6eb3f34U, 0xae11076bebacdb0dU, 0xeb3522d7faeac3baU,
  0x4ada12deb543d1a8U, 0xc932c650ac2643f7U, 0x47000a36d5fd20e5U, 0xf716b33ab6fd422eU,
  0x60e0f50ca6d1d505U, 0x47cca332e5201230U, 0x1417de391bd1083bU, 0x4f2cc10df80db5f8U,
  0x32b026c8f41c2dc7U, 0xc1ee23b31d04c2b0U, 0x14fdb90ad1cc39d4U, 0xbb01c347133f1e11U,
  0x3105bed9c5f50bafU, 0xcdc90e48b1b943cfU, 0x9f343552df28b1efU, 0xd335d7ab34c6cb30U,
  0x16dd2fa21dbb3841U, 0xe2e8e0b8c6183adeU, 0x3feae6ca1808dbe5U, 0x1ee0e21e0c2adaebU,
  0x431822bbf91c1e41U, 0xfec2ecb033024f11U, 0xc12b1346173cc7a3U, 0xf5c4112fadbba009U,
  0xfd0f42efc4bbd440U, 0x45d8deda46d5d8efU, 0x32e53c31cff848c1U, 0xf8c0c7b6513adbccU,
  0x261ac50dcc1434f7U, 0xd5124ee2b7215ec1U, 0x42dc0e3dd820c9e0U, 0xefdd1b22dcb6cfecU,
  0x50710f4bb41cbe6U, 0xd5cabde54bd2d5b8U, 0x4ae8c63bdcb8e1f0U, 0x32d8cfc5ea252028U,
  0xde081f3311cbc3fdU, 0x2d1a4a5de7122f13U, 0x61d61800d8190031U, 0xbb30f2e239ffcec4U,
  0x4c0fee30ff103954U, 0xc0fd18c2045414e2U, 0x114ce10b54060eU, 0xd93654f8483c4032U,
  0x61eea3ae230de22U, 0xe10e3a27e020034cU, 0x16e71030550bbd1dU, 0xd8cbf8122608384fU,
  0xf9ef1309ca4edde0U, 0xe601c2dc0422d61fU, 0x3aadc702554aa62dU, 0xfc13ccd931e8482cU,
  0xc4e82d22d83adb23U, 0x39c55cd4e8d3be2fU, 0xbedf1cbceae943cbU, 0xbfe03d0148c81724U,
  0x1c2cbbfb3c46c4d9U, 0xa929ea43f41a0530U, 0x4e50448253c01edU, 0x2c60923db0f18feU,
  0xdbdad52ba518fec2U, 0x1e0ce22aafacc030U, 0xe4c2afb5a01651f5U, 0xf2f20ff7082fbbe0U,
  0x36ec145111573dd9U, 0xc3c7e9d33ff81613U, 0xe5480e2a4505e128U, 0x6754272c22ad4a4bU,
  0x29f32305b3ed10f4U, 0x4e45435711d7dbb1U, 0xa3adb541ccbf2abcU, 0xecb82917b623ba57U,
  0x47d01ef3bae239bdU, 0xdbdeec2f1332b5f8U, 0x2dccfc4cd7174e26U, 0x43fb6e40e0dceb30U,
  0xead6b5ef37ae2640U, 0xf0c7b74dce27bf41U, 0x481b26efdbaeead5U, 0x7d8b19ef436f6e9U,
  0x2748b1dee9ae0bb8U, 0xe054a04f95a4bddU, 0x2624fecf4f3034f4U, 0x43c6181230a9372fU,
  0x2bb05b24150bb2fU, 0x1b612f62f5dfb3ecU, 0xbc10be6f20143db3U, 0x53236664640df6e6U,
  0x2ee00af4dfece0f3U, 0xf04a2a1c11cdd835U, 0x722c572d103ea0aU, 0xf2ad53f00e36da02U,
  0x1ef225b2fbcb3da9U, 0xbbc2050843442b63U, 0xb22445a64f021b30U, 0x15efccde1cac190cU,
  0xa8ffef0fa9fda329U, 0x36fc023ba3edbb27U, 0xdb9f1dd2e8c338f7U, 0x4af9ddcbbae24ffcU,
  0x4752baf9a7f4bfecU, 0x95304954e5ed14beU, 0xddf0d615c1261904U, 0x251824dddb1bbb0cU,
  0xb2b279820e4d306U, 0xfcb816b4c3e75a2eU, 0xd9d532fed718b6eaU, 0xd26352992f15fbf1U,
  0xf4cf35d6fab51c32U, 0xd00722164ba0cb51U, 0xf64b17b624f2120aU, 0x3cb0004cfccee45cU,
  0xae34e906f803bf16U, 0xddfa00a0f5d805f6U, 0x36474b4a58db26a2U, 0xdcf2edbafae417fdU,
  0xd2dd6d6cdf004a7U, 0xb124aa4bb5fbcff7U, 0xd516dbd1b5d2adc0U, 0x28471ab5b6b7ae32U,
  0x44e0f3c41ee034f5U, 0x71f92bca4de21c5U, 0x54e41f1f261ab09bU, 0x3121d2ea2a28e1aaU,
  0xf02fb9aab6140524U, 0x2633153bfab92111U, 0x59393c23bfe7bac8U, 0xbfd840f8e4cb4be3U,
  0xae4c57444a1d05c1U, 0xd6eb0e3c14ca23b1U, 0xe53a0e1435de39d0U, 0xcad5f741c1b20712U,
  0xb6e73f5744ddbaf3U, 0x180946f315bfec21U, 0xff39c911f3ad1411U, 0xf4ca181f2edb1303U,
  0x1846c516ecd5ed12U, 0xb1c4eed9ed140839U, 0x270601eb45202bf3U, 0xc8a62aeeebddb840U,
  0xf8f907e5f6c21ecaU, 0xc5bfd4e0c014012aU, 0xb5fc14c3bfde11e3U, 0xb23dd637ea400f0aU,
  0xdd37292217d0abe2U, 0x1e5a4e0dcbc0cc4U, 0xfddcc6d8d400d3d7U, 0xd709e90aabc6c3daU,
  0xf535f73737043409U, 0xfdd10b1d2b18f4adU, 0xdcc0af16e6290b00U, 0x441f12e634cce034U,
  0xccf04b38e924ed0aU, 0x2dbd241112b446e1U, 0x481d434106b5d70dU, 0xf7ebc5502bed1336U,
  0xbadf50e20c293fc6U, 0xb65ab52755bcd4c1U, 0xe9f83af5e049ee25U, 0x593942eec6d01e27U,
  0xe931d10bfacdf1fbU, 0x67db4bd0093b3141U, 0xda24eb5ea3ed50f8U, 0xd9e8fbcfc5333f4bU,
  0xb2b56bae544180dU, 0x2fb13ab54affc8f9U, 0x285b1ef71c16fb3cU, 0x61c2b454c32eb7bfU,
  0x3a14e725d23cc5ecU, 0x2157b10d3b25db4eU, 0xcfcfbb13bc0329caU, 0x52ea3b321d0003e2U,
  0x35375f0bfbc6a7e3U, 0xfa08be30bae71f13U, 0xe3b616b54cf6b05aU, 0xfdcdd3344ae10ceeU,
  0x42eb42cbd2dcce3aU, 0x50dc0c49faca1e20U, 0x10552d24da0bb713U, 0x1de5dc3351d53b13U,
  0xf6c04c3c38edfe16U, 0x503bf2ca4454c803U, 0xf81142b5edf9f232U, 0xc1eb40fe0713352dU,
  0x5feb2b481f051654U, 0x1042ed1e51185820U, 0x24471e6be9e95c1aU, 0x2fd1f21043eafaddU,
  0xff5a4e0012500be4U, 0xeb5acb40ba53ba1eU, 0x39eacabcbd92cbc2U, 0xef5eadb71216f0e3U,
  0x20343b1fbad2b117U, 0x3649e5b6d7352ed2U, 0xe4f93febd91ff4deU, 0x37e2bdb198a1fa1bU,
  0xbf4afae3e5262925U, 0x2cfe08eb5148eab0U, 0xc8f12c2abb4ccae8U, 0xa6eaec295ddd395dU,
  0xcb50d829afb114c2U, 0x1effb04fb9f5dbbaU, 0xe9eda607adf4ce07U, 0xce2129511cf005aU,
  0xc3c237302e0023d6U, 0x3842fbd2342a099eU, 0xc3e3250900a6f540U, 0x522028f2b44836dfU,
  0xbbdfc252103fc93fU, 0xd1674440f52f202dU, 0xdc1841c11838171bU, 0xb99afe36601acdf0U,
  0xac04e11bc859c3b8U, 0xd81a3bfde8c94013U, 0x355f3e20d0e81a38U, 0xded1ff4f601bc2fU,
  0x6b111f4413b134aU, 0x101218bc3fe130cfU, 0x1c3e29d61c53c7c1U, 0xc8f9bdcd31af1be3U,
  0xfe3bbf3feb11d7dbU, 0x2d064437ca2245f1U, 0xbcb8f9f7aab63515U, 0x38cfced83737b334U,
  0x40f4d79e15b0a723U, 0xe72ac18f3937edafU, 0xd8b7bb02ca450a36U, 0xee4343ad43494d46U,
  0xddcdd3dbd137d3b2U, 0xc1d1fd3e9eef1b0aU, 0xfaec1228b8b91d06U, 0xdd1c14150d100bdeU,
  0x28e6ddb5f9d5203fU, 0x4f9ddcf165af05cU, 0x2ed301440b5614cdU, 0x4537522e4ed0cc42U,
  0xcf04f33700c2fff0U, 0xcde9d3f14ef4ac48U, 0xcde618bc191b45d4U, 0x193c2bbbd9c138d7U,
  0x4651534955fd094bU, 0x5b2cc1d007dae42aU, 0x28a121b29e36b8baU, 0x2b0a52f657bb0cb9U,
  0x4e53f3510ee5d629U, 0x365301adb4e0b031U, 0x21c7fa0ec3c6c7feU, 0xabed3eb353e40cafU,
  0xba400f4a05eeeed8U, 0xc8fde7b04d10c7c7U, 0x1351b2edc7e02fb6U, 0x3d47b025f63a1debU,
  0xfce0b65f91a21e3U, 0x40e32bc70b37a7dcU, 0xffdb2036e3c1f209U, 0xe40fed2ee01fc5e5U,
  0xf1abbb0c42b03dfeU, 0x41dac02e3fd04dcfU, 0x170ce626f0d7d6d9U, 0xc902f12ada2d2ef1U,
  0x9b0c4107de2f1e51U, 0x3af4cb343511514fU, 0x11d032142ebcb3eaU, 0x1202c6cededb31bdU,
  0x40fbb8d818e25940U, 0xd9fa5513d4ccfb19U, 0x1dc53336f73e0b1eU, 0xc9180b1742cf5210U,
  0xc44731f64637b9c7U, 0x2d032a1dedc6210eU, 0xf7fe2afd3dd4ea27U, 0xd1fd43d42019d618U,
  0x34165f29f8dae225U, 0x9fb36e8b1f5e84cU, 0xc31c72ed44034f6U, 0xdcd4d6f527bc42e6U,
  0x32f1bf5f6fd30fdU, 0x48052ee223c9f3deU, 0x4f3ed7c91517d4d6U, 0x35dacd2b501a2f34U,
  0xc39dfd73d4f5b02U, 0xc33ff10319b62d4aU, 0x4ccad5073c103949U, 0x4ad8f50530ef11f2U,
  0xa9b4ea5147fc315aU, 0x576354caf6e5c7dbU, 0x5b301e5115bd3336U, 0xbf111f0bbf61da16U,
  0x313d3637380a61e3U, 0x32bc555a3ce1f2fdU, 0x96611b123459fc2U, 0xa933c500182c4908U,
  0xdcdaedcc38d8b622U, 0x7111fc3dab2b2f0U, 0x231618301831fff9U, 0xd0102940ec0de644U,
  0x8350c37ce5319c7U, 0xb306bc5f0b293824U, 0xf6cce0001afdadc7U, 0xdcb5e62a3f4a01ceU,
  0xbf510154e2dbd2f6U, 0xf8c2c1a4e2e2b42aU, 0x56f841123224b1ebU, 0x1ad40adbd3f208fdU,
  0xa635b43fdbef01bbU, 0xf1142df7f5ee4e2fU, 0xc5c0e034c7fc484aU, 0xd948e4d53c48e507U,
  0xda1fbcc8313fec31U, 0x4dc00c40fab4120aU, 0xd0bbcb192dd1134bU, 0x480eebcb2afa0d53U,
  0x18560b0aacb314feU, 0x17bc0edf03edf24fU, 0xdce0cc172a632606U, 0xe3dacd493e5832b2U,
  0xa860a9ca00b7bad8U, 0xed290cd13acf44ecU, 0xedea4bed53fa1cc7U, 0x514310e0314c2b05U,
  0x960be2245062743U, 0xa1fdea8c1052355U, 0x2306c339db25adf6U, 0x2ab0b7a5bc549b07U,
  0xffa51409e00d4735U, 0xce473008f1294029U, 0xdb12da42fce4f25fU, 0xebf22818cfd93e0cU,
  0xf326291e1c461301U, 0xb3bcac9232bdccaU, 0xd0c325e8ed121c47U, 0x464532e3dcc905b4U,
  0x4935aa0c1ad84aeaU, 0xb623e34bd3264958U, 0xbdd3ccf7cfebd6fbU, 0x30f5c51534eb3f48U,
  0x2cd316ca45ed0b03U, 0xd8e8380600c7d3edU, 0xbc4558e4ae50f2b6U, 0xf0f92aaa21db5db4U,
  0xef0d4ed5e0e524caU, 0xb6ec291b34b64a16U, 0xbbd1eeebee44e01U, 0x1f9f25e5d9b0ed14U,
  0xdab117ed22d439f0U, 0xa6d22ba63da831b2U, 0x943c0eb470da8fdU, 0xbfdd051dd5ab2d05U,
  0x14b5b30b30f9e444U, 0xda6947497b375020U, 0xec173da3330af430U, 0x5004e815fe11d2d2U,
  0xc0b4480f2032efa6U, 0xf647ec533d33449aU, 0xc3b4450dbde0d605U, 0xc72af9e807ed99e1U,
  0xb9ade8b3122ae8d6U, 0xb1a32fcd23eb5ffU, 0x1c34d94b69d3e3f5U, 0xc2a70bc8d002dfc6U,
  0xfa02ec514939011bU, 0x3a59d6f84b59b616U, 0xd55707f0bdb5d266U, 0x66bdc3dd15130fb3U,
  0x2f0aabb6ce45fadeU, 0xe643c735fdffe129U, 0x5e1bc2dbd0ecb823U, 0xec12e0dbe5f2c556U,
  0xc4dda58ff6213d8U, 0x42f7fff5b9202240U, 0x1bce0d5324bcd6daU, 0xda46c44a5f0d4a0cU,
  0x1446cc4f16d25ca7U, 0x40c64cb1dacd300cU, 0xab28ea3e31570510U, 0xe5f94125f9ba0b08U,
  0xbce20bac7e4b7d7U, 0x63e360bcc74cd33eU, 0x5d0c272627e22962U, 0xd627f84ee1dd2f0dU,
  0x4a3e1b02090cbc11U, 0xf90c06bd3d2208b8U, 0x12052fd219aa252fU, 0xdb17d95730bb57f6U,
  0x33bf04ff342ed8dbU, 0x20a841cc2dd3f51dU, 0xeb33e9c424460fc2U, 0x25f8f8b2c1c240e5U,
  0x3421be5a2fddc4e5U, 0x28af0b31e549c2ccU, 0xb8b6e2d0d805b9f4U, 0x24afb6fa3317c908U,
  0xda5c2dfc20d6ac0fU, 0xcd5f8dbf35ea9e1U, 0xd2bb603cdd1c293fU, 0x62463007511a4f5aU,
  0x35cb20d2dd1c2db3U, 0x1ca49f1d52d43844U, 0x18dffce82f494b28U, 0xe8d2c613090d2616U,
  0xaf4152ead5d9171dU, 0x4c22fab1e1e612cfU, 0x33aaf03080fed08U, 0xbde32fb3e8bee5f8U,
  0x1f375ce7c6cf26d6U, 0xbbba43bc4326eaf5U, 0x5929c5d1331217b5U, 0xe931d82ff2f40cbeU,
  0x2e95db1cd47f546U, 0x341b40cfb71f4d4cU, 0x49d5cc4729fab5e6U, 0xaae0bf00183f5548U,
  0xd1247c5f4212d30U, 0x370c183df80ac8ebU, 0x3b24cd2dc7fd36dfU, 0xdcf541214021ee00U,
  0xd7cd44fa4c150b29U, 0xc206210518e94b3aU, 0x48ea1d2dbfccbf23U, 0xbb413436ee1e44daU,
  0x3b2dfcdb1631c5eeU, 0xe84435072cdab309U, 0x4f320c12caddf92bU, 0x3c393f2120f0f1baU,
  0x43d539d3d7c0c5c9U, 0x3346d51938302f4dU, 0x2ad9060630fbc42eU, 0xe1f62acc2ae21eU,
  0x373c2b0adfea40bcU, 0x1cc2014021440cf6U, 0x1046d5de222013f1U, 0xe5fd493caeee0f12U,
  0xf52bfcee3d13c015U, 0x94128f4f5f51907U, 0xd60d32c62123c907U, 0x343bf2d01e06bbebU,
  0xedd5fc45e1f2cf24U, 0x1c23e6b811f10afcU, 0xd9e93742c81a2b49U, 0xffc0c3ed121d0d8U,
  0x3fe64749b5bff520U, 0xfe29181fc0f2b81eU, 0xd8f1f31ce8c3d40dU, 0xd3d9f6ed45f1d9dbU,
  0xb95101bde8e4c3a2U, 0xb4d8d2b6fc08b93fU, 0xef48d2abf954ad05U, 0xad259cbd41c84531U,
  0x2f0dd24aee17adacU, 0x2ed7e72437bff7f3U, 0xda1a1723d94228b2U, 0xcf1332ff9e31e1efU,
  0x8ea2fd45d0a3cdfU, 0x4d05f6b8252f96fcU, 0x506630bbe1eef170U, 0xbdab9ee2e5cda0b3U,
  0xab6fd84ba7530ae5U, 0xc92ab3ecb12df9b9U, 0xf8442615561db2daU, 0x51283412a8c946efU,
  0xa73c3c0aa055fe55U, 0x1d4cc809f702fd54U, 0xde09560e5334b2b7U, 0x6292b541c14ff1fU,
  0xa845e8c3aeefbae7U, 0x694a6cc7d29fbb34U, 0x3ddb63461f5b1d3U, 0x40b4c3c32944bd59U,
  0x32ec43f99e6344a3U, 0xf6d11fed0f3fe60cU, 0xf9ddf0b5ffd7c9b8U, 0xfb4bf1491b51bcdcU,
  0x44bea6da33209dfcU, 0xb9ae0bf4560930e0U, 0x3b3aedd49cfbbf3fU, 0x5afa0e1f1929e921U,
  0xcaf220300aefa3aU, 0x3bbf332deae60942U, 0xc4ebfa3dca2e14cfU, 0xba41bf0a06e32a39U,
  0xd3fe2db9cdf81c15U, 0xc8b5b001a83009dcU, 0xbcf1c062913ec32U, 0xc012ef33d931a93cU,
  0x1155c2480fc2d6deU, 0x32eb5006b933deadU, 0xf9aebea646d6faeaU, 0xe3cc48fb292f49d3U,
  0xdc621f29fec41d43U, 0x4d3baffdbb0b33abU, 0x3849f805e7d36020U, 0xb911dd093919bff7U,
  0x4d7e83a50581354U, 0x4efdce2d034afe4eU, 0x3a0314c9c1e1dbc0U, 0x35bb12f446343205U,
  0x2c4c2ab753f9142aU, 0xafe059da4051d748U, 0xcb301a050d3f1a48U, 0x3db9e4dcbf21023dU,
  0x2b41d734f2dcce16U, 0xec24b0f83b15b8c9U, 0x55d8ff22b14f06e9U, 0x21b823f112cb65f2U,
  0x5631d7c904da2fe0U, 0xf3553d2d48f3ca4dU, 0xe0e2045af9c114f1U, 0xd0bcd7b03fb700efU,
  0x342c4a0cd6dfcc19U, 0xd6b6c03bf731f1c2U, 0xfec23ffde1ee41deU, 0xf2056c704e6bdf0U,
  0xc2c7060714521711U, 0xf8d42a14d835adf6U, 0xe3c5db4e133af7baU, 0x291225c944de46ddU,
  0x1fb4366b2a4ccb35U, 0x1ed000aff5eb351bU, 0xb33aba5b02130bc7U, 0x1c4feaee24e0dfcaU,
  0x36c0c510df14fb25U, 0xea07d8ce00e9383dU, 0xbe1af112e14f4236U, 0xf34fd7fd4627fffdU,
  0x5cd5183b3430ddf4U, 0xab7fc390d31444bU, 0x51552c23ebca50c8U, 0x8052115e70c5c18U,
  0xed4823ed40282ddaU, 0x31b6ebf819dd2bfbU, 0x4dfacf181506c415U, 0x1a23d7defc42cfbcU,
  0x24beac13e723261bU, 0xca53dbbc4bd3d115U, 0xd8d50d5219cb2de5U, 0x26fdc5e6000933bcU,
  0xfc17f046b3054c3fU, 0x5e2606dbcd00ece1U, 0x2740d7f31f0c4646U, 0xd3e8c452b4ce2a48U,
  0x3961db0711f33b21U, 0x400bd84ce8d3d3f9U, 0xcb4a450c10e73c0cU, 0x16e426545355d0ecU,
  0xe7462caabfc603c2U, 0x325be42c5020e0b3U, 0x354607fa06cc32f4U, 0xd60ee4fa3cbf1b09U,
  0xf9b23d4e3d140305U, 0x235d540745b9f4e4U, 0x4dc822f43c3c5cf4U, 0x3c01226090d0558U,
  0x33bc057c6d648f5U, 0x58ec1829050bbbb2U, 0x3bd0dfd6f7e01f06U, 0x4215f6ae13b73b4aU,
  0xf31bf469032731e5U, 0xead9e9413fa42e19U, 0xb1af3954c8d3be2fU, 0x44efc52534464be5U,
  0xaccfd4cffb37fdd5U, 0xfb5ec5f2ce46f5eeU, 0x3f1ff7593d3932c4U, 0x2e3f273ff81a0112U,
  0x535cd01c0ae01428U, 0x103a3f2cc329cdd4U, 0x19e7000a4926bce4U, 0x19f3c7d7f00dc6ecU,
  0xf7c2f92b30f817c3U, 0x5526e040cbbd0ebfU, 0xcfbe236039cbbfc6U, 0xef21af494223abdbU,
  0xcd1ccbf8032e34b0U, 0xb4c1cc2d4bd339ecU, 0xef101ef041f80632U, 0xe42057434ab9cecbU,
  0xfeb7d3f2c5e0a4c3U, 0x16c92a1f49ffffb7U, 0xd5debe41c9533ce0U, 0x24fb4ad019cdb92aU,
  0xd553bb133150d521U, 0x16062ab620025045U, 0xcd73a2313c64106U, 0xe81257d506dcdd14U,
  0xe50c11291700df17U, 0xcf45553b1f13fbfU, 0xfbcf41243abf32c8U, 0xcfcb2b5d1a1f2c01U,
  0x23c845abd1b9592cU, 0x43de5b42f70d48ecU, 0x353f41125903cec1U, 0xc61e0b14cbdaba26U,
  0x2e12d80921c3d01fU, 0xcedaddef504c19beU, 0x3a02d21eeb4134e1U, 0xa5d1bd906b7f146U,
  0xf166bf061900f4f3U, 0xc6e80cdd2b0dff57U, 0x35f44f286c21412fU, 0xf44fe5feb8491116U,
  0xee83b0fea38482eU, 0xe40a55150c3d1fc7U, 0x3526b1073f2fc545U, 0xc10dd84e132139f7U,
  0xdd552c59a84e1c4dU, 0x70a10fd553ffdbeU, 0x5bc03ffccaf6381fU, 0x3f20e24c4d3f322cU,
  0x45d0d0d1c9b53daeU, 0xbe63212e6b3dfb6U, 0xe0c1ee3cb2ea402dU, 0x142354e3354611f7U,
  0x39bd2036e830f4c5U, 0xdf0ee4faf0f9ea07U, 0xb43cbb3a49a9d539U, 0x43cedcc71506c1cbU,
  0xd841cbe40ef91733U, 0x5d1f30aad0fe9baU, 0x38c80bbd2d24a501U, 0xcc081cc7ee1318c9U,
  0xac0a9d0cfca50ee3U, 0xefd3ca43311c40a7U, 0xc31b26c13de7f615U, 0xfe102e30c8df3326U,
  0xfc915dcb6dc071dU, 0x2bf84111b937b4c7U, 0x4615b8c3d3c3a9deU, 0x30c73f10e5a70a2bU,
  0xed37ad201ba6ec25U, 0x1727cdb0f624f7bbU, 0x3b06041ee3281829U, 0xf5d833e038c13ad6U,
  0xdfe0242ccdf1e943U, 0xf1b6c1dac6453146U, 0xe349b5e901decff6U, 0x3cd84dbcf5af2a0fU,
  0xb350f3e9c422dc05U, 0xcf48ebc2cc005022U, 0xc6d3c4f90e54c559U, 0xfc372651c046e4c9U,
  0xe0076138264134e6U, 0x3239082c1254d93dU, 0xc245d44d3713de3aU, 0x3731d70148caea49U,
  0xb6dfb71ed6dac711U, 0x47e9cd1604195501U, 0x18003beeb6e8b9bdU, 0xcb38c04f14dcc703U,
  0x15efff2d0f3b0ebfU, 0x1bb73da8041ae30dU, 0x2012e3441e27f6beU, 0x3029edee0d2bd1baU,
  0xc42cd52fc218393dU, 0xa90eb1270b49fa1dU, 0x21e20314ddc1a2abU, 0xfd26defedbce46afU,
  0x32fe25110bdef51fU, 0xc41dc9b2b1a6dfd7U, 0x422908de12bbbaacU, 0x130015f0131a3acbU,
  0x32c014c8b7f3dbb9U, 0xcddd4be1f5edf34dU, 0x9d643f6eddcf8e0U, 0x1cf9fe3e2ecaf9f9U,
  0xdb10d2303019fc03U, 0xe3c4b7fe17fed714U, 0xae232acaddbfafcbU, 0xae2f54de2a01f8faU,
  0x15d618051cfb240dU, 0x3530eb0f30c03957U, 0x736ca4804cfc523U, 0xbee840bd172cd0efU,
  0xd32e260bc8423b00U, 0xf136cb42def4d4c9U, 0xe7522db2c8f5b73dU, 0xfb33040842c8e2e8U,
  0xc1dd311f26e3c2dfU, 0x3c14d2372108cb08U, 0x22ec4b0cd33b53f3U, 0x22ea2607c30b2209U,
  0x15230743e4d2e80cU, 0xbf3bebbe1f0c0de4U, 0x2e0fd8272c262219U, 0x17640d060ae451c9U,
  0x34e64fe7ccfcc43bU, 0x738fd5e06f24beaU, 0x4903c8ddeffef236U, 0xc60abc4205fb1d0dU,
  0x1ede3f27e02840edU, 0xe8f3b9e4091805c4U, 0x10e5d9edcb1f21e1U, 0xc812d10f1e195ad6U,
  0xea030b2e48cc2fd9U, 0xc2cbe7f3dde82919U, 0x5b09d949dd3a39eeU, 0xfe35db26d221d61fU,
  0x5e5043493cc5fa09U, 0x1c061829d02b3451U, 0xf7d15824c6065a00U, 0xb92de6eccd1ab8f8U,
  0x2c562018dd253412U, 0x18485c4d170bdc10U, 0xdd5739df02d457d4U, 0x4bedf3caf1d75320U,
  0xd01be01b20d1e726U, 0xf8db545933c2cfa3U, 0x29051a1b330fded7U, 0xefcd0335470bc1f7U,
  0x1a4af3c337ececffU, 0xbfbbfe5a0edb40f6U, 0x16f5b213db1ec6c3U, 0x37f8c139c9325523U,
  0x24ec495e381b2246U, 0x3bf7fe203a0fe8b7U, 0xefd2cf1efb00e546U, 0x2a0bec4724330655U,
  0xd62c16cae3b74212U, 0x29d82826a1991648U, 0xf8bdd21cecfe5345U, 0x54170fda0a532a0fU,
  0xe60934ec4021ae45U, 0x51440f1155543adaU, 0x5ac31cc033ddfe0cU, 0xd2efdefde705d3bcU,
  0x9fa0f482155bdbeU, 0xe0d7452ce14c5eb3U, 0x54c512fb185ab5dfU, 0x4c46b5fa22b83ac1U,
  0x7b0362625b92418U, 0xad1f0104bcbbb50U, 0x1fc917291fed400bU, 0x2743f9f0e9e1c7f3U,
  0x25dacae0c14b291cU, 0x37a104bcd0e51747U, 0x421c041cd1b9f5ebU, 0xcc39c320a0f550bbU,
  0xef4b9c13b35117cbU, 0xde403b2c400fc125U, 0xb10a481cb1ad09bfU, 0xddfadcf3b3063c08U,
  0x1ab9e34ca7df0599U, 0xe1365354fdaed344U, 0xdac4d6dc12f8142bU, 0xd0f126fd6118f713U,
  0x3645baf5013d4c27U, 0xc658bb43b718f505U, 0xe0fbe2c018e40dcdU, 0xd5d0392a240ef5edU,
  0x373d01d026bdb7ecU, 0xdc3833d138e4f20aU, 0x4f4cb5212fbc2e01U, 0xebb606020e392228U,
  0x331c291a12b3ef31U, 0x35f4213ed4d0252eU, 0xe6021cc44cdbe3ddU, 0x830c34a311c37afU,
  0x4afeee2b0338b2d5U, 0x38fd0b3dbaefe0d9U, 0xc83a40df18afc4b4U, 0xab0501030615cd08U,
  0xc7f2db0249b817f0U, 0xa3bae72144dedbf9U, 0x3d48fda1249bddacU, 0x4bcb10af49230b22U,
  0x26d6c0fd1cd9c52eU, 0xdebe1723ccafffefU, 0xb133521022c665e9U, 0x522bc2dddac32fbcU,
  0x15a1fd1814e30ad6U, 0x685f09d9c3cd330cU, 0x63ccc51be4b005f1U, 0x1c5f4326546afe6U,
  0x3b0215a5ea67cb12U, 0x1d2b4ccf03ffeb41U, 0xaff651039e75ac1U, 0x3c61d25c42ab25c1U,
  0x3b09cf0fb7c4a74fU, 0x43c2c718dc24fc2aU, 0xdbc951250d3b52c5U, 0xaad3bc40f0c2c20dU,
  0xf8caf13e55fac14eU, 0xdec7c8224944f857U, 0x432b18e7bc27b5bfU, 0xce2226a60fc8e1acU,
  0xbc4b56c35050ed42U, 0x20cd49204446cec4U, 0xecad0c36bd14d0d3U, 0x2735c7cbc91a0fe4U,
  0xe632ed5c2123219dU, 0xc5b537cc38f4253bU, 0xfaea661e34b640d9U, 0xf3bfb91a2d0a4ca6U,
  0x4702e5fc1efe19d6U, 0x2e48a61030ab1fc5U, 0xe13b1f2413b30244U, 0xcd06095752a7f2e4U,
  0xab20e707fa2935caU, 0xf0c4c5d14203d0b1U, 0xa6a0e1baebe8b8f5U, 0xa92b2daf0635273cU,
  0x1b2ce5d422e8dddcU, 0x3333aef7eb3d17eeU, 0xc1f3c2425a415348U, 0x14d20056e2eb362bU,
  0xfb3e22d6bccab8b4U, 0x3ebc20af2d2315d7U, 0xd435d3d21f002001U, 0xcad231eedff62113U,
  0xc10ee3006b1dcbbU, 0xffdce7ddd0fe4327U, 0xaa0ac3ef3ab217d1U, 0x2c04ae11b8152343U,
  0x3e16b4f6aff3bf03U, 0x30eb2cee2b2ebec0U, 0x40c73545ed1febd3U, 0xcfea2d1907b908c9U,
  0xd331a81337f344deU, 0x4045b9ff34daed27U, 0x2dc1b1d2dcee16a8U, 0x8e3f4de2d07f9deU,
  0xfd072824c3fa4efeU, 0xfc2bf02833f7012aU, 0xfba14f1322c38dbU, 0xdc27c831f8c0d80aU,
  0xedd7053439c83edbU, 0xec1428bd1243c230U, 0x32cff1fbcac048bcU, 0x481c43b9eaee0eebU,
  0xca222506c8d510c2U, 0x1ffbd853fe2056c3U, 0xd618eceee33c37b6U, 0xe835e52fd01c0dbbU,
  0x35c32f420c3ff2d0U, 0x104749ed21c01ce3U, 0xc931b90ae2fbf5d1U, 0x4d2350b50c3417c1U,
  0x15fe53c63fd2c6c2U, 0xeae059f5b145c606U, 0x2c05ba46f8f542edU, 0x2042c063a2354f4U,
  0x1a2a1f63464d1de2U, 0x41a22572e48ffc5U, 0xe8e54bece2fb25c8U, 0x4e39cff0f417d604U,
  0xb4e32c0cdafa5d58U, 0xdb10fb4e472a58e8U, 0xeebee4e5e8d9ede9U, 0xdf5244450de90134U,
  0xe000e6ed01f30329U, 0x202f4ff435fd2304U, 0xf1d70533d807fcf8U, 0x5e3e5e49e8e9ceeeU,
  0x3dd833104935d9b7U, 0x27ecc3ea32e6e032U, 0xae4d3594fc21427U, 0x5a3f5a5c08d048f1U,
  0x4605d8cddfff1ddaU, 0x2d6e4db06234a58U, 0xd43bea36bde9c9b9U, 0xcf16efc70c392d3aU,
  0xfb4258a060acea4aU, 0xca4907873a6c34d3U, 0x23d1e9ceb9b1b8d0U, 0x3fbc452e2aacf015U,
  0xdbc62b34c922ef2dU, 0x56ad3b9f0c5349b2U, 0x4715d6e5b061b14cU, 0xb3dbe11436385712U,
  0xd54b292403fcea4eU, 0xddabf5421f041da6U, 0xb9b2cbdebf47e0c2U, 0xc7bcf4b93ae741fcU,
  0xca9f49b208f3ec35U, 0xa22afd812fb4405U, 0x4a16e02b173733daU, 0xea3fc0b3f6191429U,
  0xf6e459543350e166U, 0xf49eb6d1cfde0522U, 0xb7b935dfc9c532ebU, 0xd2c81e02dba0ee40U,
  0xa98a90e00d6fdf3U, 0x2c5fafcf9c14c0eU, 0x5051f0b6a102960eU, 0xe4eb42c3cabd1144U,
  0xe30db3341cd2c73aU, 0xa4b81caf17b10cf6U, 0xf720f965fa36a729U, 0x9cc36136c715b84aU,
  0xd104f836f7fdfa21U, 0xcffcf70f334b2017U, 0xbde804cbdb56ba4aU, 0xd3bbc5195b0231ebU,
  0x3cdfba32bee818c8U, 0x589daa0fa3044232U, 0xdb3d15b3d44db3f8U, 0x39e4401f30dfcb38U,
  0x3fb6c22303b9e539U, 0x1dd20fe75361bdf2U, 0x2f25bcc3ff594636U, 0xafdfa92518bdf8c5U,
  0x2da859fedc33c1c3U, 0xbfa231d9e4cf6fbU, 0xb1153523ca3bbd43U, 0x8b2283f27e00c51U,
  0xdb52eecbcd48d0d3U, 0xb6f8371f20c0cec8U, 0x3ee6f6bf0fa327d9U, 0xafd6ea2ef6dcbd04U,
  0xf9b7d8c2fffe2b15U, 0x41354823bf14c8b9U, 0xbb19cbf4f9112cceU, 0x42abc1b8f80d1cccU,
  0x2de1c52206313dbbU, 0x373735d3dd32b0e7U, 0xd230fbce30ca2950U, 0x531b4b37230dadbeU,
  0x1a093122c1be31f4U, 0x3d050dc31c2c4840U, 0x56b649cde610d915U, 0xac0d4a37064acfe3U,
  0x33c4d8400fe3ebbeU, 0xf4fe48df54cdb4b8U, 0x13ff1813edbbe2ffU, 0xeec405eefdc21948U,
  0x245110fc30601022U, 0xa346ad55bdda6060U, 0x4a4b53336c326f4U, 0xbc33d7d931dfccb3U,
  0x3d27fdd70d0aef37U, 0x5951ca2c218b3017U, 0xcf9ccbf6b25141a7U, 0xc8eec2cc1d3cd7c4U,
  0x5affdc231dc9f5bbU, 0x3ea1ca60f40c725fU, 0x3412eb10dc4b18d4U, 0x4531660df95ae0ffU,
  0x9daa7641ce6be16U, 0xdf3ac9f12f3da9d8U, 0xa505cfb5e4d15a3fU, 0xc416c01b4215b84eU,
  0xbb3547590d0949efU, 0x9ffea01152f76853U, 0x3cd5b35d39b95020U, 0xc3d6cb134af23a1fU,
  0x441e99de70013cbU, 0x5137cccd245557dfU, 0xe6afa0b17a7b62cU, 0x6ac3b032cce08c0U,
  0xa5b6baf2e9c35935U, 0x58d0f6aac6dced08U, 0x1f281475b4ddd7cfU, 0xf430f1f2e6bb4cfdU,
  0x31cf242ef09c0a4cU, 0x6853dbb9c2cb0e30U, 0xaec95013b219c3f0U, 0xb6aa4d0eb037ddb7U,
  0x44d911d433e0d54bU, 0xfc1ae7db13660f48U, 0xcaefc5c81f192036U, 0x23d657d9d7331043U,
  0xfe2f3d0e551a3648U, 0xb1c0b1cf17501100U, 0xf129e9c0113de92aU, 0xe4bd243b1573947U,
  0x4f4b35d2cb05e93eU, 0xff11b65ee30c2926U, 0xdf45220a04ecccffU, 0x3bea43fcbde3b52cU,
  0xb03d53b3bb3afe5U, 0xbfc4f2d43226e2c5U, 0xb50d3c3fd1101ce5U, 0xef24f7b43db9f845U,
  0xbddd46f8e8b82fd7U, 0x2607df52fc20b1U, 0xa30cd45e202e72cU, 0x3d2b4d1451d0eb1aU,
  0xde0f49e0191cb905U, 0xf5fd3412d401593bU, 0xc60c83fc9c0cbf7U, 0xdf494b5433b3de54U,
  0xb8b6492c0af43b29U, 0x3b44da16311af63eU, 0xd2ccc1685f33542cU, 0x304ac0485dd307feU,
  0x3c0b3ebbc72de2f6U, 0x51d742f122d7f3dfU, 0xef05560a2a40f6eeU, 0x3c43e9cebdbdb31aU,
  0x5f05c2b5fb4fa9acU, 0x1849aeeba91625feU, 0xf2b45152e336d70aU, 0x4312bb4fbfb93d3cU,
  0x1b0cb5bd53161532U, 0xcb75dbb2be3d6c3U, 0x29426efc150b2bb3U, 0xdd10ededc3d3ad02U,
  0xadd61727ac1e6223U, 0xfd5e0a32a8c1c00aU, 0x593b1eeccad0f9fdU, 0x12415157a6cbbde4U,
  0x4ec1f6f432111f4eU, 0xf4244bf50db8d229U, 0xd2ffe31ebaebf34dU, 0xbde2c316fd2b5344U,
  0x19fa03472ff4abffU, 0x351b4cc4da4bacb5U, 0xd034ff5ebc495a24U, 0x2dc42bde10421fU,
  0x5b33326c8d3e7b2U, 0xfacaf0241beddd3bU, 0xd7c9c1c3adb8b0d4U, 0xc9f4d7f5295b595aU,
  0x1e23e1c6f5b1140eU, 0xdcf05a23ef36df26U, 0xf7a23c3af1bbe41fU, 0xe3cc013e0d263fc2U,
  0x4156d9cde6b719ccU, 0x647ef3a46f907b4U, 0xe92ca42554e90939U, 0xec1f1de6a3bad634U,
  0xadc6ad18c2451255U, 0x26e81ad6a751d312U, 0x13d344b93eea32eeU, 0x322a38d318c8a832U,
  0x22b5bfd3fad2ac1aU, 0xc526bf95b32345bcU, 0xdd47c9590901e041U, 0x548bcc221514621U,
  0xf61e4caff5aecbd3U, 0xdc5e0121cd54f730U, 0x7e223f6b70e20f6U, 0xbdfb0615ee350c26U,
  0xa8bc24e70abd31b6U, 0xeae4d4e41c1022bcU, 0x5d8ea242e9c03c2U, 0xd9c9bddccfc2511eU,
  0x5ccaee2cdb2185aU, 0x353ad6fe0cc94005U, 0xf6fed9eeb23e2c12U, 0xdefd2955d1e820b8U,
  0x6e2ab172c31fbcaU, 0x15f9adf5ddc3dd36U, 0x3b2ce3f3fb5241e0U, 0x330917ae23533843U,
  0x24c9b13e3f48b1e0U, 0xdabb1e26ed2212c2U, 0x31bde1fee5d9a43cU, 0x39f3b223da214d17U,
  0xcb4b4bb4b4be0e8U, 0xe6bc0cd043e12ceaU, 0x300f0242d2b52a54U, 0xe1cd08d43e26bfb6U,
  0x33e30fd01e02d549U, 0x201a261235f1b40bU, 0x15b4c35b030ae140U, 0xd7c7fe25ca28273dU,
  0xa5db29143addc32cU, 0xb47efe9bcc7400bU, 0x2a31a40867cdfb46U, 0xfd650f2aaa3ffd0U,
  0xc415004b15e524aeU, 0x4ab90ae5f3caa2c1U, 0x9eb2fcb2fedf12a8U, 0x1b2418053df0bbd4U,
  0x52cdf0232f032f1aU, 0xc6c423d2a8091ccfU, 0x12c21b2b3adbb227U, 0x23f0dff020d197faU,
  0x223fd3a3d39dd910U, 0xe4269a1400e712d4U, 0xca37350fd5b7c945U, 0xf8dfcdd9ff2cfc4fU,
  0xedfcd1de29a53ec1U, 0x361b4001464ffa9dU, 0xc614e10fa8363230U, 0x48b7e5a8360bd758U,
  0xaf54f5cfa3f839c0U, 0x48b0c422d6de3fd6U, 0x400735ec139bf0d7U, 0x9f52353d2afaaf3bU,
  0xc7c8f4ad4e45ebe9U, 0x241c1450448c1c1U, 0x20d13e437fc2c48U, 0x543dc434c30c4bf7U,
  0x14c93cb50f2511e2U, 0xfe51328e91bbde5U, 0x1e1fc138c8c71c53U, 0xd4370d0c2c2c4e52U,
  0xdadce8433bd71fdcU, 0xf318f223c6efd93bU, 0xd606f349e945ea16U, 0x2e3afc2639bac7c4U,
  0xc8149d41d541394cU, 0xace44bc71dae1a3bU, 0x2939e13a0f0e46d0U, 0x14c3c3aac7f54405U,
  0x411e2af34206e31bU, 0x3bb6b6d0cbd7be49U, 0xaeb0db01de0351bU, 0x5dd0e6e8dde119e1U,
  0xf3ef38bf3ad3303bU, 0xd1c3b438f5fe08d9U, 0xbb2aa9c90d36c9adU, 0xc203e6e512ab3031U,
  0x311efa02b5e318baU, 0xfe43b742b54de4b7U, 0xe1b24a1f0018e7d9U, 0x1ee6e3f9f10ecec0U,
  0xdee8ffc21bd31802U, 0x2c11d09ecd481beeU, 0xeec70bc93f13eb2cU, 0x3de9d6eac92a01f1U,
  0xd928bdb71bd50c40U, 0xf01cbf842bdb89aU, 0x4320b33736d2f3f4U, 0x30c2ec533ac2ddb9U,
  0xdee293be1d40503U, 0xc53f30b72b37f515U, 0x2cc3b30d02ed0ffeU, 0x4a1fef4df33dba36U,
  0xee300516bff5b33aU, 0x456e108fd304ff8U, 0x11d0b538d942c713U, 0xc804a4046a4066a9U,
  0x44bd18bfb5f5c340U, 0xefe13a0c5fa3d7a4U, 0x3861db0ea60a1324U, 0x946ecb1114cbb1bU,
  0x3f00b70ff457dfcbU, 0xb8f0e9bb3b104f28U, 0x4046c605d904c1ddU, 0x182ebe29c3be2a41U,
  0xd6f3e6b02f1e11adU, 0xfc06c8fd271eb2fdU, 0x54b45d2359d50bdU, 0x98e646bbb13e35e1U,
  0x1e6b814e7addbccU, 0x48b7491fe531cd56U, 0x1e92d2fde6cdb2c3U, 0xb759acd3041ee8b6U,
  0xbde8b758d2f747fdU, 0xdea65ec446c14fb1U, 0xf7ccfb2e16f8a63fU, 0x56c5123cbb03bd24U,
  0x3347c655d112be39U, 0xb14b3819fdda5af4U, 0xacf8fb031ae5451aU, 0x3249cb4af45741c6U,
  0xc22fc4e517f7fb1bU, 0xb462f055371d50cfU, 0x26c5400e14b2affcU, 0xfab4c3f313ee1be8U,
  0xf83307f7322aebb0U, 0x3b2748df4323f3feU, 0x12d456fa204ce220U, 0xbd1f249b42b0dfebU,
  0x422c08fd1523b74aU, 0x14f0142420e9f9f7U, 0xbe490ff1ef9c4cf0U, 0x27c2e8fff5d8ee44U,
  0x3fbfdae103f01f12U, 0x44cfbae34bc0c2d3U, 0x2e209d2f241e3df5U, 0x1e1704a59acdc52eU,
  0x505125104eeb807U, 0xb6a1e55cc007321dU, 0xe85500d1ae3721b0U, 0x442c51d3c2de2b22U,
  0x150c63b62efd1b10U, 0xbb512bfeb5f7cbddU, 0x32c6d3cc28481ebfU, 0x4922e0d9a346b19fU,
  0x1fca261e080ab6c4U, 0x9daae4de34003dc3U, 0x452ea616b632353aU, 0x11e014f2e8b4b7b0U,
  0xf2eaa02841e6b0c1U, 0xac29440ed803fcd9U, 0x1616fb1326ebd0e6U, 0x4dc531ecbb0cedb4U,
  0xcfd50a3fe158bd25U, 0xe55ff5603beb5326U, 0xfccc1bf130da4900U, 0xd5d4392343bf5adcU,
  0x181a51e32ee64bb4U, 0x2161d23ce1eef51U, 0xc3dac52af9cbe12fU, 0x5932f0efd359d742U,
  0xd4c5b918c5261033U, 0x5e2a2dc4fdc23449U, 0x362849d65ff6b323U, 0xbd2047b72037e842U,
  0x60f9bf0fbca400dcU, 0x3b4bb3af2bb31c2U, 0x33b9d0355af93301U, 0x5a4736d91cedf708U,
  0x3d30d7cde6d50b1aU, 0xfc1024e9db3aa7d5U, 0x151253e7f0deb74eU, 0x745b9e822c4fbe7U,
  0xde8ea05b606e926U, 0xe95ebd24093530afU, 0xef0c12ed15fffbd0U, 0xd5c934e9c94cb1cbU,
  0xdd47cbf9af5c0706U, 0x2f00e3ecc14abc45U, 0xc6b606dd2b3e1db5U, 0xb8faf342ee4f17c5U,
  0xff252e573f04fef5U, 0xb8e9f2c8c9cd33efU, 0xc7125f00c6e55252U, 0x4df9ebdbec5449f3U,
  0xa2fbf25cb3fcb8beU, 0x2c26b8b3a5e42bb7U, 0x2445190517363206U, 0x4f4739e024025cefU,
  0xe4ddd86e2bbec5d9U, 0xadc7c6d7431148b3U, 0xd0e0dd4237e643abU, 0xa005245d708443bU,
  0xd9ef11344e0ce604U, 0xf6d6e7ba55f9b814U, 0xdebbb104dbfe906U, 0xba334a0ec208f9f8U,
  0x2fee1d0e61cd8d2U, 0xcbd6dc621136dd09U, 0xc5412f195fd4e24fU, 0x4d6ccc90fde0427U,
  0x19f34c2dc61ec8e9U, 0xf82a0d564bf341e2U, 0xd8e5c84b4015b93bU, 0xc92349b6ad43b355U,
  0x52ed39cf0620aee1U, 0x3f29c8b99f16dcc7U, 0x41e0c12d251b2611U, 0xc60cf92b453ec4d7U,
  0x48d70afce2ec0b3aU, 0x32cf12344f56bde9U, 0xd836bbb004e42346U, 0xaafb04d22e470151U,
  0x27f95ef04b0ca704U, 0x41c91840bc4d2816U, 0x2a49c2aedf13223aU, 0x1d05f4e1134b27c3U,
  0x3b113310d910b7bfU, 0x384216b539c035c0U, 0xb8ea45d716fa3d00U, 0xaa424f5525bcbdfdU,
  0x541a12f65516ed42U, 0x113ed7bf2dfff90eU, 0xbddfe2a13dc6e333U, 0xec01c9c94105b536U,
  0x2fb0b7cf38b8b816U, 0xd31ff22407e8b147U, 0xda363f54ed1840e0U, 0xfe264119082a09d1U,
  0xf4e3fbcb4bf6c646U, 0x15cefd2df0030848U, 0xd641e74a1d0f3008U, 0x2deaebdf530729d7U,
  0x1d2e49f429e548faU, 0x453043dd2d01f5faU, 0xdc01fff24d32c834U, 0xf4c83be02320caf5U,
  0x2d3335fd1bdf2c46U, 0x51d9eb4dce22db0fU, 0xef36e20cb5cc03d2U, 0x27bd10da26321d29U,
  0xfec706da54311127U, 0xbc234d12d2cde61eU, 0xcdc3d42412b0190fU, 0x48b4ebd11bfb1902U,
  0xf719da22f2420be7U, 0xf22f132abfbdbaddU, 0x6f8cd48d7c32ee8U, 0xc9181b14d601fd24U,
  0xfb45fabaf703dfb1U, 0x63351f00fcdd5a5fU, 0x1c594631e038f75fU, 0x5335fda46de2121U,
  0xece6d22eaea5ae0eU, 0x373c0d340215ea40U, 0x19d42da5102847feU, 0xe6ce0bbebd08b304U,
  0xcff0decc65344bd2U, 0x36ccf4c91306c7acU, 0xd9ae59fd2f291523U, 0xf9deee4030b5623dU,
  0x7491e47c3bad8c9U, 0x15b8a54753edb9dbU, 0xfb20d3f91bde4ad1U, 0x59ca2ad9b01ad2c3U,
  0x5b0f2e1f3ddb14d0U, 0x933d4db56a9fb50U, 0xa3d023c4d8420dcfU, 0xa5bc19c700d22240U,
  0x2cef10d0b52916d6U, 0x2067bf25d0ece2c2U, 0xeff63bd8b0044b0bU, 0xfa1ca8ddc8da1fc9U,
  0xc0d742b0eb41da41U, 0x5e3b0e36f333241cU, 0x5c4251ded338f4fbU, 0xd248f5115cee3fcbU,
  0xa3dbe7fb25a2284dU, 0xd3e108f1cbdc05edU, 0x35dfa402fd9d38afU, 0xe8b131e7eddc53ceU,
  0x454753c8cfa42304U, 0xfd48e3aa37f918dfU, 0xe19c0414a6d6a31aU, 0x22d237c9124fb2dfU,
  0xf643510c9e11c3f3U, 0xe9c2d83e0e3aeff2U, 0x3cb63a58bf36484bU, 0x43f84946f810004cU,
  0xd449210e5e33f81aU, 0xf560e0a83713223fU, 0x4410d8ea1cb2bfeeU, 0xb344e43dba13d22bU,
  0x39ec019937bac442U, 0xf1b100da041fb5daU, 0xddeab5060055e7c3U, 0x210cd353da31b0U,
  0x1bded02e0029ea08U, 0x38b5af3ab33baf05U, 0xa6f01506f9d83a32U, 0xc83def21f7083be8U,
  0xeff8f0cfef491709U, 0xfd4dd023b327dcddU, 0xfb52bf262ee8b514U, 0x45e3a1370bd1f840U,
  0x4fa8bd032ff7cf03U, 0xd839cb492df7bfdbU, 0xcfceb6a5efbdf50cU, 0x3ecfa504bee2dc7U,
  0xacb2131659f42503U, 0xd9e908a31ee3330dU, 0x1aaa1abb5238f6d3U, 0x411d11bb4370c3eU,
  0x340fd00041290339U, 0xc758d761d920e2c0U, 0xf75bf74319260e12U, 0x2735401f201e46c3U,
  0x3f24bdeb55310e12U, 0xbf332bd6fcc4cdbcU, 0xdef9eceeffb7a0c6U, 0xf6c3e2209fdaad9aU,
  0x36a838c7173c3cc1U, 0xc7e6f7ec21adebe0U, 0xd1ab744f7440605U, 0xe2d1b541f0fd31f5U,
  0x15cf4645ee13fb49U, 0xdee3d10beac5e9baU, 0xc8b8b5efdb4db411U, 0x601255e35349a6b7U,
  0xf14cfc3fab1a03c2U, 0x51e137fe3a153cd5U, 0xe05f0ee1d5e3bc3aU, 0xcb0703f0041b1fddU,
  0x12ba2111ef3ef05fU, 0x3645f2f549151cf2U, 0xc035e233c9e1d615U, 0xcabc13ba2a50e2c5U,
  0x1d3c102bea1f3bdcU, 0x1e4b4474fde1809U, 0x2341d6470159e722U, 0x2bb5e2d818ac1351U,
  0xc705e1363fcae3dfU, 0xf8e128ce253c46e4U, 0x1ce716d6d8feb211U, 0x1fb02dc94e04ac1eU,
  0x29f7194ff8c13fc5U, 0x25ffdfc4f5e0ee18U, 0x2add331bd05345c4U, 0xc9082c0106bd4e57U,
  0xd1e5f11ec2efd1b0U, 0x27f00dc2f23e29c5U, 0x3330535e233d5f9U, 0xd061a0d0deb02eaU,
  0xc22d1f461041f703U, 0xbae52a015214df44U, 0xc53fc4e1fe56d346U, 0xeb29cc1fe72af806U,
  0x1e936c1c9594b32U, 0x1b32f2e536fc3727U, 0xff3ee4021c3c3450U, 0xc1343315faf5cc05U,
  0x1bc3251837bf2cb4U, 0x37de0b14f3d64feeU, 0x3e6740c4a41505d2U, 0x452df2c60db71fe0U,
  0x3430e22d0fb744e7U, 0x220ffa25104b300cU, 0xe4f217d90724c55fU, 0xea3946cb3ac2183fU,
  0xfef52dd4332afd2dU, 0xbfdc5303375f233aU, 0x6e309aee509c2d6U, 0xc03ce5f7fd40dae2U,
  0x59f35629c8e7553fU, 0x460decee5826a7e9U, 0xd23c13ecdd3dd342U, 0xf0c3c9e9d7b9cd0cU,
  0x2da6dca3d110e80fU, 0x4df7b5290cac45abU, 0x54e326cd27159f56U, 0xf31d40fd154add36U,
  0xf81edce1b0cf4febU, 0xcd245afa5834b41bU, 0xb0d660c32f0adef4U, 0x3db9aa19115027e6U,
  0x2b3d0214a90ed4b6U, 0x5a0eac3720411cbeU, 0xfab41b29fe2032dbU, 0xc2dee912d0c83bd7U,
  0x55d4cfaccff11b00U, 0xebaf0331c6ebfad1U, 0x26ff1efac0adec43U, 0xf01e4209b21420b0U,
  0xa0a640cd43f5441eU, 0xd9b74c3f59ff23d2U, 0xe258191697e63ae7U, 0xe0d0b307cf139f0aU,
  0xcb4f1be11d35f000U, 0x64f644bea8fb21d7U, 0xf8fb13b63304d343U, 0x215d2bfb619b7a6U,
  0x520dc319d94cfdd4U, 0xa9435ee5f307aa08U, 0xf40aedb237ad0b2eU, 0xef46b4350b5ff1c0U,
  0xb3f55e61350ae1eU, 0xdd1e54b0e8b628f9U, 0x51ad44fd5b02d51U, 0xcff3c6fd12171bf5U,
  0x1ea61cc82ebef537U, 0xd2d607f0f91fbe08U, 0x2f362712d1cb3cc9U, 0x423fe0da1936f1c2U,
  0xea2bdd1e1f2a0838U, 0xd70fb64fb631332aU, 0x3816504009db54f9U, 0xc1164bcc14ce2429U,
  0xf5f8d054fcce2317U, 0xbc24c6fc1cb94dd0U, 0xe8b722104e3b44f9U, 0xe30b11f11202e1e9U,
  0x22fdc4f0e9e5d517U, 0xee431db054c10f2fU, 0x3edb121347afe1f0U, 0x1dfbebffd6bf25dbU,
  0x2e30393d232423b5U, 0x2b55331e1fbe3bceU, 0x1eeb89f4ea9c1e3U, 0xf7beea15244ac4f5U,
  0xf9192d541d3b0a4eU, 0x2c0af5bbc347b80fU, 0xd3dfd24dbabfac3bU, 0x1cf4ee451ade1afdU,
  0xbbb5f2b3f9acdfe6U, 0xe5bdbfacb52bc34dU, 0x25f9b3e4ebb3e4fbU, 0x37c6fbcb13ae15aaU,
  0xbd254747a3f9f907U, 0x10becfd3b522dc17U, 0x413e4130fc0c1812U, 0xc0d3c1d9231923c9U,
  0x9482da7ba45f4cbU, 0xe4a1c6f23ad734d5U, 0xded4ec17a23b13a1U, 0x44a8172d272fedacU,
  0xaa1e8ce4191e179cU, 0xd1010746cf19ed3cU, 0x3ff3ddefe8f753f4U, 0x340db9bdfc414e3cU,
  0x15f412cebe2c6c59U, 0x1609d1e235ebeff5U, 0xc5371cb4dacf31ccU, 0x2e2452f6450602f1U,
  0x4bf9b18b250200dU, 0xf165f92b2714370fU, 0xd9fb2131d0b9ffebU, 0xb8a5cbf849232399U,
  0xbe14f52eb1fd43c7U, 0xfe0fb2f54b546223U, 0x40acd1d208183711U, 0xf8fd5df251c51dc7U,
  0xb70316b602e7eb32U, 0x21cd023fbac5c6f0U, 0x49e729fd674637d7U, 0x4d14ae41385a416bU,
  0xbce1316451bfde2eU, 0xd0b4d01bea9e908U, 0x49591b38ca4c601aU, 0x2a5ddd3d3e16decdU,
  0x4ac2be5af4fe323fU, 0xc2d84ffd00dd29c8U, 0xbee2dd31ddacdf18U, 0xa31b220f4bf18c6U,
  0xb70fcf003546cae5U, 0xf70ffb39e029419cU, 0xc5e3162021f63639U, 0x2e322b4a159d373dU,
  0x1dd84de00246c0b1U, 0x916e11db32430f1U, 0x530935c23c3ccc3cU, 0xf8ceec131df9c2ebU,
  0xa645e6d2f642c553U, 0xba2dfcc11bbaaab1U, 0x2af9de4a0d9eeb20U, 0xe4d6c2f30307f7d0U,
  0xb104db05fa12d7bcU, 0xbf3f01a23360c20U, 0xfe232011b5062a45U, 0x3b22e22e3adb3536U,
  0xfd7bbedf1dccb1cU, 0xf0acd1b24c05e328U, 0x91f1f22bf0cbeb1U, 0xe317c3efc2db361eU,
  0xfc1e25b61cd0a1a6U, 0xbba20e161edcfd28U, 0x1cd42212a9d9f73fU, 0xc3cbdb23b23aa2e2U,
  0x3eb8f7cedcf3dc06U, 0xf420bbb5334bbff4U, 0xb117c1133bff44bfU, 0xebeee9d62ba42d28U,
  0xe5303da226a9cdeeU, 0xfa25a2e1c42eef39U, 0x534ffdd4ef1c302cU, 0x3ffd370fb443f03dU,
  0xf8f72a1428a142f0U, 0xad412a65b2d0636dU, 0xfccac3c9e5ebb22bU, 0x9b5ec212f5e9d8b1U,
  0xedab456f8e0a02aU, 0x432d30ed28ff10a8U, 0xca351d4ee9414834U, 0xb904dbeae9bd063cU,
  0xb4e1ad33100bf147U, 0x4a5f38caa54c2d99U, 0xb3b3ccb560dcab32U, 0x3934565fbeb7e110U,
  0xd2bd1e152513eaccU, 0xdce0f4ce5713c131U, 0x96c31227e250142fU, 0xd3ef3390efebbb33U,
  0xae626d1eb0c00a3U, 0xe53c1ddde2b2213cU, 0x14b8e51add29c6cdU, 0x32eeeff82d11c04dU,
  0xf308c90bf8d38d14U, 0x1b41f625e1d3fac7U, 0x4f4347d3e85d5330U, 0x2dc565c5fe145250U,
  0x4cd34d318d0cff0U, 0x155728c6b6ad773cU, 0x3905be445bbc5504U, 0xf0c420b14936d0c2U,
  0xbf3d2abfb5f3a789U, 0xfe5f3e410db4a3bU, 0xee58ae394dd3d145U, 0x39edbb03c5f40d1bU,
  0x29e03e30f725c93eU, 0x20e126ba03c5160fU, 0xe82ca907bdb50435U, 0x24251afd43052ab9U,
  0x3befd82540f4afd0U, 0x3d545143adab272dU, 0x14c42fcf0348f0ddU, 0xde0bcb02e13afbdeU,
  0xdc0954264cc74b19U, 0xb01a8ecc6cb3cbbU, 0xba30aede56e0fb17U, 0x1dd5453e253cb9c8U,
  0x45edd1f74bf040faU, 0xe2efb1113d16491cU, 0xd1a9bddcda1d4038U, 0x13d854e2460c294fU,
  0x162bb61729261ee0U, 0x16e5e04836b4bb1eU, 0x39db4f551cb0ccfdU, 0x1a000affc5160aU,
  0x1cba1dda4fc90801U, 0x59cf4f464446d33eU, 0xc2fe5ef7e322ffdaU, 0x342018d9f61edeU,
  0x17bbec490e41f421U, 0x2fce83f14b2562eU, 0x38e0db25ff50462eU, 0x2feae1ec111849b3U,
  0x1e58002f07b5cbc1U, 0x41c5b10e2af7dee8U, 0xeae03b62af6bee4U, 0x30ec0ab516bcfa4fU,
  0x2a2bc53c0442e330U, 0x2bb2ebd2254c2bdU, 0x18fa0827e803cf9bU, 0xb2cbe3ebbe21af09U,
  0xf521c6b1d811e248U, 0xb6d2cdffe52126c9U, 0xb4edf0e34c1a34bcU, 0x50404b29df3b0342U,
  0xc142d82fbdf1f521U, 0x3703e74051b00eb1U, 0x45bcbcf12b184dabU, 0x10b1cab7d7221b19U,
  0x503937ddc822ab1bU, 0x13001eb7ba05be3cU, 0x637a816f3f8d5c7U, 0x3b3bc6aba9b84949U,
  0x22dd3c3ecf133db5U, 0xe422cb42bbe64bbdU, 0xfa482c2219354733U, 0x1ac313362017d33bU,
  0x2fea501b28c24f2eU, 0xe5171f0e05a43917U, 0xb1cd20be093badd1U, 0xefd924ce15ac3106U,
  0x474ceebb2bd1fd2aU, 0x25eaeecc2538f7b1U, 0xb7352022dc4d310dU, 0xf4f5aeddcffb221fU,
  0xfab2340d1bb011ccU, 0xc0e82e1039c7f2fdU, 0xed4f2835aba0f714U, 0x3a12efac4ae9e6b0U,
  0x322c3ea92dd816d2U, 0x4edca502e249b220U, 0x3fd3eb4dd7d6e4f8U, 0xbcc14be6aaadc8efU,
  0xe3d434181be056faU, 0xde535f1f1531c10U, 0x130e3dc3074cfedaU, 0xa9a423a3e7cde7ddU,
  0xf746cb4cd0fa5dbbU, 0x58e0cae8d8edbfddU, 0x25fffc212f1eb358U, 0xffff32c6df0dd14cU,
  0xccf80bacc56514acU, 0xddabda60bdb0f410U, 0xfefc44112d2bbe34U, 0x3ec7203d4ed8e901U,
  0x3bb1fbf20504bfecU, 0xead8c2c3e5ff5617U, 0x4fd7a5580ad817ccU, 0xd3e90a3e9a40faceU,
  0x61ad28fad011c9b4U, 0x35cb52563d2c3251U, 0xf332ecf5f8c60ab5U, 0x1523d2101eac16f9U,
  0xb52c08cb2022ea2eU, 0xfe470e3232500fd1U, 0xa216eb68140ac81fU, 0xc34b46f0d42741f1U,
  0xec9ac5e61763c9ebU, 0x541ebf2fb3c9d204U, 0x3fec20ac2048f235U, 0x342f4ba600dc2515U,
  0xb849ad29afe25140U, 0x2efcf86745aee3d1U, 0xce6daf7cafb2a44U, 0xc2b1d74dd8a215a3U,
  0xf3119ba517d830edU, 0xfb8bff660044c3cU, 0xa7dc2fe846cbe5c2U, 0xd6531edfe84534f7U,
  0xc102fdc9d34e830U, 0xa500d633f319ffd5U, 0x19f02812495030eeU, 0x9ec3fd28424341ffU,
  0xef13a1e849b0f655U, 0xfd9c585220d1e31aU, 0x6235d1342efa22cdU, 0x3c3db2fefae9b401U,
  0xe3e5efd04d2b3344U, 0x54a44a34b236d254U, 0xb1f848eb9635d3b3U, 0xfdc85ea73d22a703U,
  0x3ea555df3e20e648U, 0x6ef0c41350da351U, 0xb902e249a7e7e8b9U, 0x10153ecd234d022aU,
  0x52189fd62d020f16U, 0xecbc50132bcf3efaU, 0x1d0a744e00147e2U, 0x2eb94ac234b95b07U,
  0xd4c423febe42fedfU, 0xeae61cc51db65eeeU, 0xd56f90651514bb3U, 0xbb01435c0ae10e38U,
  0xe7cbd1d458fd2ec6U, 0x5460ef04e7df01c9U, 0xdb3d48b324f3c8ceU, 0x433734f606322b29U,
  0x51e3bd34e3d245caU, 0xe2d8f82db002e7a7U, 0x20d1f4bbe014da1aU, 0xd7e015373cbcad21U,
  0xecfa0a203d3f222cU, 0x1145004c521c102bU, 0x41b9290ed431020cU, 0xcdd4534123144832U,
  0xdd213741cc4e62c3U, 0x28d90af3c245d6adU, 0xbd0452e2dcf7110dU, 0xee55dad9f752480cU,
  0x2ed0333fb9c9fcfbU, 0xc647ff063bd70b64U, 0x39d1e9c3e252c82aU, 0xe2bf50cfd4ee037U,
  0x291a364ebebd4fffU, 0x44f73a1c022eeae4U, 0x7e7e3d2b60eff61U, 0xadfb0fdb4f85617U,
  0x2e16072c2df6cee7U, 0x414b3308392f28f5U, 0xfc04eccdfe0dff46U, 0x2234e8ef11fc44f5U,
  0xcddb1fecf2e31622U, 0x2a29c8e42349fbe2U, 0x704beedd1df0422U, 0x22432d14c33c26e0U,
  0x1b9cb22fe3a72b55U, 0xee31f3b2c4ebbc28U, 0xdb0250cfaed2bc30U, 0xe6fb2d30d3d957d0U,
  0x3bcb0b4dad1b4a18U, 0xeeb9c4d6d7210b25U, 0xc6bea52b4bbae1f0U, 0x3a4331d303f1d20U,
  0xc1ec2be7cbcb1427U, 0xcdc732261cf7e0e0U, 0xe6065531eab9d14bU, 0x6ccf5ad68f7d22aU,
  0xe83dea5f321ffe03U, 0xdffb0bf502f52cacU, 0xa50ebbf24fce1350U, 0x16ffb9fa30e6db51U,
  0xe4d1bbbcd1400e5aU, 0xb1fe40cc19ef32f0U, 0xc2022e4ee9a5c212U, 0x21e7b5332e5200fbU,
  0x43e4d1c65fd9db45U, 0x67f424c8e101c5f4U, 0xe74ad8ba3268ec8fU, 0x4116ae5be24c55b6U,
  0xa4a56c500e30283fU, 0x6d140329c0ffc6fbU, 0x54a3cf37ce175b68U, 0x37b0d73c52d0ccc6U,
  0x5a09341e03bc4904U, 0xb36f32de31e1c41U, 0xc5d5ba3bde0b4828U, 0x75dbee60a07f30eU,
  0xb92c1a03d4e550c3U, 0xbb0e2c12420f402eU, 0x18dce8baf8f62026U, 0xd6073d2c293e56d5U,
  0x2f440fe648cf05dcU, 0xf5e6ecd2fd0a5cbdU, 0xcd6112b4fdafbe54U, 0x55dd36e7fe4742dbU,
  0x53b1b5e9d212562bU, 0xe93feb253edaff5bU, 0x1caf10371fbf3a06U, 0xc4eb2800d3e901beU,
  0x32b9be2eedd02accU, 0x50235bb70db9361eU, 0x56491c38fe0a2eceU, 0x34dfb1310240dd55U,
  0x2606a70cb51ff4dcU, 0x343acdf42313e33U, 0x2c27a4bdd0ece60aU, 0xf8cbf5edb62f4b34U,
  0x9acdba1525b5bec1U, 0x674111e7143200d7U, 0x5402ffa5f8ec0a68U, 0xd54a2cf8b0bc3747U,
  0xcd21ef3909f70be0U, 0xd6c721494b4fe2ddU, 0xbdceea254820dad4U, 0xfef3c4461cbce822U,
  0xed3eef60b054522U, 0xeb0382dddb5d226U, 0x4fc20549ffe7d2c8U, 0x1a163c2a59e2c12cU,
  0x4c590ba3e857d13eU, 0x2a45f426c203d3c2U, 0xd5fdffddd2d43ffcU, 0xfe03d40ac8bf06adU,
  0xf4e899a7c82c3bdcU, 0x4a56da2701262b22U, 0x3c38ba20f90ea817U, 0xb507fefbe0c5becaU,
  0x4e2af7d526f31205U, 0x6f3c1cd54d3415e1U, 0x21443073a4ebb2fU, 0xb37383520afd76cU,
  0x531d16c6a6e8e4a0U, 0xe5c1eedcf8a7d9edU, 0xc80412331cc10e49U, 0xe043db0802c5ae2cU,
  0x5fe0cd03dffe3f0U, 0xc35e9f620b2a3250U, 0xfde6c343bf49c913U, 0xea5f30c8d231eac7U,
  0x4b5118a3f60aadc8U, 0xd361d12bcc2d955U, 0x255a3bfadc2cf8ddU, 0x40e328301541166fU,
  0xc146d9e9fa1218c8U, 0xeaa51f50035bbb6U, 0x48cbe56cf9bd3c4aU, 0xc0e7c6ba27d71953U,
  0x1139d108e1523d18U, 0x47fe08b60feed16eU, 0xab30e2d31fd34a1aU, 0xdceb1d460f32b657U,
  0xdac412d827e7df21U, 0xd1d9c8b42309ded5U, 0xdf1de32ce43624e8U, 0x1cabeb2ddfeeaeebU,
  0xcc2da5e11cff4abeU, 0x4c1bd43d0ff0c942U, 0xb61b0f06d9155aa8U, 0xced3fc5010ae3024U,
  0x552dd0f0b8e2319cU, 0x1958c300d4d718b1U, 0xdedffeaf0e4d0a10U, 0xc21db4db66ef2dc2U,
  0xc3cdf41dedeb513eU, 0xfdd072f04ebe93fU, 0xf81b01b8ec22b33aU, 0xc83bfaa6f02cd5f1U,
  0x4af0e23d083bf15aU, 0x31c3992d0cf0be0bU, 0xca132eee0421f3f1U, 0xc8175928ba0e61ddU,
  0x28fdeff0f74dba35U, 0x433b03183de92a28U, 0x1ff7e153072210ccU, 0xe318d825331404d0U,
  0xd1c04cce0a1638f2U, 0x2a0b06280d164ad8U, 0xaff0dabafb27e5c3U, 0x2d020709e932bed0U,
  0x275028fdf10016beU, 0xc0da25efb22c5431U, 0xb5c9e41415104744U, 0x53cd2de53035e5deU,
  0xee37b3c9334640cfU, 0x2dfb07c50be811eaU, 0x1bf907fdf0dd2fbeU, 0xebdbe600d70037ecU,
  0xc3c1c1c9e604cc15U, 0xd50b3e43140518e9U, 0x204823d3c13c0c3dU, 0x4edf23cf2045d249U,
  0x160b070ec039f152U, 0x11d42dcfed3147e4U, 0xe638162fb4cabab2U, 0xde4604d9ef10d62dU,
  0x35b8d53fd6de1dcfU, 0xe725b6f9170fd4c3U, 0xade1dcc61cc3ce43U, 0xc2fc20ed0e13f923U,
  0xee25cdd6d1b7f5deU, 0xcc07251cf1e3cbb9U, 0xc6dff5bb0002fb21U, 0x2a1ad1f43318e413U,
  0x373db806bb2bb309U, 0xb220fe0abb03f73aU, 0x2ec23cd02e111106U, 0xfe4119f93abfdd23U,
  0x221cbdbdabf5b700U, 0xed18fe1a3cb711f7U, 0x19d51e1f23eebca6U, 0xe27d4eae8231c37U,
  0x18d818b1eb024140U, 0xd9f21aafd115f414U, 0xe0d17e00e1ae8b8U, 0x14feca2723f8f4d8U,
  0x19bacec2062309e2U, 0xfcd7c622e1c40545U, 0xeb05e0d0bbca1623U, 0x22b0410eead70706U,
  0xd93ccd0c49b718e9U, 0xd809f4d015390dedU, 0x29e9fe33f2e0bccfU, 0xf09453123323c15U,
  0xebc13dd430e721f1U, 0x47d0d3ecda4a4838U, 0xf3d836f847c2dc20U, 0x4a1d463c20eb2ee7U,
  0xfbeae1e8a8e1d8d3U, 0x392ab91fea3f2547U, 0xc7cf0eea3f190ff2U, 0xc9c548a7054edab9U,
  0xffe3efa9a938febbU, 0xc90ad0b6c03cb136U, 0xef431eb020f41fbaU, 0xd53b3b3343cfda30U,
  0x29cb10d6402d0ccaU, 0x28e1303dcd0bb3b4U, 0xbde4c70adce910b4U, 0x2e0ff1eabf1cc6c2U,
  0x1dda06bca513dbb6U, 0xc5a61ad9b447b502U, 0xf911d3181128b2edU, 0xcaf9ebce2dc9bbe7U,
  0xdcc73b182d27354fU, 0xdaccb8efc6223342U, 0x3330b6e4003a26eaU, 0x280ac2434af316e8U,
  0x49123b370b4dcb47U, 0x26bef55427c4af1bU, 0xf0ffca0a48bc06d2U, 0xedc21cf22bd7e049U,
  0x39b9e208c3363afeU, 0x1c15ea13c9464125U, 0xedafba54e700e441U, 0xbce7d1ed36cc4dddU,
  0x37c0bc432312aeb3U, 0xd6deea2cd6b618eeU, 0xfcf8bf16f23f2e55U, 0xfc1decda25132dc6U,
  0xddd0e34a4f042103U, 0xc20d3d58c928ef4eU, 0xff14f09cdd2bb31U, 0x3f0b07f65cd43e04U,
  0x2005e8acd805f3f5U, 0x381630035af8e8beU, 0xaf508e9082ae517U, 0x40f921b9a758561fU,
  0x26f4142824b00a41U, 0xfcfdcf2f1b21061cU, 0x4005c25ca42de248U, 0xd921dac5f0d1d505U,
  0x2943311302acd806U, 0x4e1cf551d6e1dab1U, 0xe5495142f7192520U, 0x18255afab9436030U,
  0xd7f038f34ce819beU, 0x37c1dd34f90ebe2cU, 0xd1db4d3d40c73cc9U, 0x39e636ef140bc445U,
  0x29cbb73252ed3500U, 0xc9c1343717e807c4U, 0x494139b0c8da03aeU, 0xf9bbf6fae8b72551U,
  0x221a2be9a8bcf5f5U, 0xb2ef013d09edb9b4U, 0x410532dcdf80045U, 0xd9f64929dfbbda16U,
  0xfc113850dd47b5ffU, 0xceefeff4a8e10be9U, 0xae1e190ee53bd2abU, 0x23ddf3ff20201f3cU,
  0xe1ca451c2f39bbebU, 0xc1cb15d214a8bdd6U, 0xe042cf05bd070e32U, 0x283ccbc4edcdd8fdU,
  0x23012dc726d9a652U, 0x340cdeb8e5004613U, 0xaf28c607bfc1f542U, 0xf9b1300cfc05ea0eU,
  0x3729032646f10b22U, 0xdba61b44f83218dcU, 0xc41524c81cfd19c1U, 0x2228230500110ab1U,
  0xd21cbee4faf3cc1dU, 0xe5ab2036e2e1b525U, 0x43483111ec12deeeU, 0x3a0a2bf255a347d4U,
  0x12c11d102bd28e9U, 0xbb12dc582a18f3b5U, 0x4ac7f0b82d31e021U, 0xec5244b62fe0bef8U,
  0xd3f43d151feb2621U, 0xcfab40530c7bbb0U, 0x43bd0bd6221bede7U, 0xf1f9d7c0442741e8U,
  0xa6b4f2df23cac102U, 0xec450c361112fb45U, 0xbef9f2e53fe9271aU, 0x40e6f1edfbb9b904U,
  0xf5d93a422b1e36e8U, 0x3e31c9a805e9f2a3U, 0xfb392ddebde6fa40U, 0xba214efb3fc943aaU,
  0xcc34f841370250d8U, 0x3f5b9484ca13ad3U, 0xcc3744bb0821cfbdU, 0xc2a531f232b6c518U,
  0xdc0ef2ea2ed72f1fU, 0x135dae2bcdc0c8bdU, 0xc83f042624b1e609U, 0xbe5c0da8d8ee52d1U,
  0xccff44c6205b4436U, 0x3ae6535e4b0b0500U, 0xd0cbd716d4c101d1U, 0x9414dbc4c3be747U,
  0x3e54d3e1d642ec5bU, 0xecff1c4ee52ff115U, 0x3e21dbe0bafc51edU, 0xfaf447c50833c04aU,
  0x45c2bd0712aef235U, 0x27de102738c0e560U, 0xcc4bc516493503e5U, 0xbb1616d04312dae4U,
  0x1916e8d44a494413U, 0xfcd91abfc5453303U, 0x23f713ab294a47c0U, 0x474055c64252d63dU,
  0xd3eb2f100b05153fU, 0x5dbd3d0fd7e5db2eU, 0x4ae7004cef4ac9fbU, 0xa74c490633ca0321U,
  0xf5d34e45b4ebe7e1U, 0x39da200c3ba819c4U, 0xcdfe4abbdd25d6e2U, 0xa94103e5bdf8e5b0U,
  0x24e45f4535b9cbafU, 0xe5461fc8201cfb18U, 0xca160be2cfac1cf3U, 0xbf23b1bae6d45aa5U,
  0xa7ae25a3b5f2dd3bU, 0xb823d549fd4bfd48U, 0x1c0f0130c638310fU, 0x42e0d4e2b9d1ce13U,
  0xc107b0ef3d1d0002U, 0xd3639b0b7fbe1ecU, 0xe7c0e2ccc2432e26U, 0xc034d50210ab0b35U,
  0xfdb4741bb03cfc6U, 0x1810d04ab5323332U, 0xaa3c44d3d7f21242U, 0x330c5a4bd2d0d6dcU,
  0xd9d73818fbe51b1cU, 0xf939552cdf66ee2dU, 0xd6f0d805e9c65724U, 0x2813ee10f3eee619U,
  0xa3e832fbcab425c2U, 0x17bdffc1b72eb000U, 0xeb2dfa3bdb2ac4abU, 0x1eceb2c6473710bcU,
  0xf8fef1ed02f4c828U, 0x200e35f5acf12f28U, 0x39ae3271ece40f7U, 0xb92bebb90fb436dbU,
  0xbdbe33c7a40ca9f8U, 0x442040c1e7cb59ebU, 0x4025595fc4d3cf0bU, 0x392c2b2d285fd7c8U,
  0xcfb81c3ebfb7ec5bU, 0x170de1581c253740U, 0xf341b015d3ac54dU, 0x303447f8c34fddc7U,
  0x80ad1420e43ca38U, 0x4de3b114c43db1a3U, 0x42451aa948b9fee8U, 0x42beb164cc52518U,
  0xd2d8f12b361ffcecU, 0x54dec0c3c7f44cfaU, 0x5a0f9e0d019f1707U, 0xaa473f3ed6dfcf02U,
  0x22df60fdb260d603U, 0x351b5bf7323c0dd8U, 0xef2cd50e0220272fU, 0xcd102be05bc22152U,
  0x11b8ffdc4acb530eU, 0x4718d9d7e63f3a15U, 0x446ddaf4ad24125U, 0xe9d9b503ef480b30U,
  0xe7e25bf92a0bacbeU, 0xb047152043cb1e04U, 0x1fddc6bcd8f2d7bcU, 0xd82b43cde7bd1d2eU,
  0xe6de0bb82cfda220U, 0x1ae2a2aa2a011bbfU, 0x9ebf904f3b9bc32U, 0x43d2bc381d00e520U,
  0xb3c3ad3318e5c515U, 0x1e01f8ceeb2613adU, 0x421cff0b43a99f4bU, 0xc9f14619d3c539d3U,
  0x5342fa36154bfd44U, 0xf440431db1b9b4a4U, 0xf13e5b1bc3bad832U, 0xefe14b2aee05bbb4U,
  0xc2e71be4b6342a42U, 0x3c08fd34cce9d4dfU, 0xc41db301e4e82130U, 0xb84dc217fbf4cd27U,
  0xaeb4d82f48ca44abU, 0xc84bddb3cb4021f0U, 0xf003e4acc8da36cfU, 0xb123eebecc0bc815U,
  0x13242d12c3f00620U, 0x47ee0103c3f7eaf3U, 0x30f2f52a43d51f2dU, 0x121521da2a56570fU,
  0x52d835f6c4f3b754U, 0xfed9f2f7ea4854c4U, 0xf6df42b73aebd0ccU, 0x47ce143a09b6ca2bU,
  0xc856355b62aaf852U, 0xcfb744c333cde0b0U, 0xeff3dad0c05bbdfdU, 0xfa04b8dd5c19014bU,
  0x5bee51d9d70205efU, 0xc243e310e1b0da41U, 0xb3e01f1bc83bc0a6U, 0xf4d124a2c8e40728U,
  0xd829fa36aaa93327U, 0x5522e2ba1f48bc55U, 0x120b3742f74feeceU, 0xc8cec41ddbc5600dU,
  0xc82b24d62a1d38fdU, 0x36f9365e34482844U, 0xf3fd595e0deed7d1U, 0x5fbe4807172ef33aU,
  0xed12ce1822e2cd4bU, 0xddcbb9defc1755b3U, 0x233dd32f48f0ddf6U, 0x53f7d04c385629c9U,
  0xefac4638fef5dc2fU, 0x161231c7f7f42d54U, 0x19c500a82ff3bce8U, 0xac90d53160733d0U,
  0xc6b9681623b20914U, 0x3debfd15e7f70717U, 0x48e9bdcd28b8b0deU, 0xb7055f3ecdc8543bU,
  0x1b40002930494b6aU, 0xe9f44a4202eee6daU, 0xdabf37fd0d595efeU, 0x5507293db8055949U,
  0x2154f7d0ee38fabaU, 0x1a3a3c601ac2df2cU, 0xfac9dee51b5d4e4eU, 0x4501ba683ec1e720U,
  0xb444bbc3322cb3f2U, 0xd9e729eb06433d27U, 0x480fce07371cd5ccU, 0x12203914c303fb2bU,
  0xaaba4405dfdcec12U, 0xe534d8f0c2a9c8eeU, 0xea0c4fee34c62cdeU, 0x28e65d4143ccbec2U,
  0x40140ca9cc55efbdU, 0x2eb1a9e255720e2fU, 0x2147fa251951ee2bU, 0xd1595a093033e7c8U,
  0xf73bde36ed31304dU, 0xe4c4bfde1825533bU, 0xbb2e025eb301e1a9U, 0xdbd7b0544708cc4aU,
  0xf0cd0101cc45cf1bU, 0x2f19e2df16b5c1b0U, 0xa8c954e44e1630U, 0x4cfd02fc06dfd5d9U,
  0x3e22552009b8dc3fU, 0x36a2c8230730be24U, 0x6cbc40491a5bd3f5U, 0xcbd2c72e43f0b24fU,
  0x2b547c0d110b416U, 0xcd312155ece2be43U, 0xd71e18203a302c9bU, 0xefa4dc003045ce7U,
  0x24d8eac149503b00U, 0x32214907ffd8b024U, 0xfe0c5715264c50bbU, 0x1719263d4c2924fcU,
  0xd8c215e2db2eea30U, 0xf51d07c5c22df619U, 0xef42cd271927bec4U, 0xcf1237bbdfebbf14U,
  0xccfe29f502b5e520U, 0x3ff5b2ba11c92be2U, 0xa022b7eebccdccd8U, 0xb93bcc2c09c9baadU,
  0x27330307d4f81dbaU, 0xbee2e0f3c3dcbeffU, 0x151d2ffee9dc1822U, 0xb0203cc2e6060912U,
  0xf12bc9cbf047be01U, 0x1cbe0c1cd7f25cefU, 0xe1c7db02e4c1c8cdU, 0x7310f3ab1b20910U,
  0x2722b3e8ee44b4acU, 0xaeefe2cde5c41dc5U, 0x29d92f3ddf36b0b8U, 0x28bc52fc4024eafaU,
  0xac4ccb3148f34324U, 0xd5d3c014ab06bd49U, 0x1c47dad4ace7ecb6U, 0xcb6b1bbfb16fef5U,
  0xd0c0490a3421c5e8U, 0xe3cee7f3be0b4c1cU, 0xfe420ace4df20ae6U, 0xaccff2ec61ffdb5U,
  0xebf50707a9ae5fd2U, 0xc947b30ed84e4ed0U, 0x1932e09f0a12bac5U, 0xd8aa4164fb5a4ab5U,
  0xaab81952bd60e852U, 0xc24baedb190d53b4U, 0xef4e62ee1343dedeU, 0xf1baeee647a3c141U,
  0x95abe00218b0f7d3U, 0x930dc2de3c352bbfU, 0xe820f1ad3f1e3d38U, 0x3e9d291015aa5202U,
  0xdd13392a27c7b84eU, 0xf00d0ab9c6c5243dU, 0x620f0d21af19373dU, 0xecff6bca50a3dc35U,
  0xdfc4e1839ba0bfdU, 0xaa4ef769ffcac0afU, 0x3aebf2fa16c21100U, 0x1991de29d9371f9aU,
  0x2ece0edfd3b4ad2U, 0xe713de52ef22e8beU, 0x190ed72c2dc2a3bdU, 0xa3e60ecfe7d7e8e9U,
  0xaf65a1380953552eU, 0xd3332b161a26dfceU, 0x60babda91dae4a95U, 0xf2c7f052c3b546b0U,
  0xff4de8432ae909b3U, 0xbccce8bc0f09b9ecU, 0xd51babccbdaa00d8U, 0xb3a85fee3bf7df04U,
  0xc1085cf2b9bff104U, 0xe9cee7e4d70bce3eU, 0xdbbc3d454fec52dU, 0xbceb0ac02cb70ff5U,
  0x3dc50d37ab462238U, 0x641c3d2003dac756U, 0x2af153901d3500aU, 0xa7dcbab8d9bd3930U,
  0x39220107fceb4d09U, 0x1a034a3e2aec3038U, 0xce4ab34237dce805U, 0xd8e0c1e431ed51b1U,
  0xaeeec10eb453ecfdU, 0x1723520af821eadeU, 0x4dbc4fd8e43bdb10U, 0x7bedfdddbb32df1U,
  0xd7a7000703ff09e3U, 0x2411c5bc12bdcbd1U, 0xb527a04ee2aa432fU, 0x2adb42bef40c3c25U,
  0x3317439f4ccdccbdU, 0x3e0819a024c0d6c2U, 0x451d57baf7ea49d2U, 0xe0bf460e3e30d6ddU,
  0xc607234adefe0a08U, 0x38e0174b32dcefe1U, 0x2834dafbb8db4fa7U, 0xe101e0faa22840abU,
  0x3dda35fbb4a40bbU, 0x26a81c9d27c52cc4U, 0x2e12b1f61ab24438U, 0xb6db1aeceebb3f4eU,
  0xb9b0fc3e30cd43d4U, 0xaac6e009f344a30dU, 0xedda2ddebb2dfe2bU, 0xf325f7b0e2bdb23bU,
  0x2333b8c23e27e13fU, 0xd9e7eff4e8224ae7U, 0xa3cade030ad6d722U, 0xe131542d25facb40U,
  0xdbebb22809e803a2U, 0x473cb9e5c628290cU, 0x3c3c31cf053459c9U, 0x9d85bf0bf43323bU,
  0xde9538a3d5dc1742U, 0x43dbd9ed064da82aU, 0x301cac1738a5adcfU, 0x1532eda9c0e8fedeU,
  0x8bd17c5d1b6b867U, 0x33eca6be5124e122U, 0x2032c00132f61629U, 0x53111c2b3e450ae0U,
  0x7c42d29eb242953U, 0x284108ef35da5725U, 0xf3473856e6432fb8U, 0xe4cc0d654b280027U,
  0xee31f2a0b52624e0U, 0xcb3a14d9bd03399bU, 0xc1ae324e75810c2U, 0x1907c1b9a1113b22U,
  0x19bd300c0448f002U, 0x2c29cbe0bbfed901U, 0xfbb123f80157f5d3U, 0xd4d61e1cde5643ebU,
  0x5f40ffffda0bU, 0xb39ffffaa94U, 0x3a0600000391U, 0xffffdc4bffffd927U,
  0x4446000022aaU, 0x26bfffffe470U, 0xffffccfffffff81dU, 0xa56000035ffU,
  0xffffc2adffffbaeaU, 0x6eb00006032U, 0xffffc31b000038d9U, 0x493c00006e1fU,
  0x1f9bffffddc6U, 0x6564ffffdaa6U, 0x23b7ffffd803U, 0x6e27ffffdc5eU,
  0x9ac8ffffc374U, 0xffffb7af00001eefU, 0x1314ffffb1aaU, 0xffffa8ceffffc51aU,
  0x3c4b000053b8U, 0x135300002adbU, 0xffffe03200000b26U, 0x686f000093c6U,
  0x622700004b55U, 0x2aca00000299U, 0xfffffb9500001cbfU, 0x6e59ffffcf9bU,
  0x2f6fffffa58dU, 0xffff97f0fffff921U, 0x6fd0ffffc86aU, 0xffffee12fffffa24U,
  0x366600005547U, 0x3de9fffff89bU, 0x5d750000069aU, 0x3941ffffb3afU,
  0x577000004a34U, 0xffffd12a00005c1cU, 0x647effffc01dU, 0xffffcd9b00006f1aU,
  0xffffa96f0000161eU, 0xffffcfe100006371U, 0x12c6ffffd448U, 0xfffff2d700008644U,
  0xffffc36dffffc701U, 0xffffe391ffffb418U, 0x1dc8ffffdef4U, 0x33cc000028deU,
  0xffffe45b000003baU, 0x71ee000014a9U, 0xffffe854ffffe6e9U, 0xffffcb2700002c50U,
  0x3578ffffe1f0U, 0xffffe249ffffe8a6U, 0x645a00001329U, 0x243e00000f60U,
  0xfffff3bb0000192aU, 0xffffbe7cffffc543U, 0xffffca9a000053b8U, 0xfffff79c00001ac9U,
  0xffffd8cf000024c0U, 0x2ca90000561bU, 0xffffb4ffffffa007U, 0x1a37ffffc9acU,
  0xcbba0f25a5a5ac4cU, 0x1a34c714f540e59eU, 0x3537b9c6420f501cU, 0x35cd36671e1727b4U,
  0x40114bd0b74fc4a4U, 0x171f2a23af9920f6U, 0x3e4cdd8900f4e89dU, 0x3599d9fc0919e749U,
  0xbcb3df16f4630520U, 0xf4511742ccb4e444U, 0x1f22a7972ed3e28fU, 0xcadef93cadd03202U,
  0xdc32e354dc00bd36U, 0x1b4607fbd1c62448U, 0xd4d16ccffa28bda5U, 0x41a30bffae122bfU,
  0xefef3398074ceddeU, 0xfcc1f136102c6efdU, 0xc2e9db5c5b1e4237U, 0x2af75af43002bfccU,
  0xc340d109f14e1714U, 0x360b16e0473fcdc1U, 0xbcdded2419a6f82dU, 0xfd13e413ff04c2cdU,
  0x110df6ff38b636c7U, 0xc5feebb9fe03e4adU, 0xfe4e2a4600ac3eb4U, 0xf1bd07cafdb50707U,
  0x33e257fa2d1c21ecU, 0x6bcb9c4d9c72b54U, 0x83ec055ae1120c4U, 0xbb98d9e2fde3ab13U,
  0xcce10dc220fb43b1U, 0xfb35cc01b3f83650U, 0x6df551daf5c8f2a9U, 0x251ade11ca3ee8faU,
  0x4a32ef4a2ff9f3e3U, 0x3febfdf4dbea0a50U, 0x203ed5db1a2e0ffdU, 0x3e00f7da57abf0c6U,
  0xd1031bf74a3541ebU, 0x49c2159402e3cc25U, 0xd1da01c83c47c7fbU, 0xebb317f64b08b24aU,
  0xcbe1b917ab35f0a9U, 0xbae512d961e8400cU, 0xcedb56b7bc20d929U, 0xf90df70717ce0ed5U,
  0x4826212d0324cec6U, 0xf1c1fa58d1b1fe33U, 0x2945b90d5dd12be1U, 0xf22ba759541f1541U,
  0x43f722d5fc8eddf5U, 0xe332424c97271bbfU, 0xf2d9e84fabf8bf30U, 0x59ff4551160131e5U,
  0xfb3bd6465ba7c2efU, 0xf289cf231233e6a7U, 0x9eaff223dedd5dedU, 0x463a25f1eb9e1207U,
  0x5425cb01b5274125U, 0xb046b409cea9d13cU, 0xba17af24065c3636U, 0xc924bc332023cdfdU,
  0xcaad2ec991f3eb8eU, 0x25e00bbad94b3e10U, 0x55fbb420a768fda5U, 0xae26b646bb30a90fU,
  0xcbeadb533e0fc92cU, 0xd4a5c7f6e1b02a0eU, 0xfd20472cf9271d38U, 0x57f65e09a100dacaU,
  0xb938e2bf2fec1052U, 0xfdea4b16e902353eU, 0xb411f8daddd4a5e3U, 0x3d19c21fb4abd8b2U,
  0xcaf04b402205e3b8U, 0x3bfd362e1bd7bffeU, 0x88a6ffe23b01ce3aU, 0xabdb1ddd312d2a7U,
  0xe65317f1330e1537U, 0xbaf5c928b6e246faU, 0xe24694e0254ad043U, 0x19ad48cfdb1d3de3U,
  0xcab41d06c340c007U, 0xc0ede41f2ddf2dd8U, 0x90443c4e01b273cU, 0x1a1746e421fe1533U,
  0xdccddc3ed70114e2U, 0x11c737d9d696a603U, 0x25b9dc0b5217c650U, 0x313becc49f1421d7U,
  0x61a8099542bdec2bU, 0x49d8d4c3a6aab048U, 0x52081c17501e2e0fU, 0x2ea60503edf7c3d6U,
  0xe809200132211824U, 0x5ad6143dc456303bU, 0xaa1e02f330ddc4b4U, 0xf6fd1beb12b7ce0eU,
  0x3514d936b533bf0bU, 0x37c62556b2f947f4U, 0x3bb33f0d3dd20ae1U, 0x4115facbb8f64f36U,
  0x2e59f9ed4fd50240U, 0xe8bbbc51d8a6d95eU, 0xba33e1c8e72fba3bU, 0x4e48b52123c6cdbfU,
  0xdcc9d5e3ced63461U, 0xff6fc35fd2c8d644U, 0xdbbc4eb15dd8452aU, 0xa57ea36e94825cfU,
  0xe93428bef3a303faU, 0xdcc7a2ca51081846U, 0xc766dadd13de24e0U, 0x4127c62754a63521U,
  0xa811f3e0eaef152eU, 0xde0ceb2cfed0401U, 0xed23ebf53312ccc9U, 0xcad8503ed20c26ebU,
  0x240dc947cc49a939U, 0xd8f7b763c0412b0cU, 0x104d0e0bcad7dc6cU, 0x395531c0d9282eefU,
  0xc81e2921ccbdd4c8U, 0xe838e70f27f7e405U, 0xc20ec3082fdec537U, 0x1c271cc63127c540U,
  0xd135c502f1a805b1U, 0xb549b60315f517d2U, 0xf3b53be6434edfb1U, 0x31f7a8bebd4dfa99U,
  0x2725ffe61c0dcbdaU, 0x4f106a36ff1dad03U, 0xee461e215e220c1U, 0xba1dcc541b2812a0U,
  0xbd37ee1bc6ef18b7U, 0xe31543655de3e428U, 0x251c44c29562f425U, 0xc3c34e07bc523d3bU,
  0x4c3a37e246350a46U, 0x5e104cbcb4d05833U, 0xbdc8352aec0fd02bU, 0xd82d011ae6351adaU,
  0x152dd5f4f71d0f1eU, 0xcb012938f7bf02c3U, 0x1ce9e20cdd0a2f2bU, 0xfecc08f53327062aU,
  0x20e91b19ceffee10U, 0xbdc0e0c70e42d1bbU, 0xc539e4d5c3d0d7feU, 0xc6e5e6bc0acfca32U,
  0x2712dfcbba29dab9U, 0x6c1fe0335e127f0U, 0x21eeea1733c8182aU, 0xcefcd10dd508cdf8U,
  0x321017ebc6c5172eU, 0x8fed51ae91eecf4U, 0xd8d2d6c8c7ded30eU, 0xd333dcf2102919f5U,
  0xec24c4f227dd1509U, 0xc140fd00c132420eU, 0x3939fd2bcde4d440U, 0xfcefe6d7301b1ad5U,
  0x2cd71c1c14ceccf9U, 0xe4e4fc01dbfc1acdU, 0xf314dfd221f241edU, 0xc2230b09fd382535U,
  0x181afd0b302ae919U, 0x51d2dfa0b03f518U, 0xd5251dec1514f829U, 0xef34ef1c10e7e03cU,
  0x15e3d1c919d102ddU, 0x5381d082c053325U, 0x1d21c9e4cc0f03e4U, 0xe4af091dc9bfc7cfU,
  0xeafbc624e54442f8U, 0x27f9d11435f7c22aU, 0xca2f3eda14c72df5U, 0x171d042bced9d5c4U,
  0x2b1a273130ee082bU, 0x1ccf22cad9361027U, 0xec230e2ae1fafc02U, 0xf8e92ce32234f3f1U,
  0x2619162fd900b9fdU, 0x8e326c9b4f5ca40U, 0xf5d43c0c3dd74437U, 0x2df30f46e2e4d018U,
  0xcb25d5ef2acf1fcdU, 0x1be7e33322ed12e4U, 0x13281ef402d6f728U, 0xf8f6d1e5082fff2dU,
  0x1bddb1eef137bb27U, 0xf2391eed11c4c324U, 0x3c09fd17b8332fa3U, 0xbf38bc09081bfadaU,
  0xdcee26f5abd940e6U, 0xceefcbbfbfe9d7feU, 0x3cdcb21ddd302243U, 0xccebc71dc0cd233fU,
  0x2f06f9ba2ce2de49U, 0xcd2cb00d4fd0dd29U, 0xf615d83acfd5e718U, 0xe6eed8cefc30471eU,
  0xe93ce9dbe8f72101U, 0x271fe22d5abbb8e4U, 0x2ef333e6c6ddff46U, 0x35e9c020eafc2803U,
  0x12a7fc04e13ce61dU, 0x15da172df9efd10eU, 0x36484521aedbf4d3U, 0xcea156ebedfbf1dcU,
  0xac4ba08d5d0cf34U, 0xeed7eee3c6dedb31U, 0xbb4910df123d312dU, 0xd0e235f8ada7b00fU,
  0x18cc0b32d7b41833U, 0xee16fcb7ec40c21eU, 0x1e0df5dcef10f2c8U, 0xc844d1240e1fd5e3U,
  0x41fd134c3d10c2cfU, 0x2ac7aaa50d19e4faU, 0x202dce50d219cf29U, 0xe00d3749dff41cf8U,
  0xee04d1d1c2db22d5U, 0xcfcc240bfc27f3f3U, 0xf3472037c81ad01bU, 0xf9c1041c062ce5b5U,
  0xddcde4b843eeb302U, 0x8eb13ff12c8bd2dU, 0xe52ccfcadfe0e1cdU, 0x37340dd0fb08fdefU,
  0x4071c281bbcdd27U, 0xb603d3ff3cbfbdf2U, 0x17e4302d1b313751U, 0x2f09d2e9dee550bdU,
  0xd31dbf1205fffaf8U, 0xe3f3ecdcc2e520dbU, 0x323429adc2460a07U, 0xd1319ffc0bccfebU,
  0x3cdbd43c341dd53aU, 0x3bbedeece2c6f3d9U, 0xc7b44cbbf108ef4cU, 0xd3ebeb3019e9ef04U,
  0x441ebb2db63b1daeU, 0xb5ef3fefc5ebb81aU, 0xfddadf2bbb38fcfbU, 0xcb4735edb6153c11U,
  0x43173ee6cf03a2afU, 0x1ebed8d9e8cef9c9U, 0x46ca60c55feab526U, 0xbbcff1e8d212c8ccU,
  0x44b62f20221c2129U, 0xc42fc62956091723U, 0xe5fbfaf4bfdc5027U, 0x264bda3032c82f3cU,
  0xac270bcafc22e7ddU, 0xa4d0d336c9e8140bU, 0xc426deeec09e31efU, 0xcd438534c523e11U,
  0x211ca1c4df49c32cU, 0xc726ac1f45e3f6d3U, 0xe7e0e7bbc4301112U, 0x1f3bb10d0abc237U,
  0xb4f43fc1f8c52703U, 0xf5ba2b31d7cb2dbdU, 0xc0061b31f12b1d0eU, 0x2de2ca07ecf907b1U,
  0xd40d00cd34fbbec9U, 0x3d1eacd71e2e3cc6U, 0xf136bd10042c492cU, 0x2ad4f4cd12ff0aefU,
  0x2db4e8dfc730d21fU, 0xb8cddccb182e1311U, 0xd5205de95304aa23U, 0x3546d6d4bce9f001U,
  0xecbdf63bdfb02d48U, 0xbfd5ff3d1bed230fU, 0xce3345c9cc430f18U, 0xa1113293108e7ebU,
  0x135218da000bec4aU, 0xe2ce1339c650c600U, 0x11e1fc2bf8d339fdU, 0x3f54be09c9c84eb9U,
  0xe5e4150cc9f00cb2U, 0xfe102e0def4cb7f5U, 0x20ffc6e3124a59f9U, 0xc2a6e2253149d7edU,
  0xbb9d4545d6efe3d1U, 0xad4a3433a7c542edU, 0xd6074ce2c6df2a0cU, 0x31410d84e3b525cU,
  0x160be0a21b3ab400U, 0xadfda9f80618c3c1U, 0x39ad0fe7adb8671dU, 0x5eecb64fe02d63dcU,
  0x208bdeb3d4c624aU, 0xf74cea5fe3ff3556U, 0xa70b371eefe0e7f1U, 0xf30c49f7adb622f7U,
  0x3752c53116ed0101U, 0x23fbb217b1a19b6bU, 0x36fcb128b521dfdeU, 0xe2e71109dcdd2d37U,
  0xbcd2cea0de43dd41U, 0x9d34f7f9f94b3497U, 0x21d4bf312e7e1c6U, 0xb72d4a3da0f11f21U,
  0x2aa227c4a3b100e0U, 0xd35721d29d3b1c21U, 0xe84839172bb93e08U, 0x5c28c98da0ded329U,
  0xbe30b0fd14f9392dU, 0xc062a174000a816U, 0xd3ce00cdace04376U, 0x15393f62c4baaecU,
  0xcee9b3b7cc0ee524U, 0xe752afec583e1e5bU, 0x523aa109b61b57c6U, 0xfca4519a27c3c5acU,
  0x1ac93f385a22c1eeU, 0x184988e9bd1209f1U, 0xab50f1f44dadd30bU, 0xc6d30cdd09dd67d6U,
  0x49711e417104491U, 0xbc76b7bfd49f29b0U, 0x36ea03339e4f4827U, 0xbed8fac00722e845U,
  0x34a91b0fd0a5c5ebU, 0xff1a18760e534e3eU, 0x183236d36efceaa7U, 0x5af72db4fefd9aebU,
  0x37d9e41f15083ee9U, 0x14c1ce156952dec2U, 0x6f2d32a4b1cd1de3U, 0x9650b231424f47f6U,
  0xf3cdf7363038352cU, 0xdfcbfe461ecd2709U, 0xeb0b50281e3c29d5U, 0x150b04d0eae00c01U,
  0xc9d512fa130deaeaU, 0xe538c8e9fbcfeb09U, 0x2ebb211a1103fd3fU, 0xe820d80dcf16e5d3U,
  0xead935e2d9c1b42dU, 0x9fce6f0d324f7c5U, 0xe0dbbdfde904f101U, 0xe245253705d2e1cdU,
  0x3b3cf4e2aaf2e1f6U, 0xced43113310b8f7U, 0x3b3b390d13e6493fU, 0xed2cf00ccee152d6U,
  0x1813cdd2d615fd26U, 0x1f38f0c20917d71fU, 0xe1e743bfc137f440U, 0x3a02d1d8141ad8f6U,
  0x37220be0bc150a27U, 0xe3f5d92421fe1df2U, 0xfd162b120c0d05eeU, 0x1627fcc3f5bc2331U,
  0x2ff5dcd30f3b3ec0U, 0xb4f8f4c2222bdfccU, 0xebbada0ebfd00239U, 0x1df5c4c5d7f2ef35U,
  0x460eca223547f1c7U, 0xd837e6d2150ccebdU, 0x10fade4809cc1d03U, 0xce21fcdc0c191cfbU,
  0x73fb13502e0d8dcU, 0xc4d2112be0211bd3U, 0xecd04b06c4b90043U, 0xfe2429dedcc3e821U,
  0x39daedcede3bfac4U, 0x1118f1e23cd910beU, 0xe3333a36d6c5104cU, 0x9ec43cb30e8dd06U,
  0xd390adef7f2b737U, 0xc7cdf903d0f743c2U, 0xd9f9f343e3bc14ccU, 0x32d610fddffe4507U,
  0x1241f6e93dba1c2aU, 0x319e1ef0a192742U, 0x23032f3c3a3f0cf0U, 0xdb2c1a103a19efe6U,
  0x3eebb54d4fccea34U, 0xdfecc1fff60b4c2bU, 0xba22e71e1ff6b6eeU, 0xceca39c3def01dd6U,
  0x2a1e0a04b8570b1dU, 0xe1cd34fc1cfe02cfU, 0x43d228e9fbb2ca2bU, 0xffcb53cee10ccd02U,
  0xef2420cfce36e805U, 0xf9f6aa18e0d8f043U, 0x2f5ae30c532934d4U, 0xe9f50f1fc8ccc418U,
  0xff2ee133abe1919U, 0xb6cbc1e71dd41ef9U, 0xffbfc3272f212219U, 0x2be4eae0cfee3ce8U,
  0x37042606b4f1cd49U, 0x1a35b21035032925U, 0x28d3460b343cc616U, 0xf2d7dcddb8450815U,
  0xffe1e3edfbeeb8c2U, 0xd941cb1d224b1d07U, 0xf8d0c9390c0bdeeaU, 0x190ee803fe00f945U,
  0x28fd0302072dd2c4U, 0xc1f2b7d7bfccd217U, 0x1dbb4cdbc918e2bfU, 0xbe2eccf9e3f9d20fU,
