/**
  ******************************************************************************
  * @file    network_data_params.c
  * @author  AST Embedded Analytics Research Platform
  * @date    Tue Feb 18 17:01:17 2025
  * @brief   AI Tool Automatic Code Generator for Embedded NN computing
  ******************************************************************************
  * Copyright (c) 2025 STMicroelectronics.
  * All rights reserved.
  *
  * This software is licensed under terms that can be found in the LICENSE file
  * in the root directory of this software component.
  * If no LICENSE file comes with this software, it is provided AS-IS.
  ******************************************************************************
  */

#include "network_data_params.h"


/**  Activations Section  ****************************************************/
ai_handle g_network_activations_table[1 + 2] = {
  AI_HANDLE_PTR(AI_MAGIC_MARKER),
  AI_HANDLE_PTR(NULL),
  AI_HANDLE_PTR(AI_MAGIC_MARKER),
};




/**  Weights Section  ********************************************************/
AI_ALIGNED(32)
const ai_u64 s_network_weights_array_u64[48334] = {
  0x183ef0efe9e5ffecU, 0xbdbeddcf7112de1U, 0x12f6e70f18f1d9f4U, 0xe4f223e9deecd9f1U,
  0x3a1df9feee0609feU, 0x211303033aebfb04U, 0xe21211efd5ef20dcU, 0xc1dd0fdf8ee09f9U,
  0x13d210eae5031bf0U, 0xf51931e311fdfdfeU, 0xe61f012d220309f6U, 0x1fe2f1528effd32U,
  0xe104f7fd101f0de5U, 0x23e726dfdaf10e0eU, 0xf6f2dee7ee1e1606U, 0x1f23e309ddf0dff3U,
  0x718fb0ee6190ff0U, 0x60cfb07030503ebU, 0x14f5f8601e3a2aecU, 0xee0e14de12f2f007U,
  0x2815270326462812U, 0xfdcf12f8c9ffe1e2U, 0xff15fdf8dbec0b10U, 0x2f7f7e5d5e50bdeU,
  0x6eae8f5f1e2ec16U, 0x6d62c06e8f616d4U, 0x350a2c2631f8f9fcU, 0xe01502d628faf206U,
  0xf4fe02f80b2027fcU, 0x49fd30002f0d03dfU, 0x505fdedf409ece5U, 0x19e9ee11f0e5e60dU,
  0x1cfef7fb350d1efaU, 0x29eb00feec3613f0U, 0xf2fc0ef81628d7e2U, 0x60a06f006f00af7U,
  0xf1170e05fc041103U, 0xefae3e1f502f8e3U, 0xe10406e701e70bfeU, 0xf1dde20cfd12e3e3U,
  0xe706f6f8f8e90afcU, 0xfbdf08f003f3f022U, 0xf331f80c15ddfffeU, 0x39e5251afa08f61aU,
  0xe5edfd0800f318f3U, 0x34ffe1e0fc0cef0dU, 0x3f8effd22ff08f2U, 0xe27f2f8e506dd11U,
  0x1df8dd03f1eef30eU, 0xfe2e020c11f2ed16U, 0xf02119f815f3d709U, 0xe5e5e22228fc191fU,
  0xf6e3f1140afa1aebU, 0xf7fd1010050302f7U, 0xfae614f40ffcf628U, 0x32ae3dade01fd14U,
  0x50e17211a11f320U, 0xfeff70f0c071202U, 0xfaeceaf60d1ef704U, 0xf116e10406f0f7e9U,
  0xea17f70be611f50bU, 0xf1fbf612061ee60bU, 0x1b0e0bfee3fc0ef5U, 0xe3f9fb0decef0e19U,
  0xf0ec150ee3071ce4U, 0xf91404fcffde0f12U, 0x5f3feedf4e508f8U, 0xe70ae91b0ee8f21dU,
  0xf3edf50cf20000e8U, 0x1506f01d0ef41100U, 0xfb00e911162ee206U, 0xeeef7f324fbf103U,
  0x9fc231bf7221425U, 0xe07e42509e91bfdU, 0x215fc07e71cfe0fU, 0xf3fa01ff08181611U,
  0x192de41f08f3ed09U, 0xeafaf5fa001f0226U, 0x1606f3fde4f5e1fcU, 0xde01f809070f06f6U,
  0xf6050d0a3724331eU, 0x41fffdff05261af0U, 0x408fadfdffeef1cU, 0xe7161e0fededf8f4U,
  0xf6f6e2e7e6e6fd10U, 0x1a020d0d0ffffd0fU, 0xf116fe161d0823ffU, 0xf326fdedec282edeU,
  0xf809dadb230017e8U, 0x10fc24dde902060bU, 0xbe500ebfad93918U, 0xbf3ef1bd904220bU,
  0xf1eb08f91dfde604U, 0x1e0beff7f60d031aU, 0x15e7e714f8f8243dU, 0xf8060a112413f2f6U,
  0x190ce7ede32015e9U, 0x2a0ceee0dae2fde6U, 0x3be5201413f000e8U, 0xf5f526ff10ea071dU,
  0xfe0c12f3200fe2f2U, 0xf320f4ec35f4081dU, 0x3052f05eef3fd04U, 0xde08e8fc07fcf2f9U,
  0x1efe34e3f00c3611U, 0x130ed7def715dd08U, 0xefe29fedd04d7e7U, 0x151c30130fef201fU,
  0xffd81213f13104ecU, 0x12ee21ddef0b1511U, 0xdeecfef5fb1e06f9U, 0xee06d9e9eefce8e6U,
  0x502daf2da00e3fdU, 0xe01b22f1f30a0a07U, 0xf50f041209d8ea04U, 0xe806fe121ee315f7U,
  0xb150e102d05f0f3U, 0xf63af8f211f91321U, 0x7031fda1f2d200cU, 0xdc07f118051afa26U,
  0xedee34f8f80a0cfbU, 0x23f308030bded8eeU, 0xfadc2c060b07f1f2U, 0xea1c153303fb12ffU,
  0xf42ed2e0f21a0beeU, 0xe5de38fad023e311U, 0xf202ff1027f9f219U, 0xf1da0510fd24100cU,
  0xf1f9101a020a0e22U, 0x10b0b0a07141d11U, 0xf3f7feeee3dcfd15U, 0xf30cdfea0a0cf900U,
  0xfae9150ee500f4eeU, 0x9020612f816f615U, 0x1f0812ec23f013f8U, 0x2eefdfc1ce702feU,
  0xfb1deff30705de05U, 0xd0d06de2601f5f7U, 0x5f209e7e6ff3010U, 0xf5070520daeb11e9U,
  0x1d1f301213f1fafeU, 0xe30ff7faf8192808U, 0xff142502f7e42009U, 0xeeed1cfb0bf10cfeU,
  0x1915f8fbf3f2ed00U, 0xf08fdfbe629d917U, 0xd161311f8dfe1eaU, 0xf3f201fbe50f3008U,
  0x14eeee0315fe18f7U, 0x162feb0a15fd0402U, 0xdfa2207fffb1b02U, 0xdc05051e0f21f41bU,
  0xe6f6f1ec0b0deceeU, 0xe07f009e4d6effdU, 0x51f24f806eef10cU, 0x30ea30f53b0c0c03U,
  0xe6fddaf4f416ebf3U, 0xdde320dde6f1ee01U, 0xe6031e18fbea0217U, 0x1c020af5f9fdf8f3U,
  0x17f8f011f4f00a1aU, 0xd09090f131010f4U, 0x131f0003fe1901fbU, 0xf2f41306eb0c1515U,
  0xfa07fd01ff100e08U, 0xf706f4f111f6f0e5U, 0xfc0b0703ec1814ffU, 0x61803edec030302U,
  0xda030cf9ff2104e9U, 0x220080aeefe0d00U, 0xbea00f304210009U, 0xcde0c1d030a1a20U,
  0xea0d02e911fa0306U, 0x11ee1007150e0512U, 0x113ff32ff031315U, 0x3070ef50602f725U,
  0x15f7f405faee0a0cU, 0x3bdada0a040be8feU, 0x6080a1aec02edfeU, 0xe01b02ed07dbf804U,
  0x160be9ef05fd1befU, 0x8e5130df409efe1U, 0xe01dfdf3f3f420feU, 0xf60e02ebf30fdf07U,
  0xf0fbfeed19eb11eeU, 0xf1e90c0ad2e31422U, 0x91d11f215fc02e4U, 0x33f42e1313ee13f4U,
  0xfc00f8e2fef5ff0bU, 0x58d9ff0c020dea03U, 0x1505f616240204f3U, 0x2601e1def8fde6eaU,
  0xebf3391a1beeee2dU, 0xecec0b0f20f0f3f3U, 0xe105dcddf9090a1dU, 0xfa2cf10211032e0bU,
  0xe4fe0d0bec0a07e5U, 0x6ddfd05d801f109U, 0x5e7fd31ebe6f800U, 0x15ee43fceae705f7U,
  0xf606e0f813f1fbf9U, 0xe8fe0b17131427eaU, 0x11f1ed0401fc23eaU, 0xf7f0f1e5eaf9efebU,
  0xfaed080dfced0de7U, 0xd01ee4082af51300U, 0x2b0eecf7f4ee05efU, 0xeea031dfa0c12feU,
  0x21fb0006dff50ffeU, 0x707df2426ddfffeU, 0x172bea0723e60812U, 0x380fece4f4060005U,
  0x1d0221d916fcd8faU, 0xdfda0ad4fe00f3e3U, 0x191bdb1301e00025U, 0xfc0b0c14ebfc1bf4U,
  0xf6d9ee071d0e1101U, 0xfcea301df8fa0edeU, 0x3f14fef5e2e91bddU, 0xeb030d081119eaf9U,
  0xe4e01d0410fcfbe9U, 0xb37f31b030d09e5U, 0x28f0f0f4ea0bf20cU, 0x9d50a17e315f107U,
  0x20f4d5e8d2f41ff7U, 0xe81209f4e808fffdU, 0x2b1034270bebd9e4U, 0x5e4eef513ddea18U,
  0x15050e193efcf5d3U, 0xe7fd0cf81c05fbf7U, 0x191903f9050de216U, 0xd202da1610ec0ff9U,
  0x1ff033f519281718U, 0x4ed18ee02f1f106U, 0x2290f180b14fee4U, 0xdc1b19151c080edfU,
  0xe70beae7f63715f5U, 0x18ff1b0df9fe0905U, 0xdaf8f6dae8f709daU, 0xfee5f717fbf426f8U,
  0xe3e615fdf4223ef6U, 0x1efef4f4e5e8f705U, 0xefe014fa07fdf419U, 0xa04000c0f0ae8e8U,
  0xeaf8f50306140203U, 0x132704171eff2811U, 0xe701fe0e0dfee7dfU, 0x341806fb15f8ffecU,
  0xd03070b001f24eeU, 0x16f111f1f202340cU, 0xe817f4f601eaf60aU, 0x17f10503ec0c08f6U,
  0xf0ff023d1600d3fdU, 0xeff8dd1105e5f008U, 0x3fff51a121cf0f9U, 0x11efeefe0e00dbU,
  0x240bf1e417e921e7U, 0x6f509071dfbfcU, 0x120ffff1fd04edf0U, 0xda06f5fce1030ff8U,
  0x1607ff03dfea0718U, 0x332f8f804f008ffU, 0xeef71af011ff0de9U, 0xd6f5fae6101ffe26U,
  0xfef3f9dc2727f4e2U, 0x2703eefd1301ee06U, 0x30005e7070cf9e5U, 0x28f5252d10ff0b0cU,
  0xf1f8f80314131010U, 0xf4f302fef819ecf6U, 0xed140f0225ea211bU, 0xf3f40bf20c00e00aU,
  0xcdff36f5e0edfef2U, 0xfbfde3f0f7df0d19U, 0xd4eafceb0ffbf429U, 0x20fde4d9d7341807U,
  0xecfffee9f3fadef5U, 0xe8e601f5e2fb02f4U, 0x5e6f11ff51eedf7U, 0x3a084118f7fc08cdU,
  0xfafef41c04d8ff01U, 0xcf0d0aef252225f4U, 0x14f006f800e10de0U, 0xf40bd6ecf10bcfe6U,
  0xcea1f511fdaf6f2U, 0xf721e9f726ce33d6U, 0xf51ae9f00ceee502U, 0xfcea0309e81fdfe3U,
  0x9060402dd1504efU, 0xf0f1df08f7091518U, 0xf1213b2120ee17f0U, 0x8edf71d04f9fb0fU,
  0xf11202211bf503e5U, 0xfdfdf6edf4fffb30U, 0xf91528eef4ede501U, 0xebf7f2e8f9ff0a02U,
  0x8134514f7121311U, 0x10106030df3f0efU, 0xd8f005f21518f6faU, 0x9420a18fcfa02ebU,
  0x16f8f1f6182efefbU, 0xfcfd26ea00fa2300U, 0xde030f0900ef05fbU, 0xe5ed240cfc1a3000U,
  0x4111107fbfa28e6U, 0xecfcf7f8e606f612U, 0xe71712030ef9edf3U, 0xa050c1219151603U,
  0xefee0616fdf5e8f3U, 0xeddf91de20b0006U, 0xe010ff6e8000bf6U, 0x1719251526fa28faU,
  0x20fe1e0a01192315U, 0x4ed2005ff1b2f0eU, 0x118e9fd1c11ebe1U, 0xfd210df009f0ea02U,
  0xbd90c022df6ebf7U, 0x111fcec0af4f407U, 0xe16e602f816e608U, 0xef16fce9e9fb08f0U,
  0xd50ce2ea04090012U, 0x27d9e0dacd2b1105U, 0xde19edda16e3e311U, 0xf7f803e5f2f5f40bU,
  0xdff0faf3dee206f8U, 0x1c6702ec2eee00f7U, 0xf117fd05e61b38e6U, 0xe3fde00325040cf2U,
  0xe416edddee02e205U, 0xb0b040d03e8d001U, 0xdf518000e08fc04U, 0xcd711510b11322eU,
  0xfffc04e400fae2f8U, 0x5dbf0dbe0f90cU, 0xecf80814452c250eU, 0xfe16030ff0e6e7f9U,
  0x3afdd6dae9e6f7d6U, 0xe730210d02d4df2bU, 0xfd1cf217f7f5da07U, 0x7ebe61dfdf1ee2aU,
  0x109ec2a16001d10U, 0xf2f8f51302f8cedcU, 0x2fbffedf308f33dU, 0x3fae8f4e61f0f2dU,
  0x6fdf1ff17010429U, 0x1bfeea0714d72409U, 0xff13ec120d0b11fdU, 0x8f3f2d9020bdee0U,
  0xdc26edd5e1f2fd19U, 0x28f9e0040740f91dU, 0xb0df3ebdcf8eff4U, 0xedeeff0ddc0f12f0U,
  0xd71305e43ffbf30cU, 0x13fb0d09103bf7f4U, 0xef12f0f0070f00f2U, 0xf41bfdea0df9fc03U,
  0xeef5050efdff1025U, 0x2301e011ce506fbU, 0xfa120b0f09170d08U, 0xf40a030d1521f70aU,
  0x11d0206fc1df215U, 0xf610f8ee10010908U, 0x15e6f5ff150e0913U, 0xae3ed06ff100605U,
  0xfafd15e5e9f908e6U, 0x417f9eefceff307U, 0x6031a1530fb282bU, 0xe50908f205100a1bU,
  0xcf13b0742dde53aU, 0x1fe050a44170cd3U, 0x3eddaddfc3a32ebU, 0xd80604dddceb13d6U,
  0xeaecfffaf5180311U, 0x19d825e8f501edf0U, 0xffddd5141cf4f7e5U, 0xf904330de4e7f4daU,
  0xe348fbf3ece5e5feU, 0x4cdf10ef62efdedU, 0xf2f1ef08f6d42c1bU, 0xe505e6c20617e9e9U,
  0x24fb27d8e9f0e1e9U, 0xe4e810dfeafbcff4U, 0xaf41c1535051affU, 0xfa091d1510efde21U,
  0xe6f1dbeafeed0befU, 0x9fe1de1eafbdf05U, 0xff04e8df01e706d8U, 0xcbf21911ec061ddbU,
  0x1204df02f2dcfe06U, 0x1f66fef318040002U, 0xf60812db080416ecU, 0xfafdff062c13ff21U,
  0xe7fa12e2f41cf80aU, 0x623c2faf4f6dfe8U, 0xc05dfec0dfcdfffU, 0x14ea1153180a3612U,
  0xf213d527d7f5cbecU, 0xeee8110addebdd1cU, 0x9d7002d1c29ed0aU, 0xf2e315f51002e5f7U,
  0xf2121a1024f1200fU, 0xaf313fe050747ecU, 0xe303f4f60e04fbffU, 0x13f61a13fef6e9ecU,
  0xef007eaf0fe12f5U, 0x9f30efa0be61a05U, 0xfaffee0b11ea06eeU, 0xc33fbfb04ff23f7U,
  0xd507eb181cfc0605U, 0xf021de0f1211619U, 0x1c00fb1b00e22203U, 0x9f7fd0fffe9ee21U,
  0x31a0c0d17f0eedcU, 0x5def616ea071be3U, 0x1de2f612f814fe21U, 0x1b1ee8020712fe00U,
  0x3fdee1ed81826f9U, 0xeb062b0eefec2bdfU, 0x6ed1b210c07f20bU, 0xf7f7fbfe10fef0ffU,
  0x290fee0be90f0516U, 0x71ffb0c160f2709U, 0xff05ff00ecfc03e7U, 0xe911e70bf118f2efU,
  0x5fd1606e1ff09faU, 0x1b1018f3fefef1U, 0xfc28f51d0efdfb0aU, 0xf4e30116fdfc161aU,
  0xb0df6e71cf3fdeeU, 0xaf901140707e904U, 0xf8f6f52cee101728U, 0x9fe031411f80b14U,
  0xf5de15fb00210ce7U, 0xd9290329f1ddf7faU, 0xe8150dddffe52307U, 0xdae3fd031900e400U,
  0xebfa3505f00606e4U, 0xf1ec0a1ad01c051aU, 0x16fc02fd0815f8fdU, 0x5fbf2f021e202edU,
  0x250fe405f40be815U, 0x5dc0202faf7fafbU, 0xef00e8f0e8f32002U, 0x172ffce7e5f3d5eeU,
  0x3115271400fdf1fcU, 0xfe1bfa071f14f60eU, 0xe0f6f601fdfcf7fcU, 0xe7100a1a1b0f16f0U,
  0x15eee10815e9f010U, 0x1514fbe1131df6e8U, 0xfe15e5fde7fffdd8U, 0xe202fff7ffd7ebfcU,
  0x1ae00ef0f2f02f19U, 0x51f07fc0cfbe5f1U, 0xdeeafde8fb0d2901U, 0xfd0802020a1ce32fU,
  0xe921fbf9021105f2U, 0x21e90904fa09fe05U, 0x4f7fd0cee161a23U, 0xffc30181206f5fbU,
  0x1af709daeef408e4U, 0x19e51b030c0ef6f9U, 0x8ea07222e091af3U, 0x191f230802dfe115U,
  0x9fafe00cef024e9U, 0x1af603ecf8e8e716U, 0xe6d907e3fb0017feU, 0xf2f3eb1306121900U,
  0xf0fa080705ea18feU, 0xa4ee1191e23fc11U, 0xee10f703f22408f6U, 0xfdf9f016ec0819faU,
  0x2ef51c03d1fc1116U, 0xef31f0f509020d01U, 0xf31605100cf1e516U, 0x19f9132f0d0d240dU,
  0xe0e8fffefdece412U, 0x2fae9f5df021bf8U, 0x1811de260026edf8U, 0x15eb08e7ff1905e7U,
  0xffef33edd6f4ebU, 0xd10a1b283cf5d8ebU, 0xfb29defed71f43e5U, 0xe2f4e1d8ecf5fc02U,
  0xfbe81befcfe31df5U, 0xfce510e8fbeadd0aU, 0xb01f72526e90715U, 0xeae811dee5eed609U,
  0xe51ce0f2e6e709f4U, 0xec04f843020cd9d3U, 0x14d8d9ffe3fe0327U, 0xeb03edd6d63318e1U,
  0xfe1008f6e7e6f915U, 0xcf0806fe0dfb10d8U, 0x12212a080ff3faeeU, 0xfed623370302e314U,
  0xeff7fded0102efeeU, 0xf7ed1bf9f0f0ec1bU, 0xf6151fcc00f0f92bU, 0x22f905230b1dfd10U,
  0xdfe8f5170104db0fU, 0xfe0cd6fafd0e2617U, 0x14e106fe0834de21U, 0x14edea072211f5f4U,
  0xfef0fc19142a110bU, 0xd0f0ce4011530fcU, 0xfdebf3f8dafdf90bU, 0xe70fd702f4dff1f2U,
  0xfa11181001f00519U, 0xdc02e5ec19040109U, 0xe01e4f9d8f5e0f5U, 0xfff8ecec13231aU,
  0x1104f71a220c0b01U, 0x2fe40914f902081aU, 0x1206e31e29080d08U, 0x1d1202e4ecf0fce9U,
  0x301f6f509f6021eU, 0x101afcfa16fe0401U, 0xf1fee809f41ce724U, 0xfe1d051e251bf90aU,
  0xdcf025e3120535fcU, 0xeb1aebf5f5e41d05U, 0xef6f8e9f6fe0fefU, 0xef06eefd1f1501faU,
  0x1d01f510fde51405U, 0xa18e3ff22f81bf0U, 0x25fde300ef2f0714U, 0xea12e5f90c000a19U,
  0xcf31316edf4edefU, 0xd609f4fbfbdd270cU, 0x1ed2fae1e8f3270bU, 0xa0afa2c143af51aU,
  0xf0f00726221af8faU, 0xce11910eb242629U, 0x1ee9371afbfb0107U, 0x3a17fef8ede7f7e5U,
  0x2409fd40f115fc1cU, 0xfeea26061e0611eaU, 0xee0ee20ae81e0cecU, 0xdf2014ccfee3d4ffU,
  0xe1e06150a16000cU, 0xf0081b0907f6fcf5U, 0xe818e6ecf0d2eff8U, 0xf4f51ef7f0fa3904U,
  0x10f702ed001e22ffU, 0xff12f506fb0c0adeU, 0xeea441a05eee6dbU, 0xfae4f1051f06efe8U,
  0x20e905faf600e2efU, 0xe7f4082ae1092bfcU, 0xea0b05e8f9e519fdU, 0xdd1901ed20f9f00eU,
  0x2c0827f6dd05f3dfU, 0xf60527040105ea13U, 0xfa31161d30e1f7f1U, 0x2c19110e01faf5faU,
  0x3f611ee0c270902U, 0x24f00d01fdd3f933U, 0xf607defff0fce927U, 0xfc11f1000cf0f7dfU,
  0x160ceff01fef21ffU, 0x430001e7112fd5daU, 0xe020903070f05e4U, 0xe6f7f00ff5eafbecU,
  0xf4fc0604f30cfc0eU, 0x4f5f209f5f2f207U, 0xeb1fe9eee7d3faf5U, 0xebe2e1f30628e8e9U,
  0xd3fbe5e3ef130d00U, 0x805f210dc010734U, 0x141d050e1bdce8e3U, 0x31e530fd27040024U,
  0xefdc16e5edfb11ebU, 0x3af5fc03e8eb080eU, 0xadc0ae3051619f8U, 0x5110ad9f5d8f208U,
  0xed1d06f8422f2b19U, 0x3ee8f8e5042116ecU, 0xe8d40c0c1922efffU, 0x7effaf1dde016f2U,
  0xf5e3f6f505f023U, 0x7eb1a08f6f811fdU, 0xf21505e8e9f206d2U, 0xec08f3ee0cf8000aU,
  0xea17fcf2eb11f5fbU, 0xf6fe0ed5e9f2e310U, 0xec27141630dc13f3U, 0x3bf9230ee90eee2aU,
  0xf1d015f4f0fe0cdcU, 0x3ee0f1f2f4e70207U, 0xd7e6ebd4f1ec2316U, 0xfc22fbcef800e402U,
  0xe3d938eb110504f7U, 0xede6f6ff0be1ee1cU, 0xf6e51304f2e8013bU, 0x2a03da0ff1061207U,
  0x20e0fe904fae40aU, 0xe2e415e5e1ffed20U, 0x11090023fcf5032bU, 0x3d00110f00ed18f6U,
  0x1906f7280be4f7e6U, 0xd8f1370811162110U, 0x1af204dae0f909e7U, 0xf325e2e5f8e9dee8U,
  0x5e930130cdc21dfU, 0xd22febf832ed2f0aU, 0x170f10f6f3f2e3f9U, 0xd60203f010f7f6e6U,
  0xe9ecfd0309211f07U, 0xeb00efe706fcf7ebU, 0xfc012ef505dffc0bU, 0xf2f1f5241703ec07U,
  0xec10fd1bef09cff3U, 0xa040518e41d3026U, 0xf01813ee0c19f9d7U, 0xfef805f00d041218U,
  0x2eeff71efe0f161bU, 0xcec05e0fb10eefdU, 0xf20303f0e20d0bf3U, 0xed11fbf6ede1020bU,
  0x310b0f01f206fffaU, 0xf7e70d0f0a24ed0dU, 0xea0e0df3f0f5e6faU, 0xd20210815051203U,
  0xd917080e1afae31dU, 0x11081a060e2016f2U, 0xe71b04ecea100507U, 0xf2100dfcf4fffef2U,
  0x10fe0bf0e9e1f51bU, 0x171ffaf404f907e9U, 0x4fe0efb23e9f4ffU, 0x19eb0d1311fcef0dU,
  0x72af808f0f30611U, 0xebf3e626ff0cfa0fU, 0x11fcfd01ec09ff02U, 0xfefef70c002103f7U,
  0x171ffa1bff0aeb22U, 0xdbf5f7f7092502ddU, 0xefef38fd1df001ffU, 0xfa2708332720f042U,
  0xff14f9df05fb120dU, 0xeb09fef5e912eeeaU, 0xf9240d15f0f104fbU, 0xfd2020f5e5e811e4U,
  0xf0e5eefb0ff42c04U, 0x2b39050cfbf8e9f3U, 0xf0fe100307f408e5U, 0x1909000afb16e9f3U,
  0xe421dcdf28fff70fU, 0x3f8f31100f11d05U, 0xfdf317f9040319f1U, 0x28f2200f1e15f800U,
  0xfd101a010f0112ecU, 0x70a161210000ee7U, 0x1ef1151d34160d28U, 0xf50efd09efe4e512U,
  0x20fff7e5ecfaf033U, 0x1b13eedffffcce02U, 0x1133070ff8dde4efU, 0xfe40eb0d00db5f00U,
  0x51902130dfde3e0U, 0x5c6d0500d6110f1cU, 0xf909fbfaf5de17e4U, 0xc9e84620e1dc36e9U,
  0x160df7fd20fd2a02U, 0x1040f2e4e523daf0U, 0x22da44e2f404edd6U, 0xd42debff44cf47eeU,
  0xebfae0380d29320eU, 0xd6eee4f5d012f5feU, 0xea021de713f1fedbU, 0xdfefe9ec04d818d5U,
  0x605eaf3fd2b21e0U, 0xf11a1700f6eb131dU, 0x1f22ee7f4f3fd05U, 0xf6e915221c0bfc0cU,
  0x5ee183708f8072bU, 0xe0e5012cf6050d22U, 0x6e40bfe141fe1f3U, 0xfc080af42c12f1fcU,
  0x25071504f31efa0aU, 0xf4ed09eef3f20a09U, 0xef1ade16f00206f9U, 0xfc11fafae1e2e61cU,
  0x24fb14e805efe7efU, 0xf80eef16eafb0e11U, 0x103f604e6f2f806U, 0x110b13093205f1e9U,
  0xe1de6f1024324f7U, 0xd1f4d702f8fcf707U, 0x2cfc1cf6e802e3e3U, 0xf437391304e3e0U,
  0xd4e622ebe60907U, 0xdedcfb24faf64624U, 0xd8dd29ea100311f2U, 0xf630f5f1380ee504U,
  0xaf90004f112ededU, 0xf4f816ddfff20623U, 0xef2dfc3017da10efU, 0x2aeb10f4fae4f130U,
  0xfe03ed070307f3e9U, 0xfbdef3e7e3f1e226U, 0x11e1edfbd0ebeb2dU, 0xf1fe5e822fb0df7U,
  0xf4fd0a03fc05f2f9U, 0xf7fd200cf1061af7U, 0xfcfd07f10a0c1207U, 0xf5d6121c1ce8fc06U,
  0xe8e1f60b0500f1fcU, 0xc0c10eff514200fU, 0xef0d2bf9210f0ffeU, 0xdf9ed0a26ed0a1dU,
  0xee040a13f507ea07U, 0x1ae3e10deff2e51eU, 0xeff00cf7f708fc10U, 0x23170b15040af908U,
  0x32020ce00017f8ffU, 0xf5e7feea0418f705U, 0xfc0b16f705ec110eU, 0xee0a2bf725f7110fU,
  0xf1ff72cd91013efU, 0xe1603f4ebf412eaU, 0x170af80a24f420f5U, 0x40b2a10fbfefc15U,
  0x292414f0eae3090bU, 0xb00fd02261304e4U, 0xee13ffe7f8000decU, 0xf22cf5e8e3f713f9U,
  0x13ea130cd8eefd25U, 0x15ffd203f7f0e5ffU, 0xf909141f08f9e402U, 0xffeb132d16311a21U,
  0xe5fdfcfff1010108U, 0xe5190d19fcf8e803U, 0xf0111f8fd1301f5U, 0x3511f70ef7f005f4U,
  0x38f401e810fcf008U, 0x1b0bfbf6ff29e11eU, 0xefeb161e0c190402U, 0xeee702fafae409e5U,
  0xefdf1edfb0236f1U, 0xebecf5090b06e0faU, 0xe404ee06f906f211U, 0x5ed00070b3c0b16U,
  0xf9f1def103ee0f03U, 0xe908f41702f31432U, 0xf20ee1434ed100cU, 0x3ee70d0ff5f8f0ffU,
  0xe3f4ff0ddde5181aU, 0x2efcf9fbe316ed18U, 0xa19f4fb080d1decU, 0x2d0dfbe106edf009U,
  0xed21e9eacd0b07ebU, 0xdae4edf5f00c383eU, 0xfa1aeb091efb012fU, 0x13052bd5ef561300U,
  0x615eaed2fe6e2f7U, 0x15f6e9fce8f5f8eaU, 0xfee52305e018ef37U, 0x2343ec0e07f8f0f9U,
  0xfcdc193ed2e40803U, 0xd10b1fe229f617d6U, 0xe61fd62024fee4eaU, 0xddeafaf9fde2e61fU,
  0xeceff1fd0802c335U, 0xcb1b16dcf6e00bcbU, 0xff1ce0ddf9ee1f24U, 0x1e140135d0fd0f15U,
  0xf610ed23e10119f7U, 0x14f917010ae8f00dU, 0x210fd0f0fde1023U, 0x1b01ee14f4dc3111U,
  0x232221f1f8d9f3feU, 0xef170c01f1f3eafcU, 0x2f1211e70ef1f231U, 0xfb041114e9ef11ecU,
  0x12e10edd12ed0503U, 0x1a3029ff01faf6fdU, 0x2af4f1f412f20215U, 0xd61302051df317e9U,
  0xf605fa1c200409faU, 0xee221f0e133606f5U, 0xf8e41910f1ef05edU, 0x1e0200f020f020fU,
  0xd3fd450400c6ef1bU, 0xfdf2d3322fe80118U, 0xea08c6f40526380eU, 0x2826eef4e02311eeU,
  0x2fde1d6f81a1416U, 0xfe0f9d3c800dbeaU, 0xf0013cedd8f8f2U, 0x4bf33c0fe2f500d0U,
  0xf301cc20dff5d9f6U, 0xe4f6fd03124c38eeU, 0x12e606def9d2221cU, 0xf1e4eaf3030ae603U,
  0x2050824ebfee6f5U, 0xe201f2061ecdebc9U, 0x182509241febeadeU, 0x3e600fce0e9e7f6U,
  0xea0cf508091c22f4U, 0x4fcfdedf3f8f2fbU, 0xeec1bf6ee1effd8U, 0xdff6fc0400eee6f4U,
  0xe00f30912e5fcfeU, 0xa1ffc07fe084028U, 0xecf9fbf6f92407e5U, 0xf403e7151a20d71dU,
  0x11fb0cf3fe0dfe0fU, 0xbec0c0ce8f4d917U, 0xec21f2ed10fce91bU, 0x200d0d18fdf4050dU,
  0x2305060f00010d00U, 0x1906f5e40c090521U, 0xaf61413f6f5e311U, 0x90402f335e9050fU,
  0x30f308e2110721e6U, 0xd51ad9f2f2f30600U, 0xeee1a1a0c09e2f8U, 0x1c02211307f6fceeU,
  0xe5061025fa20ee15U, 0xf0dcec1503050d21U, 0xe4e61213efe0f2fdU, 0xf800f1041e040e05U,
  0x1af82c0e0cf1010aU, 0xe9d93aef1c0a1b1bU, 0xddff031222f2ece8U, 0xf024f2d6ece5f5f9U,
  0xf2dcf2f4041b17e9U, 0x291bff0322e610fcU, 0x1ecf1defae50a20U, 0x110804ebe2ea03feU,
  0xe3f405ecd600eaddU, 0xd8c4dafcf7f4094eU, 0xfa14e9e4e5e3072eU, 0x57dfe9e90155030bU,
  0xdfd8d0d42df3d4eaU, 0xdff801e7d9f3e4ebU, 0xebdd0e12c93eff1dU, 0x26e2e429f2f50ce6U,
  0xe0d9e64cc9f30516U, 0xd2ffd7e13de40ad6U, 0xf6e7eee6fb25ddf8U, 0xccfceed6fae1f0fdU,
  0xd7ead300fa09e535U, 0xd618eff022ea0edaU, 0x331f8ecfa16f1f8U, 0xf302f430d6092defU,
  0x546d3ffbadafbf5U, 0xe3e2fbeff732f4U, 0x45f2e61820fcedd7U, 0xff0525dcdee7def2U,
  0x3ffff6d30812d1ebU, 0x16d30edd31deded0U, 0xf0020addffc932f7U, 0xdf24e9e4cfdaecdbU,
  0xf3f400d5eaca15d4U, 0xcbf2faf202f201d9U, 0xa141a37fa00f6f6U, 0xf4ec3f1905ff0e30U,
  0xf7d4ceda173b20dbU, 0xe3dd43e1d5f9e2f3U, 0xead2e1ea040e360eU, 0x2c36d3fbd7e2edd2U,
  0xf71bfafa1506ec13U, 0xa0bfd060639f5ebU, 0xf3fbe9240605def6U, 0xd12ef20103dd07e6U,
  0xf24eadfe321120aU, 0x30eefe11d3e8dbffU, 0xf63e09e0ffce19f4U, 0xfcee0312ede8e7f8U,
  0xefef7d725dcf504U, 0xdef934fcda1cddf4U, 0xef062ce340e707dfU, 0x201dfae92d022803U,
  0x5e4e605131a33ecU, 0xb1210f20cea040bU, 0xf8e718d809e33308U, 0x3f6f9dbfaece6daU,
  0x5dcf4feff0cfa11U, 0xfc1a2403eaecec0bU, 0xfd091edc03130518U, 0xf2f7dbfc0a09151cU,
  0xf50f0120e8edf609U, 0x23051001e2201609U, 0x70a07181a12e11bU, 0xe5fb051820f30d06U,
  0x4f6fb051f2208f8U, 0xdf3ff1d071010f4U, 0xf9e7f7f0d20309fbU, 0x132af510f903fbfdU,
  0x1a081213f9f50d10U, 0xdff7f31eea140900U, 0x2024f70a0defeaf1U, 0xf8e70d09fc0e0f17U,
  0x2f605fa0cf303feU, 0x3ae805d2040bdf16U, 0xd45f6e4f1f514f9U, 0x3d0af2def440ef1aU,
  0xf9ef05faf100f0e3U, 0xe20313eb01fc0205U, 0x2e80d3af432f8f7U, 0xfee5031de3ff07e2U,
  0xefe4f906e2ddf2ffU, 0xf1f9e72a41e7170eU, 0xe9e912dcfe20e0e0U, 0xd80f03f90801dee9U,
  0xdc20e040a0f1b2fU, 0xd40ebd62dd7150dU, 0xe32a02080b1fe4ecU, 0xefffe915f8193225U,
  0x291ff9e0f80e0707U, 0x9fdf7f6eb0611eaU, 0x24dc252104fbfce9U, 0xe7f929f0e004e81aU,
  0xaf7f710120eef07U, 0x360cf5f7320f1bf2U, 0xeb2309d4e4ee0deeU, 0x8070cf0fbf3fc0aU,
  0x1a040cf9f50d38f2U, 0xf3ed1307ddee0be1U, 0xf42ff71606ef000aU, 0x20f80dfe25fe410eU,
  0xddf2db0e0816fe06U, 0xebf501fbf4d9f6fcU, 0xd8db05e7f80b1023U, 0x2a0fe7f4f4e607eaU,
  0x426091deecd0cfbU, 0x160b051f1aee010eU, 0x70bdc3b15ed01f8U, 0x2312e6d9fef41a19U,
  0x83218d9f7200de3U, 0xf9f6f4e7f905cde1U, 0x2817dbf0f5df010fU, 0x2908fbf8f4d52bfeU,
  0xe8d7e2fbf9d00213U, 0xdef615ef1d0205e3U, 0x220c1102fcf116f1U, 0xe4f800f91c0cf010U,
  0xeee9fa2b0f1b07eeU, 0x2227fb200117e0f1U, 0x12e40817ec1cff02U, 0x30fea14d6fff316U,
  0xe9ddf8fff502d8f4U, 0xe6e1d6eaea05e93eU, 0xf22ee30bf7f30d07U, 0x3b15e7f3ed28420cU,
  0xf60604f2fe02ffe7U, 0xee1f0e407fef8U, 0xf8fbf739ec33e31cU, 0xad72822e9d915faU,
  0xe0cf91610e7dd01U, 0xcfae3fd3c1229edU, 0xfee7f700dc0b00eeU, 0xe6f0f5e5e50ae701U,
  0xe0afffb13180014U, 0xc824eeee1bd521faU, 0xef3a00f3eafcedebU, 0x4e2fe34021731ebU,
  0xc9f65bf422020c1aU, 0x3f5d60b02f06816U, 0xf4f7dcd80ef40e35U, 0x607daf2e827eaebU,
  0x4dde3dc1228fb0aU, 0x20d604e2fb130cfcU, 0xf3ff0219f4df09deU, 0x350e48fbee0115ebU,
  0xfc21eb2ad1f6eaccU, 0x4f128ecfd390ff9U, 0xf7dcf4fcd4e80e06U, 0xd2e6f0d6e4e0dd0bU,
  0x2fb1b353101dddbU, 0xc9e2f0f4fbd0e9deU, 0xe105e41f06e30edeU, 0x6deede9dde1ffe4U,
  0xfd041d01330c0725U, 0x2aea09f30c4ceae4U, 0xe108eff0fa1a07e6U, 0xe0e80edff3f9ef04U,
  0xfb04f1dde90e193aU, 0x140e01f8e40d0bfcU, 0xf20b12e103030dfdU, 0xd3e10605f51600ffU,
  0xcb45edfa02f2fbf6U, 0xa06f8e8040bd8f2U, 0xfbe3f0f32be31e26U, 0x22dbf00f0afdfa05U,
  0xc081edd0105edf0U, 0x307fa07f214f1f2U, 0x5fc2d1620fb3301U, 0xfe3322ef15fed920U,
  0xfe2b03f5e7e9eef4U, 0xf7efe0db0707fb02U, 0x28f4e539250101d7U, 0xfa0e1ed9dae5f2dbU,
  0x2e4403de1b22e1e4U, 0xe5c807f2fbeeefdeU, 0xd1130fffdcd308deU, 0xf7ff0926e902f5f5U,
  0xebf003ecf3f110f0U, 0xec060d00fcf4dd06U, 0xf9f0462200fdf004U, 0xe1f20be42cffe7fdU,
  0xdef6e3eaf75726efU, 0xfffa47e5e3f3f7f5U, 0xeb01fae9f4fefbd4U, 0x1f04dae209e202eaU,
  0xefd6e6f11d1619eaU, 0x4262106f1e906edU, 0xfa01f9e1e2120ff9U, 0xf104f92f1ff6eb35U,
  0xf4e01c1f1717e905U, 0xd9e0001af910250cU, 0xdff0ce0ff18030fU, 0xdee3e9e50af3e015U,
  0x2c1520220a18fc08U, 0xdfff0050fdbe216U, 0xf407e0fed9fef5f3U, 0xf42605f8f804e1f6U,
  0xef060805dd07f116U, 0x14f0e3060f140b07U, 0x1200fcdfebfffe0dU, 0xf5fd14e9f8110cd6U,
  0x2004edf90f22ecefU, 0xf50c180712f2e1eaU, 0xee02ffeff6191803U, 0x12effa0b16f9fa01U,
  0xfadd0d0fe2f10b2aU, 0xf4fdf32bef28f8f3U, 0x6f5f0fff90e00ebU, 0xdffdd5f1f80bf0f1U,
  0x1606e3071ef1e30aU, 0x23f9faf1eb010915U, 0x30b05ee170f0d04U, 0x2817fed7faf500e1U,
  0xf5e4fce400ef0a09U, 0x1309f6101923ed0dU, 0xfde5e7f8ebf3e414U, 0xeb03f8e916f9fcefU,
  0xfe08160b3b25e903U, 0x50fee09e721f610U, 0xe101f3e9fa21d60aU, 0xeeed00fd11fdf000U,
  0xf9e31710f4fcfa06U, 0xe10fdebf11318ffU, 0xcfe2af60d0ee8fcU, 0x607f7fa03fbe31dU,
  0x15f11b152516fd0dU, 0x1a011f18f6fee70fU, 0xe0e2f6f9f909f402U, 0x222ff04f60ff00bU,
  0x2bf929dcf81e1afbU, 0x26060eec0d1afb01U, 0xf4e6f1e517f8ec0dU, 0x91111f9311319f5U,
  0xf7e7002cf912f1fcU, 0xfe1b1d16ede8ea03U, 0x21224f4eafbfb0fU, 0xf70101231409f20bU,
  0xe5f0293effe9ee04U, 0xd0ce124e7161306U, 0x21ffec0f002e0c23U, 0xe5f8d8fd0f160326U,
  0x120cf606f1f3df2fU, 0x1e14d2fdf6e6e612U, 0xce2eff3eafae4f7U, 0x113efffe003f4e5U,
  0x12f10af7eae3092aU, 0xfc01fcfb23e913U, 0x6f702edde18030cU, 0xdcf51ef717130419U,
  0x5fdf829020bf416U, 0xe20b292a18090504U, 0xfb0ff9d1ea3037edU, 0xfdf700ed01fb14eeU,
  0x1e42e1dfde315eeU, 0xfc0212f905210f06U, 0xf1f3020301f6fcf3U, 0xeddaeaf525ec0809U,
  0xfa300a09e309ef1aU, 0xf7f1df34f1f1ecf3U, 0xf300eecff6101b31U, 0xf8f2d7020239dff6U,
  0xa2b0bdaebf9090eU, 0xe91a060620dcf60cU, 0xea1b0df21908e9e8U, 0xfedb1a051a0b1a37U,
  0xd7db7fef15e3e4f6U, 0xe8e81713e0f81502U, 0xecda02f008e0fd23U, 0x9f2d804ef26fa1aU,
  0xf0fd09ebe814ee00U, 0xd8c509f6f422f6faU, 0x2ae8e21ffdfad508U, 0x4ef026f4edd608d9U,
  0x11fad50ed8d3c70eU, 0xebdc08ef12423502U, 0xf7f6dae9d71a17fbU, 0xeaebedcffae2fcf1U,
  0xf4ca47110df116f0U, 0xd139ef0c270632f6U, 0xcffaf418e50bd1d5U, 0xdcf9ed03f7d70207U,
  0xf0e8360f43d5f04bU, 0x13de0bfb210402edU, 0xe7f8e4ee061517f0U, 0xe108defe03ff0e16U,
  0xe3070cfee6270612U, 0x240815fcf8f6e4f1U, 0xfdf1f11e06e6e6d2U, 0x29f343f2dd11f1e8U,
  0xef31e1e201dbda17U, 0xbd0e61f0408f3e2U, 0xf1f106e503fa0b08U, 0xf4f20fd5174affe6U,
  0x1af822180be51210U, 0xe309f4eaf208faf5U, 0xf5092a0b360c08e1U, 0x10e1eeb11f6f2f9U,
  0x71cfbf30e09fb12U, 0x3dbe0fbf70f1af5U, 0xdd9e52f16fe07d9U, 0xee2409f0f1eeffe2U,
  0x323f00fde800f103U, 0xf8e420ddede4eb02U, 0xfc0ff803ebf020e7U, 0xee6f305d7f20008U,
  0xe3e6fff3ebd3f9dfU, 0x7f738e0f2f8db08U, 0xf8063a2118f703f5U, 0x3f618e722e71702U,
  0xf2e6e0ed153447ecU, 0x28eb200100e0020cU, 0xf3eb0de5f1e937edU, 0x1e050507e604e9e1U,
  0xf4fb4b1521ffe635U, 0xe6f2ee4835d51c0cU, 0x12f8e50cf911322bU, 0xe3211dd9e30012e3U,
  0xfb14edd0f80e131dU, 0x14d01c00e2dee004U, 0xedf1ed23f8d70807U, 0x32194ff5e1fbdcf6U,
  0xe336e4eeccdbedd2U, 0xd3ea01e10e1701ddU, 0x19f00e150ce54704U, 0xf8f805cae0ffe4fcU,
  0xc13fcfeec12fff5U, 0xe1dd211201f803feU, 0x211c0c1efed70a04U, 0x18d5fe1b03f8d1fbU,
  0xedb131400feedf7U, 0xe72314f0f0f6e40bU, 0xeb1bfcdffa0a0407U, 0xf3f7e1f6f2f42005U,
  0xf3e205f810e912f9U, 0x110ff70fe0fcfdf7U, 0x1be40ef307f0e613U, 0xfee16f0f70711f8U,
  0x1318150a1d041319U, 0xfbf8dc2b0d1b1308U, 0x1e20605050d031dU, 0xb030527022400e2U,
  0xee2907fb0ef50c16U, 0xda1701fe0b0a0c17U, 0x1124260d21f3df13U, 0xe2ea051f171b1307U,
  0x8f51d1c12d2e3f0U, 0xede4f2223bf3f60fU, 0x6fbf703d6515acbU, 0xe905fdceecf7dee6U,
  0xdee1efece0d3a0fU, 0x8e11eeee212c2daU, 0x1e8fb14f0e30afaU, 0xe10404d7da14f4e8U,
  0xeb1df3ec01e3defaU, 0xfde4ef43f7ea10f6U, 0x19c5e608fb0c132dU, 0xec0befd30735e4ddU,
  0xf8f7edcffc090c1cU, 0xfff4fb18310ce2e3U, 0xfa0e17ff14e2f8dbU, 0xbf5f011f1e502f4U,
  0xa0afc11e70ff40eU, 0xeb2329f3fbf9eeddU, 0x15ff0fe809dbf3e4U, 0xfaf105252c05fa25U,
  0xfffb150eedf7eeecU, 0xa1fe71711213212U, 0xfce9fedf0f1903f6U, 0xf1ecf5fb0d03ed11U,
  0x27f70f21ec0fe920U, 0x1a06fdf80bf2f6e3U, 0xf1f1f4fde026f3f5U, 0xe7e9fb29fc0efaebU,
  0x181c0fdee3f1f6ffU, 0xed05e3f8f81607fdU, 0xede61c0cff120405U, 0x3e61b1017fc3f11U,
  0xe9f800f102da0eeeU, 0xe52c190b13fddefbU, 0x160a1602fd0cfbf3U, 0xee0cfaec0f011311U,
  0xdafd2527150f14fdU, 0xe400e523fd18f909U, 0x30eb08ee1ef5f612U, 0xe2fedffa09130632U,
  0x3e7ebf943f4010cU, 0x36170412ee07f21eU, 0xf2ddef03db28fadaU, 0xde00f6f8fce5ebdcU,
  0xfd21faf3faf62110U, 0x81a011a112f01efU, 0x8d0eb01e6e202e5U, 0xdbeadbfcd6f72eeaU,
  0xe1f714040f08f80eU, 0xfbede1072e1ef720U, 0xf625f0e6ea11ff20U, 0xf3c0ad9e60f3ddcU,
  0xb13ece1e9ee2bebU, 0xfa0606e0cc09dbe9U, 0xdefef63ce300eb0bU, 0x2afa2405f705db15U,
  0xe426feea1edfefeaU, 0x6f9d5061c1a21deU, 0xf2e6fafce820fc0bU, 0xebdff8cf1104f9eeU,
  0xe91aeff8ebeff41aU, 0xbfaf3072bf310deU, 0x24e16ec29e2f3e5U, 0xf7e412240010ed02U,
  0x2003f7000d08fce1U, 0x1121ed19e6dbe8ecU, 0xe4e9120fff12fbefU, 0xf40beb0327faf6edU,
  0x6ff19f704e7030bU, 0x20ee31a0c00fb28U, 0xa0f0408f4ecf401U, 0x602eb1003f8fcf3U,
  0x1ce10f0701180903U, 0xf80b280401e1030bU, 0xde032aec090710fcU, 0x1b41f0fc01f10af9U,
  0x92511f7000820e5U, 0xff02f103ea111efaU, 0xfe4fdf8fdf30513U, 0x20402ffeef215ebU,
  0xf30cee0bec290fffU, 0x1617120bfb0801efU, 0x90309080bff0ffaU, 0xf0f21b1109040011U,
  0xf511f216fa03edf5U, 0xee1adc12eb032825U, 0x130805fb18181418U, 0xea05d2e32303f719U,
  0xeb180a15fa2fedf0U, 0xeff8fef5fff3d318U, 0xf1f8e506ee0e1026U, 0xfffb072507fceb00U,
  0x1c2001ecfbffee18U, 0xfdfbfdf2eafa0615U, 0xfa14fde6f907f818U, 0xf1f806050c1b0df8U,
  0xe9ec09100002fcfaU, 0xef01041405f90efeU, 0xf9eb16ebf6ef0517U, 0xefc11f510fafbfaU,
  0xf208f6171909ffebU, 0x10df9efebfb1117U, 0x150337fd11200efcU, 0x9ddf70f16f0f7U,
  0x1cfc0809f0fef305U, 0x1303f8ea1af4daf8U, 0xf8efe8e6ea140afdU, 0x1300711f8150701U,
  0x231c0ef612200619U, 0xeaf1edeef5f503f1U, 0xeeeb19041cf006fdU, 0xeb0a42f91efe00faU,
  0xebedf01bfa1ef61aU, 0xea10fe25f5f4ee15U, 0xe4f420e8e6ebec04U, 0xf1ede90420ec0bfaU,
  0xe2e227fe14fbecf3U, 0x4e6f22204061f05U, 0x1e080cea3104e60eU, 0x4f0f31103fee3fcU,
  0xf9fe08f913fbf317U, 0xf6ec1ce909e9001dU, 0xe9190d0801021aebU, 0xf62eebfd0df8ec00U,
  0xb0f09efee11f0U, 0xfe15fdfe0716111eU, 0xfdefef0cfae61cU, 0xeced2e1c2510101bU,
  0x11f12f02fcf907fcU, 0xe6fd0f0c00ece71aU, 0x9171efd15fc000eU, 0xef7d71ce8040024U,
  0xf7f301fa070edceaU, 0xe1db12ddff03efefU, 0x19fdf2f7f1ee0d1dU, 0x3106300a0eee3b02U,
  0xad3fe0a06f03b0dU, 0x4fc0de519022cf1U, 0x3008f0f8f1e806edU, 0xfef1e2fc20090104U,
  0xe0fe031406f72de9U, 0xda1df30d1e03311dU, 0x201f02eefd1ff3edU, 0xeee0fd1fe705e10dU,
  0x2831e809cfdcf0ffU, 0xe8e0fbfd05e4e720U, 0x3c08e931fef7fbf0U, 0xfddd28fff106f8f3U,
  0x1a04dce14efdf8d9U, 0xe1eaebdf1efee6eaU, 0xf5e01fefd9d206e4U, 0xf81d1212f1f2dfe9U,
  0xfc012be0da1147d5U, 0xef0922f0e9f9ffcfU, 0x191e0737e1e7ebdaU, 0xecf819ee190605e2U,
  0xd80cf6100216cf14U, 0x10d44f717d5e2ebU, 0xebf3f9f8de08ff00U, 0xbe9f9f4d1ddf9ebU,
  0xfc44d801d504ee19U, 0xf911f3e1f30a0007U, 0x25fdfa1929f8ea0aU, 0xf3f32dfc0f0fe8faU,
  0x333e07e82025d603U, 0x4da2dea27f6fadbU, 0x1d190bf2e01a2317U, 0xd009e022e6cc02daU,
  0xf3e81a12dd130305U, 0xeb21dfe615ebe8ddU, 0xf3fc2b210604fed9U, 0xd3173405fff9150bU,
  0xe20ce2f4f52c1810U, 0xfded1ddbeddbe5d7U, 0xf6f2ebf7ef121ff6U, 0xd24f4f5de0031e5U,
  0xa020dd2171b3c15U, 0x1ef2f609e615fce2U, 0x2d8fee2f3e4f8e2U, 0xf6e327fdfae4dd0eU,
  0xf20ae3dfe8020d09U, 0xf80fff15fd0a2a18U, 0x11f3fafe02ed19ffU, 0xa140ae8201e17feU,
  0xe1014fef7230ef3U, 0xb002f04e5e60309U, 0xf305ec16150513f6U, 0x1bec0b1ed9f50f38U,
  0xe6e930effbf20a03U, 0x2403f3f6eb1113fbU, 0x1dfbf1ec18f6fe16U, 0x14100ee101def202U,
  0xddec0be2110d0ef9U, 0xd51d1605feea0a2aU, 0xed050df0faf3da2bU, 0x2c1af8f5141b0b0dU,
  0xdfebeb1f07fbfce9U, 0xf4f904050601ebf6U, 0x1ce7f1051dedea28U, 0x6eb1bff0bea2b00U,
  0x7e2f1191ff5e9feU, 0x123e4f40c0923e4U, 0x15e5d105f8faf0f6U, 0xf5ebe2fefde6ece9U,
  0xf9f8ec1cfff5e8e4U, 0xddf6e1fbe90723eeU, 0x912f72be4feec0fU, 0xd6d5ff04f024fbf6U,
  0x10ed07f60fe9d800U, 0xe2021af6eb32e41eU, 0xf72bd6f5fdf8fd04U, 0x1409f5e7e9f22004U,
  0xef0907e7ffea0905U, 0xf15217fb18e5e5ebU, 0x20f4f5f7ef0a1e0fU, 0xdeeceef6fe11e4ffU,
  0xfa1ae3df14f00c18U, 0x2220e52803f6060cU, 0xfaec1309f72ee6f6U, 0xfbeceb30f3f30706U,
  0xefff6f5fbf9f9efU, 0xed0c040d150909fcU, 0xffef1d0d1f2207f9U, 0xfbed04110418fb1cU,
  0xf5fffe0f11dd0aefU, 0xfd190817311ceceaU, 0x40fe4f00d05f709U, 0xf5130508f3ebfb0dU,
  0xf81203f4fb192bf8U, 0xe82b01191bf9da02U, 0xf4f0f3070015fc29U, 0xef617eefffbfb1eU,
  0xe9fefd0d391401f4U, 0x1ff61520ff13300cU, 0x50004f21e271c0fU, 0xe7e40d1a03edf1eaU,
  0xfbf6070214ff20fcU, 0x381f0506111409e1U, 0x160a010813f8fe00U, 0x9e1f011011cff1bU,
  0x3406f40cea391efbU, 0x504f5f2dceef1ebU, 0xce0320cfde9faecU, 0x2f7f52a0503ddedU,
  0x3ea072908ffef09U, 0xe5faef1f05f7131dU, 0xfbff090ce9f5fde9U, 0xd6e2efd9151f050aU,
  0x5f424fa0900ebfcU, 0xfa09f5f0f403e143U, 0xe82edff807e81801U, 0x141df401e703fd05U,
  0xfb10ecdafffe12e4U, 0xefcfdefeef9ee3dU, 0xbeb0de8dcf5ec01U, 0xb22f8f32101ec05U,
  0x5eefffdd71026faU, 0xf8ebeaece5e70e00U, 0xfcfa2f160bf60827U, 0x230af81b14220b0cU,
  0xf00f1ff3118d603U, 0xe7fae6e21501fc1aU, 0xfcfee905f90809e3U, 0x1a0413e4ffe942e9U,
  0xcde1221fe0b41fbU, 0xef001ff3faf23df5U, 0xf40cf609fb06edfbU, 0x10f7e6f602eff0e8U,
  0xf2e6fc4037f0e401U, 0xeff22108140107U, 0xaffe8ebc71202ebU, 0xe5e9f0f9dcfd03f8U,
  0xdec2304e3040fffU, 0xe706091ff7e11303U, 0xff4061c0bea0815U, 0x80ed00803020a12U,
  0x1ef502070f1ef3ebU, 0x2e804ebf00bd4dfU, 0x2018e5ee02eedf1eU, 0x25fb2506e9f0310cU,
  0x11eb04110ce7091aU, 0xf6080afd0e23520dU, 0x21db0df81a12edf1U, 0xda03f9d6f6f0ece3U,
  0x2f0053c20e9f60dU, 0xeb07f9121df9edf9U, 0x2a17eaedf90aecfeU, 0xefe2d8f3f8fa11f7U,
  0xf2f91426120b28e7U, 0x2a04f02004d8fef0U, 0xced9effff91f00dcU, 0x5f2e1e80bd4d3f8U,
  0xee1024fdf1f40614U, 0x63e041d262df60bU, 0x734d20f14fafed4U, 0xf6e0fbfcf9f324dfU,
  0x2cdef7ec0febf914U, 0xd81a0fe808091cffU, 0xdfcec0512f8f910U, 0xdd23eb5d001f29e1U,
  0xfc0f22e7030f1df4U, 0x352bdc022d0831efU, 0x24d50a2cfe41fd11U, 0xede009d70cf50915U,
  0x731fb03050302edU, 0xebfc07e9f1f010ecU, 0x1afbde4b250702d6U, 0xe91422dcf60ff1fbU,
  0x130f0a040614f1f8U, 0xf3da2001eaf0ff01U, 0xdf1b0ae60cdcffe4U, 0xde011222fef4ded7U,
  0xfde60bfef8defce1U, 0xde073cf9f7090de2U, 0xb092a3122e210f9U, 0xfe130af72aeae500U,
  0xebf5dfdd0e542be6U, 0x1e0a41e3fee8e1fbU, 0x1f5e0e2e0e51ff9U, 0xfc15eddcf9f0f0ffU,
  0xe1e70d31fe0b12e7U, 0xe00cee2b20e7d4fdU, 0xfc0dfa00e7234601U, 0xf8ffe0f71616e210U,
  0xf9fd24ebf607020aU, 0x405f6ee040113feU, 0xf4f5081afef9dc01U, 0xe301f202f5e0110cU,
  0xec0902f4fe0ef815U, 0xea00fd400d0ff50bU, 0x27deee0df50cfa15U, 0xfdf5e623e631d7fcU,
  0xf115f3e3edfbfe26U, 0xe5f7ee0224f80ce6U, 0x2f18f7f310ff06faU, 0xefeb0e111ef5f801U,
  0xee06f6faf5fd19e9U, 0xd0140207ee11fefcU, 0x1316fdeaf4efe7deU, 0xe8d34419f6f106e5U,
  0x8e1cde112d12906U, 0xf1000412fbfdebU, 0xffde44f4f20003ecU, 0xf11d05062637d402U,
  0xdb2af705f8051cf1U, 0x6ec02fee2fcf9ffU, 0xf315df2216f30f24U, 0x1bee2ee9fe050e29U,
  0xf121e4edf8d9e00bU, 0xfcf8f8f6dd17d415U, 0xe2f3f9e1effd2636U, 0x221a16dc01f0e7e1U,
  0xec00f112e0d3d5e2U, 0xffd0ee2332f6e600U, 0xee49d2f2d51f43deU, 0xe917e6e2f2fe24cfU,
  0xd70815dae1f42c0bU, 0xfe00f9f5e4d7d3f9U, 0xefe2dd16100feaffU, 0x30b1c02e3fbe5f1U,
  0xd108d603dcf0e2daU, 0xed04e2460cffeaf4U, 0x1ecff9e9d306ec1bU, 0xe2c9dc190a131dfcU,
  0xe5f8e814d2f5fa07U, 0xd0f8071807f8ece3U, 0x152f1b270718ebd9U, 0xe4ed1a1aeefade21U,
  0xe5fff1f0fc07f4f6U, 0xe7e8da05e3f4193fU, 0xe915ddf1e7e83fU, 0x1f0fe800173fe502U,
  0xe7d50e0a27f7f5faU, 0xfcc9ede4f80c0515U, 0x1f13222ec26e128U, 0x27110200f1f2ee12U,
  0xf9e5203dde010400U, 0xe500f6dd3d140a05U, 0xddeefe1be521e8f8U, 0xdc14eed8fc04f9f2U,
  0x1d0604222a05ff09U, 0xf110f5df08d218e0U, 0xe01e11d007fdf317U, 0xfbf00314f62d2ff2U,
  0x10fbe5023d0b06f1U, 0x22011f06e916d208U, 0xdef816d7e1200300U, 0xfbfddf0726fcf318U,
  0xf1041c2ede07f0feU, 0xe8f9e10dfb2900feU, 0x25f2e1041001e2fcU, 0xdbf7e6071900d7f0U,
  0x21f9f9042406e017U, 0x1f05e2f7eefcd52bU, 0xf118e8fcf1101512U, 0x131df00ee3200812U,
  0xde439d3f2ed1b0eU, 0x2505e6070111fe07U, 0xdfdbec130d0bf7edU, 0xfbfa04fe2ffb001dU,
  0x300af1ee171203d7U, 0x1deafbeb0f02e8efU, 0x2cf3f5fcfa27f5f8U, 0xe002070fde000505U,
  0x1e10e5e10116131fU, 0x60e05080af0f3e4U, 0xe0ee0fd2dd0822eaU, 0xeaf0fbe6df22f324U,
  0x70ef3ed0c1c0debU, 0xf307ce18f4e3fe3fU, 0x344221a18ef09f0U, 0x2cf4250227eef80aU,
  0xf6f9f3edd20efcfbU, 0x44e507ecfaeed614U, 0x1cfd03e5e4fe0df9U, 0x2803f5fbf4edf6e8U,
  0xe216f02bf7fd062aU, 0xf51919190a141fe9U, 0xf0ecf409112528f8U, 0xe2060415e9e6f517U,
  0xf3fc252413e01a20U, 0xd202015dd070ddeU, 0xe0fef2e400f71fe8U, 0xcbf1e9fded02f622U,
  0x73de7f4d2e9e8fdU, 0xb1be317eb15ffe8U, 0xf8d80828dff80b2aU, 0x120c1318f4351f14U,
  0x2e38e7edecf9ea1eU, 0xd9da0dfbddf5f6daU, 0xf1380c27fd170cU, 0x1c1d1e1517ff12f2U,
  0xfffffc57fffffe55U, 0x13f00000353U, 0x448fffffe5dU, 0x5d9fffffff1U,
  0xfffffd35000002a7U, 0x518000004c7U, 0x732fffffdcaU, 0x1400000107U,
  0x680000086aU, 0x62a000004b1U, 0xffffff6dffffffb4U, 0xfffffbf1000007bbU,
  0x41fffffec1U, 0x3c900000223U, 0x2c4fffffddbU, 0xfffffaeefffffc94U,
  0xfffffb14000007d5U, 0x26900000075U, 0xfffffb73fffffe94U, 0xfffffa74000005a0U,
  0xfffffbba00000504U, 0x18c00000276U, 0x5160000012eU, 0xfffffe01fffffed2U,
  0xfffff86300000281U, 0xffffff3a0000008eU, 0xfffff87dfffffc80U, 0xfffffdb0000002a3U,
  0x478fffffe34U, 0xfffffc02000006dcU, 0xfffffbbbfffff09cU, 0xfffffc7dfffff55fU,
  0x14400000762U, 0xfffffdc1fffffd47U, 0x37bfffffecdU, 0xfffff91cfffff7c0U,
  0xfffff98f00000242U, 0x960000005eU, 0x1befffffd6bU, 0xfffff8dd00000441U,
  0x8c400000563U, 0xfffff2a6fffff81eU, 0x3c30000051dU, 0x5140000077eU,
  0xfffffd420000037fU, 0xfffffe3800000668U, 0x165fffff871U, 0xfffffac2fffff85eU,
  0xffffffdcfffffafdU, 0xfffffea60000098dU, 0xd090c0b16030c0dU, 0xe0e080e10ff0614U,
  0xc0f1703080c1208U, 0x21dbfdead011110aU, 0xfef10edc4224fe29U, 0x360de32ce2d2f0e8U,
  0x80614d7bf0fc9c3U, 0x21000ff1109f60dU, 0xa18051512012012U, 0xb01090309151b0eU,
  0x30f131df7111f08U, 0xfcfa12ff181f0c18U, 0x1424071c16ecf90cU, 0xe500e5def2fa0af8U,
  0xfcf7f10ef9ecfde9U, 0xf5ed1ff3060af2ddU, 0xc26f5ee0de3d7fbU, 0xf81d11150b111905U,
  0x921ff091b160e0fU, 0xdfffb18faf50e04U, 0xd918f9ddf6f2030cU, 0x10fee2ee05ed1104U,
  0xfcdff9f0e8070ce4U, 0x5cbef6d5f513d80dU, 0x1cf4ee7fb67ed0cU, 0xe524b1b230c1e739U,
  0x14c2eb2e06d921d0U, 0x4120e0307170e05U, 0x15120a0e130e0a14U, 0x17080917120f1509U,
  0xecf6f4f7f00d0d02U, 0xedf6effcfaeae8f6U, 0xf8fdf4f9f5f3ebU, 0x3f10fff3fc05f4f6U,
  0x22f50de6f921f804U, 0x11ee60231f2140eU, 0x2a0ae804ea013423U, 0xbd9eeab7241bb426U,
  0xcdbdd21518e1d913U, 0x2125113e24ee13e1U, 0x1e4b260d1046f5eeU, 0x3522e80217004befU,
  0x16b0242bc92b3900U, 0xf8dee41500e9b4cdU, 0xfff08f0eff1f4e8U, 0x2910ff130ef60700U,
  0x31220d1409171803U, 0x48c02261e9ff2f23U, 0xbe134cc2c91fff2eU, 0x3cca8bfd26a1335cU,
  0x32bf1512ec154184U, 0xf5538f810402a941U, 0x40d30524e5f66f19U, 0xd6b010ceae5520e0U,
  0xfffffec4000004b8U, 0x391000002e2U, 0x46bfffffc7bU, 0x810fffffbcdU,
  0xfffffbf200000679U, 0xfffffd46000004faU, 0x33d0000039aU, 0xffffff6000000542U,
  0x5b1ea0f0517f6e5U, 0xc9e241ec11080301U, 0xd1d72215c8d1eddeU, 0xedde16d5fc09fdfbU,
  0xbfdc0622becfd510U, 0xecae44e214d61548U, 0x78ed60deef8b942U, 0xdffe6314e428d307U,
  0xeecee7e4f802d743U, 0x2cf543cfe60cc429U, 0xcfc415f4aa1bd20bU, 0x42ef78c818fad723U,
  0x2eaf39f3e72adbd0U, 0xfc4a684ae002f54aU, 0xfe7fef6cb1206e6U, 0x1d092143f20ee0fdU,
  0xfdca3713ee35f0d0U, 0x8de34fdd9cec704U, 0x2ae6b8cce3100402U, 0x130bdd0bf414f23cU,
  0x48eebdfad327d745U, 0xe93107501f160577U, 0x49d2e40414461b35U, 0xfb2dc9293e440447U,
  0x4c5c7f7fefaff46U, 0xf6d3daf9f93fd560U, 0x27dbeb0cd94ff716U, 0xe0fcef06e119ea44U,
  0x27efecdfe34f082aU, 0xecf60d2710230c31U, 0xafd5d2ebb4d1e818U, 0xd5f1e904cf03ce22U,
  0xceabb4eadcece528U, 0xa417ee3102f8073cU, 0xa0cfdbc7c708eaf9U, 0x142ccc03fb00cb23U,
  0xefcc323320e52505U, 0x2ed914cc042d422cU, 0xdd0e274bced92814U, 0x38c635ae0bfa1246U,
  0xbe18312b9d910b1eU, 0x6af201c3d50cf9eeU, 0xd7ee0d0ad80a14dfU, 0x2cd7f9fbdb1a1f0bU,
  0xbf16093fe0fc0cefU, 0x48c71bd8edfff423U, 0xf10d0fe9bcd0fc06U, 0x76cb1be4d0eb15c9U,
  0x16cdf22d16391a0aU, 0x42f0c7ff1d0016efU, 0x2febfcfe10432e0eU, 0x2fdd27f10edf1b23U,
  0x200f02cadfe2132fU, 0x49d523b5ecd71fedU, 0x91929eb0de6e6f0U, 0x2df603ebe0e2d7f8U,
  0xf5f142fe10e7c5e7U, 0x2fee26f0dbf2f3f4U, 0xf5ef3b101dede3e3U, 0x1ef008e5d00ed3f5U,
  0xeb083ffd16e8e301U, 0x24ec0cefd4eacafeU, 0xe1f63d0f12e6dafeU, 0x18f41ce9cddee2fbU,
  0xf9cc58f724e8d404U, 0x2af005e1dbf9e4e9U, 0xf00e11ec1ffde71dU, 0x21f7f5f1cfeccc0bU,
  0xf6dd1b0827efc307U, 0x11ea0decd1f1e01aU, 0x1c9440b25d4e010U, 0x29f108eee4e3dc07U,
  0x41409e2fee5e200U, 0xe6e317e3f5d1f51dU, 0xe14f802fed9f1f0U, 0xd9beee01cdd2cef2U,
  0x8f8f1d800f4dfdbU, 0xe5d5daf3e3f1cef9U, 0xfee70310fed7ef07U, 0xdad2ffc1f7cee9fcU,
  0x2713daf10ffc01f9U, 0x3ebdfd5e9c004fdU, 0xf9f006cd15ebcd0dU, 0xfbcaf2e805d6f5ffU,
  0xf2e0d2d9feb50611U, 0xd6cbf0f2e9f5bf1cU, 0xddfecdcd0cdae50dU, 0xfdf422bee3d7e614U,
  0xe4f6e1f6dab603f5U, 0xde7ede004ccf8e9U, 0xd605f3fcf2f004e6U, 0x1ee1f5f9131802cbU,
  0xcd0ff7fbf3e7efefU, 0x10e3fbed0c0e12f2U, 0xcb09fbf1f3e700eaU, 0x16e9f1eb0700fcf3U,
  0xdc0b050d00e0f7edU, 0x4eff8fdfe0a0bceU, 0xc50904f2e2d8e8dcU, 0xfbfdf8e5fc06f2dfU,
  0xd30afcec03e50fd0U, 0x3ebf1ecf800eccbU, 0xd91b00fe0cfff5f1U, 0xfdf9effdf40301e3U,
  0xd81101eceef3eeecU, 0xafbedfbec05f1e6U, 0xcd0d05e8edddefe6U, 0x600e3fcef04e2dbU,
  0x2ed5bad816faed2dU, 0xf4ec12ec01cb0050U, 0x37dadbdd06f8d204U, 0xe1403cd0acb0627U,
  0x31cfe6abf404b01dU, 0xf4e40fc6fbb4c80bU, 0xf6eefa11c5f2be34U, 0x90d75fcdbfee326U,
  0xfdea07edd7eceb06U, 0x2f003be7b5e8bc20U, 0x9f7dae9a7dcdaf5U, 0x47df22f7d3d4c62cU,
  0x22cf13f1fb3acb4fU, 0xc33c1c43b7d9f72dU, 0x36f702ed1429d942U, 0xc371431bbb9d360U,
  0x27cffec7cb27c90eU, 0xff03f602d4d8c736U, 0x3018dcbeefe3ee26U, 0xece9bbf8e1d9fa26U,
  0x5dddfbc1f9e8eb1bU, 0xbe1df1f9d6be022dU, 0x5ad40db313f2ed19U, 0xdc27f10ac7b2ed33U,
  0xff0902cedec2153cU, 0x10ff03d2b5e9f22dU, 0xf6eb08dcc0f8e024U, 0xd70116f0bed2cf3dU,
  0x14d60ac4fff7e324U, 0xcf222617c8e4d11eU, 0xdf90dd6bff2e03dU, 0x112d19e8dce7f22cU,
  0xece0f6d0e307e716U, 0xd91e28f7c9cdcc32U, 0xbc714e80309f310U, 0xe2291c23c3dce325U,
  0xe14082312f12c2cU, 0x2f001d50b0d33fcU, 0xf923ec2c18ff2f51U, 0x5d0ffe013f51516U,
  0x161bf41708fe2e36U, 0xe5e8d5f2f1f30906U, 0xa13ff24ffea2e10U, 0x16d104df27fd360aU,
  0x1c30e838fbef4a12U, 0x1e3dcd71c16292aU, 0x1a3af205fe1634f7U, 0xe2f3d6e50e0e26f7U,
  0xb180c1aec0f4019U, 0x2df4e8f21a263cf3U, 0x181fe809e4144410U, 0x2f8daf82e292a10U,
  0x2231e021e2233ef0U, 0x6f5d40b130234f9U, 0x2fa26fd26d5dd14U, 0xd6600927f6fac22aU,
  0xdae306f01febede8U, 0xc213608cbf3d9fdU, 0xe1ec2508fa08cef2U, 0xc40975fde616fb0aU,
  0xe3ef34f221cfefd9U, 0xe530dd290626abe5U, 0xf2dd23133af2f3bbU, 0xc92edc38effddedfU,
  0xcb0018f4dd12d4e3U, 0x2fd2d110d12cde7U, 0x3dcd180b1bfa13f9U, 0xda1cf8f2f0f0ab10U,
  0x311322c93bdfe20dU, 0xc08cf14f1cab3e9U, 0x20da0ddf41d9fb12U, 0xfc0a09d1fedbe2f2U,
  0xbdb3d09f3e7ccceU, 0x15290404d3dacfe2U, 0x12fa2a120408ddefU, 0x37141efaf0d5c2efU,
  0xf3ed15fa18f2d4f7U, 0xf70c32e801d4e2deU, 0x8f83811eeebd9beU, 0x471d08ffccc5ede7U,
  0xf804200527e8ceedU, 0x36fc2aeaddd3dbcaU, 0xb04f30920e0cbd6U, 0x5f30edefce9f1b7U,
  0xf1fe0402c3e8e0bcU, 0x59f42beae9efe7e2U, 0xdcefe8eed4d3c2f2U, 0x370125f9c7def1efU,
  0xe6e9f8f4f7dfb1f6U, 0x33122f05e702fde0U, 0xecd5eedde005f019U, 0xf215211bdcefef56U,
  0xffe3fde3f50c0511U, 0xfd191734ccf2d057U, 0xc7f1f9ff0e09f0U, 0x4271516e3e6db29U,
  0xf0e4eaf3f830f402U, 0xdc29fa24dcdfeb28U, 0x17d1e7da0318ee13U, 0xdc21ea23e6e7d731U,
  0xf5c6e1f2061afae6U, 0xe823f028f6ebf92aU, 0x2fcff05233bf10aU, 0xfb1ed940e1ea010cU,
  0xf5deebe4f11be8f6U, 0xe220012ff3cff10bU, 0xefddecf4fc09e7ebU, 0xf521ee19f0ea0af5U,
  0xe2c9d80feedd193fU, 0x37c610f2f1decc09U, 0xd6afec00bfdf15e5U, 0xe1f327e1f308c1dbU,
  0xbae9eb29ebed389cU, 0xf9c10be2eacefcebU, 0xf8c7ebf8e8d224edU, 0xfcbe130befb5d331U,
  0x1888d12d05ed13ccU, 0xbd07300af9f4d7e1U, 0x19de0905def914a7U, 0xc8eb191f1ee412f7U,
  0x3500c3defffc3abcU, 0xcff5a512eddfeab8U, 0x2bcd140b1ad214a1U, 0xab09e32afce50fc3U,
  0x28fee438c70309caU, 0xc70ed73403e3f3ebU, 0xbe3e7f2e0fef046U, 0xe8e811eff3eae025U,
  0x23eae3edfbf6f649U, 0xebfdf806f216d459U, 0x26e4f7f5d9fbe82dU, 0x704021ada00ec35U,
  0x8def4eeeffeea26U, 0xf2ea05fed4f1d230U, 0xff8e8e9ff03e2f6U, 0xe009f80df105eb50U,
  0x22e9ebf4ec0ff301U, 0xf71de62aebe4e032U, 0x1100d1efea0cfb19U, 0xdef7d61ae6e3d10fU,
  0x1fedefe0ff1efc02U, 0xe105dd21e3f7e210U, 0x20dce9e7defe0deaU, 0xe825f82be6d8eb29U,
  0xc046c308ecd00f17U, 0x8cc0add0d3de3caU, 0xd10fb80712f22ae3U, 0xedc5e0f31f230dfcU,
  0xe12acd0035061bcaU, 0xc2a4d5e63b092cd6U, 0xe139bb00d6eb3018U, 0xf5d5dfe91119eaeeU,
  0xddfdbbdcff1cfae4U, 0xcbc5fae31a1d12e4U, 0xf602b1ec3c28eefeU, 0xd8dcedf049271fd6U,
  0xdf33aef9f9e61e0aU, 0xf9011203071402f6U, 0xf4fbc505dd03e8eaU, 0xf0fdf8f6121efafcU,
  0xcd20b4df1d07e3f0U, 0xd3de0fd020580ff0U, 0x54e4baf7464df5eeU, 0xa1d3c4f839e12df3U,
  0x54fddc1bdff92bf2U, 0xeac3dad821f45416U, 0x4c07d6de0a0140feU, 0xeec8b7e415031be1U,
  0x8e6d603fd04fdf7U, 0xc8c8b8ec1103131cU, 0x1a00c425c7ed18e2U, 0xdb08fcf2fa042702U,
  0x210adff3baee3e18U, 0x2309d227e2e41204U, 0xce20a17d7e21adaU, 0xf2f6de08180ff7dfU,
  0x1114c910c2060ee7U, 0xf1da2230dd06111aU, 0x3d26f00bc1100b11U, 0x13fbe518e2fad60dU,
  0x47f842dd793cc6ffU, 0x3647f52b0ce525dfU, 0x32bd3f071f19c3fbU, 0x241c0324e21114efU,
  0x291917fd30efc506U, 0xd080ce5f4f9cf0dU, 0x1e1241193e1dedfeU, 0x2e38f81e030a0ddbU,
  0x5033a160fe5d1ceU, 0x3b37111ef1fd01ffU, 0xfd383ceef1060020U, 0x5c1e01faf519d00dU,
  0x260d4536392111aeU, 0x1a17fb22001b19d1U, 0x2f3a4c471f10fbd1U, 0x38241d07f3fdfbedU,
  0x46604a0032fdfd0fU, 0x7705fd05ffe6ea08U, 0xfddddbeed11dc81bU, 0xd1fde625cadfea15U,
  0x1fdedfc8ef04d40cU, 0x7f0adf6edc4c520U, 0xf0e503caecb8b51aU, 0x606e60dbddde041U,
  0x16d3c4aaee6dd847U, 0xe5e6f02fcf0bf335U, 0xf8f1e0d92607c14bU, 0x1a26b042b9fbebfbU,
  0x1ddf20d919e3c910U, 0xff07e521c7d9c327U, 0x1bf1e8de0666cafaU, 0xf7f4f037e1d9d911U,
  0x1bd9f3cdfc09e9ebU, 0x2fffc61fd2c6dec9U, 0xe8e414c9c3e9a9e0U, 0xc2ef721dde1d1faU,
  0xf8f72de89310ec16U, 0x7dcf39a7c691cf06U, 0x15ca0897ec3edef1U, 0x3eb4e5aeb0c6cf04U,
  0xe994e3ea0251cff6U, 0x29bae8f3f2d5ced1U, 0xaacfefb4ccee051bU, 0x5bec3dfe008aedf4U,
  0xf4811db11f0f01d7U, 0xceb0c8b40295bafaU, 0x7c2d6f12ff9f2bfU, 0xf0d5c2bed7d203cbU,
  0xec8741f200d91d11U, 0x1de4310798e2bf24U, 0xb19d29ced20cd1d4U, 0xb7b6c0ecb2bf06ceU,
  0xb1c1ffdeee1dfd97U, 0xe0faed221abee6f9U, 0x2f0bf5ed38101bf6U, 0xb8e4e9eb31f018f8U,
  0x2818e4fc07041602U, 0xdae9c3e6ffd6f0d1U, 0x3810d4e1eff9f7feU, 0xa1e8dd02e8cbf8f2U,
  0xf902240ff50bf7U, 0xf4f91eec25190013U, 0xec3ce4fb04ea28e0U, 0xefd204c204e21006U,
  0xf032efe801c90fe7U, 0xcdc8e8d616e0fe05U, 0xca21f42d0001f9efU, 0xffe720d91a2122e7U,
  0xef22f808f2fc0ad1U, 0xe50bf3261318d0U, 0xed100210eae4fd05U, 0xe6ee04e22af5ff17U,
  0x720000013b3U, 0x165cfffff448U, 0x35790000409bU, 0x263500001fa8U,
  0x1158ffffd806U, 0x14f500002542U, 0xfd0000043beU, 0x12aa00002198U,
  0x374bffffcb12U, 0x14fa00006680U, 0x23d612fc0f0df2eaU, 0xfcf0e806f3e4c308U,
  0x3f3f8f20afbd3efU, 0xf0e1acfa20e2051eU, 0x1911dee719daf8faU, 0x3af3050f17f9ffe9U,
  0xe7f706fa0a09c80cU, 0xf816dc0cfefccce1U, 0xed1fc3f5f005110dU, 0xebfacede0df4fd0dU,
  0x6f10c1a0611edf7U, 0x5fe1cf6e7ffe715U, 0xceaecfd060beecdU, 0xf7fbd70e29fcfd15U,
  0xf6fbe6fbf729f709U, 0xfa00f50709dd07U, 0xb25f8e6ed0de7fdU, 0x15fde7140cf7f9f3U,
  0xfd06f7070000ec04U, 0xfb05fded02f801ecU, 0x210edce9081df8faU, 0x71cf7fb0506d50eU,
  0x130e22ee0b08fc0aU, 0xdef8ea02edf714fdU, 0xdff8f1100fd908d7U, 0x1000eb0dfe15f7eeU,
  0xf0d42cdfcc02d812U, 0xe20a0eef13e30423U, 0xedf9db1215faea0fU, 0xfcefdb190fff25ecU,
  0x12d703e513141ef3U, 0x2dd2ae2e504fc1bU, 0xf5131e01eaf0010bU, 0xeafee91b220ce2feU,
  0x6e9ff2810dc45edU, 0x17fb10f411fe150cU, 0x2ef40f9f5f4fc26U, 0x7fc26f010090044U,
  0x505fe2115f019ebU, 0xecf8013c07d51fe8U, 0x1000ee0b04f413dcU, 0x17e13bf108f9f60fU,
  0x18001ee307f0142aU, 0xf2fe23031a191805U, 0x1e4084212e32df9U, 0xe91b0ccd222204e1U,
  0x32d6bcf4260109eaU, 0x3625c10ae4d9d41bU, 0x3405e7e42d00d3U, 0xe9cde12309e5cee2U,
  0xe708edf11610e4feU, 0xee0af2f9ff2feadeU, 0x3e090007facee330U, 0xf238100405ea35ddU,
  0x7f4db20fbf5c0f4U, 0xe3e03df73415d606U, 0x9fffaf2d51f0fb6U, 0x2cf7d1fee3cb0712U,
  0xe904f9cbeaa906d5U, 0xc8d9e422ef000300U, 0xff110a2315d8c3feU, 0xf7d9f2fed62d07cdU,
  0x14d695ff1919de2dU, 0xf74514a900d32900U, 0x10f4ff12e1f0ed05U, 0x11b4fee7e0c8a4e9U,
  0xe9f617e4e20805f8U, 0x21e82700f8f5c523U, 0xff0420e914dbf30bU, 0xd0f4f90cecdb1a18U,
  0x28f0e9ff03ec0d00U, 0xfee5fa1df5e00befU, 0xfa04fffac8e3fb0cU, 0xf610fefd3c0ee4ffU,
  0xd6fd004809fde118U, 0xff50100ccfd25d8U, 0xdbea17181503f20bU, 0xf4021dd1e10c01e0U,
  0x4e7f8defdfffd02U, 0xf0150812f4ef251cU, 0x1426e520eb0d29ccU, 0xfbe5e3081817240dU,
  0xf30834d1f3140848U, 0xee6f5f219e1e90eU, 0xe0fbe2e4e7d40b05U, 0xedfaed0519002cc0U,
  0xf7010cf732fd1fd5U, 0x200e33bbe507e1fcU, 0x35ff0fecf31d0822U, 0xe115de20040ee609U,
  0xf5fe0e00eff7f4f1U, 0xf9eeebf8f1f2e3dfU, 0xf2f7e7f3e80df9d8U, 0xf8dde2d7e3181609U,
  0xf00fe1e3fcfafd03U, 0xe1101605d9e9e8f7U, 0x2f9fffff3cceaefU, 0xf6ecde06f618f0dfU,
  0xf9eeeacefafcf505U, 0xfb0105e4fefaf4f9U, 0xeaea06f9f6f9e317U, 0x302f4f8f4dfe7dcU,
  0xeae0ed0d11eb01e9U, 0x3ebe101dafcfb01U, 0x5f315edfdf1100dU, 0xebf0e9f0f1f7e604U,
  0xfa11fbf8fad3e5e1U, 0xebeeee04f6e717f0U, 0xefd0d5f8f0ebe809U, 0xf4f3fafaf40ff80bU,
  0xe4e9f203dbe3f514U, 0xee071304fccfe311U, 0x1b19061203f00be3U, 0xedfcee0b11250e31U,
  0xe11df207f9e30ee8U, 0xfb22221b1a28f610U, 0x3e00803e5e0fe02U, 0x1c21f10ee906db04U,
  0xe3fe04090921150fU, 0xdbf0e01ff2de07e4U, 0xfe1afa2c3c0d1208U, 0xeffa07050019f801U,
  0x3a12fbf5df0a0502U, 0x61500e8f2252c12U, 0xdc08eff2f7f6f100U, 0x42133041b2007fbU,
  0x7f0e2eceb0f14f8U, 0x42e916020205df06U, 0x71c12fc0d0121U, 0xd229fc03d6fe0c1bU,
  0xe7fa250939fff7fdU, 0xf609f90f120606cbU, 0x2201050fe42af704U, 0xfd281ae61e0d0306U,
  0xe09ea17fefce4fcU, 0xe7f1fbf5f7d4e5f7U, 0xd608e5e8e80208e4U, 0xd9eaff04e504f8efU,
  0xe50208e4efe1fbfdU, 0xefeac7d0ede4f2U, 0x1faccf5dbe60002U, 0xeed401ef02e107f9U,
  0xc9c91325eedae9e3U, 0xf003ee041cf9dae8U, 0x4ee01f9ee0210faU, 0x24f2e408dedf250eU,
  0xfcfb19100824e415U, 0xf1ff1de7110400e2U, 0x5190df51106dd05U, 0x210907d103e52eebU,
  0x191becf2f1db1926U, 0xdaf4110624f50b17U, 0xe1dd2a0c07db271fU, 0x1d120c032ef9e6ecU,
  0xd8dfff07f11e1623U, 0x2127e003f2121a05U, 0xfd1c1ce528fb2300U, 0xd1dcd81e0fe11f03U,
  0xf8e11ab502d4d9faU, 0xcddc0eeffbe911c9U, 0xf2d8f707f1f40a2bU, 0xbbfc0afa0aee3faaU,
  0xbcc0c25cca00ffdU, 0x320f51c3c7c7f00dU, 0xced4f61aee1afff3U, 0xe00609fbd5ee03fbU,
  0xf4ff02d2dc0cea92U, 0xddeaf5fe080e00ceU, 0xe43302a8e9f80722U, 0xe2d9d9f8d7e3f8ddU,
  0xffdef940f7c9e0e9U, 0xf711ebd8f532ffb7U, 0xe7d7e7f3d5d8fe0fU, 0xf109e4b0fd18fe0aU,
  0xb281604fe06ececU, 0x609cc1bf8e3d109U, 0xccdfe3bcef15e6e1U, 0xe8add5e60123d3f5U,
  0xdd18d9ca18f9e622U, 0x14e005ee15e10bU, 0x2c17e6f2070dfce2U, 0x3cd0204fb0809f0U,
  0x14080310e705ec0aU, 0xef0c05f51d21f200U, 0xec01132a1be614fcU, 0x260af7f50234e311U,
  0xfff52fec0a0ffb21U, 0x1c0c0afdfcf00d32U, 0xe41321f5f40aeaf0U, 0xf4fdeb1d04c80dfdU,
  0xfd0ef9ec2605f80aU, 0xfbe20f07e90f12e1U, 0xe1fe71bf9ea1525U, 0xe60e0eff0401f4e5U,
  0xfde6022ffdfa15e6U, 0x402fcfb2f25e400U, 0x3def9eef21513edU, 0x3c12e21503f2ef1dU,
  0xe81c11f4f5fcf2f9U, 0xaff0d27ffd105efU, 0xfd05d0f61b18e113U, 0xdafc13deee09ff17U,
  0xc01ed610ff14ff1fU, 0xe4f7d4bee707f4c4U, 0x290cc5082ef8c504U, 0xd07f8eaafecb311U,
  0x7e8e3ebefe0b4d5U, 0xc0ffd51114f404f7U, 0xe10ff5c921fcda07U, 0x1402e606f6f2f2f7U,
  0xdc0cbfbbc9faf403U, 0x2ecc004503e8b201U, 0xb3f21062301dded5U, 0x2fe281191afbc0e2U,
  0x70ce0fa0202fd3dU, 0x39d4e329e8e9e015U, 0xf11809353402c2ceU, 0xbd04e8270cebda1cU,
  0x1be917e9f627c7cfU, 0xfaede60252d4ef32U, 0x14f8ddf7d000082cU, 0x32d2feffeed1f4f5U,
  0xcbcfde101fd0f20dU, 0x17f3f6cb2eccc40eU, 0xc6d906030311f223U, 0xde380f02f3011501U,
  0x1212e3e7fe23eeefU, 0xec34f704072411e4U, 0xf6e0f328e52ceedeU, 0xfcf5dbe32cece0efU,
  0xb3dc300c5190a26U, 0x201adae007dcde24U, 0x9ea1bdc3df30be4U, 0xfdfcfbf5d60f1dfeU,
  0x8f3fb0a3a1ee029U, 0xd71cdbf0111cf428U, 0x200e0c2501d8e10bU, 0xfb02f03e13d6ecbcU,
  0xecfce60bcb0dbaf8U, 0x24d10cc62329fafaU, 0xe50b21e80ae8f512U, 0x170ce633060d1dedU,
  0xf910ca0af3f3f1fdU, 0x5d0f5f2d4f3d6f4U, 0xdf9d4e71c1ff51fU, 0xf205cff1e8eec929U,
  0x80f0403dfe506e5U, 0x18fc180517ed03fdU, 0xbeb21fcf8ebf609U, 0xde30efdf30b00fbU,
  0x7f4f6fe0f07ea0dU, 0xf91019f403fa16eeU, 0x7f70c05f4e4031bU, 0x17eb10f501fae6fcU,
  0xfffd14f5e0031802U, 0x18000cfb02f00600U, 0xf2ed0afc11fa0c00U, 0x50307f70eec1318U,
  0xfa08e90805f6f9U, 0xeef00d12f70510f6U, 0x1503cd10f0ff17f7U, 0xf10d0b0316f913f9U,
  0xe3ef0907e6091b01U, 0xfaf8020820efef02U, 0x8fc3721fd080a0dU, 0x26f8e311000107f4U,
  0x2fe0bfc1410f7faU, 0x1f41106faf62509U, 0x1816030e13eed7f4U, 0x91e2cfdf0f8190bU,
  0x381cefeaddf9ccc8U, 0x1d2c2d3f226ebccU, 0xe9d8ddf3152be2feU, 0x533f3db1405d8f1U,
  0xf124da3204d9f8f8U, 0x3c220b11eee9ec09U, 0x22e614f2f226d9dcU, 0xfafce70b053f1404U,
  0xfd16fed6235601e2U, 0xa3ee82020dccb06U, 0x2544eaf0fbf1050cU, 0x2fdafefc03fa03edU,
  0xdf05f017fd18d128U, 0x511f3dd1e47f502U, 0xf414141bfde60311U, 0x2d48f9f30800ef17U,
  0x8edf509170bf5dfU, 0xfd250b04f318e6edU, 0x1a0efadd1346c7eeU, 0xfafbe5e628e2eff3U,
  0x293ad601fc00263eU, 0xf7efd3080321f7d1U, 0x1601090fd20a24e2U, 0xfe14e4c8100f02f8U,
  0xdff18010c0221U, 0x20df70c09f4fd32U, 0xe9e800080efee8dfU, 0xcf50419f40212f3U,
  0xfbfed6de1908ef04U, 0xf60005fb10db001eU, 0x181bf9fcf4ea1b01U, 0x131f133948f6f3f3U,
  0x4f60bf9eb1a2c0bU, 0x44f709fafd1bf405U, 0xfa1223f0f1003229U, 0xf80fe3fc09f607feU,
  0xfef11b1522ebebfeU, 0xdf0d3adc071d0e08U, 0x340f020301fde90dU, 0xede62b1c141c1004U,
  0xaf4f109ee0620f6U, 0xfe0715f62110fbf6U, 0x1fdfdcee290cU, 0x1dffecfaebefe201U,
  0xe302030a2cf50df7U, 0xe8e615fdf5e5c5fcU, 0xdd600ae1f52c4400U, 0xfeb1b01d55e3d1baU,
  0x1b59c8e7cc1031U, 0x5bae1006bc42d5feU, 0x44bbf729d692db4cU, 0xcb38f10e103d2cbaU,
  0xe0c5dc0007cae3d2U, 0xcee5cdf26f25e0dU, 0x2dd4fbb11d3117d7U, 0x1af9382dffb9bf11U,
  0xe43e3b4cce51ad1U, 0xd3a7c1fe16c7f8e2U, 0xf61110cc35eb4328U, 0x2500faecd847e3f9U,
  0x5d0463e9d4dde3fdU, 0x1569c4f108f715d0U, 0xe4f2c81135caed0bU, 0xde31b71ff345f1U,
  0x9c9e5432927e8dfU, 0x571d4d07b9a6be2dU, 0x383008eace0826daU, 0xf4001d2421dce93cU,
  0x17020d1d0317f5ebU, 0x22f914fc17fc190fU, 0x1229e2fb05f01819U, 0x60a1ce80a0e0a08U,
  0x10e2100a230bfdeeU, 0x90708111419e908U, 0x1c0210e8fb0efeeeU, 0xb29f6fae1100115U,
  0xc091514040b1714U, 0xfa05052416ee1712U, 0xd2e16161023f50aU, 0xcf71101fe0afaffU,
  0xf328eb00010b0422U, 0x60800f6050d0bU, 0xd070c3009ff1201U, 0xf4050604270c03f7U,
  0x8e50905fbf403f8U, 0x717fbf301f21927U, 0xf40dfef70d151407U, 0xf704fd1dfdf1110aU,
  0xfb0b0303ff1bfef1U, 0xf6f50b17f1f0000eU, 0xf2ffd4ddf21829ecU, 0xffe5081e2dd9c925U,
  0xd81702e5c8e80bf1U, 0x28c1c106edfacbefU, 0xc7d409f705e1111dU, 0x2eee30fcce51bedU,
  0xf1dd211e01c6da18U, 0xda1d22e8c0e10d24U, 0xfeecd728fef0d6e8U, 0xcef20d0302d41dfaU,
  0x1af9e7f4da1501d7U, 0xf1d6370303c4dff3U, 0xe6f62ee9d5e60e03U, 0xde1e40e08f8db09U,
  0xd5dd1017e6c224f7U, 0xf2fcf7ebeb1526e0U, 0xe5d11a0e1adabb35U, 0xe00f29e2f30afaf3U,
  0x22f0bc2208e0e9fcU, 0xf1f7f104f8e81511U, 0xfde9ea09f9f920cdU, 0xd9db1bfe0cebcf1fU,
  0x1215200cdadcfe09U, 0x5fe10f816fa1609U, 0x18e6ff06fdf5f6e2U, 0xf9e4140213eb29d3U,
  0x82ceff20b1b1a18U, 0x15ec0eee0ae0ec19U, 0xf71a1516f10d02d7U, 0x10f5ef2c0019f2d8U,
  0x1cf606ec101101dfU, 0xe114ebccd51214faU, 0x400008f100d5c912U, 0x4122bf6e6d711d7U,
  0xd0e2cf1f0e25b9e7U, 0xc5f7200611f3f601U, 0xe38d403bef933ebU, 0x151a17dfe9d8061bU,
  0xf92b13ea02e121e9U, 0xd503c730110cf2deU, 0xd3f129d1331afbf1U, 0xfe25eaebea2cf4ecU,
  0xbeee314e9d2b611U, 0xca1bf6dbe5d641d9U, 0xf2defdfcf71fc3faU, 0xf9f9fcece0fdfef4U,
  0x14e109201bdada1aU, 0xd3e615ff010b09f4U, 0xce5e60de9fe00fdU, 0x1f7f3ea18df0216U,
  0xfbf8eef9ccdfeffdU, 0xf8fdf9fbf8e1ef04U, 0xee1f08c8f9f3f8fdU, 0x1cd9e41bf10606e5U,
  0x12f009f237d3ff12U, 0xfd130ef7c3f4f7e5U, 0x19eb00f6f8de0804U, 0xd4f8f6fd0afcfff9U,
  0xffeffc0f07f814edU, 0x1fbfff9fb040704U, 0xd8e9f4e8fe13efeeU, 0x1beff0fae5ddf619U,
  0xdaf1def4edf7f2ddU, 0xe6eb031307e6f8f9U, 0x1ce04ef0afff6ecU, 0xfaf41611fff2f307U,
  0x70fff03e0081904U, 0xbc70be90ae003f7U, 0x5ff44d92304f82dU, 0xfea62a2cb5e608efU,
  0x50214312101fab1U, 0xcddd12fcfb0805ccU, 0xc7f8dfb9fbb2d14eU, 0xfa04fff4ede2100bU,
  0x14b21330d5d109a5U, 0x1ffcf05718f0f9faU, 0xcbca1fb7e81115e7U, 0xf01e99d1af21902U,
  0xe92df3bffb0922fcU, 0xcd9e521e3ecf8f4U, 0xf2dbf4f3e50bb8caU, 0xeedbef8dc73a04feU,
  0x17da13eb2fbe0552U, 0xc3701ea2305fa3cU, 0x18f20001d5fbf4b8U, 0xaeb13052023e5c8U,
  0x1b0619eb0145fbd4U, 0xed29e4d82603023dU, 0xb529f90f3efff617U, 0x28be0441eae9f4b5U,
  0xfffff29e00001d07U, 0x44b000036d8U, 0xffffe21500004190U, 0x50ff0000186bU,
  0x3efefffff701U, 0xfffff998000012f6U, 0xffffebcdfffffed0U, 0xffffd1060000191fU,
  0xc290000371fU, 0x2522000024dbU, 0x13e5daeb101f00e6U, 0xf1f6e8f1ec01f200U,
  0xf22411fb32ddf8e9U, 0xe70203f511eaf2e8U, 0xef101e6effaed09U, 0x11f0ecf8fa120f02U,
  0xe8edda00f2fbfbffU, 0x22504ee0de70ae5U, 0xfdf6090905f8e4f5U, 0x2ef30f0900f7f002U,
  0x12f4eff5fe230c07U, 0x9f5fb200a03ec09U, 0xe718050110de0205U, 0xf208f6101c0ef1f1U,
  0x14ed02e6ffefeb0bU, 0x1610f80df812fd03U, 0xae3f011f9f8ee06U, 0xf31dfd0314ed1311U,
  0x804e0fc10040619U, 0x11f108fc0ff6ff20U, 0xf903f511e911060cU, 0xe9f1260ff6edf0U,
  0x251117e701ee09f7U, 0xe9e904060702f517U, 0xf3fc0a1a03ec21faU, 0xfb0d041418fe17eeU,
  0xfe051bf3fce2f5f7U, 0x13ec1df9f8f4f717U, 0xfbec16f400000b1dU, 0xe2010616010727f7U,
  0xf8fdf60bf80c10f2U, 0xeb0201fd00e3060aU, 0xf9071fedfef70918U, 0xddf70aff090509U,
  0x6f50f17f60200eeU, 0xf80cf11af80221efU, 0xf11112f30bec0bf9U, 0xf81515f8fc06091dU,
  0x18ebef2003010509U, 0xf2f60425fd0af90fU, 0x15061a07f6050608U, 0xf4faf50119e6000dU,
  0xafd08ff03e9001fU, 0x1bdf00181b01f316U, 0xfb05f824ff071101U, 0x28260c09f8fb080bU,
  0xf9080305e63923f6U, 0xeff2fb251727030aU, 0x112331e9191cfe0dU, 0xff1a0e1a23f3f1f6U,
  0x1d13e514d907f6feU, 0x1cf61617221a0a0aU, 0xfd070623083200f0U, 0xfe2e0ef31506ff19U,
  0xfb21edeef0f42decU, 0x909e10eeb07020eU, 0x60bfdff092a1c10U, 0xf3050ef7f8250bffU,
  0x81a081c0feefffdU, 0xf40719e31d0a0c08U, 0xfb20f20bf1f01402U, 0xed0a38fc031b08e8U,
  0xe0f9101af224f1f7U, 0xf608f2090505f8fdU, 0xe930061502030df3U, 0xf1f5e000e8e6f1e5U,
  0xd1013010f1803e9U, 0x505e0f2f81b1301U, 0xdd10ebfaeff42000U, 0xeadc1aeb0cf2dff4U,
  0xf2f21b09fbffe902U, 0xeae7ee0ce21bf803U, 0xf20ee9f7eaf01d02U, 0xef13030802f5fcfaU,
  0xf9de2b110ae5ee08U, 0xe9ed14f7f309ebf4U, 0xed0eeef7fffbf5daU, 0x70af21202e90fffU,
  0xff0af2fbf5f511fdU, 0xedfc13fde700f50cU, 0x5eaedf70406f103U, 0xfdf807fe0009efU,
  0xf30eeaed05fa11fbU, 0x2f7efdf00faf504U, 0xedf3fff2f310ffe8U, 0xfefc03fc07fcfc0aU,
  0xe915efeafafce9f5U, 0xf7fe071606f702f9U, 0x10e402f507f6f909U, 0x1111312f10a00ebU,
  0xfe0f05313bf114f7U, 0xee1937dc16231ed9U, 0x2ad9f7022bff041fU, 0x10070ddf18eef539U,
  0x16f80014e70532d0U, 0x1e0f22328d9f8e6U, 0xe31a14d6fcdfefceU, 0x1e2fe050af2fcf7U,
  0x80503e931f3090cU, 0xfef3e009c6f71af2U, 0x21f8111424dafd01U, 0xe1f619f4ffdfeed4U,
  0x4da06dffbf4fef8U, 0xe7d4cde208e20b1bU, 0xf30a10e8b008fff4U, 0x18061221ecdbfe01U,
  0x5f604ff1106ffe7U, 0xeee415f91301f416U, 0x2e6e9fb1df90310U, 0x23021c14f3f1f604U,
  0xd050007fdd803efU, 0xdef8f61ef8e9efe8U, 0xbf91401fc080101U, 0x12f403faee060718U,
  0xf7010618edfe2610U, 0xe715fb140af2fff8U, 0xeef6111003ebf909U, 0xef913fff204f31fU,
  0xafcf003fa190317U, 0xf9080227f302131bU, 0xe7fc04101b0604fcU, 0xf5e91d1902ee08fbU,
  0x100105f4e2f70118U, 0x1fd0a02ef020d14U, 0xedf4f519fbf61819U, 0xf2090908090506f0U,
  0xe51b19fc02fc04U, 0x11f904fd07fff919U, 0x8f9080ef3fcf60aU, 0xedf6fe1108ff0d14U,
  0xeefc020409f7f803U, 0x4f70c1006f40813U, 0xb0f04fceeeef717U, 0x4fe0704fd0209U,
  0xefdfd1b1ae70602U, 0x2d51101e52af0e8U, 0x6e3dbfff111f62eU, 0xf3020cd512fb14e1U,
  0xc926fd07fcd9ff0fU, 0xe9000bedfd010101U, 0xe0ee0209070700feU, 0x1deee306ed15f707U,
  0x1315080dd2fb0efaU, 0xea01f6fb11e6e917U, 0x2fdf0ddf05020df8U, 0x6ebf529060420f1U,
  0x114fbe4fc26f4f9U, 0xf00a10fd02e61eebU, 0xf722eaf8f4f4050dU, 0xeaf913f1f1f30ef9U,
  0xead4ff36f0ff16f8U, 0xe804e803f706f2dbU, 0xfc114208fdee10daU, 0xf628e5eaccffef28U,
  0xdff1ef2f6070520U, 0xd003ea34fef00f02U, 0xf6030513d61407e0U, 0xf3e4081fec28efe3U,
  0xdf2331f6f0e8fad3U, 0x62de001f22124faU, 0x5faedf0f7e7f30bU, 0xc3212408f11a2aefU,
  0xf8ddfe020b29e1f4U, 0xe0191bea0f03faebU, 0x112e9e8e5122004U, 0xe1f3da19e70912U,
  0x11f41c07db2a0b08U, 0x9dffbf1fa26e8fcU, 0xe63c14fef3e010e7U, 0xc19e1ecfefa0718U,
  0x10ed00d3f0dcf4f3U, 0xf41911f41a090bU, 0x12e90cf8f7fef0e0U, 0xdf140df2f3d5f2f7U,
  0xf60cddf71cff09f9U, 0x5e5faf228f806feU, 0xf9f10af4ed2117ecU, 0x1702fcee03f7e6fdU,
  0xdd140bf416000be1U, 0x6fcea0417e412f8U, 0xf908e8f2e1e40ef4U, 0xf5201af603ef09d8U,
  0xfbd5f6eef3160705U, 0xbf616dbfc12dd04U, 0xf608f4090d0423f3U, 0xfe00f9edfcdbe8eaU,
  0x15feecfc2fe5f6feU, 0xf8fdeef5f9f1dbdaU, 0xf7e4010e01f406f3U, 0xf90f0725080f0d01U,
  0x5160bf7fdfbfff3U, 0x4ff0df11fd6ebfeU, 0x14f1f8f0f30fd10bU, 0x18f1f50b03eefffcU,
  0xde05e2e52cfafaf3U, 0x10fe2eef2f0e808U, 0xfc270e07f2e21efbU, 0x2fbf0e7030cfd18U,
  0x1de517fd1b0de8fbU, 0xeb17f0ff03eefeffU, 0x804e2e60ff6ff06U, 0x16dfe3ff1ee3f3f1U,
  0xffe9fc03e8f2f7dcU, 0xfbf1f002ecebed08U, 0xfdfc00fb0af7e6feU, 0xf9e7f801ffe805f5U,
  0xcf404ed06fde902U, 0x809f7f110ecf3f7U, 0xfaf1e40ef4e4fd0aU, 0x27f70ffef2ffea02U,
  0x1e2f9eb05f1ec07U, 0xfef1e3ec0febfc18U, 0xfe01020e15ec03efU, 0xfdffe11c04e608f1U,
  0xbf509e5fce9f101U, 0xf8eafbfafc00f8fcU, 0xed07edf810f3d723U, 0xe02e70f2a0517f4U,
  0xffff61df8eb12e8U, 0x1d000def020df7f2U, 0xbfa18f0ff16f50cU, 0xfeecfcfe1a01ea1fU,
  0xff22ee130df803ebU, 0x1706ed1d1a0209f8U, 0x380009f60efaecfbU, 0xeb10fe1307eedd0aU,
  0xff23fff0ff0305fbU, 0xf0edef0805050cedU, 0x31903f8f115ea0eU, 0xdf0faebf10f09ecU,
  0xff06f207e6f9e716U, 0xeffffaed0f0c01fcU, 0xf0edeef9f9f3f8f3U, 0x8100f06fee9e3feU,
  0xf4e407d91310f0ecU, 0xe606f5f501f6dfefU, 0x10f9fceff61bfb0fU, 0xfdf4eaf0fdfaede6U,
  0xf3fefcf1f00cfa05U, 0xffe4f8e9fcf7f5fdU, 0xdfeb01ec08e804U, 0x9eaf700fef818U,
  0xf4f1f0eaf6f30fe0U, 0x1051106f1e2ecf3U, 0xfffd03e4f6f7f4efU, 0x3f304f8fbf90a02U,
  0x11fbe7edf80df6f1U, 0x27ffec1207f7fcf5U, 0x110fe9060cf0e0e9U, 0x510f920fb53280aU,
  0x2ececdf00f8f50aU, 0x102f13011d02f931U, 0xf50cfa05f109f0f1U, 0x2fefec0802edeaeaU,
  0x91ccdef08201106U, 0xf6eeea0c1e0cf6e8U, 0xd2d15ff0e0ee6edU, 0xfffdf001e316001fU,
  0xff8030d08ded9d4U, 0xf311e507f81dfff5U, 0x11feecee04f60afcU, 0xf62514ff1e04f0e6U,
  0x601f4fc3006dd12U, 0xd2bf7ebf1eae206U, 0x22ec0d202317e8U, 0x6ead4d906070c0fU,
  0x2a1d04f907100410U, 0xf7de0825fbf8ddf7U, 0xc0207ee19faf300U, 0x26ffdb0c1413fe05U,
  0x140d0df70aeb02eeU, 0x1110f6f811f9fbf3U, 0x18ff11e203f2ff17U, 0x706f1fe002009f7U,
  0xfcfe1a0716050cU, 0x70600f5050602eeU, 0xc08171d19000106U, 0x130a0cf40bfcf517U,
  0x12f50cf7141107faU, 0xaf3f40a0106060bU, 0xef080f011b0800efU, 0xf615010cfd050bfcU,
  0x11108f116f9fe10U, 0xfb050b0dff160206U, 0xf00f60f04151b1dU, 0x6f1080007fb06f9U,
  0xfd1e020f0cf7f4f4U, 0xdf804f010080910U, 0x2912fd170bfa0d14U, 0xeff2218f518fb20U,
  0x13fdea08fc04f7ecU, 0x141407152df9060cU, 0x14d6070902051209U, 0xf7e000e807053c17U,
  0xa18f411e0ee01e9U, 0x11217f212e0fb02U, 0xc3f1fde2fe0221d1U, 0xefe8070a0b22e12dU,
  0xeea05f116101901U, 0x1830df29e0ebf5c6U, 0xdb093afa0ad6251cU, 0xde05efdad50d0bebU,
  0x11e72613061ed612U, 0xf80823f8ee01070bU, 0x1a2aef0bef1308e5U, 0xfafbfaede7ecfa27U,
  0x5f51ae6f3fe21f4U, 0x14fe0ff00d1de3ffU, 0xe20d03f1cdec2df5U, 0xdff8030ae81ef4f8U,
  0xe50a05f3f4f40a17U, 0xde0509e1e5081503U, 0xf40ae30de027e9fcU, 0xf7f5feff01fce90fU,
  0x1b04e3ee0cf101deU, 0x11f4f3f7fefc071fU, 0xf415e9eef1ee0208U, 0xf2010714fc09f8f0U,
  0xf5eb0516fa0f04f2U, 0x1ec19f1ec1bf70aU, 0x9f7ecf7e9060b0bU, 0xd61ce90002ec0d1cU,
  0xf1f5f7f9f916ffe1U, 0xeef40dfbfc0701eeU, 0xe4f514f1f50be916U, 0xeaf9f4fbf5e5ff07U,
  0x51de7280000fcfbU, 0xedfc0617efed20faU, 0xfe01fd08feede0eeU, 0xe70111e5f920f40bU,
  0xeffdf0fffcf4fd02U, 0xf202e1fdfbfe0cfbU, 0xfafdfdf9f6ea12e8U, 0xf5fcf7fde2fdf9ffU,
  0xf0fd1ae40520fa19U, 0xf903f70305090ef9U, 0x1505ec04e90ef001U, 0xc1bc70ff30302e4U,
  0x32070cf5ec2910f8U, 0x190eedf1f4effae5U, 0xc2faf3d7fffe0301U, 0x8e5f2ee0d1dea01U,
  0xff8f6f8ee04fa0fU, 0x1232fa23c8ecfde7U, 0x81dfbfbffdf0cddU, 0xf1de6e31af5f702U,
  0xeec009ef2903e1dcU, 0x7fde42ff225f40dU, 0x1e28ead3e60f08dbU, 0xda1fe0f5fbe916f7U,
  0xaf9fee41bf4d225U, 0x3d91dd71d111709U, 0xe5f0d20a1736fcefU, 0x4808d7c90efb22d8U,
  0xb12edf3e5e6ffe1U, 0xa091fb602eeda2eU, 0xf7171bd2200fe8c9U, 0xfd00c61413270103U,
  0x3808f1e1fe0af5deU, 0x2626d8dcfbfc1ddcU, 0x4f0f70507ff08f1U, 0xee13eefdebfcfef7U,
  0xf9f901eefafbffe7U, 0xfeea050d0ce8fdf1U, 0xfe04f5f7f60becf8U, 0x12eef1fc07eb04faU,
  0x3fde9fcf7f803f9U, 0xeff004ef0414f5ecU, 0xf3f8f70b0cf3f70fU, 0xecf710efe704f807U,
  0xdf3f6fcee04020bU, 0xfb1ce3fdf7fe06f3U, 0xf201030cf20c03e3U, 0xf5f4f8f40908f60bU,
  0xf918f6e70201ebefU, 0xf7fe0508ebfd06f8U, 0xfc09f103ee1004f7U, 0xe3020708dfed01ecU,
  0xf1020feefff0fc02U, 0xfc09f903100deb0cU, 0x14f6fb04f60bfcffU, 0x1801ebf1f0f7ffecU,
  0xdfffb0e090e04fbU, 0xeaf6f8d506dd17fbU, 0x19f920e313d3ebe5U, 0xeef129fff7f7fc18U,
  0xffdfcce8f10119d3U, 0xf2f6041aebf62adfU, 0xf918ffe30dfaebe8U, 0x1a170cf7f0e1fbf4U,
  0xfadd1bfef00cfafeU, 0x4eeebec1a04e8e5U, 0x1205080e19040d08U, 0x1711d8eff41202U,
  0xcff250406ffe5edU, 0xeeffe5e0fdf623U, 0xecf1eeff01f210dfU, 0xa3c0dec11fd0cf8U,
  0x1510fa17f7121b00U, 0x2eb20e822f7f4ecU, 0xd4f11af11d2cf4f9U, 0xf2f7f7e2082a0f08U,
  0xd4140c1de0f917edU, 0xf80a05f2fefee2fbU, 0xf0f302f3f0f700f1U, 0xf8eae5092ebc0103U,
  0x14fc330f26f423ecU, 0xd8fde6ea0f2b2613U, 0x17e611df0feac8deU, 0xe10a03fc2dfd0cfbU,
  0x18f0b0e2d2c0dde2U, 0xd40503eefafd0be5U, 0x3ce910edebe12ff3U, 0x1ff4f33b12bcfbdeU,
  0x1c0337661fec3526U, 0xfdd2f8d002001304U, 0xd000bf703cf2437U, 0xd9f2e1dc22ec4d21U,
  0x109ff092ec3f7f3U, 0x9c216f911fc09f7U, 0xf7dbeff01b4234d4U, 0x1130dcc20cdf82dU,
  0xe57fecfe24062918U, 0x17ef2602f5cc05eaU, 0xe7e760f3edfdfeb0U, 0x2b9efeacb44faddU,
  0xe732f2a81ef1d4eaU, 0x2bd124cae5d11a06U, 0x4db02f316002218U, 0x3dce0733c0e0fabeU,
  0xfedc01de33eb04d6U, 0xd8e9f2ef39080005U, 0x35ee12ec3bda0621U, 0x18ce17e22cdcfadcU,
  0x4d3060bf8b4ebcdU, 0x30d0040f0de9f8e8U, 0xca05f1c613d3fa11U, 0x17e2f41731130315U,
  0x17d5f8fb12e6ebfcU, 0x18faf906bd04f9e6U, 0x2cedeff10f03fef9U, 0xeee8ecb91ff702edU,
  0xfff80b00f8f6e706U, 0xcecef2ea34e7f043U, 0x2520f615c130cdf2U, 0x341adc080d0eed15U,
  0xeb21dafc01e8d4f3U, 0x111cf0150df5ea04U, 0xfbd0eae4400a0d22U, 0x2300dfea072adcd6U,
  0xffffed7400000c97U, 0x2291ffffd25dU, 0xffffefb8000014a6U, 0x134d00001368U,
  0x133300002190U, 0xffffee1f000028e2U, 0x148dffffd576U, 0x18690000152cU,
  0x15c200002256U, 0x256200000387U, 0xe1353dffdbf109f2U, 0xedef1ef9e60c21d6U,
  0xfdf339e9eee2fa04U, 0xe752efd00ae305eeU, 0xf2c4ff10e127eef2U, 0x14ed1214ec031be2U,
  0x1c1d24f5f52800b6U, 0x126ece107b1f00fU, 0xf516dcafe11a0bf9U, 0xcdff5f8240925f4U,
  0x131ae6fb0928eaceU, 0xe5ec0b01db48e00dU, 0x110718efcfdce602U, 0xec250de0fafcdc0cU,
  0xcafc0609f20004e7U, 0x9f2e518011406e8U, 0x9ebf4030126e9fcU, 0x18eaed0d0cdcef10U,
  0xee470afb2502ef03U, 0xe313f0251b0cdbe0U, 0xd5e8f50018ec11efU, 0xf62bdfccf91bf5c2U,
  0xe90a38f2c202e60aU, 0x22fd0314fc001014U, 0x47e7f53c06fefb16U, 0xf112d0d282232d9U,
  0xd3010f171deaddf2U, 0x32f703f417f4000cU, 0x15e9de0dfc06ec2dU, 0x311a211614d0fd28U,
  0xe012060ae61b0ee6U, 0xfa21f2f4f602010eU, 0x41f19d2fb050c1fU, 0xe103eaf60a191027U,
  0x1e020430f82b1d00U, 0xf08e805032dd0deU, 0x1a2f1afd15fae800U, 0x1d08e1d13e050efdU,
  0xa1800f0e50f0a04U, 0x2011d5180b2f1409U, 0xc1af7eeff41f6d5U, 0xed1c161005efd3e4U,
  0xf423d3c20eed1209U, 0xfa09cd040cf9d1fdU, 0x320c0c11130b13d0U, 0xf126d2dce30c01d5U,
  0x11001901f5b7dbb3U, 0xd0fce0be2d0216beU, 0xc5dfeef1090eeb02U, 0x1b00fcdf16e351f7U,
  0x1d0f19db1d08efcfU, 0x1c011e2afcf5f6faU, 0xf622c906d20e250cU, 0xd401d7dd0c15bdfaU,
  0xf2f61ed10dedfe04U, 0xcf1b2eceaf0ecc5U, 0x1ddf2fede4d2cfd4U, 0x2714e5f5daf511c4U,
  0xd5e2f2e0150ad1e1U, 0xc30321e025e8fc12U, 0xf904e604d6f7ebf8U, 0xfdcbef13cecdf214U,
  0xf709f9f6f40ae804U, 0xeaec08d5dfefdae4U, 0xe0cf2d913fc03fbU, 0x1419def52f1ceadaU,
  0x1afc0209d6f818e3U, 0x9fad80bea320d15U, 0xdbe10cf3f10fdaf7U, 0x160220fb17f60a08U,
  0xe433cf09f310fbf4U, 0x1cf2f5cce4f60bf7U, 0xf91405f8f60f1800U, 0xf3e206f2102101f0U,
  0x71e1f180cfb06e5U, 0x5ecd71c0802eee6U, 0x60039e6c1edebcfU, 0xf3000be511fe11d7U,
  0xcaf3e908e91cde05U, 0xfe032b1121121700U, 0x1817e9fdeaf727ecU, 0xfb1617f2e7eee5feU,
  0x1b13fbf800182e0bU, 0xf1ffe3002801e000U, 0xf11b5de908eb3301U, 0x2229f2f72415fcf4U,
  0x22f323f6e50900f6U, 0x51e16ea0c0036f7U, 0x10edecf73b19e1fcU, 0x3044d0a18d515d4U,
  0x2d052810f0f8260bU, 0x9d1050e1703eddfU, 0xf7223ff9e6e81fe6U, 0xe90cee151fd00d10U,
  0xfdf6130409dc39f0U, 0x36f51208e2172310U, 0x14021af0fa18040eU, 0xeeff321502f8fbf0U,
  0xe302e70713d902edU, 0xcef305e105d61afbU, 0x19dcf7d8fd1318e0U, 0xf2ea30faecfee804U,
  0xec1f05e5def6e8deU, 0x20added1bfcf5f9U, 0xede3ea0c0bea23e6U, 0xe0ce6f2e6f525eeU,
  0xe6dffff7e8dedaeeU, 0xe0052c04c1d300cdU, 0xe805ede5140004e5U, 0xd0e7defcfffefe10U,
  0x32fb1beed0f53d09U, 0xf20503f6fe15f1ecU, 0x15020ed5cfaee2e0U, 0xedfce8fd09feeef8U,
  0x111de704e3d6edf8U, 0xc04f8ff1d1106feU, 0xee022824ebeb0918U, 0xd2ce0f84b29e711U,
  0xbe60901034df411U, 0x42380406f400df1bU, 0x26003406faf2fcddU, 0xbcf5050ceff7f82dU,
  0xee0f02db1ffae22aU, 0x160ffc4532e80113U, 0x2d19f24dfc33223cU, 0x1e312df42211e4ecU,
  0xfb03fafb2812054fU, 0xce1419ea2d0fc337U, 0x401f92b42082056U, 0xec10ee2a07e628d9U,
  0x58fe194e0a2810d5U, 0x130d26033a29152dU, 0x201d1eef3126ff34U, 0x17180c4c393501fbU,
  0x240cf124002e000cU, 0x37f532e6fdf914e7U, 0xd272c30011be81aU, 0x91e16fffefe0528U,
  0x706f00312153dfdU, 0xe6f0d714ca200818U, 0x1119f4eb0e0b01e2U, 0x2ec160808f1daefU,
  0xeb031dd3dc0bf6f9U, 0x1422f1143c0144f8U, 0x2e90615dff2263aU, 0x71046f7020820ecU,
  0xe40ceb180126db02U, 0xeaeb07f8eeecf716U, 0x9fd05f71a0511feU, 0xcf0af5fc14fa041cU,
  0x1909240c3a2514ddU, 0x19e5fe2018f2f202U, 0xfa0b30f90a0ff10fU, 0x50ad90ef0212119U,
  0x5f6f51917f6f1f7U, 0xf21410f74301fdd9U, 0x18e3f50afdf201efU, 0xf815dbecf913f202U,
  0xfdd2f5d50204ecdeU, 0x2140df320c82137U, 0x80be5caf71ddee6U, 0xc071be7e4e8f7eeU,
  0x208e80a2120bfU, 0x13e914fb01ececc7U, 0x11f319e6ec24142fU, 0xe07e12908fffa05U,
  0x2acadcf10af1efebU, 0x2fad8e0d4e92201U, 0xf7e9d6d30f02e0c3U, 0xf20d0cf014d1f9c5U,
  0xf7e5d7ca14f5ff20U, 0x1715efedfd1106e7U, 0xe300f7c8d5da0afdU, 0xe4ddc8d6df05ac04U,
  0xdf0538ea0df8eaf7U, 0xfb18d6f625f6bfdeU, 0x1efa05d6e8f0e4deU, 0xfd16fa0af00d04dcU,
  0xebf8dcd2e1f0d3f8U, 0xd40a26170fe9e8eeU, 0x164001de27010ff8U, 0x45e1eed2ebf5f21dU,
  0x13f1d8d704e81af8U, 0xf0d9c9d3e505c7ddU, 0xf2e215b72ad109f0U, 0xbadabcb9fce4e6d0U,
  0x80ff604e69c08cdU, 0x1ed6e8e0fcfc2ab8U, 0xae081307d90ce2f8U, 0xd0f62f0cfdeb00deU,
  0xdf2ca3000ae2d5c9U, 0xe9e1fffcd4e2e9feU, 0x701b4edc8fe24e1U, 0xeaf7f5e8b1e4deccU,
  0xd2325bcd5142300U, 0x4bfd0802fa1b0eU, 0x19d1e9d9fe07e3fcU, 0xd8e1340800e2eafdU,
  0xcffbe218d310e30dU, 0xdbde0212dbe7e9e8U, 0xdbc0c920e1c4ed09U, 0xf30618d6e11a2615U,
  0xf2e00d11000901efU, 0x17f4261c0a12eafcU, 0x173e422603f60414U, 0xf403ded0201307f9U,
  0x12d2f7041ae916feU, 0x3ef80ed61f2933f9U, 0xfd21e02316051404U, 0x240f16fd0f0d170dU,
  0xf902e7fafecaf931U, 0xfefc0508201feaU, 0x23f6fd0805161912U, 0xebdf18f7db47f9e3U,
  0xf8fa0c0003f9e50bU, 0xe83be0f225f202ecU, 0xfd1bf42f0c0cecf9U, 0x21defd14ffdef62dU,
  0xf20b3603f412ecfeU, 0x312df91f1508eef1U, 0xd43d12f626caf313U, 0x1c34e2ba07ef04f3U,
  0xf0eb13e51f06191aU, 0xfaf2e5d10c08f2U, 0x4d814281217f8d8U, 0x3f91d04f4e301e1U,
  0xe5de23edf15df520U, 0xf6d8e1e7d5ebd4e9U, 0x114f0315cdde1015U, 0xf7f5e9f9d2fae609U,
  0xe7f70528f8e50725U, 0xd50fdcd80133ffefU, 0xeffdfd12dec9bef3U, 0xf447f41c05f614e6U,
  0x1cdef0edfac62ae6U, 0xeded0b00f2f2e412U, 0xebe4ee36de0c151bU, 0x81bd52604d1bcf3U,
  0xe91f65d7e4f61ad1U, 0xecfde41df313ea5aU, 0x1ced310dd6e636f6U, 0xaff21e101d291d40U,
  0xf2f30904b4cee803U, 0xee171618ff0e4cffU, 0xe1e5df08b7042c2dU, 0xcff146ff11e42521U,
  0xb0370de1d01b4d03U, 0x94718e2f3e7fa09U, 0xf807e429380ffd0cU, 0xfad7fde3fbf32e18U,
  0x1bf30a26e62f2feaU, 0xe3f412030211e702U, 0x23251bf21ae7f7ebU, 0x240e2835f03019U,
  0xef040517ee180018U, 0x27f522efed1bfad4U, 0x13e21304f1f9211cU, 0xe62a01f7300d0511U,
  0x12e0061d0a051b00U, 0x460bf80aff22152eU, 0xee123fe06270d0eU, 0xd813f1f923ff1831U,
  0x170e1bf412310c07U, 0xfc14190007d60a0cU, 0xed70df7f8f63c14U, 0xffed101dfc072101U,
  0xf3fa300a24042a0bU, 0xeef634162d17f205U, 0x2103fb0a08e0170dU, 0x15f9e622ed0b11faU,
  0xf93d111707220ae0U, 0xf5f51dfafcfc00f4U, 0xc29f1e842130607U, 0xede5ed10fef118fbU,
  0x36f8e31df6ff0a3cU, 0xf126fae8f7e5fbeeU, 0xfe5d70108eee71cU, 0xf2efece44919ffedU,
  0x600d42313312d05U, 0xf2f1cb36ee2f0e01U, 0x1cee0efde61ae4f9U, 0x193aee071122dc39U,
  0x20d01f51be5e328U, 0x40eff33b2a180b01U, 0x601ec32231d07f3U, 0x120c311ffe250ffcU,
  0x272d06ea2e200c1bU, 0x92911dff1cb012fU, 0x113bfc012240111bU, 0xae2fe062a33fee1U,
  0x1c3ff916dd07fee9U, 0x160105e52315e01cU, 0xeff4012901dafe2fU, 0xb21091010093204U,
  0x1260a0d0c211af4U, 0xf3fae4e6fef8f62aU, 0xf20be3dde00417faU, 0xf5fa16141812090dU,
  0x1bf8f4cf191a05d6U, 0x191d11c70c15fcf3U, 0x9e912f9ecda062bU, 0xdbfaefef081c3704U,
  0xe3ef0242f60fe7e7U, 0xeb2723ffe40af4dcU, 0xe11ff90bdc0aecd1U, 0xe7f6f2f814fb2e4eU,
  0xee03e1eb0afbf8c0U, 0xfa110233df0e08f1U, 0x2f061a0f25ec01edU, 0xd6f3e6fef11706e4U,
  0x407faf108030b4eU, 0xdaf5f4faf72b0f0aU, 0x21ee2c27f306021dU, 0xedfdeae2f6dd00e1U,
  0xcbf324f5f7fbfdffU, 0xfec5bee1f0fce4c1U, 0x33e40bd1ba07e0c9U, 0xd5e6eddacf0628d3U,
  0xdbc9c5efff084201U, 0xc4f225021fd535ebU, 0x23deec5aae09f9c7U, 0xffdb7fdcf3cffc6bU,
  0xfda932cf3c02dcf5U, 0xf0d412a2e5ec98f7U, 0xbefc2df423e510f9U, 0x1b35090f120617ceU,
  0x1ef71cd5e34206e5U, 0xf230feeee01312d0U, 0x3210d52d1605ae2fU, 0x3d0e08ebecf93ca3U,
  0xd735d9a220d41b49U, 0x4db052fe89a34cdU, 0x3a41dcfe3efff0dcU, 0xb1d32df326240b29U,
  0x280c2aebfcb73ffeU, 0x2e00d5182627b20fU, 0x5faf0e0bac100f1U, 0x2f6163a4e3308e6U,
  0xe9291e00e30524f0U, 0xf606f3efdf0ae715U, 0xef22051eeeec0618U, 0xf8dfe417051a1410U,
  0xfcfafa08fd040cc7U, 0xe010f6e9e112f224U, 0xf4fd19d5faddf5f9U, 0xe30d22f8e8f31014U,
  0xf7f9e52a11051321U, 0xe5fc2019ecdccb06U, 0xf7f8122ce90c3509U, 0xe613e8dfe3e2de23U,
  0x14130cfbf2f109U, 0xffe7fbdef306fcU, 0xe1f21bfff30907eeU, 0x1903160be6fa0ddcU,
  0x7c803e3eaf8fdf8U, 0xf2032013e2e91201U, 0xecece1fdfc02030cU, 0x1101fffcfdeddfefU,
  0xf4f702e7ea060a19U, 0x10dbe108faf2d8f4U, 0x7cddfd8d602dfd7U, 0x10dffbe7d20deee8U,
  0xeb1feac1d206eeb2U, 0xc9e4c8cddbd1fcd2U, 0x9b350eca0defd6daU, 0x1e17cfede61ddad0U,
  0x4c10617d8dcd0ecU, 0xcbd2f5dbe82a34ecU, 0xf9d3fa08c6c7fad4U, 0x2703eaf714b9d714U,
  0xe7d606c1d82327e4U, 0xf7e0dc3bf8d40ec8U, 0xd80613e0ce240cb9U, 0xf70e0b23091b10d8U,
  0x112be80af6f1f450U, 0xdff123e2bb2298f8U, 0x1209e41e38da662cU, 0xc15b8123a1fbff8U,
  0x6cc333fddfed3fa9U, 0x2920f10bfe23e10cU, 0x2cf12dc9df48cb0cU, 0xf92bf2332e10220aU,
  0xfcfb02054a1bd33bU, 0xe71ffd100cf2fde5U, 0xe1bcf7090e1c21daU, 0x3a1404e3e1011e00U,
  0xfa122b12e00719faU, 0xf31bfef3c1f804f7U, 0xe616212736eefef3U, 0x3f906fa15fefef2U,
  0xfe09f5f7f3f7d7f6U, 0xf9fdff1fcff1f6feU, 0x1c3009ecdbd4ddf9U, 0xe3f5ef3af0faf809U,
  0xfbf5e1e7080f0b1dU, 0x22ff2aecd518f7cfU, 0x32f3c700f1fd0c4dU, 0xe3dcffdffd11d807U,
  0xcf2def0a1edb150fU, 0xfef3f408f50d0eddU, 0xebe75c34f6f2e9caU, 0xfed543091cfd0030U,
  0xdae50dd83ae8e2f7U, 0xf417133717e9432bU, 0x3903ddf228f1f608U, 0xd5f9d305fcdaf2ebU,
  0xb0cd5dadcf2d5edU, 0xefddd7fefbd0f123U, 0xede40fe1e3eab018U, 0x1ae109f50104d3d1U,
  0xe322d812ef13c126U, 0xf90903f9e911e3ecU, 0xd8f6ebec00f60610U, 0xf02614ddf4e6eef9U,
  0xefddd290ff701daU, 0xf0e9caff0210cde1U, 0x152400d31c021ef7U, 0xf107c42003d2ee05U,
  0x2715f5c7fff731U, 0xc5d8ee0b1132c6f5U, 0xf5bee01f0b05f7d6U, 0xc050fd7fb01f2f7U,
  0xcd8fde9eef6ddU, 0x1f1237220ab5f817U, 0x110d0ff61a13fefeU, 0xd80d0e251efeff19U,
  0xf81cfa0b07243918U, 0x302260023f33905U, 0x3d070b1c0c3be9U, 0xc9dd04ccf60d1ff8U,
  0x7f23605e9ee1c04U, 0xeef1ff0c08072306U, 0x180432f9cf01060aU, 0xef2c04f71a1f3203U,
  0xe3fe3bdef9fb2506U, 0x60422f118060812U, 0xde6e91f181f2dfaU, 0xf507fb1e06e3e9f0U,
  0xeeef17f3e4fc12ebU, 0xf4dbc7cff006f632U, 0xd9fb26f1fdf01618U, 0xd3effe5107faf9efU,
  0x10d2ebf90105efdeU, 0x1f338ebd0dbf6beU, 0xfddbf7f101f9adfcU, 0xc5baf4ecfe03dc0fU,
  0x1ce01f4d531f4U, 0xee8dc030309dbddU, 0xf50820c2dfd31bd6U, 0xf916fbf1e50bdc3aU,
  0xffffda16000024e8U, 0xfffffe2000005628U, 0xffff95b300002825U, 0x5a43ffffd586U,
  0xffffdb22000071ccU, 0xffffafe300001940U, 0xf00ffffbf51U, 0x16d300002fc5U,
  0xfffffe130000420bU, 0x19c1000035c7U, 0x111a1314fafe1413U, 0xe118c01dc8e93900U,
  0xfe1831f9b923cc1bU, 0xd6c60aecf7fdf624U, 0x2be3d9db1016dd4eU, 0x2d7e816c4e43606U,
  0x16dec926e3ed3912U, 0x1fa1624f8f9eceeU, 0xe2e80bfa18240c0dU, 0x1b0abcfceeece320U,
  0xe09081ffedd121eU, 0x9cefe25e8f7f127U, 0xf4cf212206f4e6efU, 0x4eafa18fa13fa03U,
  0xf930fbf5f0b80c0cU, 0x2e14e728e10ce32eU, 0xe9f2de08ebf41c10U, 0x11ebea1b1614d11dU,
  0xedeeed23243cf11bU, 0xf0bd3feded20a01U, 0xf9ffd0edf3fbf918U, 0xe8c9e31fede406f0U,
  0xe8ecfa0204f7eeU, 0xefe6cd0c02eade06U, 0x1b12dad0ee042015U, 0x5f5e603080a0df2U,
  0xf70c13100fe5feeeU, 0xff090cf108f1dbfbU, 0x1fcf503f2dfd90fU, 0xccf0f3ede501e5ecU,
  0x4e0d8ebe7f7f5feU, 0xe3f80af8ebefe7f2U, 0x310f408f905c6f3U, 0xc12fff6fdede811U,
  0xd6f8dc08f00327d9U, 0x7e2daf31305eff9U, 0xee1e13fedef9effaU, 0x50de5e4dad8e70dU,
  0x420e9f211da1411U, 0x1116ebf709de07e9U, 0x1af9df0d2cfa07f3U, 0x9ed1afe140f11f1U,
  0x5f70001ee10f113U, 0xe80f18e508e5edfdU, 0xdfe7e0f6001bf907U, 0xeeec23d5de211af8U,
  0xabf3c8e91c04f2bbU, 0x225e0f90142e9c7U, 0x1d0308becefaf004U, 0x1cdd1020e115e9f9U,
  0xc1fa3bf0e5eb1a0aU, 0xd2f781e5ef24e0b4U, 0x26cefa3001cdecdfU, 0x2a4ac3a7c4dc10a9U,
  0xcf3bfbf401073d05U, 0xeb06ddc81ddf1deeU, 0xe83c2fbb0c181feaU, 0xdcfefef214f1da10U,
  0x2e829a4d5c0f8beU, 0x29c4e838ba1eeec8U, 0xeacb1bc861d101f9U, 0x19db38ec15221ac7U,
  0x28ecc64644f1d50aU, 0x19464cd0f3fd1bbcU, 0x41a906dc17ec6802U, 0xd5df10dddff0ebe5U,
  0xd9cbf4b4f5f722cbU, 0x201400000ca3bd0cU, 0xc18f3fd1802e506U, 0x112ce7f90403fe09U,
  0xe7f6f313f4f4fdU, 0x1aee12e6fb1211f0U, 0x3707faf0fe17f308U, 0xf11f2fd09e1e5eaU,
  0xde05eb0117effae5U, 0xfd09e9ebf3f1f0feU, 0x11fc06eb1616d711U, 0xd17ebf31114ff0cU,
  0xf80bfa1ee8fbf5f5U, 0x1cfcf6241fe508e4U, 0xefe7d5dd002405edU, 0xafafad82e011505U,
  0xf40af9f81af4e303U, 0xfb1efb10faf4f1d4U, 0x28eff33a1909fbfaU, 0x19faedd000fee6e1U,
  0x2510fbef0f080f10U, 0xf0faf00c2807e42eU, 0x21f7171610d809dbU, 0x18f9ee31311bf7eaU,
  0xd7f442130a1fc5fbU, 0xb32ae0f16257d3f9U, 0x22f005001431d22fU, 0xf92ecd0aedee19f3U,
  0x4ecb723b403b9beU, 0xe3f7e5dcfc10bcdcU, 0xa8e81988cb1a272eU, 0xef270dd8451fb114U,
  0x203dae1cf8e63d04U, 0xd1d2fae20dcc1e19U, 0x1efa2e25dcc5f2fcU, 0x2cabe5e6232ccbe8U,
  0x440eb3c4ede6e6dfU, 0xf2042bfe01add80dU, 0xdfdfd9c734cd31b1U, 0x55140fe532eae5ccU,
  0x8dbf13fee32c5e9U, 0xfbddfbd0bddc3dcU, 0xd914c31230d1d7ebU, 0x9fb1cbece9b21efbU,
  0x38c3df1ff90bece1U, 0x18b432b4e61cf201U, 0xa12eff4feebbaceU, 0xfcfbe74c02f80b17U,
  0xf01f2090a092ef7U, 0x19e8dcf6f8fdecf9U, 0x81426e804000838U, 0xe511f2e514f9ee14U,
  0xafef72a0beef6f1U, 0x6fd0020050c23ffU, 0x15e3eae8f505fbeeU, 0x62305eeef05211eU,
  0xd501f1ecff050327U, 0xe5f0112023e7f408U, 0x11f6ee30ff022ff4U, 0xa02e305eb0fdef0U,
  0x3f431f4ee0a0922U, 0x11fc12050eebfd08U, 0xf9fa10280b050602U, 0xaf403ee1012f0eaU,
  0x11dffffffef8e2e2U, 0x1eef0fddd4f808faU, 0xffeef0e70a0cf004U, 0xfffa080603f600feU,
  0xfeffebfa0ddd15e6U, 0x92e10f2e617fc13U, 0x3230a27f4f90cf2U, 0xef0cf22109fe1e26U,
  0xbd2ef09e11dff08U, 0x1cff110e1b23fb1aU, 0xf1f80d0e012ce3f0U, 0xb121d17fbdc0800U,
  0xed11fb09060308efU, 0x21f29de071efe21U, 0x241d200f070cf0e5U, 0x8290b19fa2cf00bU,
  0x29f313eafd151ce9U, 0x1604020431f70703U, 0xe40320eef009f513U, 0x1ff70c132ef102feU,
  0xfa30e60cf8fc0d0cU, 0x30100ded0f0c03f3U, 0x9fa0103220cff01U, 0x1b0cef0b081def23U,
  0x2ff0060a14fc0df8U, 0xebede106f7fbf9f1U, 0x3021600f9dbfbfbU, 0x9ebe5f807f3f4fcU,
  0xf5061d07ecd00617U, 0x27263d05041903U, 0xf0f7191c0c05f5fdU, 0x261a2b0de7fc0900U,
  0x611ec05f6e50b04U, 0xcae802f4f40ae30dU, 0xfc02eefd350f0a00U, 0xfc112d141804eee4U,
  0x60f151715e10ff6U, 0xf9f5e10cfefe0f43U, 0xf90a1d010233130bU, 0xf6140b1424fa3017U,
  0x4190b16e21dda1cU, 0x1b101e22fa071906U, 0xeb08faf2edfae037U, 0xff101cf10b03fa12U,
  0x2602341c1602def8U, 0x70d09f3fa08eb33U, 0x22fb0d2112192fe8U, 0xf6091a0f2aed1a05U,
  0x60125080302eefdU, 0x20e8e80935e122feU, 0x1c1eeff6dbf4fd01U, 0x12fe1904f0faf717U,
  0xd801f2e725f1141eU, 0xe20cf8fdee21d71aU, 0x403f5221010d7e2U, 0xf8eef408e934f0f7U,
  0x132cdbfb0907f2f5U, 0xebe9f0fef5050816U, 0xf60bf22713e0f114U, 0x2d040d0bf8ee0cffU,
  0xe906fa04e80b04f6U, 0x25f50c130604d4fcU, 0xeff9eef032d6fe36U, 0x1911eeef03d11008U,
  0xdfdf62439f7f2e7U, 0xfdf90600f0f902U, 0x3f507f7f9e2d107U, 0x3e5ebf922fcf125U,
  0xedeccdf1f4ecdc20U, 0xeb0c2a0b170916U, 0x2dd110fe900ed0cU, 0x1c060204e5e5f0e9U,
  0xe7c518efff01f227U, 0xc3100f2c415f307U, 0xed2e261f403af109U, 0xd9c62af338272f42U,
  0xef12d0f163927d8U, 0x4018cefdcf0a4014U, 0xa10311ae51913e7U, 0x71b384b22340e01U,
  0xe7eee921c414fc1bU, 0xf9fcc4061a03ef14U, 0xe60ef735c53e2631U, 0xfd2d172e23532af7U,
  0xeb132725de111b06U, 0x83719d369360342U, 0xf30524fcf9093c06U, 0x407053d360f3e23U,
  0x2ae1fbf6d3f6f401U, 0x11f32cf13123012bU, 0x2626021221043641U, 0xf63ee0f15f06f3e0U,
  0x6a58f331cb1e4fddU, 0x5309ee3035e2cffcU, 0x55f7113d09efc4eaU, 0xbdb51124def403c7U,
  0x1d030efd0618bc05U, 0xffa9f5e0d632e1faU, 0xdc1cd0faecb1fe2cU, 0xf015e2d819e22b39U,
  0x3c90e10f5e8f3f1U, 0x1af4e22cf3ebdef5U, 0xe3ff1606ed02f90bU, 0xcc04ddd1d8cce6efU,
  0xc403d8f8df27d90bU, 0xf8fd0108e2f21fe1U, 0xd4fef629d3e2c8e5U, 0x3d09e4fff425fcdbU,
  0xd61fd3f908dd231dU, 0x110401e3f9cb1922U, 0x2e2d052efbeee91cU, 0xede4e8eaecf0e3d1U,
  0xf7d2f128053f0fe8U, 0x1129dbe00a0f1c03U, 0x1b1afb2bc5da0b47U, 0xee090ee3f60af41dU,
  0xd3e7f8231d03e5e8U, 0x213eef919261231U, 0x9fafa0306230f06U, 0x6f827f10ff9ee09U,
  0xff20180e01ff0318U, 0x1e15080c370801ecU, 0x818f91609f51d03U, 0x1aedfffa02240402U,
  0xeefb24210bffe30dU, 0xfa20f9e2071e0209U, 0x621defe10fb05f4U, 0x3fe160412fa0818U,
  0x2ff721020b1cf4e2U, 0x1df01a10ff1904ffU, 0x22e0be721090201U, 0xfc06f8fc1be613faU,
  0x2128fe27f9f51005U, 0x18f71610f426fcefU, 0x19ff2b04041bf8faU, 0xfc01fbff17140e0dU,
  0x110ae70a0c11fb1bU, 0x2122fc1519f60bfdU, 0x60e10160f010800U, 0xffd1e0bfe00f5f6U,
  0x6f81d2d14080af4U, 0xee0be1f31efa24f2U, 0xcf5091100fe16e4U, 0x14151aefff11251fU,
  0xdb18f6dcf7e1dad9U, 0xecfe0a200bfafcffU, 0x5e7f3e402fe0506U, 0x31006fa09efefeeU,
  0x15e7f0ebf7332022U, 0xf1f42721f40804feU, 0x21c160c20fbf1fbU, 0x1004fd0025e9fc0eU,
  0x610fedef0e317e3U, 0x1f50a04f11fff0bU, 0xee007fdf7fbdbfbU, 0xf52d3724f7141f31U,
  0xe24e02427fbeff2U, 0xfc0f0209f4fe211bU, 0x13f50eeefc1a14f0U, 0xf7e510f70e0e0925U,
  0xf00d0a1bf8280aebU, 0xdbf8f5fd07f51712U, 0xec26f0120bf90e11U, 0xfaf6e60a001bcdfdU,
  0x7050cd60bfc0beeU, 0xd919ebfafb00ee2bU, 0x82cecea14e611U, 0x1203fe000df118dcU,
  0xc3061cfef1f9e1f6U, 0xfc08e8e2fc1a09c9U, 0xf7fee914ef1ad91dU, 0x8f2f7f0212101f3U,
  0xf6f7032630f23a03U, 0x516151ce207e6f8U, 0x14de1815180410f8U, 0xfb23042df4110f01U,
  0x20901dfd51b0413U, 0xfc03e5f908eaff0dU, 0x1f15160dec061711U, 0x42f51deb15f4e7ffU,
  0xd237fb080c040efeU, 0x3aeafe0c0d0c071dU, 0xe90ef20b2decfef7U, 0xfafdf800ea28e003U,
  0xaf4f20e2df125faU, 0x2e08f51331370321U, 0x1d020bf904da24f1U, 0x24261f0118ee0708U,
  0xfdebff081502fd0eU, 0x8f31efd021bf320U, 0x200ef0fc002efe0fU, 0x31a003a1b02d50bU,
  0x1d0e180df8ff0df1U, 0x8d307fe0ff2030dU, 0x2bf2fdfff3110302U, 0x7f6e30f252f0f1cU,
  0xe112051bdae02923U, 0xe705100cf3edf417U, 0x15d1001107fd0902U, 0xf103f909e720e820U,
  0x1cf9fe101df8fa0dU, 0x100304f3e4f71723U, 0x1efa1ff62ee6e9f1U, 0xe6e8300d0601ea0bU,
  0xf9fbe2191110020bU, 0x15da0125effd17e7U, 0x512e526f5ff0f24U, 0xfd0d21f9fb040105U,
  0xee0313fc0611eafbU, 0xf8e9fb16f3162be1U, 0xcfe10ef142808f5U, 0xfa02fbf6f5f72dedU,
  0xe50932ffede8ddf2U, 0xecf220d824fae814U, 0x4cef7fde92bd4d9U, 0x11f400da2d0b0ef7U,
  0xf4f827c60c0f02e8U, 0x14051102fdf6f211U, 0xf8051bf7f5e80206U, 0xfedecdf5f2011bd9U,
  0x22f1d9eef8f82af4U, 0xbef04e0edec2407U, 0x1605fcf7cdc8c6ecU, 0x3091105f4e91fe9U,
  0x180407fc0edf20f8U, 0xed1128f32ee9ed22U, 0xf7eb2f05e1fe23f0U, 0x170611eedf0d0222U,
  0xe7082e0601d828f1U, 0xcff00cf2ebfcffe3U, 0xf454411f18112e0cU, 0xfc0e0b3b3410150cU,
  0x7f312111ce8fb13U, 0xacb46130c23fd14U, 0xebfbfbf10108c50bU, 0xf16e5cc030e20fbU,
  0xd3f1d82914d11919U, 0x51f3a1ae8f0e8faU, 0xf00d1609ef291ffcU, 0x13f9e72320060114U,
  0x140503f917f233f9U, 0xfa24e017f0f44601U, 0xfe0f1a17fdf9f2fbU, 0xe4f1211c0aef06f0U,
  0x2d5dcdffb03f401U, 0xeb112ef32a16fc20U, 0x40d2e0c0cee3a20U, 0xf9010411da14e827U,
  0xfef83205e5f71512U, 0xd4f0f609fa220d09U, 0xadbdec918fe2b1aU, 0xfc0222ff05f52829U,
  0xeafbeceeed06e9f1U, 0xd91de818fcf8fdf2U, 0xf609e9d3f0eafff0U, 0x3e807fcf5ede0efU,
  0xf81133eafb0d1de2U, 0xdced03010203ebfcU, 0xfafb1905f3f0fcf7U, 0xf1f7ed02e20a10e5U,
  0xf5f602f2eee0fcf5U, 0xae0e9e3d71bf602U, 0xf7d604e80423f0d0U, 0xf51e15f001f4d4efU,
  0x800ecbff5f135dbU, 0x6f807d904e1f7f1U, 0x2f60fde05f8f900U, 0xdffdfa05050cd5dfU,
  0xed22dceb10fbf403U, 0xf024f7fae9e520f4U, 0x50105f609d5f703U, 0x1192bf6f404e8eaU,
  0x2dfad7e8e4f2f4eeU, 0xebfffdf80ae506deU, 0x9f803e4e7ed03fcU, 0x7d7f3fa07d7ef15U,
  0xf621eb060a40f6e6U, 0x22f90807dc291009U, 0xfc14f4fbfa0ef500U, 0xce1811f9fe05f3fbU,
  0xe006fa05e3f30ff4U, 0x7ccebf70f1916U, 0xed02e70cf20902f6U, 0xe113ddc625e0040cU,
  0xff180d11f70adc13U, 0x819190d1f00f0eeU, 0xfaeb0b0809ddfeU, 0xd9fb131105ec2dfaU,
  0x15211010ed2804fdU, 0xf1e12a151d02cc06U, 0xfbed1aecd5e60ee9U, 0xeaeee22b1d08e8cdU,
  0x1cffea00f5eefe10U, 0x32fddce4f61d16f9U, 0x1209f5f724fdea15U, 0xe70a0a06f8ec33e2U,
  0x2e1ce4fd12f40e04U, 0x1632102c17070ef5U, 0xccddf3ee3ae4e62fU, 0x14f9e50d10f5ec00U,
  0x20bddf3a313ff9f3U, 0xeb03ec00f402eb1fU, 0x3622ea26eeffe5fbU, 0xdfdbccfd3308e41bU,
  0xf5cc1c1e0a040b0eU, 0xde416221ff40cffU, 0xe52511f025200d17U, 0x1d1719241cffe903U,
  0x107fb26fe00fa01U, 0xfdf3fa05002eebf2U, 0x1a07de3dfe120619U, 0xf71510fbecf5e923U,
  0xd31adc20f6e218ceU, 0x132d5f507d82635U, 0xea1edefde9ed23ffU, 0x6e9dd49e308ddeeU,
  0xe907cfe3171003f0U, 0xccf9e7ffd2210909U, 0xff0ef8f806fde636U, 0xee15ede501dbfd02U,
  0x3c95000014daU, 0x18500004967U, 0x1be000072a2U, 0xffffba6affffc3b1U,
  0xffff7c2400000948U, 0xffffb755000032ecU, 0xfffff44effffe491U, 0x17e2ffffcf47U,
  0x4ca9ffffcdf8U, 0xfffffdd500000001U, 0xe51c2b0e1604050bU, 0x1a080cd6ecd310efU,
  0xfff0270915ee1c03U, 0x2d2fada19ea38f9U, 0x1fef330e28fff3eeU, 0x2528f9efd1fbf62dU,
  0x172b1117dad5f8f7U, 0x2e6fd10f4ef0200U, 0xfaeb0febe004290eU, 0xefdf04f402fbdee0U,
  0x1bfd34c9df08e807U, 0x270af1cfeff400e6U, 0x12141510041a2df9U, 0xdaf60fde1e10f2e8U,
  0xd50f0bfef52b17f2U, 0xd924ea28fcd9fb07U, 0xbf8df0ce7eb33d7U, 0xd1edcf021ae92c17U,
  0xecf415e0f803da0bU, 0x1f08e7e006f9effeU, 0xf5e3ce20d3130af6U, 0xeaf2d9f8fc1508f7U,
  0x1927f0de03150502U, 0x24e4d3f8ec3b0504U, 0xf0acfd2f1da0ce3U, 0x231b12110e0231d7U,
  0xecf4ec23e227d3e8U, 0x1dfec7ecfc2d0df3U, 0xe004d1eb09f9ca2bU, 0x3017d303e6edf707U,
  0xbddfb24fbecf7ecU, 0xcdceb0408ca09d8U, 0xf237f5dcd522db0bU, 0x25033ffa1820e41fU,
  0xf33906f501180614U, 0x1c3de11c02fb16d7U, 0xf711fef5ddea1803U, 0x3e2c1dc1c3cfc0aU,
  0x241d21fef1e9ec16U, 0xdc1dedc6db15ef0cU, 0x1e1eecdae5fdddd6U, 0xdcf5eb17470a01e9U,
  0xcd03f40ad70508d0U, 0xec0dca1dfcf3cc0cU, 0xd0d4c231130deff6U, 0xe4cedd1c0320f8e5U,
  0xc413e6ff081931d5U, 0x2d9f4f1eff11cf7U, 0xdde1f1db0afa0a02U, 0x35df2ee5de1229b2U,
  0x2c25f517170de3deU, 0xfd360df50ecdf6caU, 0xf51e04ee070ff8e3U, 0xcaf63f0cf8bc032dU,
  0x9042e21f2dffe1dU, 0x520ec2acff236d2U, 0x16fdf9fdd8eb07fbU, 0x12e40bfce929f80bU,
  0xe5c2db39eefe181bU, 0xf60c3513e445d8c8U, 0xedb9c407c8d800ecU, 0xfcbeddf3d8f5f3fcU,
  0xeb241ce4c9fd07d7U, 0xe4c6f10adfe4da14U, 0xc608edff06e619d0U, 0x1803fd25da02f40fU,
  0x1dfbd61dfa17fe08U, 0xf83aeb1bfefc25ddU, 0x13e61cc8eeef14dbU, 0xeb1bd0e8ff2df406U,
  0x23e428dffdc13915U, 0x1e3acb28e21be4e1U, 0x171d1709e0e2e304U, 0xe7e2d9f7ebfa033cU,
  0xda3a18000e27e5cfU, 0xfa05d32cc6e3f0f6U, 0xdbe2c6ebe81d01e3U, 0xbb6c90effe9c711U,
  0xd2f82d03dae3f626U, 0xf9e70049f61a11c4U, 0x133cd6e2da2ff7f5U, 0xc4cadbe50ae9adc8U,
  0xecf123624544ec1U, 0xc2d9f1af4bd5e301U, 0x2938fb20f03bf53fU, 0x23e23726dc2bf5faU,
  0xe723b21712f5f6c2U, 0xaf7fbb92f1f34b8U, 0xf216dcdb3be81245U, 0xe02e14c6ebab0832U,
  0xf5e2f12316ede2f8U, 0xcaf4d922ea26dde3U, 0xe0230df308140311U, 0xd9f2d5dce901ed2fU,
  0xdcfb23eb10d3df0cU, 0xcbf3fa2027faeffcU, 0xd1f3cfee1be4fe09U, 0xe6141ad7e9fb1623U,
  0xf23c12fff4e7e800U, 0xdee90c1ff0cbe0f4U, 0xf3d70125fa0af2f2U, 0xddf4ea1a06fff800U,
  0xffa11f2d91d1cf1U, 0xea12f1fecb0b1225U, 0xda18f9f4190ff4faU, 0xe3fdd8fd21141dfaU,
  0xebfb2a23df352805U, 0x30011907f50efefaU, 0xf70ee9f5ffeef3fcU, 0xa0d06e4e7f310fcU,
  0xee05ffe534def9ecU, 0xf3e10ecc19f7e806U, 0xfc0100ebf2fe0f23U, 0x101c06f1fed306f2U,
  0xc0bf711faf5ee38U, 0xe7faeef81f06dc10U, 0xf3f1f626151dddf9U, 0x1be3fa26e9f7ec06U,
  0xde2df9e8e5faf5f6U, 0xf80ef20212f904efU, 0x5fc1bf2d102ec0aU, 0x1d16fdfae4fae3eeU,
  0xe414f216e418f808U, 0xe510ede8f9edfcdfU, 0xee1bf2313337f9f5U, 0x1eaeef3e7ff1907U,
  0x2e08061cf006fcefU, 0xe8030613df120b0dU, 0xe00901db1403fd0dU, 0xdefb190903f5f005U,
  0xfbe8f20add00f515U, 0x4f1ee07eb0af7ffU, 0xf6fbfc04eff7f314U, 0xe9e116091afcdcecU,
  0xef1fed170d2ede04U, 0x20fb21f6ef1019efU, 0xdeb011505ec16eeU, 0x520d9e518f51b01U,
  0x19edf5ed0f1fdb04U, 0xf1e9f40409ffd40fU, 0x27fc020de5f2f1f2U, 0xff3fe1bf41e27f2U,
  0x6d5f002040fedfeU, 0x1d2fbe80a040310U, 0x11dfbfb0027f1f7U, 0xf0fedaed12cceff4U,
  0xf91e0fe112d81dc4U, 0x12fee804e4da07f8U, 0x9254003eaf8cde1U, 0xffeff11fea02de4bU,
  0xe0e9cd0ed60bf4f7U, 0x1b29f3d8d8ead3e5U, 0x1ea0c010fd204fdU, 0x220528f7d7f3f2e3U,
  0xf9fc0f21171204deU, 0xe4d7e5f509eb050aU, 0xe727f70cfd0f0101U, 0x34e7f8f024f9f615U,
  0x110304fef13333f1U, 0x24e8ffd40ff32926U, 0x31b40d6fc0c0001U, 0xcf73ae9fef40401U,
  0xedff09d7e310U, 0xde01f61c073f12e3U, 0x340aebde0e050b01U, 0xfe0e130c03e81814U,
  0xfc05f8d30c18fde7U, 0xf403240f1be717d4U, 0x9040a000a260809U, 0x6d916e7f8f104fbU,
  0x260503f90a0a14U, 0x16e91fdef5ede8f9U, 0x2cdbea0cefede7dfU, 0x719f527060214e0U,
  0x4e019d9e8f61dfdU, 0xf00b11f41a02ff0eU, 0x90001db04f6dc15U, 0x520e204feea1905U,
  0x1617f2260dfdecefU, 0xf1fb15d815e40c02U, 0xf313d2f73203f718U, 0xdfb134eb0af9054cU,
  0x19a6021527e0e912U, 0xeaedcbf6fbeb0906U, 0x29d6c726c02dcbd2U, 0xa6ecef0bf7bbebe7U,
  0xe338e10be80bc8cbU, 0x16ce640c1b0ddb2aU, 0x1a0d1ff51916ce05U, 0xe207370802a338edU,
  0xedfc050437e30de8U, 0x1d441fddc4e5ffffU, 0xe6eff3fe0505f8e3U, 0xe0d4dacde9c5edU,
  0xdb1e22a3908dde2U, 0x422930fe0bc451e8U, 0x12bc570b3b0ceb00U, 0x47f654edc9fef3e6U,
  0x242b033a3e310affU, 0x39e03e232e22472cU, 0x17e7fdcafdde0605U, 0xe213021d360909e8U,
  0xfff2dd221cca1b16U, 0x26dd281ee4390224U, 0x2dfef192cf92b0dU, 0x2501ea21eefbfb23U,
  0x4922e60f2dc914f0U, 0xce05e5e324f60e0fU, 0xcfd6f5f20beee74aU, 0x23f4fa1e3ee8eff9U,
  0xf30d0b0301f7d61dU, 0x19f8fd1f101617fcU, 0xed27bfe7ebd6090cU, 0xd8e9f4053003f01bU,
  0x23021e231317011bU, 0x1bf6193ae9f20a1dU, 0x40f70be4c404e0bbU, 0xe11a6d9f4d1eae8U,
  0xe0ce34f7fe490913U, 0xf80b0219dafd1b30U, 0x3a17243234c8edffU, 0x1dfd23faf1cce4dcU,
  0xee1438fadaf6e8d5U, 0xc1dfcbf7301e0d26U, 0xd8d720f1e80cd9b7U, 0x141f0b001208ecc9U,
  0xcbfc25fe1cd14b00U, 0x212ceed32a140df4U, 0x1dea222d0630db0bU, 0x252adff9d7fc35edU,
  0xed1ee3f7e8dbfeeeU, 0x1027d523f201da18U, 0x4e8f7c11d01c621U, 0xf9fb120aeff42802U,
  0x130f4f812f8f115U, 0xa1707f61b0a0ec5U, 0xea3506e003be0714U, 0xf6cf04cbf22ae2efU,
  0x5f0dd06fff9ff16U, 0x10e5deffff25f312U, 0xe5fa1b021eeed9c2U, 0xec1db5dffbf50e2cU,
  0xf719e3d6dc0700f6U, 0x28dedb1df1f918f6U, 0xda2b121fd7dbbde0U, 0xebff16f0e7e0f6cfU,
  0x1bf7bafafdf1f402U, 0xd1a1cfffddac82aU, 0x280a09f2f4170cf4U, 0xfe0bfaf31b000dfcU,
  0xef301b0a0e2c10eeU, 0x1dee1ff30f0f0c15U, 0xfe1f0ae718fb12feU, 0x103ea090c0df9f4U,
  0xb06ecea12f627f5U, 0x70e22172bffeae0U, 0x27f92ee906dd100eU, 0x1a1bf909190d1fe3U,
  0x602fa03e3f1edefU, 0xb101decf0dc1cf7U, 0xf8f1f327181911f4U, 0x25100c0e12f1fef0U,
  0xf0f4ec15f60f2c05U, 0x15ebeb0f0b1704fcU, 0x59fb02e8042a0e24U, 0xf1fefafa0c2500f9U,
  0xf7082c0b0b06ecfeU, 0xe6ea0ce20fee26fbU, 0xfde011f909fde71eU, 0x100d1efb201af136U,
  0xc2d4d604d2fded0aU, 0xe2f9e9e9e2070a03U, 0xd4fbef2deaceebf3U, 0xf1de7e1e1ecc3d5U,
  0xd6080e28dbddd3feU, 0xc61de2fdf2ea1c37U, 0xf11bd0eb112526f8U, 0x9eafcd8e8f20417U,
  0xf4f1cff1daddc327U, 0x7e50de10ed3f7d9U, 0xfdd7da1a22000bf9U, 0x34dc07d4fd04f40bU,
  0x3a3a170ff3e610f0U, 0x2f090ff801e00002U, 0x19e9f6222f06ea09U, 0x25dc15fc151418d6U,
  0xe7df12edf614f6dfU, 0xb3149e60b130dfcU, 0xf4e71df12ef608ffU, 0xfdfdfa053aec33e9U,
  0xf415280530041acbU, 0x40082e2d19dc000dU, 0xffd0bcba0213200fU, 0x5f204410fa22f901U,
  0xfa18daf3bfdad911U, 0x3231d5df06210404U, 0x110f030e40cd160bU, 0x2419fdebfee81102U,
  0x4d07d6e2011700cdU, 0xe9f2f91f0623d8f2U, 0x212ee0bd9e7f2d5U, 0xdbe2d4c52ed70cecU,
  0x1848dbeef9ebd501U, 0x1009e0250445021aU, 0xeefcdbfd03dd20edU, 0xe0f0051d1c4fecefU,
  0xddcf5e704e72c16U, 0xd91038f5e8ba1e25U, 0xf200d212fb01000fU, 0xdb17eee116d700U,
  0xf4ed3525dc22e901U, 0x7fc34c3d5cdcf20U, 0x2f0846e2fee51efaU, 0xc8ea06f513dc361aU,
  0x1bb0ff172eeaedd8U, 0x2dfc16022112030bU, 0x120a08fce10ae817U, 0x170501051afe1304U,
  0xf3190d25200bffU, 0xc1819fd091b0d0eU, 0xfaf5ffe7220f11f5U, 0xf4f02bf9140110fcU,
  0x261209f720f9eadfU, 0xeff5e71d141011f8U, 0x4f5f3f4e7f4f3faU, 0x70b1c041af802f0U,
  0x18df1f1c150f0409U, 0x11030aeef8f517efU, 0x30ff906fbf30205U, 0xfc05e30103071cf9U,
  0x1f413110b0d1febU, 0xf90115eef4fbe802U, 0xfeee0e0803fbf6e1U, 0xfb0a00f116170b0aU,
  0x1df5fdf3f0e41805U, 0xb060611031416f4U, 0xe9f10afafa13090dU, 0xc10e7f71fedf1f2U,
  0xf00cf9101d14deeeU, 0xfc0307eafae42509U, 0xee040c0719e92a00U, 0xeff8360e011eeff2U,
  0x31e20dfc0024f20bU, 0xff1206010a0315f5U, 0xeb0af61209e61015U, 0x190d10f517ff19e5U,
  0x5f8e50b2af71819U, 0x26faf4f8e30beb01U, 0x26fcfa260105d4f2U, 0xe2f51416d4f1ff17U,
  0xfef5e5020a19defcU, 0xded51b00ec05df02U, 0x28fd01efdeeaebf4U, 0x1505f5f825ffe8d0U,
  0xf6d5e7060210221aU, 0xf3ea10fb17fa0901U, 0x1dfb1b11fa0317fdU, 0x3afcf6e7e9fef707U,
  0x151b0219faf2ef12U, 0xf7f10f200ce11de9U, 0x1619fbe403f9ee0eU, 0x9f72c13fffafff9U,
  0x5fc240c18fceff9U, 0x32004e3fe0cfee7U, 0xef0f07effffc0f10U, 0xeff5fef820f71a09U,
  0x505080a1c01ec19U, 0x14f21013f4ed040bU, 0xdec1912122cf410U, 0xaf106e9f8fc0f20U,
  0x3000e90ce70cf3U, 0xfcf92b0219f4181bU, 0xc07060b0811ec1bU, 0x1ebfa1eec03e1e7U,
  0xb18f814f5f40b0cU, 0xaf3e6f8030e0cfbU, 0x91e041d10ea0012U, 0x11fe0f0810fff4fcU,
  0xf5f920150df60bfdU, 0xf51102e5e723fa04U, 0xf1030d05e5031006U, 0x120904201801030eU,
  0xf4f803f40909eb02U, 0xf2e2e100031313f4U, 0x12fffef3f423f4f5U, 0xfc05f404ef200009U,
  0xf608f8eafce71c27U, 0xe40b35e5e4f70016U, 0x16f614fbf4f3f1f7U, 0xfcddf0ed07fc030bU,
  0xe7101a17d9e80106U, 0x1e08d6ddfeebea1bU, 0x1331e7f4eaf71dfdU, 0xade0f18020e0b13U,
  0xf7eaebf71503fab5U, 0x161e0f1c0c352ff7U, 0x23e40210cb070424U, 0xfae6ddf9eafe1116U,
  0xdaf2eae6f01405U, 0xd2db0114100ee6f1U, 0x4fc18edf60912d9U, 0xf5f4f0d8e0dfe2faU,
  0x1311f8e3fde8fb0cU, 0xdae71413f1e00301U, 0xece12aef2324f407U, 0x39f7b9d9f0f9f006U,
  0x3c1a0840221248eaU, 0xdf13f93d0e00cd51U, 0x2e7faf217eccd08U, 0x3700ce4827461ce7U,
  0xe0eac212cceefbfbU, 0xe20417cedadbbffcU, 0x11f8d81ed1ee1dU, 0xf9043ee8070bd5deU,
  0x5fb173d2af3fe29U, 0xe3d5c1f308461ae5U, 0x19090c06e8c1e61cU, 0xf336ec050eea05feU,
  0xefe4e308d6d10425U, 0xd7c910fdfa17db00U, 0xf9f221f0ff1d2fe2U, 0x50001c4cf81725dfU,
  0x151d10f7e2171303U, 0xe512d2f8e60908feU, 0xfdeefee5f7ed1a14U, 0xf2e9150f090d1911U,
  0x1cb6eec9c304c6f8U, 0x5f8220cd71a01d8U, 0xe8e9bfacc1c8250aU, 0xfbceefdb152aaab4U,
  0x2b0ef21a18ef0fd1U, 0x1ad70ec3ed210c10U, 0x30fc059cdb20d6fcU, 0x2fc2cefb23f91cf7U,
  0x1f41e3b2171b4d46U, 0xd8e83401bd02d01dU, 0x30f050ca7eab6fbU, 0x1207f5afe7def8dbU,
  0xe3c7d52ee8fee8c4U, 0xfbfa23d9df381014U, 0x3c16374c013204f3U, 0x5092a7f26dddaeeU,
  0xe227e81ff547de15U, 0xa24b1a9fee0d618U, 0xbbf5d4d3d95be8dfU, 0x1aedfbfef10ed6e9U,
  0xcb5db9ebf80604fbU, 0xd5efb1bfd32003ecU, 0x1df231e9f405f6f4U, 0x95d1fb3ae7e2d135U,
  0xf628da27db042912U, 0x610f818d8dade08U, 0xe07fe0e1e0a0104U, 0xd21e6f3db15f003U,
  0x9f40c1df6df30f5U, 0xfbe3d423f31fc90bU, 0xd5d12ad0e1ecfdefU, 0x708472e082c0dd2U,
  0xf40df1efe8030de0U, 0xf4fffbeec3e80eU, 0xdcf70e2708e8dd1dU, 0xdce40a160e33fbeeU,
  0x102e00f1e1deecd3U, 0xf1f4e40d18c40d29U, 0xf4f601c6d101f7ceU, 0x22a06db09d014eaU,
  0xe4d205e913fcdb0cU, 0x39f5f7dced16d311U, 0xf14fafbf5d82adaU, 0x20fd0fbe0bfc301bU,
  0x3f0c1e0116e0ffc1U, 0xeee62af20820d01dU, 0x20b11b6f2cf1bf4U, 0xaced10720f0f427U,
  0x13eff42c30be230aU, 0xea2b132be037d1e4U, 0x2a19f2fcc2d6eefcU, 0xdb1a13fa0eb3142bU,
  0xd80be9bfb9b4db01U, 0xe0f810f222dfcec3U, 0x1d29ea19dd17b8e3U, 0xfeb6e842f72521f6U,
  0xfb11dc07daebe111U, 0xfe031fd2dd0906eaU, 0x16e40e1cc00fd2U, 0xcbe2f709c4efeb10U,
  0x1f22f7dcda28f4f4U, 0xea0406eff0c20026U, 0xf0571b280bfaf201U, 0xea0903e315c30b59U,
  0x1bccb501013907fdU, 0xf6f33d0c1744d6daU, 0xd316cceaf6191c04U, 0xe037ecda27dbc902U,
  0x22db090509ebf84aU, 0xdc181eda0d3202dcU, 0x19103117ce06e60cU, 0x93b0cc0fedce0e5U,
  0xdaf002d0e1e510e8U, 0x2beb0b070835dd33U, 0xe8ede1c9f6bf0d08U, 0xff15f3e70b1eecc0U,
  0x253d02c31508ea2dU, 0xf3c727ef38ed4a01U, 0xe752ed1e36fc3b3cU, 0x170401f91f5cfbdcU,
  0x250fed16f7fa1805U, 0xdcdfe0fadecff22eU, 0x1a07d9c6d907c8c6U, 0xc0dcd500f3f0dfccU,
  0xfe173bf0f4f70dc7U, 0x10d6170c3af40410U, 0xd12f9d1ecff1cc4U, 0x21c9d331db14f10dU,
  0xbfd0f2111806ffd2U, 0xd80dd801e4e9ddd6U, 0xf10ceaf0dffbcef9U, 0xf6e817eef8d3f0feU,
  0xf302f117fbff10f8U, 0x2b12e6fae4f317f6U, 0x161af208f2ffe5dfU, 0x3ea22fcf1fbfaf8U,
  0x5e4e3f6f402ddU, 0x1dd090e152ffcf9U, 0x100c0cd0e5ef211bU, 0x2010be7220b05ebU,
  0xe3ed12020ed1eb05U, 0x1eecf21f2318fa0bU, 0x12e80cfe1424ecddU, 0x17edfd0aeb041b2eU,
  0xfc12f9f80104070aU, 0xedec28092ce6081eU, 0xe000f71d17d1eaedU, 0x803dff9ffde0215U,
  0xd13e60f110af7efU, 0xc01f7ec01fb0b1eU, 0xfef6270220fee91eU, 0xede8f401e7e0ee06U,
  0x1feef3bec25fd14U, 0xd9f6eb06ef08f4U, 0x4fff20b160d06f3U, 0xdc0fe4ed0d0fc7f5U,
  0x11fc13080dfce718U, 0xe3eefaf1191fed35U, 0xe9f30bfef0ead8f1U, 0x1205cffeef10f0f7U,
  0xd9d9e707d2dbe40eU, 0x110315d81de414cfU, 0xd7eee517ed2d3302U, 0x7f73afd21d6fc10U,
  0xe913f60c1fff03d8U, 0x13e708fcf6ea030aU, 0x92d11fe06e52011U, 0xd7d5de1e17d80f1fU,
  0xffe1b09040a301dU, 0x21830fb2513f5e9U, 0xedfa1e05fdea1601U, 0x12191bf81de42bd4U,
  0xd8f3170bf2203af2U, 0xbef01d415f5f4eaU, 0x15f7f2fcdd06e4dbU, 0xf20ae909fce6effeU,
  0xf0d808cd16d4ecfbU, 0xf920d10bf302ef68U, 0xf0382eb7d4aff215U, 0x2aefea4ff4d7f49dU,
  0x24ae0b6736f83bdfU, 0x352fc8e5fe310badU, 0xee6ad40a524b323dU, 0xf235f6f50cee30f9U,
  0xfcfd181613d506c2U, 0xc819e01a210fcd0eU, 0x3bfffa0017e664d1U, 0xef382df4fcedeb34U,
  0x1be34707072ae72bU, 0x3f9de220be0dd33U, 0xd412f8f8d00ceffaU, 0xb2f1cb1ccbf6d43fU,
  0xec031ec4d32510f0U, 0xdddcfde4f8f8bbc0U, 0xe5faee01bcdb01fdU, 0xee0cc908e00f04f7U,
  0xbed1f73fff0ceaf9U, 0xcbfa33e6d83245e7U, 0x2ce52a380805e0fdU, 0xe6f3eaf8dc05dc38U,
  0x19070318f317e127U, 0xcf30c16f308ecf5U, 0xea1119f7ecfce70eU, 0xe206e8f919fde108U,
  0xe7e909effa180220U, 0xf7edfd37f928f222U, 0x17ec032af8031103U, 0xe5fb01d900fad304U,
  0xe81202f4faf1fb02U, 0xdcf604eae1fbf327U, 0x10f10919d432eafbU, 0xe9d9f710e3101124U,
  0xf5fee8fb0d08020fU, 0x9f80514f1f9e00bU, 0xf0d604f3ff0cf119U, 0x22f1d10a0615fb1bU,
  0xf6e60340faf410e6U, 0xf2f1e1f6000cf805U, 0xf50110e4f408d2f2U, 0xe02ed05faea271aU,
  0xedeffcea021512e4U, 0x1135f7fdea030502U, 0x1e2134f423e6f419U, 0xe70c2811d1f6e205U,
  0xfe30d5f9d31cd913U, 0xebe7e6f1fce6de09U, 0x504dd1bf70edce1U, 0x1bc9f3040e28f608U,
  0xc0af2e3052310e5U, 0x1f1f1a141825070cU, 0xf1e803f90dfe211cU, 0xfc42d50cd7ff2015U,
  0x11d700e21f13eafdU, 0xf90324faf20109caU, 0xfbf4f511f937f7d9U, 0xf12d13c317e32517U,
  0xf52a02f5e7d512e9U, 0xfa2316e4d7091c1eU, 0xfbd13f0d11f0dfe9U, 0xe5ea20131023e805U,
  0x2a0a03d203ecd7edU, 0xc2402fef8d9ff0bU, 0x3103f02802fc011cU, 0xf6df2df40c0008deU,
  0x6fa0b1608ff30c6U, 0xfbe621e9d8f7fdffU, 0x302b2ef4110518d6U, 0xfbf713ff160004f6U,
  0xecf532e71e0bfefcU, 0x2e06ecf6e5e40fdaU, 0x11f3eaddee12efffU, 0x1e1633d10bebfee6U,
  0xff1ae70015dc0325U, 0x351247e8431225fdU, 0xf5080cff2e0f26f0U, 0x617f4e305070de2U,
  0x10e80cd911ed0dceU, 0xd6f4ed1420d8fee6U, 0xe6eff6e1fe10e6faU, 0x715141bffef20dfU,
  0xfe002b29e0ef22e9U, 0xe502070b2f203118U, 0xc3fbfa0125d5f507U, 0xfdec09f630e0f9e8U,
  0xe9ceddecedd5e1f0U, 0x6ecf40a10f414f6U, 0xe8fef1f3210ef615U, 0xc2e02ef0ee181ef3U,
  0x16060d19e902e0c8U, 0xc071deeeae1b1ebU, 0xccfbc8f5e80af721U, 0xbcc9bbfe1bc1f4f7U,
  0xb3fde4fc0304d400U, 0x1e0fecd9d3fc14f1U, 0xde1802e5e1340cdaU, 0x50ec35f7ba14d120U,
  0xcf22c125d9db13fbU, 0xf81bd734ff21e30cU, 0xf71be7e542e724dbU, 0xe7efcee3fddf0b1eU,
  0xfbf2f510ef54cbffU, 0xbbe6d6fbd1fd05ecU, 0x10181123334f132aU, 0xedee1f18d5f817f0U,
  0x1f112e4c5e0fb2fU, 0x3f8d7e718c00730U, 0xbeb71a4d11f0dee3U, 0x15f7f005fa1de40aU,
  0x4eff8dbd7e60ce8U, 0x2dd0c81204141cccU, 0xe839cf09f2d5070eU, 0xb20e9c71a37e7eeU,
  0xf70300eb68fcef28U, 0x2435ff19f2392917U, 0x122023101931da17U, 0xf0e8fbf6bb0fbefbU,
