/**
  ******************************************************************************
  * @file    network_data_params.c
  * @author  AST Embedded Analytics Research Platform
  * @date    Fri Jan 17 15:43:13 2025
  * @brief   AI Tool Automatic Code Generator for Embedded NN computing
  ******************************************************************************
  * Copyright (c) 2025 STMicroelectronics.
  * All rights reserved.
  *
  * This software is licensed under terms that can be found in the LICENSE file
  * in the root directory of this software component.
  * If no LICENSE file comes with this software, it is provided AS-IS.
  ******************************************************************************
  */

#include "network_data_params.h"


/**  Activations Section  ****************************************************/
ai_handle g_network_activations_table[1 + 2] = {
  AI_HANDLE_PTR(AI_MAGIC_MARKER),
  AI_HANDLE_PTR(NULL),
  AI_HANDLE_PTR(AI_MAGIC_MARKER),
};




/**  Weights Section  ********************************************************/
AI_ALIGNED(32)
const ai_u64 s_network_weights_array_u64[43946] = {
  0xf8f1fa0304f40601U, 0x4fff4f4f9e7ecf6U, 0xe0f14fefe040d00U, 0x25fff00af614100aU,
  0x12f30d020007f310U, 0xcfeff05f0eb1113U, 0x20701e8ee0ceaf3U, 0xfc0efa0617fef317U,
  0xe9fafe0907fc160aU, 0xf5fee9f603f80a06U, 0xf81f121300010de2U, 0xfeeef5fb02080f0dU,
  0xff01f702fefbf9f8U, 0xfae831e4f1f8f5f3U, 0xba4513fefaf1f716U, 0x232226e445fffde6U,
  0xfe3eb3062ab1cee6U, 0xfa0f0014f6011af0U, 0xfb10e9e30415f909U, 0xfff4f41302f30aefU,
  0xd39d0100cd9e9fbU, 0x25e814e6ee0c1ae8U, 0x20fbe604fb070617U, 0x3f20fc5e040e008U,
  0x5f7f90618090c27U, 0xe9fcf7f601f70000U, 0xfcfbf5040aebf7f8U, 0xf415f4e7f40109ecU,
  0x31f7f3ffedffe80aU, 0xa0b09fa16ff1308U, 0xd0e061cfffd02fcU, 0xdffefe2105e9df23U,
  0xf6f71201f80aebc2U, 0xfcf802ea091efb14U, 0x6e5dfeaff0204f3U, 0x4fcf81011040afeU,
  0xc11fff9fa04090aU, 0xfb1300fdfbea15U, 0xf5dfe80b0303091bU, 0x2190c1429faeee6U,
  0xb0cfa0ffaf7fcffU, 0x1e0610f9ff0202edU, 0x1f90c04f6110006U, 0x3ffdf9f903f6effcU,
  0x24ed23dec207f0e8U, 0x1be6fb2321c41821U, 0xe52cf0b7f221f804U, 0xfef21003fb0230f7U,
  0xfc1e0afd11f9f901U, 0x8f9f6fd0efc010eU, 0x44c8de0806f507f7U, 0xd6d2df00151eee36U,
  0xe4d02702effd272eU, 0xee24f3e80b1b1703U, 0x4f00efa0304e709U, 0xe80e0bff0cf00208U,
  0x190bf704010814feU, 0xf2f0000407faf5e3U, 0xedf62519050400f9U, 0xfe0f0cf8fb06eef7U,
  0x50803eaee04fa00U, 0xfd04ef1aecd30015U, 0xf6df16f2fafd1625U, 0x2090b0fe9fe23f3U,
  0x11d9e5fc260ff9f2U, 0xf51b0befedd9faf6U, 0xf6f50913fafc041aU, 0x1c1b5b03071401e6U,
  0xe141d7e3a6020ee5U, 0x11e231fb3be8d9ecU, 0xfa03ebf7230c09d1U, 0x6f1fe06db0cf4edU,
  0xe7eb291528152422U, 0xbddffe0e3fbe301U, 0xf3f1020702f21812U, 0xfd171d170c02fe06U,
  0xef160df0f5f51b05U, 0xf70b12efe9ecfffaU, 0xfef8010404e4f802U, 0x707fc12f3e3d801U,
  0x17f60313faf61b03U, 0x800050703ff08fbU, 0xfbf8040f10f3fcf3U, 0x2faf5f8dce6031cU,
  0x11091e071d0c1d01U, 0xf40df120dfe0de0bU, 0x3fdf6081818e7faU, 0xf3f2112908eddee2U,
  0xfdf9ecf1f7edf502U, 0x6060e000305fd06U, 0xb08fe0d0c0b0c03U, 0x29e8f70bd8270506U,
  0x1e4d10bb07e6ffe8U, 0x6dd10160c2de3dfU, 0xb08fa081cecde0bU, 0xefe5f20409f5f6faU,
  0xe5e9f302fd190c12U, 0xf4040afa161c19e9U, 0xd803c41d30dffb27U, 0xfc1ae8d8fadffeU,
  0x2af6e824d7e13626U, 0x31e06fe1ff30208U, 0x30cf50cde0cf80cU, 0x10eaf5e7fdea130bU,
  0xd723ea05df000efaU, 0xf9eba62206c46000U, 0xeeec3e1ec0f3104aU, 0x7f0f455b20b6f99U,
  0xa070500f9e9fd02U, 0xfd152216fe0afc08U, 0x1c0405090204e6e8U, 0x1305000506ebdee6U,
  0xc0406070305fc0aU, 0xfdeb000c03f50912U, 0xfe0ff4f6fbebe7f4U, 0xe510ff1bfb090a0fU,
  0xf6f10befe1cff311U, 0x7050618efff1206U, 0xf5ce0cfcdb0624f8U, 0xf30ef305f029f813U,
  0xffd512d9f90e0fe0U, 0x2300d90f151fe31bU, 0x4f409fcecf214ffU, 0xf8d607f2161cf72bU,
  0xc0411f9f5eaee07U, 0x60c00feff000e08U, 0xf6ebea01d9060efcU, 0xf60b2700050709eaU,
  0x1fba320bffd1ed0fU, 0xf94df0f9f95ad400U, 0xe2f07ff01da115cbU, 0xd01011ce7fad515U,
  0xf3ffdcf103021103U, 0xe2cce313eff60a2dU, 0xfa0d152117f70e00U, 0x805f7f1ecffff0aU,
  0x4303a28e0e1e606U, 0x90c00f0040511f5U, 0xfd20fef5f9ece5f1U, 0xa05fbf5f9ef11f7U,
  0xc09fde9ed04f10fU, 0xfaee150af9f7f7dcU, 0x181904d1252ecff6U, 0x2418c805f0fbea0bU,
  0xe003001746d7d635U, 0x19ff251fdebd30e0U, 0xfec3bb28ad4ac820U, 0x2aead9ef28183cdbU,
  0xeff9ff0a2828ad2aU, 0xec070d0700fb0906U, 0xf5f8f4140afa2521U, 0xdbebfe08e2ebec0aU,
  0xead204091212fa08U, 0xe222162b2c0512dfU, 0x4dcf6e9ee18f515U, 0xfa1df4e71c1518e9U,
  0x8e2ddf1e501faf4U, 0x6ffe2190a0eeb04U, 0x261eea140c101909U, 0xe594e7ed39f318f9U,
  0xf2de0229150cf122U, 0xd6e01df901291b17U, 0xf5010b0fecf92903U, 0xf12fffadcd6ccf0U,
  0xf003bfdf1200a11U, 0x3f40c1304f4d20fU, 0xebf7f6ea0e030600U, 0xf7fdf70a02f7f7ffU,
  0xf3f00e02f70207fbU, 0x7de0c0afd2243f4U, 0xf7191ed8f9f124feU, 0xefe90d11eb100ddfU,
  0xfa16ddf3fcea1601U, 0xfae3d6060421ffeaU, 0x2718ea06fc0010efU, 0x9fe11f4f72114f5U,
  0x100af3eefd09041aU, 0xfdfd04f00a1af911U, 0x3f4dc05fae1f007U, 0x1106fe190911fdf6U,
  0xbfffaf4f506f402U, 0x9f0fff7e7f7f60cU, 0xf318f4f514f5f80aU, 0x13f00405f10705f0U,
  0xeaff06ff1420ee10U, 0xf3e8170cfc04ededU, 0xe524fa04ecf50d1eU, 0x16f4f7e10b0d09f6U,
  0x309e315fb0b0af7U, 0xfbe8f015bf1d3fdeU, 0x16f8390c0322cd1dU, 0xe4d00cf8ee17dbd2U,
  0x1013f4ebfa06da4cU, 0x1d07f710f702edf7U, 0xf1e409020fec1327U, 0xfdf7fdf3e00f0300U,
  0x6ebfcfcff11fd05U, 0xe8f4f0fafbea0f09U, 0x90608020507060fU, 0xfafe0e14031407fbU,
  0x90b0eedf4eb03feU, 0xf5f5f9ebee0d000fU, 0xce100df008fe0df9U, 0xf6150c1a03df2606U,
  0xd918fc07130300f7U, 0xf6def01bf00044fbU, 0xafcf4fbe3e812f3U, 0xf8f205edf629150cU,
  0xef61811fb03f107U, 0x4f0f90bf000f905U, 0xeee70ff3fc06f907U, 0x5f702fb0afafe03U,
  0xf115fa0104fc0209U, 0xdfe1e2e0e7132622U, 0x301f8070a0f01e6U, 0x8020e1af8040806U,
  0x8526000025e5U, 0xfffff6cafffff305U, 0xfffed7f9000016d2U, 0xffffd36800005d2aU,
  0x15fb00000e07U, 0xffffedc9000041bdU, 0x521100013067U, 0x83e50000def7U,
  0xffff1ef100013bb5U, 0xfffed6edfffff841U, 0xb765000046f9U, 0xffffa5c5000042c9U,
  0x407b000087dfU, 0xc46000002bf7U, 0xffff9788000043d5U, 0x4a1d00000a78U,
  0x3f0400005d5fU, 0xffff7821ffff6d3eU, 0x2a1500006c3dU, 0xffffdb5d00004334U,
  0xfffeabcc000075a8U, 0x75a80000275cU, 0x7e08ffff63d2U, 0x63dd0000250eU,
  0xffffc638ffff5ce9U, 0xffff6d3e00005d5fU, 0xfffff305ffffdf22U, 0x232c000088b6U,
  0x5f42ffff39f3U, 0x3f3affff93f9U, 0x93980000ff6aU, 0x3b75ffff86c8U,
  0xfc1dd3080019ff0bU, 0xebfe23cf15fd050bU, 0x260511e12de13dcfU, 0xfa19ffec2f12e106U,
  0xf3cf36d41c4a1e08U, 0x22283018f71f30f8U, 0xf90611dc292d24e4U, 0x2a490e1022340833U,
  0x3afb11de1cc82520U, 0x2215d11109f7a4bdU, 0xf5b7ced8d107c7fcU, 0x170b154cc7c5ef10U,
  0x43dbef12f2bc130fU, 0xff018ac9052bd9c7U, 0x11d819e5ef04203aU, 0x1a1bff07090cf7e9U,
  0x30b10d9ec230de8U, 0x1321270edceed0f2U, 0xcf19f6b713f4f203U, 0xe808b63d21f1acebU,
  0xeebfc0febb90340U, 0xffdfe71a05dc0348U, 0x1dface17e6dc09d9U, 0xb90909e706041746U,
  0xa302181bab0fd3f4U, 0xc1b114213f4f822U, 0x2c16ea172f1f4df2U, 0x29ed1be322083d01U,
  0xe6f8edc90a9a01f3U, 0xeaf413f61c3920U, 0xfade05ee073fdd0cU, 0x12650b3b1820ff0bU,
  0xb1227cf17f9e206U, 0x1afffad2f2c14252U, 0x9ebd21dd1fe2809U, 0x1505ea08e62ae903U,
  0xbea25eff9eac6f0U, 0xf5e891f01b07cbbcU, 0xffe416e542dc20e4U, 0xbd264059c6eccfe1U,
  0xd82ef80a0406020dU, 0xf5340cfddef9e704U, 0xecb3ede619cdc727U, 0xccd20c0f061ec9dbU,
  0xb813eb0ae40d05f8U, 0xda00072df30a163fU, 0xe92903ecf0f2f113U, 0xf714e702dfd40fd6U,
  0xbbfe1113eded0017U, 0xf212a4e316ad3607U, 0x1421e3f6f1ebf3d6U, 0x12f9fad8c407091dU,
  0xed12c72ebccbe8cfU, 0xee14f23adba2e0cdU, 0xcd2c0821c020f90dU, 0xf30def2f34e1a50bU,
  0xf5dffee1848e02f2U, 0x1404100103f4cdfeU, 0x1727def80e191f07U, 0x14e5dc1ce72e0a2bU,
  0x1713e0fd15dde819U, 0xefd4e00e08de1002U, 0xf612aaedf720fbe4U, 0xfce9f2bad70731f9U,
  0xf6103f2afb0300fdU, 0x804051a0205f1d1U, 0xdd29ded7de0311ebU, 0xee7e981ea000b05U,
  0x19f01603f6c224fbU, 0xf6efe81ffadf289fU, 0x2328db2fe80a09bdU, 0xe4fbecf3c116fa09U,
  0xd9b4ce164939f827U, 0xb3ff1d1a281fe1b7U, 0x1f002ae5badbe809U, 0xc1a8152de7cf31eeU,
  0xeeeeefd340e53a3dU, 0xa01ba11d380ae14bU, 0x15be0ee12cabf0e3U, 0xf039f200e3fb19cbU,
  0x17d1f73c17330bd7U, 0xd5da2ddee905fef6U, 0xb618ef1d0f181101U, 0xd2fadee82333eee6U,
  0xa23b02dae1d8090eU, 0xcac2ef12e3f3f105U, 0xea13eaf405e81400U, 0xe4ed040809c6be14U,
  0x430d412142e5ff06U, 0xef19d7fd41ee26c3U, 0xeedc960ecaca2224U, 0x2d0929cff6b1100bU,
  0xa0ce9e8d0b5f0dbU, 0xd5eddcb028460381U, 0x35fa5e16fa4bc0beU, 0x924fe0dfe35c59fU,
  0x11bfcbdffeffbcf3U, 0xeb21402fee06f733U, 0x1a2b30032d3a1ac3U, 0xc9fdea12dc2513e3U,
  0xfb2cf030dac0fdf0U, 0xc9ba0717f2c31712U, 0xf0ac23f00df7b5daU, 0x62becb31f03b2f5U,
  0xbf8dd923c0fff604U, 0xea1601fbf5f32609U, 0xe34130b1c1807e9U, 0xff17b05349d7ff12U,
  0xfb0b2fd02737ba10U, 0xfc1407be03b030fbU, 0x1efae500f7c90002U, 0xeeedd6812feb109bU,
  0x1191bde191de0d3U, 0x1ed05ea03eee6d3U, 0xc9e02be403010cc4U, 0xeedef2cfe2ee2400U,
  0xf9ff06f8f90722faU, 0xe0dbd043eaf015d3U, 0xecea08dd27faebb9U, 0xd3f81719f5e8f01dU,
  0x4eb1102eaaf0cf6U, 0x214e20bea3829f2U, 0x1dde111505ec0101U, 0x1d41b81ebfa1816U,
  0x2f6040808fdcc81U, 0xf0fd251528c004a2U, 0x82202090513f7e4U, 0xee17fff2f10fe0ebU,
  0xf81a33ffc01801ffU, 0xf70412fd810f36U, 0x2c20c0f7f70d4e09U, 0xf025cc15098195ebU,
  0xd9e008e1effca309U, 0x15f9d0de1124e8f1U, 0xf3f1ebfeeb280b2eU, 0xbc1aebffd1e120d5U,
  0x2de12717370dc708U, 0xd1e01d10ef7042cU, 0x19fa0aff11fc1cadU, 0xfe10011ad41909d5U,
  0xbed1eeb175e0430U, 0x2deb01def9fd1c19U, 0x3a5f6060e280f38U, 0x7efd2201a18f306U,
  0x131b0329f3141d00U, 0xfb1af306021dc5caU, 0xfd1420dadcdccd00U, 0x23f21f89090b0ffbU,
  0xfff8cd4c01d61af4U, 0x22b3631e0fa08e5U, 0x912ee44a72803ecU, 0x1d02c3e217ccf429U,
  0x26fc2e2beffd0931U, 0xff4a0c4019182d09U, 0x1b1b1b27d935e524U, 0xf0410e3640f9eb1bU,
  0xe01adf0c01e4df07U, 0x1f2336cf1df42d31U, 0xd5060a33e3b8081aU, 0x174a16280fb7f4efU,
  0xc4f6dc4bd2aa5317U, 0x81f906e1f1281707U, 0x32dccb2ce60a17caU, 0x1d2706f44302efe3U,
  0xf0c7d0fbf7811020U, 0xe3350c05b5eaec0dU, 0x23059229e3de0023U, 0x28bdeffb18e7ee40U,
  0xf11b3099f2fafee3U, 0x51fc5f9f416f7c0U, 0x9cf11418e1f6f0faU, 0xef0b1212e501ec12U,
  0xf0f5e006d5d322faU, 0xf2f5131dc20edc1bU, 0xf506ecfeedea150eU, 0xd6010af205161511U,
  0xcafb05e5c8f3f9d8U, 0x905fdeb131913deU, 0xe0f605f6f906070aU, 0xdff3f8f920f5d6dcU,
  0x4202efdf9038f1bU, 0xbec0005f00d01eaU, 0x2407b1e4fa0df8fdU, 0xec010c13d706e30eU,
  0xeee15c8dcd8ee08U, 0xfebf6e7ce13c7feU, 0xc7fdf1103ef3b108U, 0x1ff5091124271324U,
  0x181bd1e2efb208deU, 0x18191a21fa0019feU, 0xe9110a00e91227ffU, 0xf1fad1e829d2e9edU,
  0x2bd5b2eb1e01d9e8U, 0xdbeaf4270411f2f2U, 0x15fb0cf9e50d0cfeU, 0x11df0297fb0ee6faU,
  0xede817afe835f9d5U, 0xddf3f3fbef00fbd1U, 0xeb020eed001218e5U, 0xc610161ef018d8f5U,
  0x15efe8ccf5ee11a8U, 0x5fb1ef1d4c002feU, 0xf0e800190e23f30fU, 0xf900fa060b81020bU,
  0x2d1704302ae7fe0bU, 0xf7e4e50cfdec1e0fU, 0x12fb1ff0da0935e1U, 0x311ebdf11e50a05U,
  0x8ec15a5040bfa14U, 0x30eef5ecd8e7ebe5U, 0xf2b3e4de1aedb709U, 0xbddae846ee07251cU,
  0xf3e9210ef6f4e6b6U, 0xe40dd208f1cdf1d2U, 0x8f5fbe21d1211f4U, 0xa08e7e8e5f3f2U,
  0x9fc080be39d05d4U, 0xe6121104ee0de4f0U, 0xdec040de02c8f7e6U, 0x16ff0c120bef1406U,
  0xdafef837f8ea09a4U, 0xa3f00b22051903e4U, 0x1110d00faf6f8d1U, 0xede20c0607dbf932U,
  0xc411fc0ac906b6f3U, 0xf1f1e306ece0f812U, 0xff04e8222102f6ebU, 0xf312190effe6f9f6U,
  0xdcee08b8f419bbedU, 0x161cc8e5eaeec601U, 0xdedf22ebf3ce403aU, 0xef22f12b1001cb19U,
  0xe605c331c01ee8f3U, 0x4ec1ddd9f1e4d51fU, 0xf34222371a1df4c6U, 0xf439dcf40f15f30aU,
  0x3937d309b5f6c73fU, 0x54cb5bde86c81115U, 0xb9f3a613b8f41bd8U, 0x18f520e51c0dba72U,
  0xbc921f0101be023U, 0x11eadcfad50f0c1bU, 0xffe8f0fc181c04f7U, 0xfbf7fa121526f4e4U,
  0x3017b7e09a18a2fbU, 0xf6bff7cff2f11bcdU, 0xebec01f1080e2212U, 0x214e0706cfe0b61cU,
  0xf7e208e0dfeff8c1U, 0xe712ee17c00a02d9U, 0xf92a1b41c9052819U, 0xf1f3f1ccdcf20b01U,
  0xfff2cefbfce7ec1aU, 0xdacf13fff1f3f1daU, 0xd10e9ed011f04eeU, 0xf3faeff4e6ef13d1U,
  0x2affffffae6U, 0xfffffc4d00000205U, 0x241000001beU, 0x309000003fcU,
  0x27e000001d6U, 0x1830000034dU, 0x29c00000274U, 0x1d500000388U,
  0xfffffd9a000002f7U, 0xfffffa9800000059U, 0x3070000031dU, 0x1690000026aU,
  0x14e00000371U, 0x2c300000454U, 0x1c0000002d6U, 0x3c700000240U,
  0xf4effadfff2807eeU, 0xe6f8eaee19f50bfdU, 0xe3182518f41604d2U, 0x9fc00d7f3fb02ecU,
  0xf509ed3420e0e00aU, 0x1006071e0bfdfb1cU, 0xc0ddb01effbf905U, 0xfdfaf22e151cf11dU,
  0x2fd25e0f2171cf1U, 0xddeafaf8dbf6f5e5U, 0x1c02180b16f6f522U, 0x5f9040605fd0e0fU,
  0xd02fce8fc110502U, 0x8f8ee0216f50cf8U, 0xe5080f16fc1a0907U, 0x111bfee702f4f8e7U,
  0x114093516eeed13U, 0x1c041412eef8fb0fU, 0x5f5dce6f7e30503U, 0x2f5fe27fcfd001aU,
  0x13ed0bece9012201U, 0xeef908fdfa0002f2U, 0x18e61a0b2aec070fU, 0x5040cf9fced0613U,
  0xfc02ecfbf61b000dU, 0xc05f700fcedfdfeU, 0xfa0d0efff21e0b0dU, 0xf610f4e400f70207U,
  0xf60a030d1dfbf306U, 0x250f0808f50cec01U, 0xf3e9eff8fcecff00U, 0x300fb09f508110fU,
  0xfde7fdef040912fbU, 0xf1fbf3f3f401fffcU, 0xef306fd080404ffU, 0x3fbf9fb070e21U,
  0xdf9d9c01a1b01f8U, 0x9080b17cff00d2cU, 0xfbebc7091806fd00U, 0xcf30acdde301ff1U,
  0x1100dfcd2c2407f9U, 0xf507fa1aeed80e23U, 0xd6d504042afeddU, 0xfeaf7d1101024eaU,
  0x1601e6de130fe00eU, 0xecf6161aeced1902U, 0x2bd1cc0a06200b0fU, 0xefdf1d91a032cd0U,
  0x30f8e614040409e3U, 0x2eb0f0a08fc0f04U, 0x1af90214effcf903U, 0xe4f8fb15c9ec0af1U,
  0x3ceaf8110bf70ce4U, 0xecf52611200df0f5U, 0xa041600ed1c03f5U, 0xe3f8f30ceae20807U,
  0x1bfed803ee03fbf4U, 0x11f40f12f41d02ffU, 0xfc1300eefc0d00eeU, 0xf20dfd06edee070bU,
  0xe2151626e8d927f4U, 0xf413f1b9fc02f8e8U, 0xf02422ec06e3dbf6U, 0xdd09f430ec05c218U,
  0xbc091027edda23f0U, 0xf2f8ddc9f91318d0U, 0xd40a22fe11f4e9e5U, 0xc910e432f7f2c512U,
  0xce130f13f0ee09d7U, 0x405dcd3f40902f1U, 0xdc0e0d0d1cf40ff5U, 0xe7140b3602fcbd21U,
  0xde080704f1d70115U, 0xf41fba0d0e1918eeU, 0xe20cf618ffe1f90dU, 0xedf3d70d09d7f905U,
  0xa107320b12f9dc0bU, 0xeb23e1fa0b0c51ddU, 0x160e0c1021fc020eU, 0xf2d8c90229000410U,
  0xd4d615e9f829efedU, 0x20ece40103f72cddU, 0x5f0e0f91df6ed37U, 0xeadeda382c03e71fU,
  0x4ff6ea09eefc11f9U, 0xd0e090af4dfcd33U, 0xed07e911d5061d1bU, 0x13190bdec6f51cd9U,
  0xcf3617201af50b04U, 0xe742ac030824f1f8U, 0xa29390ef3f72a07U, 0xf70806e8fe10fee9U,
  0xb0ff32fe18dd09e8U, 0xf608a9e5fb443cd9U, 0xea192f11fce9f913U, 0xe7d5db213107d805U,
  0x61f5c0dbeb072ed8U, 0x16ef4a21e7a6ed0eU, 0xbe0edf8081c0011U, 0x130e1fd4befd1becU,
  0x4819cc090af20612U, 0x6eb1f0decdcb722U, 0x1314e60de61332f4U, 0x110932dccf0223e1U,
  0xcd001f0f02f3f008U, 0xe709e9e71d0d09fbU, 0xf021140fddff1aeaU, 0xfde5bbf81c021129U,
  0xfbf20e16f01311f9U, 0x130a0a0810fefc03U, 0x1113f6ef07f9df0cU, 0x2f8fdfe17f819U,
  0xf5ec021afee925f7U, 0x27fc0dff23e8fe01U, 0xf62cf8e509eee20aU, 0xea12fd06f021e514U,
  0xfa02ef0705da0edfU, 0x17ec06080df5f704U, 0x539e4f600dbf915U, 0xf415fb1ff122db06U,
  0xf50bf7c5130ce30eU, 0xd705f5f7e322fe08U, 0x4e3f404ecf913ebU, 0xff80101e4e702ddU,
  0xf0420cd0825b205U, 0xed0e0702cb19eb1dU, 0x2da1b11ff391dcfU, 0xadb13f706c90df7U,
  0x7040fdcfb20d311U, 0xe322f208cd130d19U, 0xaed0cf2fb20fcd2U, 0x17d408e521e313f1U,
  0xf7fee828f3f40b04U, 0x408050d190608faU, 0xfff9f1f7fcf6f820U, 0xda10fee60b2618ffU,
  0x3eaf329f6dd37ffU, 0xaf9fe0635fdf3dfU, 0xe006e200fff50931U, 0xd71aeef5e62527f6U,
  0xf205ff0e02e818faU, 0xfefe0ff93804fbf4U, 0xfe12e3140b23021eU, 0xec0ef109d0121506U,
  0xee0724e9212b0e01U, 0x28fe10f31316fef3U, 0x2dcff05d7e30c32U, 0xdbf41c1607e6ec13U,
  0xaf227fc1c19f9f6U, 0xebe9221403fa0a11U, 0xf7d6d3e3fa051900U, 0xe715070beb0b00f5U,
  0x100f0ed0f112fafbU, 0xe92a060dd600d522U, 0xdc3e3e7eb150313U, 0x1eece1f6123f2adbU,
  0xf1de0a2f180e0ff4U, 0x3403f7f0291afadbU, 0xeb1e2d0004fee115U, 0xfbf00f130ce6d63cU,
  0x8dc1c183221f0fbU, 0x18ec09fd220d1aebU, 0xf409edfa05f01228U, 0xd9121613e4b9fa22U,
  0x2ed90be20c3cdbf3U, 0x161a11e1020f191cU, 0xf6f4d8070c19220aU, 0x7101b20ed08ff00U,
  0x7f3f9d7f4c81bd2U, 0xbfdf20a04f4fbeeU, 0x33b2c2030f6f6dfU, 0x39f4f4c30226b011U,
  0xf3e61a211beb02f6U, 0x2711f628150eeecfU, 0xfe40070b19fbeb08U, 0x17f5ece107ddc628U,
  0xf8d6231d1d02ef1dU, 0xe0eeef1f40217e2U, 0xdef9e5f80e120bf0U, 0xc100c01e8e7e5f5U,
  0xfd110cf6fbf2fc0dU, 0x1e000417131106fbU, 0x5ecf5f814ff0407U, 0xb15f8f31a11111aU,
  0xd1cd0ef408122016U, 0xaed103e9f0ee2415U, 0xe11011fff2ecf7eeU, 0x8e7f505e0fe08d6U,
  0x2320041618bdf9f2U, 0x1219fe0efe03e120U, 0x8e10505eff001f4U, 0xf62b28071003ed17U,
  0xa0fff14f6e2ef08U, 0x2d12030cf716f608U, 0x2fee3e7160d040eU, 0x1b00e7e430170022U,
  0xcacc21e8f2240d12U, 0xace20cd707e31801U, 0xd91d0ffdfd15fffdU, 0xf4dadeefe9fcfae0U,
  0x1f33f42420d6fd0aU, 0xfd2a091ff511cb3aU, 0x22e6fbff030109eaU, 0xfb133505faf8e635U,
  0xbfb0d16e9defc11U, 0x1500f4f5ef0df9daU, 0x16f5f2e004fc05efU, 0xef4d3f50f1c070eU,
  0xe6ca2ce7fd1de910U, 0xfff624f70ce91b16U, 0xe004fd08e50ff6fbU, 0xf4e7eff800ec16edU,
  0x2013f52d08f006feU, 0xff1e1113ed07c007U, 0x17e219f7f4ee0406U, 0xf30d271eebe90617U,
  0x1610ee0913fdf109U, 0xfe32213d0cbf8f2U, 0xe317e3f50602e9d6U, 0x2102e500f507e4e5U,
  0xf8d30c201b07df1cU, 0x1c0dec05f4d410c5U, 0x20fea13131f07deU, 0x100c0005eefade23U,
  0xf9d012071fdcc414U, 0x1515001ee6e6daa3U, 0x19d5bceb040b29efU, 0x51a0020ff1eee06U,
  0x210701f9112cf2f8U, 0x190c1df2030611ecU, 0xf6e6021be8def71bU, 0x210ccdd5daf80af8U,
  0x9e31911142e07ceU, 0x71eef01220aedf4U, 0x4f6090aef24f3ecU, 0x1a06def20af01312U,
  0x1cf3190101f6ece2U, 0xec0befeb170cd4beU, 0x619f6e4f12507f3U, 0xf6e9e5d620261711U,
  0xca0ee8cae815df07U, 0xea0b15e6fe1913f6U, 0x8e5e7d5d6ecf112U, 0xfde9c113f8050ef9U,
  0xf216d8f6da0afe0eU, 0xfa1f21e6160905eeU, 0xb090cd7ea12de08U, 0xffdbf1141d141b10U,
  0x18eccbd2ea10fb24U, 0xe92819cbf806ee07U, 0xedecfddb0ce806faU, 0xe8c4fd0bd039f632U,
  0x17fff408d6e3ebe5U, 0x5f30ff90cec08fdU, 0x5220e1cfb11f3e6U, 0xe2fa0415fa2bf513U,
  0xdf90a40e1fd1501U, 0xfff5f3f8f20322eeU, 0xb1f2e17f723fee3U, 0xdd1d03fd0209ec15U,
  0x3fa0b29d4031e0eU, 0xde8e8f0c61514ccU, 0x110525030806f4e0U, 0xdc210e23fb18daf3U,
  0xdc080a1d0ae9fd00U, 0xedebeffcdf16edU, 0xc0918f6fd13051bU, 0xeb14ed0af215c700U,
  0xeaf81f400d2611feU, 0x1fbce02c2f71adaU, 0xebfd22fa0200fff4U, 0x22c0a18f3fff800U,
  0x301070e00fd10f4U, 0xc01ccf9f0f6f7f8U, 0x505fb0503e9eeU, 0xe418111bf30bc5ecU,
  0xe610182227f50affU, 0x90edd0ae3fbf4edU, 0x40d14f6000812edU, 0xf72007fef7e8e30fU,
  0xafb162f220f09edU, 0xfef7c70af101dd03U, 0xdc16010b0817f9f1U, 0xf11f111c0612b610U,
  0x2e0221fc1106edf8U, 0xf4ecfbf1f3f8040cU, 0xf11de0ffff1afaf5U, 0xf00fee141312a6e8U,
  0xfaeb1207120bfdddU, 0x1214f3e2f41a0bf9U, 0xe1050404e6f20eU, 0xe012e71421e6fd12U,
  0xe40d01ee3112e730U, 0x2203ff00e30c0814U, 0xe9ed03081ae8fbf7U, 0xd907ffe808d0f1edU,
  0xe42405d426fa382cU, 0xf41cf0f5f5e0f018U, 0xd8fd0503ecd5e335U, 0xbeae4f42dfde3ecU,
  0x2004d3ecfd0b0cf5U, 0x2d210d1102090014U, 0xeef040223090d0fU, 0x163606ec03e3fbe7U,
  0xf250cd409e4ea31U, 0x12d3291a0924e60aU, 0x12f7f812301542feU, 0x13323cefcb2f4c6U,
  0x2311e8d715081f32U, 0x3cdf180b14f00701U, 0x1f9f3e606051c0eU, 0xf330f6cd030206d5U,
  0xbed0ce7fa0704d1U, 0x1017080d02f40315U, 0x13062012f0eff93aU, 0x1d2c00fd18faef00U,
  0xea0328f803f50833U, 0xf9e61a190313e00aU, 0x3f52b0918f11106U, 0x1c29ffd6fe0706d0U,
  0xffe729f60325112bU, 0x1f05f417fc140e06U, 0xe511fde0cd00f839U, 0x131bf8c9113c0df7U,
  0x810b50911cfecd8U, 0xed170414fa21163cU, 0xe80fe512ffc3f6e4U, 0x31f931f3ea12cf10U,
  0xfcf715f5001c0af7U, 0x5e4010bfd151412U, 0xdf8ebf7f4dd0417U, 0xf80cfe080524eaf7U,
  0xf1f62dfdef210122U, 0xebe7effceef9f0cfU, 0xfe31cf3011311fcU, 0xe206eae013f80edfU,
  0xea0fd3f610c50af0U, 0xc0bf414da022140U, 0xfef8e002f6b0f00cU, 0x2afc1d21fc26f200U,
  0xf9162ee6effc0cfdU, 0xae9020314fa01ecU, 0xeee0bf5f3eef81aU, 0xebe5e0030e1ffb03U,
  0xf5f910f8fa15f320U, 0x10f1e1f4f5f6eec0U, 0x21ef33040231080dU, 0xd903e7d100f70ff3U,
  0xf609ef04f0e6e3f5U, 0x30c04ede0de142dU, 0xbebe3f70fd8f716U, 0xeec1417f30af903U,
  0xf12500f807dc0301U, 0xfdeffcf90df802e9U, 0x9fa13f105f70fedU, 0xf3fc04de070b061fU,
  0x19f8070700faeaffU, 0xfdede31102e8edc3U, 0xf40624eafd3310f4U, 0xdc0de8e3080a0709U,
  0xf5eb32090402ffd6U, 0xf3ec081a030509e0U, 0x7d8de20f6ea0202U, 0xc5f41cf708f6d7e6U,
  0xf8f72e05053104e9U, 0xcf31adf14f5ff0dU, 0xfbe20123121915fdU, 0xcef2f4fb1a16efebU,
  0xeedb1ff91103f8f3U, 0xfee1150405fa0af9U, 0x8f70608f20703U, 0xf2e8d2000ef4f80fU,
  0xf0f840fcf71b02f0U, 0x2f12426f21115d5U, 0xcadb826e9e10e08U, 0xac08001712f4d6e3U,
  0xfe005cee072c0df5U, 0xf7ee0efbfa06eed7U, 0xf6ef1219f90b0608U, 0xc009f6fb3907f7ffU,
  0x10a22f82afd16e7U, 0xdbf7fe1f13f0feefU, 0x1423f8ec0614fcf7U, 0xf7f8e4f604f71217U,
  0xf60a38e4d306fdecU, 0xf302191dceec07c3U, 0xfda4bd05f9e603f6U, 0xe2f8021e1e05fe10U,
  0x91028ef02030102U, 0xebeafd070300e8d8U, 0xfef40015f40a06f6U, 0xdb090fff1b0bea0eU,
  0xfe0613f80bd6fcfaU, 0xe9f8ff0a14faf51bU, 0xf90eeef205fe09fcU, 0xf4ffebf4faecff0eU,
  0x4101ae5f9e316f8U, 0xf50a09f315f8e2f3U, 0xb2411ff0ff2f904U, 0x1d0604e3fe260210U,
  0xf3080e0409f5ff00U, 0x9ffffee14fdecf2U, 0xf81eeafbf7f8042dU, 0x1412e911e023ff10U,
  0xe4fa06d413e5f7feU, 0xf2eafbe50ffbf1fbU, 0xfa1703f101dcf502U, 0x1af5fafbf218fce3U,
  0xd070bbf02ff0500U, 0xce150bfe001df019U, 0x8da1606f7091205U, 0x11e2f8e618f803e5U,
  0x1402fde20af9fefeU, 0xf2190b0f091cf119U, 0xe00702f80b08fbU, 0x13e6f0f231f716e5U,
  0xf6f2ffe3e90f01feU, 0xcbff04f1ff19f6fcU, 0x5f8fafceef2fc04U, 0x13d604eb07ed19dfU,
  0xf0f3e0fde90c150dU, 0x5f417f2f4dc1ad8U, 0x717f40d11cc0731U, 0xbf190407dc02f5faU,
  0xf708ed29faf9f50cU, 0x39e30b01fec7f3e9U, 0xefa0315d81b1fU, 0xbd1ef41fd3fdfb0cU,
  0xf1e7df01eaff14ffU, 0x9f407e30cd81503U, 0xf617e5fa09ac0418U, 0xcb030b1dcd17edeaU,
  0xf83201d6eeffdddfU, 0xe8d2f718e80ae6c7U, 0xe1fcf91f2e0fe6dcU, 0xe7071b04ee81f906U,
  0xf433030214f9251cU, 0xfdceedfb2dd6fbf3U, 0xe2d61314150d03f9U, 0x1500f41002dd02ddU,
  0x1dfefd0bfdfb38fbU, 0x2305f9ed1dc10624U, 0xc6fa06e908eaf905U, 0x15effe0b0318fcf8U,
  0xde2703d1e2f0c608U, 0xf3d31c24e81dfadcU, 0xf40cf7fa29efe6fdU, 0x22223500f0d611fbU,
  0xfa042612fb171621U, 0x33fd182907e11f07U, 0xe0e90ec214f6060bU, 0x291df0d61c231ee8U,
  0x7e1ff09f9151f18U, 0x3612fb13fad7250aU, 0xe60bfcab0ff1f6f0U, 0x20ce3f80143f9e0U,
  0xe1f9ffe5e7e1e7cdU, 0xd5d21e1ff411e5eaU, 0xee020d0002d6e7f8U, 0x109fd1dd71f0a1bU,
  0xfe40b15fb230714U, 0xfd190f281a040811U, 0xd51c21cdeb0bfef9U, 0xcf0fd04fb30190eU,
  0xbe6d5fff317f3edU, 0xf622ed25f80602ecU, 0xe62115dbf10ff9efU, 0x3f60427da251003U,
  0xd1a27ed22e206ffU, 0xe400e603f0fed5eaU, 0x17f301d6f8031523U, 0xc9031ef2123017fcU,
  0x80ff4e8250c1c19U, 0xdde60804080dee12U, 0x13141101fcecfbd2U, 0xefe2d6c5e71808e0U,
  0xae4cef4f200e418U, 0x271ddc042d30161eU, 0x9e42f41effe805dbU, 0x15f0d508dbd3f53dU,
  0xee0116f9fa10ff0dU, 0xea01fcf0f003e50fU, 0xd4f40dd50919035eU, 0xef4f4f4e8eaf920U,
  0xd120e7d311e91e11U, 0xf0efec10ebf30f2eU, 0x17c1f7fbfddffb95U, 0xfffb17dc07fdf9e9U,
  0xf90adef2041d0506U, 0x5fd0208efd103f0U, 0x1fe101bf6e6e3ccU, 0x5fef2110e2bf90fU,
  0xe800dc06dd06010fU, 0xb0f0a050a141113U, 0xf1320cfd100de833U, 0x2dcbe0010cde0c29U,
  0xcf9f5f80ad9f302U, 0x4decfffff4000d0dU, 0xf1c4e10205e5fa00U, 0xf505fb0a1903082cU,
  0x1c01170719221df0U, 0xecddff13c5efe2d3U, 0x31e3fdf8f20d09f0U, 0xc91c1d251b44fcd9U,
  0xd924edd01eec1f13U, 0xbe07f8faf6fde4f9U, 0xf7fa1515f4dcefecU, 0xf7f005f2f6fa14f9U,
  0xd420e6f205fbee1bU, 0xde0002031109f90dU, 0x6e6f4f5ece1fafbU, 0xf5e3fc10f7f60af9U,
  0xc214f0d4e414d0e6U, 0xed01e1eff2160ff7U, 0xe6e1f60df3d1f802U, 0xe4e5d910fcf6dbf4U,
  0xe6f5ebc109e41208U, 0xd9fb0b120503ee08U, 0xf6e5e703f0fa22fdU, 0xfeeafdec131123fbU,
  0xed10e9f0ee041d17U, 0xf8effa04140e0005U, 0xf7c8f4e7eaee18faU, 0x11deedecfc161af7U,
  0xf115fae2cb0efce1U, 0x2e50f06020600f9U, 0xf7efefe6dff90103U, 0xf9e2e6f31007fff6U,
  0xd20fe0eb16f7ed0aU, 0xece80bf4fd0c0f19U, 0xee9f0f30b121c0dU, 0xfde4e2f300e70cecU,
  0xe716ecdcf1120810U, 0x111fc0a0327U, 0x12c2f7f4f60603f5U, 0xffeb15f004061cfaU,
  0xe704f6ffe42e18edU, 0x6faf502fa14fce5U, 0xfddc0df4dce4e6efU, 0xf0dde1cc0ef818f4U,
  0x91546d5e604fb0aU, 0xf518120cfb1eee28U, 0xef1a00ed0014f8cfU, 0xe4eaf7eb3e34fdeaU,
  0xd5ddfe7009b801eaU, 0x20ceebe142d1e7e4U, 0xe71bf7e908dff150U, 0xfe0ece0fccfecef8U,
  0x30926d4e71ee8f5U, 0x1fe0e30d1efe602U, 0x2a1efb30f718f9d0U, 0xdbdd2af0000b08e4U,
  0xe250c1c27b5130dU, 0xeefd8fc21d5fefcU, 0xdaf508fa00fa0e0aU, 0x230af6d2faf9e1f8U,
  0x6e923a2ea7eb815U, 0xb519382497242116U, 0xfc06fe2d0005f5aaU, 0xcfee2dfd230821f0U,
  0xf600da3800c547e1U, 0x3c22b3f055cfff3aU, 0xc5f405c909d20f0fU, 0x2901c71ee9fedb1dU,
  0xd2d6e8e6f157fa03U, 0xec0a0b14ca020c07U, 0xf0a2a000af8f243U, 0xd0fe2a11110c1f20U,
  0x230ec2014811e10U, 0x25e5c0eb4dc4f01aU, 0x11c4e7c3eafb06d6U, 0x161bf3f9e8fbff1fU,
  0xda0e2edafc5ab1e5U, 0xba0831ffbc460fa1U, 0xaf7f719ec02ee19U, 0xe1ec1724dfe2f801U,
  0xe3210f0fffda092cU, 0xf913f314f309fe02U, 0xf60718f1f3d6fcfdU, 0xff6fdfc37041d34U,
  0x292517cf02eb2425U, 0x25faf3f40716cf05U, 0x153ff30a0bc4d105U, 0x2600edeb222bf62eU,
  0x13ff10c6e218e8ecU, 0x290bbee8ede7d913U, 0xcf0ef8fcfafff728U, 0x3df3e8f9e734dd17U,
  0xec081cfe0ff2142dU, 0xdce9040bec0206d9U, 0xfa1709ef09cefdfbU, 0xa0a16f12aee080bU,
  0xf3f5203a2ff81d36U, 0x11d9e8fe05090affU, 0x1343fbe119ef1703U, 0xff7f9f2f308fe0dU,
  0xfd0409e7fd4cf60bU, 0x2a2016eee31d101bU, 0xd3f9d519fa101407U, 0xfb050df2ee29d805U,
  0xeaeb1e2b092cffU, 0x13fffe0a07e90f05U, 0x22ed0fffff231be9U, 0x1afd12fbe3f0ecf8U,
  0xebef0a23340a1a09U, 0x11ed1619f2022ff6U, 0x211cfcf32e003e0aU, 0xe6f02237dce3fc0fU,
  0xfed11fdfb16e6d5U, 0xf71c1512ff28020bU, 0xf714ff00df1e30e6U, 0xeafaf3140ce2fce9U,
  0xef0ce2eb17f81d07U, 0xcbfb1cf6e5ed1110U, 0xf10f18fae10203d4U, 0xfb0ce3f8e5e8e0f2U,
  0xf1f9cd10eff3f9eaU, 0x50bf802ff00f7f5U, 0xec2c19f4d7f60f13U, 0xf718feecebf1fefeU,
  0x312fff2dfd5f5efU, 0x3af5fb14fa041ee6U, 0x2aeec6fc0ceaf3f3U, 0xe505ffe71d1b0120U,
  0xf8edf2e4fb182debU, 0xa50f0fe0fbe80d29U, 0xe31d3200d70011f5U, 0xfdf8f2e4cff3f4eeU,
  0xfff6d204fb1000dfU, 0xf318f1dcf1eee323U, 0xe83828efc1fa09fdU, 0x9f0fdf9e50205f6U,
  0x30d13f0fdefe6d8U, 0x3df603fe070117ecU, 0x26efc01126bffdfdU, 0xd7eb1100140f1406U,
  0xfbf0e5f6f9092902U, 0xe5ff070600f70317U, 0xe31f1507f118faf2U, 0x719f617cdf4f505U,
  0xece3eefbf40d0c02U, 0x5fc0be401eeeb2dU, 0xe51b250fbf0ff7f3U, 0xf8defaf5030110efU,
  0xf8f71513fa0adc07U, 0x20e618f2071004fcU, 0x1aeecff60bf706ffU, 0xbedafd081b0e1d00U,
  0x23f80e1718fc3e02U, 0xeef0f9ed08c9ebf4U, 0xf20bf0dbe1d10405U, 0x20eaf80913fdf507U,
  0x29f617e0eb112e06U, 0xf100f0bef5f0e104U, 0x16f01bf4e4e1e22bU, 0x21dbfa09f60bf93eU,
  0xf0e4f8eedb16f00dU, 0xd400e1e7f71ad618U, 0x27e70d0cfb1bff12U, 0xfcd01f0317fefa22U,
  0xe31dde1517091b01U, 0xe0fef5022dff1b07U, 0xfafce6d005d7f3eeU, 0x9f8f9eeffeb09e2U,
  0x3508e5e910e444e2U, 0xfcf80cdd2de6e102U, 0xfef4eb00d4e4edf2U, 0xeee410fe0effee0eU,
  0x35fc04d7d9f5fdf5U, 0xdff709c7c0f6f8fdU, 0xd011038d1f6de13U, 0xae404340b0bec1eU,
  0xc80dda100a2df6fcU, 0xd10f316effd40f1U, 0xfffffde50914f21aU, 0x1232fc160905f4f4U,
  0xfcf9dc1b18052409U, 0xf905d6fd14ff4721U, 0x2edd0e4f1fbef03U, 0xdf05fef6fd0afefeU,
  0x25edef0af8f23501U, 0xdc0ce6da0d0e2723U, 0xffe1eb15f6fe09f4U, 0xfdedda1d1617ff0fU,
  0xe1f1ee210af127e3U, 0xd7f2edf2e7e6eae4U, 0xf3d032eee5ef0613U, 0x805fffdeaf411e7U,
  0x1d14f9e4f7dbb5e6U, 0x3715dc110116263aU, 0x114d7161efbfff8U, 0x100900fe020afd33U,
  0xefef12f702381afdU, 0xcf0005f4f8d0f8deU, 0xf7ec1f0301f2191aU, 0xe311ecfbdbea1bf5U,
  0xf5fc0cf2eb3c34fcU, 0xb9e30300e6e0dcc0U, 0x32ff280fed1003e6U, 0xdbfc0103e20920e8U,
  0xc05b712e9c3dfffU, 0x561af81310142a3bU, 0xdcf3cbfe07ce0323U, 0x3304f91a0900e42cU,
  0x4e734d5020bf701U, 0xe4eff6ffecdae802U, 0x6fc43fefe1210e5U, 0xda1202c402f30bf6U,
  0xf9150bc7f410f7daU, 0xf7eeed0112ffdff8U, 0x12fcdfdc2103f9U, 0xcf00fbd3ea0decffU,
  0xd7efdd08da02efd8U, 0xf2fdf0e8ec1c17e6U, 0x906f116f8d3ea0aU, 0xff03ea18e7f8f4f5U,
  0xf1ff01d50ce2f9eeU, 0x1af6f3ed10e4061cU, 0x4ff26f70805fce8U, 0xf02afcd5ff13e7ebU,
  0xee2ec311cede802U, 0xfdf7032412e6d2f5U, 0xf3e0f409f02f05d3U, 0xc216d901d5d113ecU,
  0x3de0d0c17e4ddf7U, 0xfcef0a2b11ddd7faU, 0xfbe9fd050428fccbU, 0xcbfefdf5add514f4U,
  0xece81911f6f1def6U, 0xd80af6150bf9d7f9U, 0xede2fcf6001705e2U, 0xba09e30ed6d10304U,
  0x2edeaf5cfeb140fU, 0x1b0005fa000002d8U, 0xeaf00f08c0fe0bffU, 0x4ffd623020feae4U,
  0x803e70cdfdd15fcU, 0xe0bee07fa0eeae3U, 0xdaf804fedb02ed04U, 0x3e812e414f7f8U,
  0xff06f4f8e1f9fbecU, 0xedf6fe081bfa09ccU, 0xeffc03fcde0ef4eaU, 0xe208d204f211eb08U,
  0xb1105e9be0aec19U, 0x1beceffcf40308efU, 0x9242112fcfafa01U, 0xdeacb08182dcc1eU,
  0x2119f8ebc409f9feU, 0xfbfcfcf2f713fa19U, 0x1d0f161c0af802f1U, 0x1d01f909ed24ea19U,
  0x923eaf3d5070bf4U, 0xf109e7e0263e0eefU, 0xe13151bebfcf702U, 0x260cf7e10f16e323U,
  0x123e403ee15fb01U, 0x1e1bf308f7e3d3f5U, 0xee05e6ddf720f719U, 0xf911eb2f09f9f3f6U,
  0xb03f4ee1ff62311U, 0xebfe240beb09fdf3U, 0x1f0203cd1cf1fee3U, 0x6f116c2ee0c09e0U,
  0xd1f704f904ccfc12U, 0x1111eceb113436f2U, 0xddffc00c0efbe6f6U, 0x101cb042705de0aU,
  0xff1bef1ded14dff1U, 0x1ffc09f5ebeddb0bU, 0xf0e5f1cee50d122aU, 0xe515f41febe6fb1bU,
  0x1018eeb8050c38eeU, 0xeef513040cfcde0dU, 0x451725e519cff0ceU, 0x9003aeeed1d0bd6U,
  0xd7e9fb1ae8f5ec15U, 0x210a10f002353100U, 0xf00fdb0c11e5e611U, 0x10ddd20406eee633U,
  0xfa16e22813f90e0aU, 0xe307f504d00fdffcU, 0xd1e302f7e50f0f05U, 0xeb1308120cf9f424U,
  0xf802f2db03f936e9U, 0xecfdfcfbf8f4ed06U, 0x1f160fe611fcfdf1U, 0x1c0c2fe9f01afbdeU,
  0xbbf90d0ef2ea0609U, 0x1423ec0b122f1d06U, 0xe80fca1705f0eb00U, 0x6ebd7fd0302ee21U,
  0xebf8feeef6f7e809U, 0xe500ced4fd13ec09U, 0xe502070b0f17f319U, 0xefee0ef6fcc7f51aU,
  0xcd040a09000d0703U, 0xd001e7e600fadef4U, 0xeff11917f90e14eeU, 0xeb151d22ccc5f1faU,
  0xd130ea11ee0314f5U, 0xe4fcfaff05ffcf05U, 0xe8ce0d0f20ff13d1U, 0xf524343dd8ffdfe1U,
  0xcd11fbfb15eff716U, 0xedfdc2f0eb00bb11U, 0xeaf100fdfe09fc06U, 0xb08361bd1bffbe5U,
  0xfb0ad7f1070aff07U, 0xfefddc1102ffc2feU, 0xf5ee1b14e9e8f7edU, 0x18252b15c904f2eeU,
  0x70b05e9e627fe00U, 0xee2f521fc15110aU, 0xfaebfbf9f5f5e1e1U, 0x32290a06e034c7e4U,
  0xe802d2e7fcea021bU, 0xef16dae30805bb15U, 0xfbf034fffdfdef00U, 0x1206100aefe1fdfcU,
  0x2e814f9dcfd210aU, 0x7fce7080f05ef11U, 0xebd81902ecedf8f5U, 0x616ea04f80ece0bU,
  0xf7f932fde81b090eU, 0xfefe07fffe2607U, 0xf3eef9f2f0f9ebe8U, 0x603d7ff1f1fdf06U,
  0x28eceb03d018e60eU, 0xce08e4dff8e406f1U, 0xcb13f5f1f7190d1bU, 0x61411f1f52e1105U,
  0xed1116ef05e60729U, 0x61904ffe70fdef9U, 0xd731fb05ef0910feU, 0xb0cf7fedc322bccU,
  0xf0fa01f7c3f5e0d1U, 0x413fb0ce627e7e2U, 0xf81a29fafb19f607U, 0xf2bff02140709e9U,
  0x22e3eb08001c13ddU, 0xfdebd31613c614ddU, 0xbdbf9190213ef0bU, 0x150206072000f238U,
  0x6c2df2007081822U, 0x11cffc0b07c919e5U, 0xe6e3d9f70adf0f06U, 0xdb1000ebe51c0ee8U,
  0xf804cf1efbea18c6U, 0xce16dc100c2a05f7U, 0xb41cb9d602f203f3U, 0xbf0ef1b0080020e8U,
  0xfd1609fa2215deeaU, 0x1007e0070a0bf5f2U, 0x3af82812f63bf824U, 0x270ad813f8efff09U,
  0xeee803f14dfece4fU, 0x440b08fddcdde90cU, 0x4ece0cff25300eefU, 0xf60fe525f1e42d16U,
  0xf1d8de0f2626d901U, 0xe72f0ce3cdecfc15U, 0xf7ee1f0c10fcfbf2U, 0x20b10f2e6d748f4U,
  0x29fceb55f9f7c7ffU, 0x2513f00c222f1f25U, 0xe6fabffcf8101615U, 0xb0ef73c18f5d53fU,
  0x121523be031f1cfaU, 0xeeee0de4e2d6e1e7U, 0x2de82bd910110ce9U, 0xeced060bfb0affd4U,
  0x1b05f104fcea0917U, 0x15fb0aedfd04fb11U, 0x14fcfb0a1af7f806U, 0xfaf0fe0704f80118U,
  0x1f9e765f9f8f2fcU, 0x2812e01a02280a19U, 0xccf6d9fde1f9fd18U, 0x1007f21721041523U,
  0x7fc0cdd0ffdfafbU, 0xedd60ce7eac8f2f4U, 0x1be310f0f62717f8U, 0xe710060d051815d7U,
  0xeff5f206f411ff09U, 0xf21502fef405f908U, 0x513fe170503f201U, 0xf4e3051c001d131eU,
  0x51cf823080311f7U, 0x130ae818123e10f4U, 0xebeff80509e4ff0dU, 0x27f702ed18ec1a07U,
  0xfa0bf2f20ee9d10eU, 0xf4ef06fd08f90cfaU, 0xf5e2f5fdf71014efU, 0x2211e3140def07e3U,
  0xf20af3f2ed07fdfbU, 0xecf9f0e8e715f315U, 0xf80be90c00ea10ffU, 0x5f10512010c02dbU,
  0x25d80cf8e6f816e8U, 0x52c12fcf2e802fbU, 0xfbcce0dadfedffe8U, 0xe0d31b32f30be033U,
  0x5f50afa02f82312U, 0xf421200001faf8f2U, 0x2bdc0705fe0a13efU, 0xf0ea2210eefffc24U,
  0xf4fe14fef7e5ef0eU, 0xea260df70e17f2eeU, 0x20ce00f60b09040eU, 0xf4f1201507c50f09U,
  0x15f7030ad3f32405U, 0xfa1615fc05f6f1faU, 0xfbddf21cee0c0cfeU, 0xefc11e05fbf70525U,
  0xfbf1cbe5fbf6fa1dU, 0x2110dd923f2e816U, 0xfe70328020525e5U, 0xf5dff8eaf2e8f030U,
  0xf3f606e3f1f0f126U, 0x5fe0bccf70cfaecU, 0x27e6e61502f81ffaU, 0xdaddf7faf6ba1611U,
  0xc23c5ebe1f021f8U, 0xf18fc0116f7ff14U, 0xe4c6f80dceff04f5U, 0xe3fcdc1309deec06U,
  0x1220cac012f3070bU, 0x10d1f130cfce01aU, 0xf4eb082dda01040cU, 0xdefadbfefbd7f813U,
  0xde1c07f60402070bU, 0x16141decf701f91dU, 0xcd8fb25ebfcf32cU, 0xf71bd50306e7fcf1U,
  0xeee319f4e30c3200U, 0x7f9f30a1b13e4edU, 0xb5f41504e7ff04efU, 0x60124f524142517U,
  0x22f3dbeaf5edf40eU, 0x2d00e1a16edeae4U, 0xced8f509ecf61825U, 0xc70a20d7ece31d02U,
  0x3519fbf2cc0e0827U, 0x21ed040234e3dff8U, 0x1bd808e31f29111fU, 0xebfbf7d7e5ee330bU,
  0xed08fce4080e04U, 0xfb1504ee081218feU, 0xdd1d34fbdd17dbfdU, 0x181d150f3beceddeU,
  0xcfbedfd04c2f4f3U, 0xebeb1e08e6f702e5U, 0xd4e62f03d902ec28U, 0xff1c190022e5f8ffU,
  0x1c12f2f9eb010f18U, 0x1900fff818f5f110U, 0x1e2120a0309ea16U, 0xfc1d090900fc05ebU,
  0x1d3261de8140821U, 0x10fdcff303162bfaU, 0xd82e31eef9fbe3f8U, 0xfc19fc0fefe1d3eaU,
  0x3e900e110cd0f0fU, 0xcce301f61c2312f0U, 0xf71bfef5e5e5d1f2U, 0xceed0df3f8d0f7eeU,
  0xe1003d41ef8fe34U, 0x9e6fbf8fde4ebedU, 0xf50027faf623e4ffU, 0xe62a122611c422fcU,
  0xfd12f5e6ee0d10e7U, 0xdd13070cfe17ed29U, 0xffd60222e5130c12U, 0xf0220fbef08d6f7U,
  0x5f7e2ec0a030ceeU, 0x2f93414f3fdfa13U, 0x4d8060f070b08fbU, 0xaeddbf6fb0500deU,
  0xbf6c9fa0d07fdcaU, 0x17fd27ff00e2f1f9U, 0xf4f0e10a09f91a02U, 0xfb1be7e4021716cfU,
  0x21f1eee7f3f206ecU, 0xf81c09fdebf6cd26U, 0xcdafd08e9160cffU, 0x16fa12defc1706f9U,
  0x1dc3fd01fe1711f1U, 0x28ef451608f611faU, 0xf5d9e3ed0de8fd0eU, 0x25dab5bdf60334edU,
  0x11dde6ef0e1006f3U, 0x26f32bfc0bf306cdU, 0xf9fcd5e80f000204U, 0x140e03ccee1925f4U,
  0x3bccf903fd12ffeeU, 0x4e12b0d060adb01U, 0x19ead305fb0b07f9U, 0x1cf905e5f9f91100U,
  0x16c602f71522fff4U, 0x1ef03c0308183802U, 0xf8f4cce3fc01f7f0U, 0x14e4b6ebf7f33000U,
  0x2f5e6f9080bef0fU, 0x905f0e1ed0ef4d9U, 0x16e7f4f0f11919faU, 0xdf1b25eada191007U,
  0xe1faf808f5f60bfbU, 0xf11d2a04031832efU, 0xae71c030edcdd24U, 0xf5f0eb2201f2f1d6U,
  0xff3fcfd02b8c21ffU, 0x3de1cc1939f5efe9U, 0x22f513191917f999U, 0x13e6f5c8fdc0dde7U,
  0x22edf92bff1c16edU, 0xe4043d2cb6f30c24U, 0x1e4d16e11d0610f5U, 0x9f617ec07df1521U,
  0xbfb250e0c3de30eU, 0xc226f705c9fc16f4U, 0x1001a0f0be2ef21U, 0xc19f11b040a1312U,
  0xdaf41907f2f22febU, 0xe10c0a11372411eaU, 0xf3e90feb06cbee18U, 0xe4f8020005010116U,
  0x250ddf98149f3be0U, 0x3c93cffd25cffcebU, 0x20e60c122b22ebaeU, 0xff19fcc3f3d4e2eaU,
  0x101109e3031bf224U, 0xdf26f4baf9e1ff1fU, 0xfa15d7fefce80c15U, 0xdfdfbf51909f7U,
  0xf3fa0bf1e219d719U, 0xe01f14d9db10eeeaU, 0x110805e8eddc0129U, 0xea101bf11bea2209U,
  0xe4fbf400e3da3119U, 0x17fde0cc203220feU, 0x14ebe70af8d806dfU, 0xfe01dac841061c03U,
  0x18070c00daf8070bU, 0xf9f6f70dfff8f8f7U, 0x180e0602f7010608U, 0xf8070c0e182a00e5U,
  0x916020dfbf40cffU, 0xfef2ef0702db09e7U, 0x26f4fcf6fc06fa01U, 0xc9fa0bf7110908f7U,
  0xf421161105f00c05U, 0xe51009ebe8f5ccU, 0x38c012db15feff15U, 0xc7e3f20514140d0eU,
  0x13030b03df020307U, 0x17f0f4ff00df07ecU, 0x24de11f5ecf7feffU, 0xf10c0f0a181a09faU,
  0x10502f3ee0bf1f6U, 0xfae6fffef8c9fafaU, 0xcc7fce2f5040a09U, 0xd10206080611fde1U,
  0x16eef3edff17f8U, 0x3f619ff09e6dffaU, 0x2ac9f4ec0b04fe06U, 0xe6f20112ea13040fU,
  0x101105ec080a1505U, 0xff09f00c0af3fdffU, 0xfd111f4f9f2f5ffU, 0x716091101fe03ecU,
  0x31703faf903e903U, 0xec02010808cedd23U, 0xadafeeff903fdf0U, 0xf80a0305010ffdebU,
  0x131ff1feeffdfe0bU, 0x10fa1808fbd2f30cU, 0x20ececec070003faU, 0xf7fa0b14f32a0cf9U,
  0x11fdcc020aeef107U, 0xde0d190b13d8ef19U, 0xe9c7e4e71e09f5efU, 0xff50ef50bc7f8faU,
  0x3b0dcc0ff90b20e0U, 0xd5fc231108cac931U, 0xf4ecebdf0bf7edb4U, 0x5e8fdd3f8dee8faU,
  0x4d0ec8d207f219faU, 0xd81613f7e3e6bc21U, 0xefe80cebe704f5U, 0xf6f2e0ddd7f8d108U,
  0xce17f4f004fe26f2U, 0xe5cb24f515eafafdU, 0x11f41ad4102ada05U, 0x1dea00fe0cf9edf2U,
  0xf8fffaec01fa21e1U, 0xf9f02601fdd60502U, 0x1cea3de41a25deecU, 0x33fe0a0aeffb0811U,
  0x29fceedb15fc16efU, 0xfcfc31dd11cbea15U, 0x28fa03d7fae3f805U, 0x1fe1f4ddd5080e22U,
  0xa70e081f0041f802U, 0xd4e91a19001311f0U, 0xebfa01ee0405fd16U, 0xfb1e0437490911ffU,
  0xe10ffa12001019feU, 0xfb0113d80d02eefcU, 0xfce9fdf9fcfff008U, 0xfb03fd1e07f80a29U,
  0x1318e8fdecef00f1U, 0xd60e06dce006f31aU, 0x2602f9b9ff01e8e7U, 0xdf614fad1f0ff27U,
  0xc81e1ee6d2f915faU, 0xfc03f207e9fef1e1U, 0xfea09ec12f7ff02U, 0xfef05e9410d20dfU,
  0xdef70ff406ff090bU, 0x1bf902f5f803fadeU, 0x1d614fe0603e7e7U, 0x17efede017000c0bU,
  0xef031cf40cf8f523U, 0xf30ee9f1f90209U, 0x11f8ff03fde6eaf1U, 0xc0dfaf80704fdf9U,
  0xfe2104f3eaf71df2U, 0xf3f50d121024070aU, 0x1ddfcae7eee6241fU, 0xe61208ebfdf00de3U,
  0xdc131bbdfcf008efU, 0xff12f419e90aebfbU, 0x30c51deaf800f7f0U, 0xfcda03e527f122fbU,
  0xf21325de12e005f9U, 0x150a11fce705f6fbU, 0x23e31dfe08e6dafaU, 0x2d6ffef1efa1205U,
  0x1ae9e43208e7e8f3U, 0xf8eb1cfd300b0421U, 0xf21bcfdcea090e3eU, 0xe32af206e9daec25U,
  0xfaeeff0605f6fce3U, 0xdef912051a07fd03U, 0x6fff8e6eb161eedU, 0xe2250d01f5de110cU,
  0xf7e812f3e1f7f6ecU, 0xff0c10faee010efdU, 0x1bf90af1fb04f5eeU, 0xe6f8fa0603f31c13U,
  0xf30914ac0a1bc8f9U, 0xdd2604fbee241612U, 0xee0b000dfffbf62dU, 0x6fef5fb0bf101f0U,
  0xfb0df3f3010b0320U, 0x7fffe0e0a1131U, 0xedf7f7e40114e7d0U, 0x19fafff121f21213U,
  0xe9ffebfef8ef1a06U, 0x26f1faf60ffbfcf6U, 0xfdf5e7f2fcfc0710U, 0xf7fff9fb1ff91410U,
  0x316e209e4d422deU, 0x2b0d03f11ce2f821U, 0xa0afafefa28ecc0U, 0x306fef033fa0d02U,
  0xf909e939fdb74afeU, 0x25f3fdfd2de0f8deU, 0x1ff7e10102e80104U, 0x1180306eb10f5f1U,
  0xe0a06f70efd11efU, 0xfcd5f6fcf417f4d3U, 0xfd19fd1506d4fd0dU, 0xe002140fe318eaf8U,
  0x101c032721fd09ffU, 0x12f6fbfafbf9ebdbU, 0x16e5fe0bfef20006U, 0x1a140003f3fdf6fdU,
  0x1e010deb1343fd0aU, 0xdcda0f0fde2b03dbU, 0x132d051200f90e28U, 0x4011a0cd2faf1fdU,
  0x14f819d60c0edc08U, 0x603e5f3e5f40220U, 0x2426f3fc1efbfbU, 0x2f706ec1903fdf9U,
  0xc5ec0c0c230706d7U, 0x17f4f6e1e8082409U, 0x101ffb1af9e2ec0aU, 0x15c90007241ae111U,
  0x624df1d0a06dbdcU, 0x6fd2c00e8e8c813U, 0x1dcddbec060d2915U, 0xe32742fdf400f60aU,
  0x232ccfd316fed6efU, 0xef0a360f02e9c404U, 0x6cde3eae41d2ceeU, 0xfc2134e8c8e5ffd8U,
  0xc8ec45f80eee1df5U, 0x16fae9db08093fd8U, 0xcb1211fb0ed6d3f3U, 0x2ecbdf042c1df531U,
  0xeaf7f21301072705U, 0x20ffede7f3040cedU, 0x5eb1efb2e07120fU, 0x10fa15f90c0c1827U,
  0x3912b2d80120e812U, 0x16c62f0e06d3c8e8U, 0xeef3dff40a392f08U, 0xef3042d6c3fe04e4U,
  0xf9d427180ff8dfd4U, 0xd21309e1ed2705edU, 0xda10f9d3f9dcdef9U, 0xaf7be092a13eb05U,
  0xd8ff1508f90518edU, 0x1bfbd8e6e9372805U, 0x16fb0f0e1602c3efU, 0x1eeac081531270cU,
  0x8eccfdefb1704fbU, 0x35e2f70fe4f503ffU, 0xe620062815fee1fdU, 0xec19e405f9210f06U,
  0x15ebfbd6e9fae5c7U, 0xdefffbe60ef5affbU, 0xf600e205ec06e005U, 0x16e1e512fb15050fU,
  0x17f7f3c7eb0cebd1U, 0xfebf213fbf9dbf5U, 0xf7f6df09f4eaecffU, 0xf415f110e91ef9faU,
  0xe0fcfd05ff05e8d3U, 0x1ef5da0f21e8f1ebU, 0xd5e3d80edaf9f5ebU, 0xe9fce5f7ebffcaf7U,
  0x904e903e8c40606U, 0xc7fdf302f9f3e704U, 0xe7e5ef24f813dff9U, 0x18df09152711ffebU,
  0x12f2d8e308d719fbU, 0xf0d5ff28ebeffadbU, 0xfd08f00f0e05f4f5U, 0x1ff300ec16020910U,
  0xf9f6dcf4100b08dbU, 0x8cbfc2635dfdae4U, 0xd9defd020ce8d80dU, 0xf91502f1fc13ec22U,
  0xec28021edc000011U, 0xd8f211ebfb230d09U, 0xeddde615e4f605fcU, 0xf3e302001610f611U,
  0xdf1dc5fdefac08f9U, 0xf4f30520fdf11e01U, 0x18eaeb0608200dd9U, 0x1af20cf833f010f1U,
  0x16fbdaee18f014d4U, 0x2d2e5282c0ddfc9U, 0x7e9f1f70cda02ecU, 0x1906fee802c91200U,
  0xe427ebf4fbea0ff8U, 0xdfedcea12d9eeedU, 0xecff15ddeee8dd19U, 0x1e2b18d8f4d9f3d7U,
  0xc63c09e50a080aeaU, 0xfe0dfa230506f0fbU, 0xdbfe21be09f0e91cU, 0x482516ea00d5f7eeU,
  0xda1d03f109242e11U, 0x1ce91b42fff6fbf7U, 0xa0b1b9b0bc4f8fcU, 0x423004cf0f0e1cfdU,
  0xebf60519cd0c08e4U, 0xf7251c17d92ce3f7U, 0xe1ff19c3f0e8d1f5U, 0xa2b10fbf60c1d2dU,
  0x1a0b1d18f11101d9U, 0xe2240b0c1e18e10dU, 0xe61b06e8f8eadc17U, 0xe10ddf3fc100c27U,
  0x9141e0104fdfd08U, 0xcf7fa0b0326050fU, 0x19081e0f18ff1a2eU, 0x28180ae7f018260eU,
  0x16e4e2d1dcebecebU, 0xfb30f6deb504e100U, 0x8a8ea350ee1cfe1U, 0xf4e5d50cd7e9cff5U,
  0x9ccfceffdfdd4eeU, 0xd02319d4d4dbdd06U, 0xf3e3f54615fdeae8U, 0xbfe5c70a12c7c425U,
  0xc6fa19e00c0def11U, 0xda2007edeb13eeedU, 0x5f71c2bfdf5f401U, 0xe5eff5f702e8e01bU,
  0x14f9000deffb1bffU, 0xfce9f4f61aeee6f1U, 0x116fd16f3c2ee01U, 0x5ff021bf9eab908U,
  0x100dfd17e9051403U, 0x28e4fdf717f7efe5U, 0x114012d01f7eb1aU, 0xfa06f10a00fca81dU,
  0x705f3f1e1ed1a06U, 0x13f3f5e61002ecf5U, 0xa09002bfefbe308U, 0xf8e514fe17a81bU,
  0x210af4f417f826f9U, 0xecf30308f5f00c06U, 0xf008fdfdf3fceed0U, 0x2f0509fe0e11ede2U,
  0x1b1904f50afb1ce5U, 0xbe9e827dcf31216U, 0xedfa0907080beae1U, 0x1b1cfdf51f03dc03U,
  0x1d07fffdf413f7ecU, 0x14eef007f5e6220eU, 0xec060c02fdfbe6f0U, 0xc1ff0010922f205U,
  0x5f7ebf413f70605U, 0xeef8fe07d704f703U, 0xe3f8ddebf6e802fbU, 0xfdf108e8e0eff2f0U,
  0xfff9fbfa0c0a16e7U, 0xedebfe19d2fff9feU, 0xdef3efea07fb0cd3U, 0x6fffecc00e90cf2U,
  0xf1fd01f0070b00f2U, 0xeaf10d12eaf100f9U, 0xe20e01cf1f0a0de1U, 0xfe0cf1ec15f41ef3U,
  0x815ffcd12d9f3f5U, 0x18d4e904fcf8e503U, 0x21efef1a030005fdU, 0xf1a21e50ee90deeU,
  0xfc1310d9042aed1cU, 0xcf1eff09b103ed14U, 0x1bf1230f09e6ffbaU, 0xdf302e40c1b1913U,
  0xae91c30f51c0e0aU, 0x1500f8df0df4fc0dU, 0xf6130edb01f0dc2fU, 0x20e7c0190e16ed1dU,
  0xf5d1f957e70d2bf5U, 0x7fd18ef1104260dU, 0xcd10ffc1f3e10059U, 0xfb1ff434e1f6d703U,
  0x51fece50faa0803U, 0xdccfa1a2afce503U, 0x16f6c6fff5231f04U, 0xfe1120def6dbe9fcU,
  0xf31019b6f9f5d309U, 0xe600071ebcf7fc0fU, 0x3de71d20fffaf2beU, 0x4e80ad218f209ddU,
  0xe8fb06d3e91eec03U, 0xa2502fec71504f3U, 0x2bf91e27040aded4U, 0x20ea03142d1503d7U,
  0xcad5e550e6191ff4U, 0x22f6fe160324feU, 0xc419f5dce1c4fd5aU, 0xfd0bfa1b0303fa21U,
  0x502e21309c024ecU, 0x1c71cf730faf30eU, 0xd16edf80a080428U, 0xde1913e5fceb1819U,
  0xdd7f419f4181912U, 0xd3fffcef01f0fbf0U, 0xf90a191df5040b1aU, 0xfbf6041ae1f0dde9U,
  0x2012d8f004edd7f7U, 0x440fe220f80b2105U, 0xf1f8d31e0d0609faU, 0xf81a141025df0126U,
  0xfd0125eeeb2115f2U, 0xaffe0a090ad114c0U, 0x38e42cf6e8f0f812U, 0xc8f7d4fa121f2de4U,
  0x20005b6e912fc0cU, 0xb100406fe18e81eU, 0x16070e2f00070284U, 0xefe71319f410e2f4U,
  0x1adacf56fbff0fe7U, 0xd5f205d838f6dffcU, 0xe430efb800ee0854U, 0xfa0ef01cdd16fe26U,
  0x221f1bb601e5e1d3U, 0x18fb0b15f8eaf80dU, 0x113b0f170422fae9U, 0xf4fd03cb17d40310U,
  0x2f250df41fb1e1ffU, 0x74ddfcf72a000dfbU, 0xfcb3fbe60510feb9U, 0x429cee1181ce701U,
  0xeac840e2f127f810U, 0x921418e4c4f5ddeeU, 0x143cf11d02ff0d39U, 0xf101fb1f26211dd4U,
  0x1517d75e1dd1ef07U, 0x2d0cf5eb0ff4f01cU, 0xb1ffece51821f44aU, 0x3a0cffea03bfe645U,
  0x20fb191f1c201cf1U, 0xf3e022fd0200eaafU, 0xdb2ef3d70909ed17U, 0x39fbe7cd0bc63c17U,
  0xdac4edacf03020f9U, 0xf1d60b2411f92affU, 0xbccef409e912eba6U, 0x1ff001bd0aeb09e7U,
  0xd507e63df6e80f15U, 0xd6ea12f8e54920fcU, 0xf1b7d212f9eb12f9U, 0xf016e835c01d01f4U,
  0x2fd6e2f7f51c1b10U, 0xf2f32f0924e912e7U, 0xdc19e1fc0936e9e9U, 0xf02dafa07f21af3U,
  0x1fcf4ee1cd219faU, 0x1bf7f910f3151303U, 0xddc0d21105cbf394U, 0x40a0c07041ffbf0U,
  0xef370c33e0f5e71fU, 0xe200f8abf513d228U, 0x16162cf2f8f7e913U, 0xdfffdc1dab33f204U,
  0x32ff10fcf916e12cU, 0xb8e9301e071c000bU, 0xf210cdf809fd0ef1U, 0x1d8f50f0bcd070fU,
  0x2022e2ef06b3eb04U, 0xe706e0c9d90ad401U, 0x8dce5dde0d8d8d2U, 0xf5ff29f1f324f41eU,
  0xef3afc05cefffc11U, 0x1102c0a2fce1cb24U, 0x1c2650c70a1bd139U, 0xeef9f6bdef45fc26U,
  0x1c3c33f4d4c413e4U, 0xfb131dfefd16fd32U, 0x19171a20dca4edfeU, 0x1ce2f60cf63bf32eU,
  0xf6090018e9dafbdaU, 0x70bf7f5c80ef422U, 0x13fdf9160ce7d200U, 0xce6f60aee06df3cU,
  0xe422df0de50e02d2U, 0x11ed0afd0ff90a1bU, 0xf7f3e21125facbf6U, 0xece10021e71adfedU,
  0xb0d08e9d90402efU, 0x14fadce2eaeb01eaU, 0x71f1cf0dfdaf8fcU, 0xe8f6f5111a10d530U,
  0xd2f3d615d50bffccU, 0x3dfe6e9ee060b17U, 0x70cf2fb090dc911U, 0xd0f00c2bfb02f3f5U,
  0xc7f00a05fd1eede5U, 0x1a0bf2f00ad7e80dU, 0xd0df9062e1209f2U, 0xb9ee0724d6dddde9U,
  0xe615b4cf030dd108U, 0x2eeed704effc46fcU, 0xcfdf8f7e5ea0524U, 0xe6eb15ef14e7c5dcU,
  0xb900e90104c00be0U, 0xc401f0110be8103fU, 0x3cff2fa13eb05feU, 0xe3d82016cca9e4b6U,
  0xe1e100cc35e505f3U, 0xd20b081ffafce5f8U, 0x3f200e410ce1c0cU, 0xd0052300ed9bcaccU,
  0x7da17040610d8fdU, 0xd704f7fef813e2f8U, 0xea0b09fe05f006fbU, 0xbd0205eae9001fU,
  0xe7fc2df81302f309U, 0xfc0ef10204fdeff7U, 0xfd0e00f511080dfaU, 0xfd501f10ddd2a18U,
  0xe51a05ed0b16f7e8U, 0xed0afdfa021eecfbU, 0xdf0e11ed002efe08U, 0x13d5d814ffe2091cU,
  0xe7131af3fa1cfceeU, 0xf712fdf3e807fcf4U, 0xe8fa1dd0fbf80bf6U, 0xfacc092705010605U,
  0xee3323011b0e03f5U, 0xea1a07f411f4ed14U, 0xe7061bf7f90e0df2U, 0xf9edf80806051ff2U,
  0xf82bf7f1ff07fce1U, 0x5220ceb0911cc0bU, 0xf2e30dfcf00ffb0cU, 0xfdefe606fbfd1204U,
  0xfdece80cecdd09fbU, 0x91e09e51305e7f6U, 0x1e6edeafd11fa0cU, 0xf2eb18fcfd340e14U,
  0x14fdf52d1ed30408U, 0x1f2126f427f7ea08U, 0x4ede1f2162203f8U, 0xef1000e8f0341cf9U,
  0x1cf7eefdf3df04dbU, 0x160111f013080700U, 0xe0ed0ff0809e327U, 0xf316e402df3b0c04U,
  0x21e8bb01faf3000aU, 0xe6f90d06f30eef39U, 0x1230003f7fbfdebU, 0x191704fec3f9ef07U,
  0x19ecd0fbfcee1cfdU, 0xfb1bff02f621e626U, 0x63905fcf4eb030eU, 0x1c0b11f8e6cff407U,
  0x20d1e525f0ed03f0U, 0xfcfefef4231e1afdU, 0xb5bf9f5f903060aU, 0xf71201f80fc0e705U,
  0x4f6f0f703d50403U, 0xe11319fa02f8f83dU, 0x1a1912fa0e0f0ce2U, 0x231bfcfdb31bee13U,
  0xef5d1e20ce01606U, 0xfa14f504f6f9f51eU, 0xf53808190afbfdcaU, 0x2f0608d8bef0e305U,
  0x7d8d313f8ea2b0fU, 0x102ff11f3effffdU, 0xb3ef6e7f9f9fdf0U, 0x19080ce9ebd017fbU,
  0x14f81df2eeedf313U, 0xf4062506f0e6040fU, 0xfa16140c010a07efU, 0x6fffe09ee14f204U,
  0x2201e7fef7e90cfdU, 0x203f5e3f5faeffbU, 0xe72514ff08fb06e8U, 0xafd00efd7fbf311U,
  0x9f5ccf5f2d614e3U, 0xebfb09fde909e90eU, 0x3ffefe50601f8feU, 0x1d0008eec5df16f9U,
  0xeefe108effced1cU, 0x80eeeea14fbe411U, 0xe8050205fef1e808U, 0xa000515ddf1ecf9U,
  0x16fc1b02ee0cecf6U, 0x1e0cf3050b16ede1U, 0xf7f5ecfd0af7f9faU, 0xc06ef181621ed08U,
  0xeefc29fe1c080ff4U, 0xf3e7f603f2e803cbU, 0xf9c5f9faf911fdf2U, 0xeef9d911061feaf7U,
  0x13f3bf04f90bf011U, 0x50b00ec170ef121U, 0xd92c20fcfcff0612U, 0x24fb17ded7e1fc03U,
  0x110cf00dfcfbe8ffU, 0x2d08f9fe24230306U, 0xfefbe70509f016fdU, 0xfc02f9f81efef80eU,
  0xe70c21e113f20b03U, 0xf4f1f60cf810f9c9U, 0x11b8f903fc031af4U, 0xcf15df112615fae4U,
  0xf8efd4f2e2f01203U, 0x12fdf1f3ece2f31dU, 0xf1272c0bfc10e0fbU, 0x2bfa15dedfedfafdU,
  0x110801f7f3120ef2U, 0xcfe1614f613f822U, 0xed02e8f204ed0c06U, 0x6f70ff903faf814U,
  0xfb1e25ef1dfdf905U, 0xf7e2040cf80805ccU, 0x12c8fbe3f4f40f10U, 0xd801f609050601efU,
  0xf9100cf8f2deedfbU, 0xf626f8f90feefe1dU, 0x7121607fbf71309U, 0xe22ce307f4fee9dbU,
  0x1c0efa031eef0be8U, 0x330e170512fff1f6U, 0x100f4e3fce0040dU, 0xf300fcdf1b07f7e8U,
  0x19cd160d0dda0800U, 0x27dc22f8df0037d7U, 0xf6e5d20d1edcd7feU, 0xebcccec436190e15U,
  0x3fa04fdfde4e907U, 0x707290105f00810U, 0x1602ef0417011a0bU, 0xf22afc0aebfd14e5U,
  0x26d00a04f7fb05fdU, 0x26f12b02f4141fe0U, 0xfff9dff106f4f315U, 0xecf8fbd32b1223f0U,
  0xf3db2919e5f7181bU, 0x1d810ede62430ceU, 0xf5fce402fb09dffaU, 0xf0d5b9ee251227eaU,
  0x2e70aebeced02ffU, 0xf2ff0afc02fa0f0bU, 0x5f8f4fcfe01f7f1U, 0xfe39e315f5070eecU,
  0x1fd0060ce702fb08U, 0xef08f9f8131603U, 0xf4ecfc04030df200U, 0xfa0b07f01d030d0aU,
  0xebf81313eceb0b30U, 0xcdfbf8fd0f1d04f2U, 0xe80b1415e901d0f5U, 0xe6dc051809131105U,
  0xe713f70f1a12141eU, 0x34bf17f90221181dU, 0xc08e90d1d15d917U, 0x1402ed0ae504095cU,
  0x3003d8e4e40df51aU, 0x57aa30f5f501f605U, 0xc1ec90f0721f00eU, 0x14f1dcfbf7133e3cU,
  0x9fed514dbea0823U, 0x19cd2407fced17e3U, 0x9fbd819ea1104f4U, 0xddee6f0e3115a06U,
  0xbb1f2d06e713201eU, 0xfaffbde1f92c0808U, 0x20d2efe07e0b7d0U, 0xdef0e71c2cfbf62bU,
  0xc6050839eff7220dU, 0xffe1b6dc0b0b01e3U, 0xe329290201f9c61dU, 0x1e40d13ed27e834U,
  0xccf3f634e707fd0aU, 0xfce9d5fa113403e5U, 0x8f7152001fbc020U, 0xe7f42006e611f912U,
  0xf21ef5e40711032aU, 0xd300fb02f82df717U, 0xe80cdef107ef11f7U, 0x13f6f1f415feedf5U,
  0xf022fc16f618ce09U, 0xe61dcddfce29e90fU, 0xd5faf8f910fe22eeU, 0xfc0816e80dececfcU,
  0xef03fafeebe3e1f8U, 0xe6fdf7d2f9f9eddbU, 0x12e90bf0e6d601fcU, 0xddf826fb2410f3e3U,
  0xc11fdf8031c172bU, 0xdaf60101f10601fcU, 0xeaf51bfa0803e207U, 0xff09f8fae6fa180dU,
  0xef0ae5f0eaf80319U, 0xedfaf5ef07010125U, 0xe5eb070706f0e1e2U, 0x10f3e3fdd5fa0507U,
  0xf0eaea1ad701e30aU, 0xf60dfdf50b06f622U, 0xd921e407fefcfaefU, 0xf8f5edfa06020600U,
  0xe905f6e112251215U, 0xcc07ffdc01101d1bU, 0xe8ee10040cebf324U, 0x20e402efc2f9e6fdU,
  0xd00eece8ff0800f0U, 0xf9fef5f21124033aU, 0xf1efeefc00f3f816U, 0x20ca08ecf0e3f604U,
  0xd9f7ce02e2faebfeU, 0xfa120bfd1a03f43aU, 0xf81404f8fa0709feU, 0x1aefffe122f9101bU,
  0xe80ef1f10d1200e9U, 0xf40afa03121c2138U, 0x4f4f001f4f8f90fU, 0x10fa07fbdcf0e2fbU,
  0xc701e10efd01edfcU, 0x16fc100724090a28U, 0x12fbf506f607f6fdU, 0xfdebffdc0ef20406U,
  0xe8edc934e000010eU, 0x18060e00fe100f1dU, 0x40313f8071410faU, 0xc03f5ef1eec162bU,
  0xdc0bf30cf7fb0227U, 0xc12dd61be51430dbU, 0x18f62710f204eaeaU, 0x12e2dcf822b7e0ecU,
  0xbf8040d171104fbU, 0xe01daf40bdd04fcU, 0xfbe8fcf9f5e0de31U, 0xfcf1e904f9d5a9faU,
  0x1cd7e6e7cce3f101U, 0x1df4e8c0edecdb04U, 0xdf9d21000fbe9ecU, 0xab2ddf2ddddb91dU,
  0x91c0740ff07e409U, 0xf120e61b1502f3c8U, 0xff0f11f4dd1c23e9U, 0xec1708c6e9d5f1ceU,
  0x6271e1227f9fee1U, 0xd530fcf604171f0cU, 0x11f72c10eb02d51bU, 0xf1edd3d026ecc9c8U,
  0xfce00d25ffe320d6U, 0xbf7febd01ec0ffaU, 0xfbf10cf8ede4ce08U, 0xefd1d4f14604caeaU,
  0x24c3e244fbf403f3U, 0xee031c7e02f304d9U, 0xf2f1dde019190e18U, 0x729f0c0f3160ddeU,
  0x7f608240c11f7feU, 0xf100212408d9ffefU, 0xeb38e41df204e9f6U, 0xf7e0eac0d1f502dcU,
  0xec23301813fc0af0U, 0xf005f5c7df1cf3f7U, 0x14e7fcebf41fde02U, 0xe2edd8c4000300e7U,
  0x14d61afecb0e01ceU, 0xece9af05e2050402U, 0xe1e9fd40e5f7c0dbU, 0x18f2f2250815ea1aU,
  0xe3e11a0a142afc10U, 0x8eb06ece0f00a00U, 0xf6f42b1ce900f6e7U, 0xfdeaef4607e3ae01U,
  0xddf8fffd28030b16U, 0x4e6fae0fee20604U, 0xd07280f05e7f2faU, 0xd6e2f75cffc6c909U,
  0xfe2d0d04f208fb18U, 0xde02ffeb1f1be419U, 0xf6eb16fbf9f61408U, 0x1b2222ff1bdc0a0fU,
  0xde3009eafd040938U, 0x1205080f2312ce00U, 0xf0d91cdaebe921ecU, 0x1121bf720d3fcf4U,
  0xf90efe1d12e5fb43U, 0x1dee0ef42406ebfaU, 0xebebfb1115e125f4U, 0xe8ee09d801e8f2bfU,
  0x1308f5eceefcf1d0U, 0x30e818e0e3ff1808U, 0xe0718e4fc06ee19U, 0x122cfd06e82b1415U,
  0x14f0eec6fe1fe610U, 0x2ef23612151dfa03U, 0x1f09f9d10e0a0c02U, 0x150607d9f81935faU,
  0x3df04ee1d2fe918U, 0x271222fa0ef5fe24U, 0xef0aedd9d60a06edU, 0x2fde6d5f2352ff6U,
  0xfae11711f206f80dU, 0xb280b09f50701fbU, 0xfd17e8cefdda08eaU, 0xfbf813ebe84b23faU,
  0xf1ed20150afadb09U, 0x7211836ef2af5bcU, 0x42905b4ffef05d4U, 0xfc270ffef60e1c11U,
  0xe5071de206e5cf04U, 0xf6ee1f361432fed2U, 0x231beedadf0401eeU, 0x2f201ae0fce5effbU,
  0xff710160128181aU, 0xd33eecaf7f9071dU, 0x1402f9d3ebe7092aU, 0xe4d4e0f7e0380016U,
  0xf4ebf306fce2cd0fU, 0xd623ebddea3def07U, 0x170df11bf005e9f6U, 0xe9c50818efef0c38U,
  0xbee506df00e6cf17U, 0xebdd10fb0550e0deU, 0x150fe334f70de0f1U, 0xcff2b10f0b1041aU,
  0xd0ced12f5ed101dU, 0x1805d3e616e0ef2eU, 0x11d3fc23f5081807U, 0xfdddfdeefbf7f6feU,
  0x12204ed03ee1937U, 0xfee9e7d5f6dfe006U, 0x14e2ee68fe02ee02U, 0xdea9f31913ddf219U,
  0xd71a18e0f8ee0836U, 0xfcc7fdf8ea01e6d8U, 0xf703f256e6f6c50cU, 0xde4ff131beaf71cU,
  0xe4f70de431dbec16U, 0xf9f15faf505f301U, 0xfc15e20c14e10900U, 0xc61a12ff16a4f9ecU,
  0xbf9f506f40e0102U, 0x2dfe3ce11f03af8U, 0xdced1f070c0ad409U, 0xea0a0c2101f9fff7U,
  0xfa11fefb01ffe602U, 0xfee5fcf3dde23b0fU, 0x14f0fdf90f09e5fbU, 0x8fb110deb0deedfU,
  0xdc07e7123acce6faU, 0xffe92503170dfc0aU, 0xeddce6f2e9dce10fU, 0xec0a1be31ccb2ef7U,
  0x1df4eee8e9f1eef2U, 0xcee1bdf2903210eU, 0xe7fd2603e400de10U, 0xf2031dfcfde80d03U,
  0xe6fc0602e515eb02U, 0x209e103ece80ffdU, 0xae80c05fee8f009U, 0x20f21122f7000b12U,
  0xecde03262beeff2fU, 0x624170be2ff03ebU, 0x2e1c00ff2010a0aU, 0xeef70b0a20df2fcfU,
  0x22dae3d429e8ea0dU, 0xfce7400c0a151103U, 0xe8e2d4f2cad9f3f5U, 0xcc212c0a0be91df6U,
  0xdef70fd3d9fd18ddU, 0xfa270104e301fae0U, 0xf8de0deaf0f1e009U, 0x1227f5412d102200U,
  0x14f6ccd306e3ed14U, 0x16e4ed0c071ef6d7U, 0xe0fec9fdeef7f62eU, 0xdd1bebc7f9f3f116U,
  0x3fcbd21e7e125fcU, 0xf7f1120a0517bad6U, 0xe600d0e1edde150aU, 0xdc0d0ac5142205cdU,
  0x13f6d20f04e3fceeU, 0x1c02021c17fb10ceU, 0xf425fafe06e51dfaU, 0xc0ae1d55b0bfad2U,
  0x3f015e03012ff0cU, 0x2aee051904fc1ef4U, 0x2afcd0132df7f620U, 0x1f5c7f4c4eae55dU,
  0xf8120ac7ed4bf4f0U, 0xfdf813fbf7e0e62dU, 0x24fce1ee310ef3d4U, 0xf1e8fce0f0ff031aU,
  0xfbf71cef1234ded3U, 0xe603f1f8051a1d0cU, 0x1d20e6fe1ae8edf8U, 0x1bbee2e520fb0017U,
  0xdf253b0527d90700U, 0xe0bb7f7e8e01cefU, 0xd9060b072021f2feU, 0xefdbdc05fdd6edf9U,
  0xf12e16f008dc01fbU, 0xf0f7d5e007c4ae08U, 0xee1903fdf506ed14U, 0xded6300cda02d6d2U,
  0x1d091e0c28dbd7e5U, 0xb11fef2e70aeafeU, 0xf23eee1603edd905U, 0x18ea0820f20acfe1U,
  0x42ef2201122fc1eaU, 0xf308011bda13f628U, 0x8ec2528ff1df4dfU, 0x31f712f830fa110fU,
  0x390317ff021cc5f3U, 0xe906070edd120f15U, 0xb040503ef320720U, 0x31df0ce440eb0605U,
  0x23052d060bfff510U, 0xdff7f9fae704f11aU, 0x150dff02fffdf60eU, 0x19dd00ea01e40cfdU,
  0xceece13401c8280fU, 0xe9ddd7dd2ce107d3U, 0xe8e2fdef051706fcU, 0xc62fe60ade1019e1U,
  0xd110dc1d05ba08f3U, 0xe7d8e3e81ef303e8U, 0x3eaed070e2f0a14U, 0xd51df314de0c2cf3U,
  0xedf501f714de16e8U, 0xfefaf6f903090109U, 0x1f5f40514fae9f9U, 0xeffa0702cf0e17feU,
  0x11ed20f30f18f518U, 0x1c06090b0304e9f4U, 0x1619080af604f9U, 0x190c0cfb15e0f322U,
  0x160802e10e15e804U, 0xb0d0e15e7120e0cU, 0xfe0001eef3f00004U, 0x2b0f07f93603e80eU,
  0xf5fa0ff1ff130607U, 0xf10d03f4fa0dfb01U, 0x7f3f4f6f4d7ee02U, 0x1d0103140e09e600U,
  0xb21a080215010ce9U, 0x715acf7d4df04dfU, 0xf8293ef7f30e170eU, 0xf01ffe07dff9ad0cU,
  0xd33df90f220af7efU, 0x22bcaf9f0c6d202U, 0x1d0d59d2e10016f1U, 0xea202926e91dbfd9U,
  0xe7e4eefb2902dfebU, 0xb0ffb08060f02f4U, 0xf9f0f5e6fde104efU, 0xf9061be7f30dcdefU,
  0xf115d60a191014d3U, 0xf535f805fe1de935U, 0x70c2ff4d41221ebU, 0x21d2026dd18c5eeU,
  0x17f0e0e30211def5U, 0xf01a3309250cf02cU, 0x11e3e4dcf6f911ebU, 0x8fe08e8e620f8f6U,
  0xddaeadd1608e4e0U, 0xfcdd45080e1df7fdU, 0xecf9813aedecfef8U, 0xfce7d3ee0c0b190fU,
  0xf2dff103dd05f7f3U, 0xfef02c1b0ae4fb05U, 0x1b3eff8f00718f9U, 0x1403eefbd3021014U,
  0xeecb0eeff0fcfbf9U, 0xe6c33c0c09f51afcU, 0xf9c3b21715f406fcU, 0x17d1c90319f4170cU,
  0xf40900dc0f0a27f9U, 0xf8c02108ebe909c8U, 0xe7efc4330201fb1eU, 0x7e3cd0835e20331U,
  0x17141209f7040834U, 0x1901dffbf5f9edd4U, 0xebf7ee10f4e6f41dU, 0xf7080afc22260aedU,
  0xf931fecf1148fe17U, 0xff04e4e8ea00fce8U, 0xf2f9eafdf5f1f82aU, 0x1d1b02fcec0a23ddU,
  0xd8ddf8d60627e1cbU, 0xf6ed04f5243d1b02U, 0xc8e7cc02f814f201U, 0xdf2f1e808d3fdd0U,
  0x9240bfd00fc001bU, 0xfb31dce9d3e602fdU, 0xf0fd1107eceddf10U, 0xf60606fa1633fcf2U,
  0xdfff8b8201df405U, 0xde0c10f3060801efU, 0xff9d006f8ddf32aU, 0x2b1302f2fbed08baU,
  0xd4a3efdf0bf4e3edU, 0xede0df51c1526ffU, 0xd30ec927f8fc0ed3U, 0x11df0aef2ec0f0fbU,
  0x1721f00211090809U, 0xd517fbf3ff001ae9U, 0xbff030111e4ff1cU, 0x180eeaf5102cfdebU,
  0xf108fbcd0b19eefeU, 0xfdf21200f72027f9U, 0xdfccd17f6df0a1aU, 0x100213e31ce302ecU,
  0xb4d5f309f8d9ea02U, 0x29dff1f519fa0a00U, 0xff0ada20140703f4U, 0xe6ed0dda2cd5fb1eU,
  0xb40dedfaf4e6f607U, 0xed12f8ee15fedb04U, 0xee706f2040e12f0U, 0x19fee9dbf3ce1e46U,
  0xd5e1e9dbed120201U, 0xdd00fafd06f8d50aU, 0xe5ec40ebede2fb55U, 0x30fceefae7f8ef0dU,
  0xac8d7f3111eefdfU, 0x1f071518e4f01a16U, 0xd1d3f60a08efda2cU, 0x36fb02e2ec06f5eeU,
  0xc5e4e509e1041a08U, 0xe003edecf021ec0aU, 0xf2e231eb0a05f511U, 0x3802eefaec002d20U,
  0xfdc5d3eff4261908U, 0x1b2c121ef00c082fU, 0xbbc40707f0faeef8U, 0x24030aef10171100U,
  0x1df9fb051aee18f3U, 0x37fd0fddfae81df8U, 0xe400be1b18f70300U, 0xfefef134f917f7b7U,
  0x5e6edf4f001fa08U, 0x38040e01d70416f1U, 0xfbcee6ec2107e6f7U, 0x60fecfd05041af3U,
  0xfd0505053eeadd15U, 0x420f0bf8ea252ce1U, 0xe99ac1c0bf319eaU, 0xf7360c17f31b09bbU,
  0xf03621f507f9d600U, 0xbec02df0df8f6dbU, 0x1e1ff810180c1e0aU, 0xdc1ef612f30de8d5U,
  0x90703f418faed17U, 0xfee9f5eee705e30cU, 0xfde9ecfce0f8002bU, 0x30df405e0f507e8U,
  0x7fcfdfb0912d600U, 0xc50d0f1dec1ee71eU, 0xe5f7fbf0fff7ddU, 0xf8d10de20bf420e8U,
  0x1fce23016111215U, 0x719080d0106f6f4U, 0xe9faf6def1ffebf2U, 0xef5e2e20b081203U,
  0x19e3e912e5fb1f0eU, 0x6092008fbea0efdU, 0xff0ddf0001ece9f8U, 0xee04001c072c160eU,
  0x270eca0beeba40f8U, 0x3c0613dc03d305d7U, 0xfc09dff5fdc2f135U, 0xe60dec19e822f024U,
  0xf80af8fe01f6fdU, 0x10e911ecf7150af6U, 0x17fced2a06fd04f8U, 0xeaf8140ad312defaU,
  0x2414ee05f90726U, 0xbe807e1fd0205f4U, 0xf707f3ff07f9f7bbU, 0x8f313f9f4e8e126U,
  0x2071ad8073feeffU, 0x60a0509a4223405U, 0xeee05151005f6b7U, 0x17ed2bd40cd3fa1bU,
  0xf12f7f8150bfa00U, 0xc07e612ffd61812U, 0xf7eb05e0feddf6deU, 0x90df4df22e3e41bU,
  0xbd2806d2fef70a09U, 0xec19d6f2fa2d1402U, 0xeace10f5f6ed0dfcU, 0xeeddf5070409d0eaU,
  0xbe1dfdd9f108fe18U, 0xd71cdbeaf024fb00U, 0xe2f333f1f71a01faU, 0xf2e6d5011efbdeeaU,
  0xe22009d0f403020bU, 0xda1cd4d9e72efbefU, 0x2e53bf8fa13ea09U, 0xecd7f21f1600ef03U,
  0x8f7ea09f91b0ef6U, 0x13e9fd0d07f50d03U, 0xf6f7f00de5e9f910U, 0xe011f6f80d1702f0U,
  0x17efef18fc0d0505U, 0xeef809ff0df8fa02U, 0xecfd070be70d0ee8U, 0xdc1aea0b0efcfce9U,
  0x1401f01c050d0706U, 0x70106f91b0a0cefU, 0xea1e19f1e8201314U, 0xf103f505f3ef07feU,
  0xf2d1eafb26f60605U, 0x18d70c0902e001fbU, 0x1316ce1816e8fdf2U, 0x24ff07f1ed11f00dU,
  0x2dae50920f9f603U, 0x26d2f506eed907ffU, 0x1104dd1a130df6f7U, 0x1232f2ee0502fafdU,
  0x10fbdc0012f4df0eU, 0x2ce0f300e5d60f05U, 0xfce60f130bf1f7U, 0xa1cfef7f9f5f8ebU,
  0xa06d94f0ad8f516U, 0x401af6ee000519f4U, 0xf802fcfa0bf9e927U, 0x30feb2500191015U,
  0x1ee521b9f2e806d7U, 0xbfedf8ddf3eff4eeU, 0x121cee08f51cf7e8U, 0xddef1bf0e009f5caU,
  0x71c0205fdf2fc06U, 0x210f05170bfd0601U, 0xef5f1f60aebe6f7U, 0x250ce4dcf1df1e04U,
  0xeadd340c0a3804fdU, 0x81e315e7d60f04bdU, 0x1b250811100ffa43U, 0xd10e105ec41821b4U,
  0x2a0cf7df07e6e4f7U, 0x4809051dfff7fa24U, 0xc608df04f128d2ccU, 0x1fdf20ad1adcf20eU,
  0xeb17013001110ce4U, 0x4fd0a0e0706f9d5U, 0xe9f213fbfffaed40U, 0x325fd1702ff3208U,
  0x6f321d0072aef01U, 0xea0525f9fbe407ddU, 0xf1b071cf91dee03U, 0xd7fd16f6f9f4fcc9U,
  0x303cc1e0ee0fd03U, 0x1501ef06fc291e05U, 0xe3f3e01307efecf5U, 0x1bdaf215e4f1f425U,
  0xfeeb0be701242ceaU, 0xf6ecd21d010a0610U, 0x10162be80008ef14U, 0xe0fd14f804fd0f02U,
  0xecff02b2fff21ef5U, 0xdae9f5edffdf00ffU, 0x20e70efe0ef50bdeU, 0x6fb01d8160915d3U,
  0x1400010423fffe08U, 0xf50c1608190d1d16U, 0x404ef07f2e8f6fdU, 0x1b050902110d0612U,
  0x11fe04e0ff3e01feU, 0xfefff901f0f908f9U, 0xf90a1b02111d0405U, 0x1e0bf0e904fd0806U,
  0xc90302b5f51828f0U, 0xe5e5f5d409fb0af7U, 0x10e9edf40dc00409U, 0xf8fa20fcf1fdfcd9U,
  0xf60c15180ef21607U, 0xe0a0eec2d010221U, 0x703f903fbb5f901U, 0xfcfe0804f2fce521U,
  0xfd1e03eff7151f0bU, 0x3fb05f10a030cf7U, 0xf20e0cfc04dcfc06U, 0x260afefae10f010cU,
  0xfe7ebdc080c0ef8U, 0xaf7f7e7e4cf06f5U, 0x130602ff080112U, 0xf90612e6fcee0be5U,
  0x1707051b2afced11U, 0x271b110cfc1ef013U, 0xef0bec16fd17f8faU, 0xee0f0af7fa03f211U,
  0x10f206e70505f80aU, 0xf0bfff9cf0606ebU, 0xf1fe190dff24ff05U, 0x180e01f715ff08e9U,
  0x11c26eef3e2080bU, 0xe5d7d6f1e2d9d913U, 0x9e215f50ad9141cU, 0x2d03fe10df1505edU,
  0xde71ce70c19e5fcU, 0xf6f9f929e5281011U, 0xc8f4fd17f80903f7U, 0xfd102d622ca06f5U,
  0xd1009280f1cf4e9U, 0xfd03fd0d36f600faU, 0xe31417fdde060615U, 0xf411eff517fd1feeU,
  0x1dda17c7e743f1ffU, 0x6eb0b20ed271c34U, 0xee2cfa0bd629fcd7U, 0xfcc514e504e40aefU,
  0xc3fec04c05ca0ffdU, 0x1229032016f10b16U, 0xef05f904e91bf6e5U, 0xff06ee1929ec130dU,
  0xa0107070be413f9U, 0x13d9ebe5efe5f0adU, 0x1f2529ffe4c30f1eU, 0xb62df516fbf90711U,
  0xd8f4ec46fdfff50dU, 0x81234eb4700140aU, 0xddcc09f7f616e5ddU, 0xf2e4ee20100aff12U,
  0xd426f3efeee81df8U, 0xf110f5dae70902c7U, 0x2fddf5f3f1dd0f3dU, 0xf51ff837c233f3f0U,
  0x26feedc3f9f9eee6U, 0xe608defbdcfa0911U, 0x13251fbffa02f91bU, 0xf6fc09d6f5fde914U,
  0xe206f7e509eb190eU, 0xe505ff08f5f520ebU, 0xa0c08f10cfadad7U, 0xfcebf8fd0e1418c4U,
  0xf5e8f2100de8f711U, 0xe9e303fd143118fdU, 0xeb1202f0fce7e911U, 0xfe0af30fff02040dU,
  0xcf2f022f6f8e1f5U, 0x2401f6f0fb18001bU, 0xcd12e9050c13ec0fU, 0x1e1df7ffe1f0fa28U,
  0xfd250bc914e90d00U, 0xfff80b0af1dbd8f0U, 0x18f207fc051b04ccU, 0xe5df21011b1e16cdU,
  0xf0d9fcf4fff4170fU, 0xde040efcc8030be9U, 0x70b29fffd03f606U, 0xdee08f8f30808e8U,
  0x1dfffc1e01eeeff1U, 0xaf9fef821392005U, 0xd10de4eff5f0032dU, 0x110efef3e5efd614U,
  0xd1503e11bd4f6feU, 0x1d04101112f7e202U, 0xede7f5e7fd0b16f1U, 0xfdf106f90b0bfedaU,
  0xfbf30abf15fb0ef2U, 0x190606f9e3f5f0e4U, 0x11ff2308fe040cbcU, 0xfc041526071209d2U,
  0xfbf7ff2bfe07f9f5U, 0xeafaf6f20e110e00U, 0xf53b06ef0bf9f725U, 0xfff70907f7fcf321U,
  0x62fd1a2d150cf5faU, 0xf6dc280d010405ddU, 0x27a816fb050528U, 0xca1ded0c0332ec16U,
  0xfd0336efe856fceeU, 0xbfe51c0af81318daU, 0xdde8e615010a024fU, 0xdce9d3fefce4fcf5U,
  0x8b0722c907260eedU, 0xc80ed3fee1e506f5U, 0xdc00af1fdf003e9U, 0xe9f3231bf6fdfdbaU,
  0x19ccfff30410f503U, 0xefdb140ad9e31a25U, 0xe6190213161bfa26U, 0xf6fe1118e208fa16U,
  0x1fe8db31e02af60eU, 0xf917f6f3efe3e84dU, 0xa9120dde072cf707U, 0xf5f00cd1e1f0004bU,
  0xec1be90efd29fb16U, 0xb12dbea1107f42dU, 0xd307e613f2da1105U, 0x1a170812f32e1b06U,
  0xe20cf615fdf508ffU, 0x2608eae7f7d6fffaU, 0xecf852e00a06eae7U, 0x6060312d600e5f3U,
  0xf415cbe70002d40bU, 0x1507e6ec060ef711U, 0x1ddd03e3160600f0U, 0xa1a161af524e400U,
  0x1309e1cbf603ddf6U, 0xa1718fbfb050832U, 0xfc11ccef0defcf05U, 0x2203db0407280519U,
  0xe612bbbbff1af9ebU, 0xdd1e1b13ff0e0241U, 0xe03100df5f5e181U, 0x7dd23c543d718fdU,
  0xf8efb422efefe4f2U, 0x11110de636e70ff9U, 0xdd03fdf708e40301U, 0x170bf322140d1609U,
  0x13fa011405dcf9e9U, 0x21f10dd902e8f3f5U, 0x103c09f51bde1905U, 0x13fe0c1bcb20fd0eU,
  0xcff8e53018aa3107U, 0x6fcefd711e30ff9U, 0x1c011f810fa30c9U, 0x1310343dffe0cd2U,
  0x60c30da27dc10f4U, 0xe6f2f811c51eeec7U, 0x471afb0ef9111613U, 0xf61a14111b081ed0U,
  0x2ff43bf11aeed3f8U, 0x7fc0a0be70a03edU, 0x26160ffc040ce903U, 0x17f3f2c81f1ef4dcU,
  0xaf22df90413f1d8U, 0xf1310006f7240ddbU, 0xe08efd3e1120524U, 0x721ef01f6fc1512U,
  0x16ee0ccfea063706U, 0x1e11e9dae4e2fe0cU, 0xdee802d4ff04031eU, 0x1f0ff0cc1aea141aU,
  0x121a210411010c23U, 0xf2d202e6fcea0207U, 0xeef8e714fff31cfcU, 0xe9f7fc1305e6fc09U,
  0x3fffffffdU, 0xffffffffffffffffU, 0xfffffffefffffffbU, 0xffffffff00000006U,
  0x3fffffff9U, 0x300000003U, 0x100000000U, 0x30000000dU,
  0x6fffffff8U, 0x700000001U, 0x20000000aU, 0x7U,
  0x5fffffffcU, 0x300000002U, 0x200000001U, 0x300000006U,
  0x1fffffffdU, 0x50000000dU, 0xffffffff00000005U, 0x8ffffffffU,
  0xfffffffe0000000cU, 0x200000002U, 0x100000001U, 0xb00000002U,
  0x2ffffffffU, 0x700000005U, 0x6fffffffdU, 0x300000004U,
  0x400000002U, 0xfffffffdffffffffU, 0x100000001U, 0xffffffffffffffffU,
  0x41fd47f201273436U, 0x17c5e3f10c1712d2U, 0xdd3a233024e301f0U, 0x30906f9521cc222U,
  0x2018060a1004001eU, 0xfc09ff22fc1c030aU, 0xfa001de30a15f3fdU, 0x12f032121215feU,
  0x170d4f0bf6200d59U, 0x12efe5e1201824ddU, 0xdf41293b33ee0ac0U, 0x19fff6214123e144U,
  0x1b1c0cee1e053715U, 0x3200ee2cfd31f300U, 0xe61d0af318200be7U, 0x4718fc143f1b09fcU,
  0x100f2a34f433243bU, 0xfee5e3000f12fcf4U, 0xc83633150eeb08e0U, 0x2ae6df1215fed852U,
  0xfe2c1f03fff618fbU, 0x9080ffb120b1ff2U, 0xc2fc0fde182316ceU, 0x6f2f70a2a1b1aecU,
  0x113affbef8fae20bU, 0x6ebd7cce5f9fbe6U, 0xdd401b32f8e0f3d6U, 0xf4ffd0ee3deccb2eU,
  0xf511f6f70b03f619U, 0xf6e40101dee012c5U, 0xbad21708fdef240aU, 0x1dffe3171c12f812U,
  0xe23709b9d60de9e5U, 0x305d7d4f5c8d6e1U, 0xc715e735f4fcd3c1U, 0xef0d9ff818deccf9U,
  0xd8eaf213fe1ae4d9U, 0x22b700fad6cdfcadU, 0x91e8f8f4d8bd30daU, 0xe5efb7d400dfe5dfU,
  0xc0a0c152c0a0aU, 0x27ceebd0fadee0f0U, 0xd9060c3f00f0f0d9U, 0x1fcc7282febdd1cU,
  0xe52f2109f72506f7U, 0x4cc21f5f9031ccbU, 0xabfbfa0ae7e00ff4U, 0xfbf9f4e70e052d0aU,
  0x1612fac9ecf0f7efU, 0xf412f50916ee0408U, 0xf626f0fd1afff5faU, 0xe8eebdd91dced918U,
  0xee1b1229132be3e5U, 0xf7de1cec20d5e3bbU, 0xa2c9f708decc1512U, 0xeefb10e71f150d1fU,
  0xe62b27b8e5f118faU, 0xec1a030529d2e1fcU, 0xf1d001fa1f01ffdfU, 0xe0f5b2f915ccddf9U,
  0xe4f4ec271f2ad9f7U, 0xf402040421b0ebd9U, 0xbd00e8efd7a413e3U, 0xc5fdc0da0afce50eU,
  0xf618ecd5f61a10faU, 0x2e1406fc13f7fb11U, 0xd1fd0aeb2ef8f0fcU, 0xf2fbdd052d09fb17U,
  0xf225091128171b20U, 0xf2f1092dfcf31424U, 0xd90601f8d7a7040aU, 0xe207df07f1170719U,
  0xf601b1170f0e0adcU, 0x22192520e0d0f407U, 0xe8eb031fe2fac400U, 0x18e21806d509e5d9U,
  0xded06f0f122fb00U, 0x1c1d10ccf4ef13ecU, 0xea0dfa1303fe2c0fU, 0x22110d19cbf7d5faU,
  0x81dc043f1ea0906U, 0x330228469f0d00ecU, 0xe0fa102ddfeee7f8U, 0x1af21f0bfd00f10bU,
  0x9040806e93ef9ffU, 0x1310fc0bf10f19edU, 0xf3330403dd052504U, 0x130a1c15d0f4d5daU,
  0x2516dff6122228f4U, 0x23f90a21c40afbfaU, 0x10703fef4edecf1U, 0xfdf1201e02edef0fU,
  0x2a090a06f109f111U, 0x1b1619f5f0e516ebU, 0x220611faea0c1f00U, 0x14fcfe2df92bf405U,
  0xe714e6dedbea0de9U, 0xf40100bc5f7eb0bU, 0xc3fef6201642e2ebU, 0x2be7ff04e0e40a06U,
  0x4fb240c16f2d6efU, 0x3c10edea05defcd9U, 0x2e1fc11f2e61cddU, 0x1e1c240dcef8b4f4U,
  0xdc06f0cba0d7d9ecU, 0x1602250494f714d8U, 0xacebe4091a0c05d1U, 0xdc0b0bced41aedU,
  0x1f1308e2effeef03U, 0x704e2e1ee05b7f6U, 0xfc2ee4e4c0d340c0U, 0x31cf803b1048de0U,
  0x20feffedecf1fa08U, 0x1e271b30ad1f2309U, 0xd9111efd01d7f9dcU, 0xcfa341a101322fdU,
  0x1d181dfbdf19fd06U, 0xe80aeef2161eff0bU, 0xb07f7d8e9f91715U, 0x221d1308c52ee2fbU,
  0x2f7f91600ec24d4U, 0x143410040014fbf4U, 0xfeceee280a46000dU, 0x10eaf5fa05cbfb01U,
  0x261c28330f01d420U, 0x1b16f90a09e8f70bU, 0x28f5fdeeeb05f1dbU, 0xfc083512f6099504U,
  0x2efd9f3e7e8f8f4U, 0x9fa06efee0a0ecaU, 0xe3d8f3f21b1f240eU, 0x12d113fdeddc07f5U,
  0xd1b1cfef9f8dd16U, 0x402fce4f1ebbf26U, 0x171b04b3acef0fe9U, 0x30204fcc00e81e3U,
  0xe10ef13020ff300U, 0x1312310de6fa1f01U, 0x5d2070721eb11f5U, 0x9e33f19150e1b02U,
  0xa1428f3ff13251cU, 0xec1bf3fee20eec20U, 0x2c2409c3c6e10e01U, 0x22fe0e02bc1dece6U,
  0x1a01e1f50c010ee3U, 0xc2dfe0be8f5cfe0U, 0xebebdefcf80f1d21U, 0x1427c8f6f8ebf818U,
  0xfc1cfe2510340f03U, 0x58e123180d1cfefbU, 0xf105d70e11001ff2U, 0x3e83110f0f9fff4U,
  0xfff2f814b4fcf4fcU, 0xf7ddecf6c8cbe2e3U, 0xc50ed0ee1318eee6U, 0xe2d5e6d109f40bdcU,
  0xaf7d4f3fbdb1c0bU, 0xffccfaf8d20ee006U, 0xdf7f9c1ff2f0513U, 0xef00e0d3f8f1d8eeU,
  0x291c16ffe315f91fU, 0xbe8f0edebf831f5U, 0xd50cf519de0a2201U, 0xceedecde0feff8e8U,
  0x601e91fec02fae1U, 0xf2e3f5f80002cb3dU, 0x170612d0e338f521U, 0xe704eef0d2f5fe37U,
  0x6f2e8e20d53efe0U, 0x1cf80aefd11cdbd1U, 0xe3de02330ce4100bU, 0x1e1d1c4b0bff1a03U,
  0xd627411f2a2bfdffU, 0x36e5ea140724f819U, 0xc208f21404f123cdU, 0x30eb2c29fe0eec0aU,
  0x8d1e31de5210debU, 0xd6f6e403c30ee0f0U, 0x8c5f3e0ee08d231U, 0xf160800fac80202U,
  0xdd0219231a1f36deU, 0x6ba250dd716d902U, 0xa8ccebca2ef4fdcdU, 0x16062cc00fe3abf9U,
  0x31cc0f35ab05e303U, 0xf5d9e8f5d101d8fcU, 0xfceed4e7ee10ec10U, 0xdeeafae713e7e8c3U,
  0x6f4d111e3f810e7U, 0xebddf810bfeacf32U, 0xd9ffeb8dfeefd8fdU, 0xcf19baefeac8db0fU,
  0xfc0408e7032cf9e9U, 0xcf405e8e63505e8U, 0xf302062011e12f00U, 0x12fe382827402304U,
  0xf61618f7defd0713U, 0x2bccbf2d1f0aeb0dU, 0xdef6f7dcdd0413c0U, 0x34d70617ee17ddf8U,
  0x1d0ff7ff0b3af2dfU, 0xff0a1e04d550271fU, 0x1502184817f0e452U, 0x50329512a0c0d3cU,
  0xd127263218141101U, 0x21e9112a3030f126U, 0xb5f1f1e1edef0edcU, 0x310941eb0d25d0e7U,
  0x42fbf82d08111107U, 0x6f913041733c71eU, 0x220f0528e900d547U, 0x5f729e52606f12fU,
  0x206fe4ef72ff4fdU, 0xd4fc2af51dfd17U, 0xe7ecf6e201f5e602U, 0x18220a1a0a05e50cU,
  0xd7f90ae70b03f1daU, 0xfeb31212c9f0e9d8U, 0xfdf8d605ffe1def5U, 0xec19ce19f80819dcU,
  0xe705fdfd15f60dfbU, 0xe9e0142ee3000cd2U, 0xfae0eb01090336b3U, 0x18e0f0f1f9f217U,
  0xedfd09f80ef602dcU, 0x17d6e9f5f705f0d5U, 0xcffe0f5fdc6f60fU, 0x11c0212162e05f9U,
  0xf81e01110625ffefU, 0xf40df9231a0f01e7U, 0xde11016f503f8d6U, 0x27f50fe10bfa25U,
  0xae220edfb31f6e9U, 0x1dc7ecdddd1403d8U, 0x251bea050fd0f2e4U, 0xf403040b4919fbfaU,
  0xf814eff912f8f6faU, 0x3ebca38122a17adU, 0xe0da3af70bd1d5d6U, 0x21ff510f104080bU,
  0xfff36ee11e100f9U, 0x10db41f906fc0babU, 0xb1dea1a28290fd1U, 0x50ae511ed01270aU,
  0x26140c200901f5f4U, 0x809091d21f1fb0aU, 0x170bcd04050836c0U, 0xfd2ef91af2fc072cU,
  0xff123ef90bdeee1eU, 0x3cd624b1f4414995U, 0xf1ef22029ed3ec3U, 0x132a0936e9022a02U,
  0x362b17f4282b0b02U, 0xc015cc063145000aU, 0xfe11f60f0c032bc9U, 0x33481133e542f522U,
  0xdfd6140ef71ced0fU, 0x12d700feef4d2bdcU, 0xe828fbec37c830d4U, 0x70d021427180b12U,
  0x3180cf915331f0cU, 0xe7f7d82a2c4cf605U, 0xfbfe0fee150aedd1U, 0x2d07042cf92bfc15U,
  0x180817f909f90de4U, 0x19de08e7ef1102b4U, 0xe721e82b050f10beU, 0xf606d7eec1d8fcf0U,
  0x40cf71ffb03daf1U, 0xf041a1e0ff0da0cU, 0x1407e004e6ec35d7U, 0x82cf613daff0229U,
  0x8e305151bfffd0cU, 0x1deb16d604222cccU, 0x1506f0fe280e12adU, 0x1207ed0ed1d20e09U,
  0x7180502f30105f1U, 0xee02db061925ef0dU, 0xc07db26d0f720e8U, 0x2e380624ef0a041eU,
  0xf8eff8f005fffc03U, 0x3d302f5062106dbU, 0xe007fce812e207bfU, 0xfaf6fb0f06042111U,
  0xf30303fff9e42e0dU, 0xf3ffdd141930ed1eU, 0x1af2ee06eaed0df7U, 0x1609f30de6fae30aU,
  0x1ad60d041f0004faU, 0x6f80805e81526e9U, 0x2df60003122d23feU, 0x3de03e4fb1dfb10U,
  0x50601fb00c20922U, 0xe20bb8faf611fd1eU, 0xf9f7fafbde15cf27U, 0x2208f2211e0ddaf2U,
  0x13b315eb0c1df719U, 0xc010f06e8e11105U, 0x4702f7d80ae1fef7U, 0x13b5ee08fb3024e2U,
  0x15fe14cffcd2ed06U, 0xf8f9e435f906df26U, 0x3115dfe7ed1a0c1fU, 0x441003270af4fcf6U,
  0xefc20c00f6080625U, 0xfd0c161ee80a02e2U, 0x2d050cdef8defef0U, 0x22da111fe82e1516U,
  0x8170ee917c9e3e3U, 0x10e8eb221d1ad2daU, 0xf9d8ee0a051cf605U, 0x21f80c02fef8f3d7U,
  0x1a00021b14ed161aU, 0x1af91403ff081923U, 0x36f7e7050518061eU, 0xc6d7dff40b292d4aU,
  0x3019fedcd6cbf930U, 0xf715b9ffea220e0dU, 0x341d0203f103fb34U, 0x2916ed36ed17fcffU,
  0x7002532e6150023U, 0x11e61b0e13e0fa38U, 0x2510ead90806f636U, 0xe1e5fb05fd3b6e1eU,
  0x1d1c10acc6c8fb0eU, 0xe8dad51a180cdbe4U, 0x27feecf3171b3733U, 0x3406e90dee1400f0U,
  0xf4e91302ef03de27U, 0x100827261200de0bU, 0xfb0a12f8eef1fc11U, 0xffe71320dd20340eU,
  0x140c1bc5f0b8d504U, 0xe5e00a221905c0cfU, 0x3efebf7151d401bU, 0x17edf1f20dfcd60fU,
  0x6e9fb2f07f00e00U, 0x14b3221cf8eb04fcU, 0xe1f2e5faea1a20f4U, 0xe5efc5fb1b3c110cU,
  0x1a15f8e0d90be80eU, 0x109bbf20f68dad1U, 0x1e06f81dfeff0efbU, 0x14f50113cf0a09eaU,
  0xd120446f6fbfe18U, 0xfae1525ff1504fbU, 0xe7fcf5f00139ff28U, 0xdbfa0a0e08162819U,
  0xf811ebd9cc030414U, 0xe3ede4f8fe30e1ceU, 0x170bf709fa1a0c14U, 0x1600f1f8fc03dc00U,
  0x15faf70be7d3f4eaU, 0x9d81a071115f1ccU, 0xdeefe7f0ed19f7eeU, 0xfaf02a10fd00321eU,
  0x1a1bfdcef1eef0f5U, 0xf9d2f21bea06f5a8U, 0x6e7e20604152d02U, 0x3faf70cf9f6dc13U,
  0x8d6da44241e1ffcU, 0x6002dee0edfffd4U, 0x3f3f7f5f91ad2ddU, 0x2e1fc01e04050c01U,
  0xd61d31152b22f4f1U, 0x12de07dfe512dd07U, 0xd2d1daf2fa2414f9U, 0x1f4006f608e9f909U,
  0x21001d231f0f23f5U, 0xfe0413db2806dbd0U, 0x12ffe802ff0ad9e5U, 0xfdeee0d080d0de8U,
  0xddff13201c18350aU, 0xde51001d8deee17U, 0xfefd0f0804041020U, 0x251fdeefc9ff091eU,
  0x9fe080109fd134eU, 0xbdcfff107fcfdeeU, 0x5faf7d9f8fb1e08U, 0xe0bafb0228101b0eU,
  0xfa13e6f6f5dc081dU, 0xe2fef316f6d6f807U, 0x461e1afd032af7eeU, 0x2611df0a0630f901U,
  0xf0d94231acd19a5U, 0xee05fff22dc399f5U, 0x22f8c61bc021a507U, 0x628ce0502fa18deU,
  0xeade2f304027d700U, 0x1fe04ccc92409f0U, 0x13c0f318fd0b15ffU, 0x2421c61401e11f44U,
  0x1824b514110a0b81U, 0xfe17f0ce0ce691ecU, 0x19d98727d1f9aff1U, 0x1210da021d0720a5U,
  0xe7e9181d272611d4U, 0x16db01f1cbee02e6U, 0xf6c4fb25d9d3f219U, 0x462dc0e7b3bf1d2aU,
  0xbf8cb1514ff0ef5U, 0xa0814000104be11U, 0x25ebc1f5ca0ced01U, 0x1001fd1c041412cbU,
  0xe2fe210ae31ffde1U, 0x9d90205ceff0506U, 0x2e2ea07fd0df511U, 0x430ef2fdd7d51e23U,
  0x115cff503d906cdU, 0x30f0311dd2bbb03U, 0xe520e603e1f8e737U, 0xdaf5d7f61bdf1400U,
  0x9f9ebf30c12f841U, 0xcc1811e7e00e12e4U, 0x3d1c190427e713f6U, 0x3726e930f415020eU,
  0xf10cd10a09f700a3U, 0x160efef9ff07b113U, 0xfff2b00fd90be119U, 0x1224f30c0f0407c6U,
  0xf5ed27070b1b0f03U, 0xf3e3e2de0cfedce8U, 0x19fe03f7e2df01ffU, 0x3726fb07dbf90204U,
  0xeee5df130043e8d0U, 0x161c1c15e4e8ca09U, 0xfce2e90bde2becffU, 0x361c1743de1310cdU,
  0xfb1a40de021426d2U, 0xaeaf3de110ee7d5U, 0xeff0da05e0fa0209U, 0x330d1bebeed42509U,
  0x1025ff0b0ff70800U, 0x1cf611eb032414ffU, 0xedf7f92b0df95cf2U, 0x23f23e03e012b51aU,
  0x212915fcecf80533U, 0xe17f5e9281410fbU, 0x2c05e4e8e2f90cc2U, 0x4023252cca1f221eU,
  0x320d30219ed2410U, 0x1acf1c1cdcf0082bU, 0xebfff313e30c0206U, 0x2fee8ecccc9d1fdU,
  0x2419fe1410d6db2aU, 0xc1f9d7c5f8d823d2U, 0x33d7f807eaf007bdU, 0x3123de2bd91df016U,
  0xf024d3df04ed0df0U, 0xfb0c161f0cea1a1aU, 0xe9fae708ddf2fdeeU, 0x9eddbf6f3cfe1ddU,
  0xcf70a1851ffd21aU, 0x1e1dfc906df17c2U, 0x19e3f810fcf532dcU, 0x202d0320d1fdfb03U,
  0x131a0f0a001ffe1eU, 0x1dfe2cf3ee433d00U, 0xf7e0fd1b2a3257c4U, 0x2b132526f0fcca26U,
  0x39351bf9e8eb1326U, 0x26efd50f361def19U, 0x2f0614ea090a1adcU, 0x20462723d9301216U,
  0xd518e7ec08220aefU, 0x5d30c24e10d2623U, 0xeedde100004c08d8U, 0x25ead205cbf01bfeU,
  0x251720fe24d3eb13U, 0xf7dd00bb05f205f3U, 0xf8bff5fc2f022e95U, 0x273af103f01fe92fU,
  0xd0ea03df1b1afedeU, 0xdfef1a141fe8ec1dU, 0x1f7cd0cd7eb06c7U, 0x5dad1f9f6c420c9U,
  0xf70a061342100008U, 0xccd02c004ca28e0U, 0x1bf3080517e12fedU, 0xfe13ecfcf7fdf115U,
  0xc0c03ed09340be4U, 0xfb0efef5ed272dfcU, 0x1315f4e3282358f8U, 0x1b281826feecec07U,
  0x201f1501edf52a1dU, 0x2ef50e2009fcff11U, 0xf20636f916e73405U, 0x161d230bf11611eaU,
  0xbcf3d4021c2c02c8U, 0xd8ca190aca06111eU, 0xefee818e2360702U, 0x38fedc0bd7f838fdU,
  0x40e20f91cf80f01U, 0x11dc26ef0cf3fbe0U, 0xe5bb11f50beb4003U, 0xe0908f4cde40808U,
  0xe7f6f3f030280ad5U, 0xfd121931000cf7fcU, 0x13ffdf2adc090005U, 0x12f3deeafbed41e2U,
  0x3050b0f201cf222U, 0x3dd35e6f9db2108U, 0x18f30b1838093817U, 0xfb2cee17ec02041dU,
  0x25fbd6061a3a22cbU, 0xe70cff1403eae7f2U, 0xdbe2030402fdcfd2U, 0xc011cf204cee50bU,
  0x1e90d030a02072cU, 0x1dee2cf603f7c8eeU, 0xebf6100510cafb18U, 0x2af50e1b00e6ef07U,
  0x20edcef514421fd3U, 0xf9f40106ebe9daf1U, 0xd3101ad60bdfefbfU, 0x17d115001cdad906U,
  0x5ee0af61ff42404U, 0x2e06381004fde617U, 0x32c4d0817cd311bU, 0x22f5fbe5defaf5f1U,
  0x140cf41f223034eeU, 0x261215ee030104c7U, 0xee170d0f08efdfd1U, 0x9f40cf60005db0eU,
  0x23232c070a012b1fU, 0x162817e501f6f3faU, 0x143e40182efe1605U, 0x220cfc1bfe270206U,
  0xf7fd0ff410321bdcU, 0xf5ebf51efec6d411U, 0xe1211af2f1e9fee1U, 0xed2702e730f400f8U,
  0x6f517f405fa3f1bU, 0xbf5383cf105e7d0U, 0xf2ec4006f9d716ecU, 0x12f70109eeefcb0aU,
  0x5e405daeb4feffeU, 0x10ef1e2dd2fae901U, 0xe1401fca03fc01eeU, 0xf0e41ae15efcfefcU,
  0x131402cf06db2e17U, 0x400e2b5a0afceb03U, 0xfa3470f013f43c1cU, 0x3eef8f5ee31dafbU,
  0x1f507ec0d26fdebU, 0x29f215e0e200f8cbU, 0xc72329f9051bdfceU, 0x6d50af5f612fb0aU,
  0x37133de402dd31f9U, 0x1e0d25f4eeffdfeeU, 0xe30b330ff0f53adfU, 0x260e1326f82fc109U,
  0x40001dd1df428e1U, 0xe3de18fb04f4f3f6U, 0x22ef326082b0ee1U, 0xf3320d000d121bf4U,
  0xa02042c1c013517U, 0xf14392bf71df6e0U, 0x519410a07e614f1U, 0x26f7fc13fcff04f0U,
  0xbf01ae9fc0c15fbU, 0xe72812e00909fcU, 0xfd27e4e30c1c02b6U, 0x131af430100dfbU,
  0x2d120deacceb2504U, 0x14332af210d8f5U, 0xdd0e52f3130e10ffU, 0x12260525c633f6e7U,
  0xe2eef3030a2208e6U, 0x10102fef9ff05e7U, 0xa0c14f71317f1b6U, 0x19df0bedf7ef0407U,
  0xb09120ceef9c9eeU, 0x9e906ed0802d702U, 0xc9fa10f1fb0614f7U, 0x81afddd2adb0eU,
  0x300dacda2eef1cfdU, 0xef041b0ef337f8dcU, 0x21dcc36f5c4bfc9U, 0xc3bccfb13cdd0e07U,
  0x21f9b01d03fdb43eU, 0xf4fa0bb6c8b95d0bU, 0xef43c1823eaf302U, 0x16d9b436d2274c11U,
  0x2b02adcc7e1662aeU, 0xce0e02e94fe6d817U, 0x4d19f669e7f6b5f0U, 0xe9ee91de2c2843ceU,
  0xfa13d455fef3cf1cU, 0x24c811c8bfe36b1bU, 0xe7aa0e7c10f90b1aU, 0xdee9f105d6db4a56U,
  0x17fbd6ee572139e2U, 0xde0b0e0cfee3bbf4U, 0x38ebe565f62c17e2U, 0x1813e0fcef4b2b06U,
  0x44f292d1e05fab7U, 0x2cb018c1f7e530d0U, 0xdb97c74f1cd407e8U, 0xeb0428da98ef2f05U,
  0xf60409eafc13131eU, 0xfaf30edff84921dcU, 0xcf110d252aa600daU, 0xcacbd8d203bfcd24U,
  0x270bebf7b7d0e502U, 0xebdfdae522c14decU, 0xd3f10817242bfd2eU, 0xef1ef01bfa401a31U,
  0xbfded2c173c09U, 0xed00e3fb120a1133U, 0x7f8fd7e04ead50fU, 0xe502c40e1afe131bU,
  0x61fe31f04cdd40cU, 0x12b2c3faf9cf4edcU, 0xcfd0177137401631U, 0xdfdb2bf0e4ea1925U,
  0xf5f10cff0f1c1108U, 0xf6fc1bfbffe80cfaU, 0x8c9356f32e33ebaU, 0x131cf60705eacc2bU,
  0x721220afce0e8f2U, 0x44c9df011cfc08ecU, 0xf81203521b1adcc9U, 0x15093be6c4f90c13U,
  0xd5e43305d9010430U, 0xced3e803054d5619U, 0x1bf119d952be0d02U, 0xf3e70111d50bd756U,
  0x94012f1cd0a20d1U, 0xc7a904152e2be9eeU, 0xbce004de2619ea05U, 0xe4fc2cce1400ebebU,
  0x160720edf3effd1aU, 0x9ec2a100e004c39U, 0x28dc0c443feb162eU, 0x2e5d6fff729ff32U,
  0xed353111e2e21de7U, 0xfaf41efc091300ffU, 0xefcfe143a23ef2eU, 0xeff014ee13fe0b3bU,
  0xc082ad5cee7dd08U, 0xe3d1ea20eaf46becU, 0xdbda22f432e55be1U, 0xfe08eee626e3c029U,
  0xf612f0e3dc9d16ecU, 0xfa03e75725f6ea01U, 0x352e0de62329eda5U, 0xeceb1ae5fe25e7ebU,
  0x15f1ead7fa0ddcf0U, 0x2715fd08e80b0bbeU, 0xbe2f06f513f3ebfbU, 0xf81516e507d72c25U,
  0x1a0f070bf9fc07f2U, 0x1917131c122be5e2U, 0xec000415e0fbe8f1U, 0xfef73f09fa00d800U,
  0x19dfede40017dedeU, 0x120406eaec1efcc6U, 0xc91af2021ed4e5edU, 0xe5f7ebeeffe62cf1U,
  0xf4fbe304ef00020eU, 0xef0f0d0dde01ebceU, 0xe2142bfbe3bfd1f9U, 0x1cf2edfae2fcdffbU,
  0xb18ef10263c160eU, 0x1e100d0c0909f30dU, 0xfefc0921ffdc0deaU, 0xf80d1918faff36feU,
  0x140c0418fdfc0b14U, 0x1308131ff51a13daU, 0xae12072a01cee51cU, 0x180dfa11c91ef72fU,
  0x2aebede90b1103fbU, 0x123715cb0500f4ccU, 0xc2130ae210cfffdcU, 0xef53de1120b120bU,
  0x71e1d12fc01f3edU, 0xfa2fffe3011df3dfU, 0xe103130be31cc0faU, 0xfefe2317e119f209U,
  0x27efcf0b292512d9U, 0xa531c9a1e0712ceU, 0xdccc0ae023e608f8U, 0x3a0718f00009d704U,
  0xf30c2a150524d4eaU, 0x291b08f0ff08eedfU, 0xd8e5070dbefb95d8U, 0xaf13905f100e719U,
  0x712df09321a1fefU, 0x141e09e31bf1daf6U, 0xe8c314eff6d9eaf6U, 0x13f807111004fdecU,
  0x1704082b310702f0U, 0x3032519ce02fcf1U, 0xf503fc2fe8d2d0edU, 0xf4fdf104ddfd0a3aU,
  0x305da38061d21ffU, 0x173309e3f7fffaeeU, 0xc3fbfca508bccdd3U, 0xb0534f62a1408f8U,
  0xe3fe06fcf9f91f10U, 0xdc2bfed60232f8daU, 0xe226fdf1e411f4f0U, 0x11fe0428e8f30c18U,
  0xf8fdd831133627ecU, 0x1e4614b3060cffebU, 0xd3eb2dea1bdd01c8U, 0x4332400b0f0fd039U,
  0xeb225126f51c05eaU, 0xc2be7bc053b03d3U, 0xe809f10dcc0ec7c3U, 0x23132c20ff100639U,
  0xf3febe1028181ec7U, 0x163f05d7fb0ad009U, 0xe5e7fff503dddeebU, 0x210720f918e50518U,
  0xf90217290bebdae8U, 0xf1dfefedc060eb6U, 0xf70af72dd1ded8f3U, 0x24f3ea1301ea244fU,
  0xf8e3ea09eef210ecU, 0x1bc9070f9e1e11d6U, 0xc9fbc00500ea28faU, 0x1c0dc0c2bf1e2f2U,
  0xdfeeaebd7ef191fU, 0xee654e20f505053cU, 0x392a0fda0c04fd24U, 0x182dfd10e4000ee3U,
  0x11e6e62e2ae240eaU, 0xf4c715ffb6f40bc0U, 0xe0f9425e2e119c3U, 0xe0301e64e32dedfU,
  0x262d28faf10a1227U, 0xf91f2827062ee615U, 0x3a2106e70533fd21U, 0x1a17fe1fcc201a0fU,
  0xe9e4e919002216c9U, 0xdef8170dd8ecd4f0U, 0xf5e5ad16e020e8f1U, 0x302805052329edd3U,
  0xf527260beae9110fU, 0xaea20ec070fff03U, 0x9decb150218d413U, 0x40e0808c9fdd4fcU,
  0x16e0f305ecfcf9f2U, 0xfc261806bb130fdcU, 0xe906fd07e7d90ffcU, 0x5ef20120d12c0f8U,
  0x3100e5e4fef11934U, 0x5584d2e1519e6f1U, 0x50250bed0409f419U, 0x240eff2ae029e807U,
  0x2308fe3014de16f8U, 0xf6e60c03aa0e10c2U, 0x80bde45edfb0ac9U, 0x4080400f740c3e8U,
  0x3926070dfffa4c1bU, 0xe9173aea0b34d9d3U, 0x2106d8e60907db24U, 0x111d2019c30f0514U,
  0x34dcf45502f62de7U, 0xe600fdcfec06f4U, 0x13e6d2210325fd01U, 0x100afd040c45c00dU,
  0xfd1b2e0cfdc62605U, 0xf1f812dc1e0509f1U, 0x2cffe510ee07bdf2U, 0xd341d07d2fd0ffbU,
  0xfed4f907f509dff6U, 0x2091601c51e49aeU, 0xde080105efc41609U, 0x17dd25f5be21c2f5U,
  0x3c2103f8f501f3f5U, 0xd0a1fec0d10dcdcU, 0xe9e8c7ede9f4e2cfU, 0x17190c07bf1af1ddU,
  0x31f6ec17ff1d12edU, 0xf8f00b35d70b12b5U, 0x514e9060a1c0c1aU, 0xdfc00800c017bce0U,
  0x2401fcf809fb1304U, 0x14e6fdde0d24f2f7U, 0x11f5d8e3e804d309U, 0x21631ebcbeefbd8U,
  0x43f2fd1109eb0fe9U, 0xffeb0f02dbf90eeaU, 0xe706ca1cf91628f5U, 0xf2cfe517fd209ceeU,
  0x14fbf000fdcc0419U, 0xf102e0fd05250a13U, 0x272df2f9cae0c0f1U, 0x131af91fe004efe8U,
  0xf918f10013bc0709U, 0x83b03d0cb1df5daU, 0xb907f112f611fafcU, 0x11fc0bf602370eeaU,
  0x32fe1ae810eb0003U, 0xe60f05ea19cb010dU, 0x110ff016fe40c310U, 0x2e15f917f124dd05U,
  0xccf7ecdbf4cbc8f1U, 0x101e1cc5d9fef6bfU, 0xb8fe0d1103e70cdcU, 0xf0f9fd07d73af50aU,
  0xbffed0725e01311U, 0xde02d5d906fcd8b5U, 0xfbe7fe03f11f8defU, 0x221c0f05f51db2faU,
  0xdfd9eafbec04c7f6U, 0xf8f733ecd0cd17f4U, 0xeae81bfd1bcd2300U, 0xffdff01dfd09e002U,
  0xf2222aec32edf1dfU, 0xbe2f644ffb1ddU, 0x131de3f4e5edd60dU, 0xf90721f3f301e3deU,
  0x10e8fe27110c0915U, 0xfc2422ab100e12d5U, 0xe2020512f9de0100U, 0x26d8f3fbea24f729U,
  0x2a1b300527f0fcf3U, 0x210208df13ece8f6U, 0x130909f7f92fb8c2U, 0x19141021f012e4ffU,
  0xeec310eecef2e301U, 0xf8321b87041929c0U, 0xb0da17eb1adb1bfcU, 0x4e2f2dad405ab27U,
  0x519f52c26fee91cU, 0x1800e7d516f8bde4U, 0xffe11ddc806818dU, 0x10f305fdec1f99f8U,
  0x22f10a03e4d1ed15U, 0xf4f335b21c0836d6U, 0xb3e524cd36e83d12U, 0xe5fb06031a19b925U,
  0x2f11e70b2cf93c2fU, 0x526c7061ae8e61eU, 0x311b27d405ef81d0U, 0xfdf61c100d2bb4f2U,
  0x4c7d9fe172f0d05U, 0x411ecb400cac502U, 0x240cf5eee7d4d006U, 0x1408edfddd211efcU,
  0xf6f50f0a15f700d3U, 0x16e402f4ee0407c7U, 0xfee1071d2317f8fcU, 0x1ceb05f1f605001bU,
  0x1efd1416fc14190fU, 0xeb1112c321ee00e0U, 0x26fb0af101b72127U, 0x9fd05002411f922U,
  0x1e15e92015160f0cU, 0x100a13172722dc03U, 0x131f38f71d10990dU, 0xae8f615ff17f122U,
  0x43111f0206fe2d13U, 0xeae5fdd026032010U, 0x51b35de11df222dU, 0xefff0af3321fed40U,
  0x3d15daf9f9cb370cU, 0xec20f20e20e80828U, 0x140008d923fe8e19U, 0x12eefd092e19d7f7U,
  0x19f40834dcf2001eU, 0xf524140d2bf2fff6U, 0xec170cfcf7e4f9deU, 0x2e0117d4110b0330U,
  0xe41f051bef1a110cU, 0x29f70bef2e0608f3U, 0xe200085209ed100eU, 0x1d220320091e1700U,
  0xedef2a0281eca139U, 0xae2ce5ebbe110ffaU, 0xb81504f30bf524c5U, 0xed0d22e7111dfe11U,
  0xbc08af7e7012ad8U, 0xea0ff1222f26f900U, 0x172f0fc3f9e8f00bU, 0xf907d5c52417e6b8U,
  0xa120510ddff0a0cU, 0x607fbfec9251708U, 0xce12fee50fe31cd2U, 0xf7fd0c0eed1afd09U,
  0x1f8d500e817f804U, 0x116e9f3260007feU, 0x1015c0cdf3c9f50eU, 0xb170de2060b26d2U,
  0xf161811caeacb08U, 0xca0d0f2016d9fde5U, 0xf5020afedff5f0ffU, 0x1a0801c2f6f3ee23U,
  0xafee6eef0f017e1U, 0x100113121c121bdfU, 0x7f4e957ec271adfU, 0x18fd060af72328e8U,
  0xdbce1ec681da8124U, 0x8c1ad9f5d7093a00U, 0xe30ce8d7efe110eeU, 0xd5f310b9f4dfd8f1U,
  0xfdb381abd8eee2a1U, 0xfd0dfb1e0b12dbffU, 0x1201ec81de1bdbd5U, 0xa7d4bec504f4a181U,
  0x262819fbddf3d615U, 0xfdf3fbfb01283d07U, 0xfa0de801f6e417f3U, 0xf3e6fe19ebfdefdaU,
  0xebf3ced5dc080b02U, 0x70fe51817290d0cU, 0xf91cee81ece1f6e6U, 0xd8f2ddebe7e02abfU,
  0x1c27fe1a04dd17f6U, 0xe205fd0e1ae9f0f6U, 0xf211f5eff5eeffffU, 0x1d35f4d706e41b15U,
  0xb120ce3182c030bU, 0xe2117f115fe15f5U, 0xaf3f73e150918d4U, 0xfeb020ff40e2c02U,
  0x5131120c3f2e427U, 0xe01f1b0717182e12U, 0x152a0dbee0082e20U, 0x24150ac612020a15U,
  0xf412ffdb3e3d1f1fU, 0x1122190e38170100U, 0x1927ffb1212de4d4U, 0xd00071f130d03e0U,
  0x1e4aff2e12f62122U, 0x2117201833242805U, 0x192009faf6fc0200U, 0x34f6181c02e319f3U,
  0xfc0ef61219101a30U, 0x1729190e1d151afaU, 0x227e9c30bfb01cfU, 0xa16072913124f03U,
  0x4b2404ea1eea32d6U, 0x608f601e31ae0f2U, 0xf7f3e201e8e3f70dU, 0xdff4cbf71308f2f3U,
  0x1f0d80a0139d225U, 0xfb232436f3f127f4U, 0xf80924fd01eeefebU, 0xfd08f83a00351416U,
  0x1625e5f4f41928c0U, 0xecfb171eeefbcbeaU, 0xfccdf20cf9f9f1ffU, 0x115cf0c150706deU,
  0x107ff0f3416d7cbU, 0x1b011f2ad5e61ac0U, 0xc3f2e60d00fe08f0U, 0xe60a1f06ee01fe0eU,
  0xf803dd0ec41deceeU, 0xf0020b23b2f7da02U, 0xdbea0b18fb050d08U, 0xf2e03f7f00517f1U,
  0x17f904163f090fccU, 0x190c1d1a01050bddU, 0xbde8c1e8fdd3f0faU, 0xe11a17d9cee1fff5U,
  0x543d1e0814ff4214U, 0xa16fdfedf3007eaU, 0xe5310812eeef0c05U, 0x1c19f9133721e32cU,
  0x2c00fb34f9340017U, 0x1049073bdc292c01U, 0xe43e380b00090d01U, 0x1e0f103b074b2afbU,
  0x192f0401e1f02607U, 0xeeff050f0013dcd3U, 0xc1ed22050e1704f7U, 0x2b3a1e131030e30fU,
  0xe04051c1c301407U, 0xa2a0914dfeef506U, 0xc7efbf16ee0a16a7U, 0x10f41120806dff0U,
  0xf1f1f604cb16e8fcU, 0xdf09043bc8fdfe11U, 0xdaf323f11bfaf5fbU, 0xf21151ae60bfdfdU,
  0x3fa0a0a322825e6U, 0xd0102617f009ed07U, 0xaf01c2c5ccfa06caU, 0xf4080ee3f002dceaU,
  0x131e1020f6e7311fU, 0xf94702fcf727ef89U, 0x42c0c2fffebd8deU, 0x3d2719fe0821d52bU,
  0x240a2121dc16faedU, 0x182df62fe610ff30U, 0x42be102d61ef3b7U, 0x2102b061c1a0ef9U,
  0x141f1210fcd41c1cU, 0xf622f71efc16e8adU, 0xd52637ff113affe0U, 0x1903140bf208ce27U,
  0xaffff071eef1908U, 0x63cefeef3ede629U, 0xeb1dd815c20519b0U, 0x2c0e25153a28f7dfU,
  0xf10c1a17d2d4100dU, 0xc803f412140201f1U, 0xe3171ede2c26fcecU, 0x133321f2f20c1a23U,
  0x9f6f1f720121c05U, 0xe8280bf0f107d627U, 0xc70cd0dfc8f021b3U, 0x20e90b280a34ece3U,
  0xb5fcdef21bbfd1f9U, 0x1a06f9f8ee24c21cU, 0xd0c8cf11ecfce5fdU, 0x72814001b1c40fbU,
  0x130becd4de08110bU, 0x7eb472eccc5040dU, 0xfe15bd28d03ae4d4U, 0x2d7e40301eb0211U,
  0xfc0debd91dd9f507U, 0x27e0d40d1724e5faU, 0xed0ae5060ffce3e2U, 0xe63337ec121608e5U,
  0xdfaefdbdaf92404U, 0xe2ed321de3efe239U, 0xebc413fd00c1fbU, 0x140bca04f1ecf21eU,
  0xe2e2e017f5f0f9U, 0x3ce8e1f52c0eeefbU, 0x18f4e4c2ea08f428U, 0xdd355310edfcf3deU,
  0xf7fcfec8d1010f11U, 0xecd920e4e0fef410U, 0xebdb0aebdcf6efU, 0xf10d0190606fef2U,
  0xeeeee2cf190ce60bU, 0x12fbbee9ea1fece9U, 0xb709d7220c0203e2U, 0x1803fe0ad73b07efU,
  0xf5101bddfbebe6e3U, 0x1d63a27deb32521U, 0x5da8c24ed49d229U, 0xef8fb0b29f41923U,
  0x1e0005d00d1d0802U, 0x1cd6cbf10c31f7c6U, 0xc109dcf115f7f0c4U, 0xf821220de831ecf3U,
  0xf4fe02f1fc2e16U, 0x5ee57120bb6f54eU, 0xfcdfb93d4234b30aU, 0xf11d008fdfb1d1bU,
  0x25e008ec1dff1126U, 0x46f9fefb0a12f4ecU, 0x3b090fce1b0cff10U, 0xf7456708f827edf7U,
  0xdff07efec0018f4U, 0xfef93edb06fb1230U, 0xeef2ed2a3706e3fbU, 0x16f10604251d1602U,
  0xfff20c181ee71006U, 0x1513dae81fde2124U, 0xde0c0cff3616ea0bU, 0x7c2ed01a937b32aU,
  0x2fb1ae938ccd904U, 0xeceb0901eaf0fefcU, 0x15ddb30fa51eb4e4U, 0x1be101260efd140bU,
  0x30125011bfd0904U, 0x2917cef112f725efU, 0xe823f3f245fb04faU, 0x6f40fdb9d2ec81bU,
  0xfef302f337d9ddefU, 0x13e526fb20efe11aU, 0xffd9d60de231baeaU, 0xf315e91ae1f726f6U,
  0x15cd0ef01edb0224U, 0x53e1f5d006082aeaU, 0x2114f9f727160708U, 0x30d5dffce23e61dU,
  0x150714defae8eef0U, 0xf1dc23f41f15cc1bU, 0xacddf13e2f1d4caU, 0xeff0102e8ec2bfdU,
  0x31f51b2df8fa12ffU, 0xef2415b71e2e13aaU, 0xf25000f180508ddU, 0x2ff227f51e35222fU,
  0xd90105fbcff317f3U, 0x409c8011d2ffc03U, 0x121c0a1bff390ffcU, 0x1e0b3a230428050eU,
  0x35ea132be804143bU, 0xe8f102ef0f2815a9U, 0xe80c21f5200926f2U, 0x38f145031723d931U,
  0xbfd2602dd010400U, 0xd11ca291442e31cU, 0x26fbf8edf04ce6c7U, 0x6021f030d1b171cU,
  0x440ef421bff4eb3cU, 0xdcd1fdf7173f13c8U, 0xb3fb3aec1aee14caU, 0x22f846091fdf023cU,
  0x105f4eec003f3fcU, 0x1115ef0e321eec1fU, 0x1b0301e50ef9e9d7U, 0xaf7faec12fb1cebU,
  0x5a1dda2402f527f8U, 0xeffaffce030b0cb3U, 0x41aff35ffe4fed4U, 0x28f30af03209192bU,
  0xe303f603e60ff603U, 0x6eedb0b1f170717U, 0x20f10204f00f07fcU, 0xf021af6dbfc3237U,
  0x6c2afb2809d72b39U, 0xfad6f4dfe84c3abbU, 0xdc350f0ee9f9f4f1U, 0x39fc400e2ae3e54cU,
  0xf8110923f3fc1c30U, 0x710cf06f8180a0bU, 0x2c060516fb08fcecU, 0x16fd280f040a0e34U,
  0x3a1beb2dcee50413U, 0xe1040b0cce2d07d2U, 0xca0d36f2e91107ffU, 0x5083be110b6cc18U,
  0xfd05f220ecfdf91fU, 0xe2cf4f1ff070dcfU, 0xfcea0dee05f8eae6U, 0xc0a0bfd292cc9f1U,
  0x5428cf1ffafe1ac7U, 0xe2280a2adf0af218U, 0xd60ebe34d9e5c7ecU, 0x25fff8f937fb26f3U,
  0x17060313fcfe21edU, 0xf4e8262ef5ec0af1U, 0xfbdd071ceeb80209U, 0x30b00e2b5e3102dU,
  0x541afdfe0100f7ebU, 0xf2141421d40ef7eeU, 0xc507db1bccf1deb6U, 0x1aefec0916caeee9U,
  0x18f4e724f5f60812U, 0xf7152f1ddb123fc5U, 0x1014111bf7aa20d5U, 0xf11efeefe8e80afbU,
  0x20e0f05fdf3d0f3U, 0xe9053029d4eeff0aU, 0xdcebfd12dbfff4f1U, 0xffe1e7070cd1e1f8U,
  0xf805fe2e131509faU, 0xf2132c1af4162fc0U, 0xf7f216f7f4c213d9U, 0x30801f5f8e6d9f5U,
  0x401ae0f61ff41aeeU, 0xfbfff008f5be23d0U, 0x2627013a291fdfecU, 0xf6d0f20a00172709U,
  0x90303370b0e00ebU, 0x26ef05d7e1161902U, 0xfbcdc4f107c823e5U, 0xf60aee0bcd13040bU,
  0x38e612e709eef9edU, 0xfd02e71fd7d413d6U, 0xfffaf42d221105d0U, 0x1fe61227dd231be8U,
  0x18ff07000d12dce1U, 0x3be0f2f20d14ff13U, 0xe7e5c202f3d928cdU, 0xd8fb03f8bff1f50cU,
  0x22d90ffc08f2ed02U, 0xe151715c00925d3U, 0xd71b1e0b400214d1U, 0x29d10ff9e3f2fa0bU,
  0x12230406001dd2f6U, 0x3efcdede2403ec0fU, 0xf329f3e7dfddf2f0U, 0xfe0c072dc62017efU,
  0x5c29e1ec332840a4U, 0xdef711ec18d8dfe8U, 0x2ef5fc10fe21cf0eU, 0x2e8e2ca1d0820e2U,
  0xfff0ec422f18ebffU, 0x1a1918e8d004150bU, 0xe4daffff2cc01bd6U, 0xf1e712fefe1d2006U,
  0x4f0f01fa0d2e2da5U, 0xe9e7dfdd22d9bce6U, 0x25f1c90c11ff0205U, 0x20f8d2e8f72217c5U,
  0xf015eb31fc21d8e2U, 0x2ce20edeff37f2f5U, 0xbaf0fe0f17c42bbbU, 0xcfda0df2e0f20ff1U,
  0x1ff2f446ec2c0102U, 0x22eb19e3ef182ecbU, 0xe4041bec310824efU, 0x13d606feff0eeae8U,
  0x14280d18f1f4d3feU, 0x2e07fde214420e20U, 0xdd1d12d706e604dfU, 0xfd0c2800ec242df9U,
  0x401f113619191bf5U, 0xfa1520fcec12f701U, 0xfa1316f1f9c3e62bU, 0x16dbfecf3b2b3019U,
  0xf50ce810c0f1e210U, 0xde52e3cc13ff2700U, 0xd11620fbfdeb10f0U, 0xf9e1f50c0f133609U,
  0x3e3b190b12112401U, 0x409ffd7fe06bdecU, 0xfdfc2efa09d90216U, 0x1ffd11c737fd1f06U,
  0xf00adf1cd119e40bU, 0xf323ffc5f80d2df5U, 0xd7241d19f7d333dbU, 0xeda161f051515fdU,
  0x1ffe2828e923f837U, 0xffd0edadf1b17f6U, 0xf5fc4fd728c81d28U, 0x11f603fb1408fa34U,
  0xea0ef71ae6060912U, 0x824bfccf53410fbU, 0xea1f03e2e1e6229bU, 0xcf2401b2230fdf2U,
  0x44fb02dffbf5f6f4U, 0x212a011af62a10f2U, 0xf635e10705d4d1f7U, 0xedf807083515edb9U,
  0x19fef3f7d2fc042bU, 0xf12ae011c5301bfaU, 0x41000c0005def307U, 0x1c01b02fcb272b32U,
  0x1532e71503f501b4U, 0x46540dee091ff2f1U, 0xe00ada2908f8ffd6U, 0x226100b1122ffc3U,
  0x1b321c24f22d1be3U, 0x2cf7dbebe04620d3U, 0xf9a7cf1629ef1800U, 0x727e300b9042037U,
  0xc6ebfb34d202b818U, 0x22340a1ed731e5feU, 0xf8cb06ed134f0dd6U, 0x1629100710001c05U,
  0x23481ef7cefe1dcaU, 0xf9f4dcebd73cfcd6U, 0xe8c1b0f72fd7f8e6U, 0xf8122aebc1f5f6feU,
  0x6d904e6f40202c0U, 0x1453e40cef322e10U, 0x1612e5ea12ddd705U, 0x2614fc00100dc0cdU,
  0x3ded09f8e5f015edU, 0x17f51c33ce3804ecU, 0x1ebef6ec0b230d10U, 0xfa06d900f7071038U,
  0xf1fccfe0f4ea0581U, 0xf94dd71307e6e5f5U, 0xeb14b620ddcdd8ccU, 0x417ee08ee04c381U,
  0xee7f71b171c1dc4U, 0xfbe737f5a92ee8eeU, 0x8b4c30e3bd01afbU, 0xdf09d1d98ed1ec27U,
  0xcdf9f415e012e3ffU, 0x215f00ff00202e0U, 0xf1e403df20150909U, 0xf91efb0b0c1708c9U,
  0x143805faf8e20acdU, 0x13ffe40ddc28fcf0U, 0x4bd5e5d321e90900U, 0xd00007eaa6e3f91cU,
  0xae125f7173bfebbU, 0x1050fbeeda1e21f9U, 0x2101fce3040ee9feU, 0x35fc16eff5f2eef2U,
  0xe1720f412eb25dbU, 0x40fa2d20f71f17fcU, 0xfea3d5da3e1bee0dU, 0xc0510d3e309132dU,
  0xf8f50ef821170a81U, 0x1d3fdd090fe8e7f1U, 0xfc2fe0f8f9cbecf2U, 0x1ad6fef31cf6d9abU,
  0xdfaf5f027e20914U, 0x1d083323df070723U, 0x32ffeaf339c6fb0eU, 0xf8eed309a8ee002bU,
  0x1f2fb13f8ec0c00U, 0x1e2306f6cf1beb04U, 0x434e5eb01e92310U, 0x15051ef635200fadU,
  0x1c1bf1d7ccc71e09U, 0x13240606d81b1619U, 0x40ee16e11b09eaeaU, 0xdf3f11cac1d0732U,
  0x2dd8f0e7fd21e911U, 0x1610f8219e2bea21U, 0x1f09d9e71116d90cU, 0x3105e12f14ebf216U,
  0xf61403d70b4103edU, 0xb0918e402eb1933U, 0x1f0409fdd5c3f424U, 0xbfe01e5e60845a6U,
  0x261b02f629011918U, 0x1d0af216dc01e41eU, 0x49efefc8fc0ef566U, 0x1227d8281ee21103U,
  0xdc10000de1530afdU, 0x383ce40006203dU, 0xd5de011002bd30f9U, 0xfb1b23e4d71843c2U,
  0xf6dd0a12f701fd08U, 0xc06080cd2e9ebbdU, 0xea1b05cd1b121a43U, 0x1309cb0a15f50305U,
  0xf810e921d72be116U, 0xd5460e02eafc2b01U, 0xd7fa0422fcd51ecbU, 0xdf1a141a081910d5U,
  0xe3fbff0ff042fa03U, 0x1b3a132bb721021fU, 0xde0915091807ee1bU, 0x5df7ff370ce508fbU,
  0xf31014db1026e70dU, 0x1636eeb303d358f0U, 0xd62809c4b3f919ddU, 0x1b2bf115ec2511a9U,
  0xfd0df8dffb470a08U, 0x1e261445bf17ff24U, 0xf224141110e9fa1bU, 0x5d1a134f39e50406U,
  0xbf8f6fe2720fcfeU, 0x273fefec03d86fe3U, 0xef18011ecdf82400U, 0x252a1710d0061fbcU,
  0xe7d523eaef1cf52fU, 0x20081823cf040ef9U, 0xe72130042cf12d28U, 0x2d2a1a310ed5fd1eU,
  0xfe0e09f3f2fa18faU, 0xf418fd02ffed17c2U, 0x1a1d04f737f920a5U, 0x1239191eeb01f0ddU,
  0xe5fb020f02440205U, 0x1f3d51cded31e0bU, 0xea0b0625fa060d03U, 0x3af3ffea1a330d1bU,
  0x1ee04a413d6f314U, 0xf10badc41a2643ddU, 0xf5df0bd6b91ffeceU, 0xe403f6ffe0fd16bcU,
  0xe406ffd5071bfb08U, 0x832f03cb8eaf6fcU, 0xa17092929cf02fdU, 0x2b02231a1e30e610U,
  0x29f1e8b525d7d0eeU, 0xf3fea70df5fc30daU, 0x21f204ffb214f1ecU, 0xea0deb13c9fc02a9U,
  0xeff90cca02fcfb15U, 0x60c1925f71622eaU, 0xcc01131227ea1e1dU, 0x1df235081414e8faU,
  0x1ceef9c818b410ebU, 0x2efc93322ccf5c0U, 0x450518dd9b09e0baU, 0x907f50bd5f6ecc8U,
  0xe91be2ebc637f2e1U, 0x11eb1ed2b8ede6fdU, 0x1d04e801f3101817U, 0x1f3b26590914f304U,
  0x9290ffc070710d7U, 0x23eeef1a1d35dae5U, 0xdaf8f2fdfdd90008U, 0x1e3f1aebd2f41fefU,
  0xfce015a118cde0U, 0xfb35f1a7fc0c0fU, 0xe51cf3e50e0b0f19U, 0xb1b191f0afe0827U,
  0x13a10ea03fb12deU, 0xfcf602062f1be613U, 0xe9fefee605df0bfaU, 0x1e1411d8db08fbcdU,
  0x1a0ae40ae804f6deU, 0x15fb23e3cdfdedffU, 0xee0acdd3edeeea11U, 0xfa0b0e16e7e8fcedU,
  0xfb08ea0500d9d331U, 0xd50cf208f9e926e3U, 0x181e17fcf5d311f6U, 0x1d09ddf9c41c14e5U,
  0xf910f2d99f30d8e0U, 0xfaff23fec616fa22U, 0x2f23f6dd2a00f33fU, 0xee2d2de91316ff08U,
  0x220bc3f80011ff0cU, 0x13010715f207e511U, 0xfff806d0190202feU, 0x371af002f315b8e2U,
  0xf0ed01e6813c81f4U, 0xe81836f1a818161eU, 0x50c02c735f70711U, 0xdc0e031d04f2e604U,
  0xe57c9dcf61f23b4U, 0x121416fd1623fcf8U, 0xcff0038135f319d1U, 0xf5160dd9ef05be97U,
  0x10ff52ee136ece9U, 0x70332edc00bee18U, 0xf1f0a000f19f731U, 0xebe40de7faeeee2bU,
  0xe330d111002f9f0U, 0x18142622f6f423fcU, 0x5250cb60c1400ecU, 0xfa2c27eef316f8fdU,
  0x5cc13f5c5f6e5eeU, 0xd9eb3216f6210d08U, 0xe70af4c818cf291fU, 0xf70d32d70c0a12d7U,
  0xa18dcc9d5e1ec39U, 0xe20d00eb1dfff832U, 0x1a1c27bee301febdU, 0x34170733bf23c1cbU,
  0xf5cb17f38e128f08U, 0xd20128f80d0cfe2fU, 0xd8e905bc4c0f2112U, 0xdb00011819fce605U,
  0x73fcfc2d00c22b1U, 0xeb1b0b0a2900f5f5U, 0xed18f681fd18089eU, 0xcaf10efdea08b196U,
  0xebf2fa09f32ac8e6U, 0x3082ee4f6faf2fcU, 0x1e3f9fc2b0e0211U, 0xcd902fdf202d81cU,
  0x1c4a1ce3fdfd17c9U, 0x19002d011ffce7U, 0xf523008df30b01b8U, 0xea1e29eed508f70dU,
  0xecfcf7f8ed0dedf9U, 0xd6eee003d8261bf1U, 0xe8e1f1d2162305e5U, 0x14132ee1d6f4f70eU,
  0xf5cee3e003c8fecaU, 0xf722fe0ffefe24fdU, 0xed04f91419ed0addU, 0xf2f422ee08f7f2e7U,
  0x152fe2f3f11ef2ebU, 0xc321d5efd01639f5U, 0xef1a0e1dff1401cdU, 0x15142817fdfb06e4U,
  0x169ed41a1605fd81U, 0xf82f1a1ae95e2fe1U, 0xe118141a2f142be5U, 0xd1fef3b9f5d31910U,
  0x2129f8f3ff0de518U, 0x160600f7f71f1f0eU, 0x6142409eff11adfU, 0x70a2d211400effdU,
  0x20fffdfd1eeb09aeU, 0xeb1d2602155308f6U, 0x1b1c02161b2516d2U, 0xd2fd39b2f3e30a14U,
  0x1012dd0c1c1216f9U, 0xf103e5fd0e1a23f6U, 0x1cf3fcfd09561102U, 0x2e204015d11ffa3aU,
  0xf22b36072edb03b6U, 0x1213020413232134U, 0xd3d8ec22032609f5U, 0x7ed2dfb04ea0102U,
  0x1817e201e01128a8U, 0x811e9800f41122f3U, 0x9e0d90d0e31f2e3U, 0x180144ef080014fbU,
  0xcec0031c20fff681U, 0x140b3912e13aff13U, 0xc3d3d4f517251dd0U, 0x85abfcb30d9f10edU,
  0x2f16fcf8f8fa0800U, 0xc618d90b27050213U, 0x14fcdff2f6e904dfU, 0xdf21cd123110fbaU,
  0xf9c7c505f911fc81U, 0xe8fa1320e340020bU, 0x1e26ede7ed0e1bedU, 0x81c4ecbcde911f10U,
  0x217ede3180a11fdU, 0x32f4f1faf6180beaU, 0xfed80138f31c1df6U, 0xf2051817e4080914U,
  0xfa1816f41cddf9fcU, 0xe747e8d1211616edU, 0xd01e02916efe703U, 0x602e831e52cfe01U,
  0xf613e1f8f5e214caU, 0xd016ecf7f41015edU, 0xbdef550031cf4fcU, 0x2c0f22f612012d2bU,
  0xc70a2cf82d12f291U, 0x82d0bff0e36e416U, 0xe0fce1f129080ac5U, 0xd5dc1af6f0e81005U,
  0x12f2001bece21500U, 0xf0f9f5ece20cd7f5U, 0x140cf518050b2df7U, 0x251306f31e182e0bU,
  0xd6f612ef13edfed0U, 0xe016110c0e14ed00U, 0x1324fc02f4fe01d0U, 0xa1ee06e9d9ef1cfeU,
  0xfdd3f301eb20d2f9U, 0xd1102eebae929d3U, 0xdb2cdccb1c0e16ecU, 0x1bee0e0303eb24f8U,
  0x1220ebf30df01c0bU, 0xd129bb0a280ff94cU, 0xe033fe0fe1eef8d3U, 0x1e1ef723f703fbdeU,
  0x3505202fed1bfe07U, 0x4181b07a10f3bcdU, 0xfd5ce80b00dbfcd7U, 0x18c914e723090924U,
  0x4dfbff011d43c22U, 0xc017d5192ff323e1U, 0x36322406e9f7f3f3U, 0x373d012cfd0c0fbbU,
  0x1d04d40c19122dd0U, 0xe15800c2e30feadfU, 0x21cd459f008ccdaU, 0x16f5fae80f300cccU,
  0xf4ddfdf72a0f04f0U, 0xfe15f41df4b840c2U, 0xfffe2103f7d50cd1U, 0x14f704fde3dd01deU,
  0x22f00b40cf0ef206U, 0xf500fcfde3da22c5U, 0xb33fddf0b4800d8U, 0x17de40ac1220331bU,
  0x3c2604e8dbd505ffU, 0xf129a5151d0ce210U, 0x1d390e00123a14dbU, 0x1d4afc40ff261a03U,
  0xd060104c119e00fU, 0xd71001c2ede940caU, 0xe834030d1df7189fU, 0x1ca531b8ff1f370aU,
  0xff00dce20eb4f4d0U, 0xce02b515201df8dcU, 0x27010eb4cb2017daU, 0xef080affe1fc21fcU,
  0x27ece617f11f2dd9U, 0xe43107de1125fffeU, 0xed0dea2ef0ee08c1U, 0x37de350b203a2fdeU,
  0xe7fcf3192705f2e5U, 0x2f9e30c2a0802f6U, 0x21f8faeeeef82408U, 0xebe30ff2d0da1e04U,
  0x13e2f42a010f0df0U, 0xfab5e0effec211ceU, 0x1815fae8e139f0faU, 0xe51914dbed0c0f0aU,
  0x1131f309e3f9dc00U, 0xfe02bff9040ee6deU, 0x1efc3002f13b3ed2U, 0x1e07de0ae7f91711U,
  0xfb6e00ce528f7e9U, 0xdafdfdda28092bedU, 0xfde0e2df282b23edU, 0x130e06e0f60d1114U,
  0xf0370520110ff7cdU, 0x4f7a5050213dddcU, 0xeddeefc0f93e02bfU, 0xd7c008d704f41415U,
  0x18e2c519101a21e8U, 0xebfa0310302c0ef8U, 0xe9e3ce16090032ddU, 0x15e40e170be9fde5U,
  0xee1c002e32f4e304U, 0xeac0df0b150805daU, 0xedbe2e0dc08340cU, 0xe0d514f3f1ee1a06U,
  0xfacd2c0aed2ae201U, 0x1d0c0019ecd8ff13U, 0x1214409c21e7d7f5U, 0xf6121fe004e61109U,
  0xfdfa15c10c2b0804U, 0xf7fefee9e60c122bU, 0xd03f1fd39e07cd11U, 0x1205120f15ec14c5U,
  0xfedbffe30b50ee12U, 0x1516f8f00204e821U, 0x450d33ce00c7e805U, 0xe5d30bfbfee01523U,
  0xf5eff4f60be52419U, 0x2602071305f904f1U, 0xc4ff2b1110f41f18U, 0x1be70d090cf830f8U,
  0xe7db1aceea10e941U, 0x144002d71902ece2U, 0x8e352e60ff23424U, 0xfe073905d1e50d4bU,
  0xfeecf0eb1beb121fU, 0xd2b0f0b04d5fc11U, 0xb90e140d07ec19e6U, 0x1000e8fb1a3b00e8U,
  0x2ac00c18103b06dfU, 0xe5f306eeb70657U, 0x32fd07dd142de1f0U, 0xff1d15e3fb012426U,
  0xb5e316a20d0522dfU, 0x7d9eef9070c0e1dU, 0xc6f01c0cbcfbdd19U, 0xaf703dff9e301d4U,
  0xfaf4edf41130fa17U, 0xe2edc717240cfd77U, 0x3609f6e3e7e0cf27U, 0xdff413fd1efe3129U,
  0xcbaddcc20ec101edU, 0x2bcce5230e1219caU, 0xe2d42918ff1c3a2bU, 0x2b5d3c628d02608U,
  0x1810e2b6fe23f40dU, 0x10af3f90307ee27U, 0xfa14f5ecc4c01f24U, 0xc5db19dd0af408f7U,
  0xf6c0aa081dabe704U, 0x22f51d3ffdd402e2U, 0x1f0322fced391cdcU, 0xf2dcdfef3601e406U,
  0xafccb23e930ecdcU, 0xe1e015f412c0ed32U, 0x2ec6cf0c0e0ae2ceU, 0x92201f211010fe1U,
  0xbaf328f34550d0f8U, 0xfaefe0cc072f2501U, 0xf2ef29e8cafed200U, 0x131ee00beace17ffU,
  0xe06ed160afef206U, 0xd9ecf50522edca3dU, 0x24cdb11bedf9e4ffU, 0xff1719d617f30df9U,
  0xe2f5ebe4152ec40dU, 0x1509f900fbf50dc4U, 0xfefe211003081300U, 0xf3f9ddf611dd1c34U,
  0x2319d8f707f8f3e1U, 0x152214fe1129c4f5U, 0xdce5dd31c80f24fbU, 0x16df21a826d2fbd3U,
  0x1702ef0209f98d35U, 0x2317e632f9db24b6U, 0x1d00160acf2df1d0U, 0xf3fdbb0ffd05e836U,
  0xfff2e623151a292aU, 0xd9d5f51be0da101eU, 0x30e11fc0bfae606U, 0x27fe0d2bd50fca1eU,
  0xe0f33f1eae3e500U, 0xff030dce0a21feeaU, 0xdcf2fdf1f5270200U, 0x1fed1ef4faf302dfU,
  0x202ac513362b4dd8U, 0xe5f1110f25022102U, 0xf523e12edcedf726U, 0xc08ef3d0cf6d90eU,
  0x2ae0fa3af228df1dU, 0x23e817f9062306e0U, 0xdaf505302436f4f3U, 0x19ffef01f2ebfe16U,
  0x1101503f60c1242U, 0xfaed02f60d1523d3U, 0xc9f60f14a41ef01aU, 0xb0d5e0fd2f9dc0bU,
  0x1efe7f4f1e5dc34U, 0xf514e4eeecf9f9efU, 0x3c3a1228ec4be6fcU, 0x1d22f20ad8e0ce16U,
  0xf8df813c080c28caU, 0xa912f6f7091d1ef1U, 0xf404d218d90ce0f1U, 0x3d0bf9fff30cd41dU,
  0xd2dd15fe0b12d4f9U, 0x1e020804fe1214d4U, 0xbeb5fce50c240106U, 0x11122de1fee312ffU,
  0x224981d608f84081U, 0x9b15ef092b15e1d6U, 0xcb31ab50a2dfcefbU, 0xd05e4c31dcefbbfU,
  0x14819f453327d718U, 0x100c0c1692e339fbU, 0xfcf70b43102214ffU, 0x21eb3fafcb11d15U,
  0xe60cdbed10fa0fffU, 0xe32311c5141a38c0U, 0xc301ab1181e8f4eaU, 0xe70a2be50fdcf181U,
  0x2db4dafa19dddd40U, 0xfc2ffd0da7fd2f27U, 0x49560e2bea1ff416U, 0x4028db31d3c1e110U,
  0x2f2ca3118142af5U, 0xa60e26f71336f5fcU, 0xfae1d103e50213fdU, 0x3b0a03eedd1acafdU,
  0xdff0090e2019e314U, 0xe406f5e50700e9edU, 0xc4e9dff809fd0518U, 0xfde74fe80bf50507U,
  0x3226bf141d013581U, 0xc43d231c2407f3e2U, 0xe947f91fdce61a14U, 0x14fcdc910df2d5e6U,
  0x12d4f6452d06ce29U, 0xf71f00f2fcb7102dU, 0xf92af41807e3e807U, 0x1c0a211219ce0415U,
  0xf0900e71d072d00U, 0xd7011ffde3090be6U, 0xf31fe7e1aa020bf8U, 0xde914dd05ebf1b8U,
  0x30d0df0c0af0df41U, 0xe42af7fd09020731U, 0x1a421711cef80730U, 0x3aff122ef8dee212U,
  0x5442e30700fefedaU, 0x19af11fa3136eff1U, 0x1d38d306c1c0e50cU, 0xeaff0c193ef003edU,
  0xf8f0070de713084eU, 0xdf08f518032c18feU, 0x280f50ed01d7110eU, 0x3010fa40f6183b1aU,
  0x2ff3d51d0932f2acU, 0x23f21d8b062003d2U, 0x162ee331d8fde708U, 0x29f822090613d4e8U,
  0xc414453312f3f40fU, 0x2bfbeaf500310df6U, 0xe2ef340df9f6ebdfU, 0x2c1b151003fd3b0fU,
  0xe1ecf42afe3dd8e7U, 0xe9ea11cef30dda01U, 0xf8e4d9f6ba33ff17U, 0x26041f0ed1fdfbdfU,
  0xe1062f1411f9f1e9U, 0x291136ff0b50f509U, 0xeb05eb0df9d710bfU, 0x112e22d5d3e31606U,
